{
  "version": "1.0",
  "truncation": null,
  "padding": null,
  "added_tokens": [
    {
      "id": 0,
      "content": "[PAD]",
      "single_word": false,
      "lstrip": false,
      "rstrip": false,
      "normalized": false,
      "special": true
    },
    {
      "id": 1,
      "content": "[UNK]",
      "single_word": false,
      "lstrip": false,
      "rstrip": false,
      "normalized": false,
      "special": true
    }
  ],
  "normalizer": null,
  "pre_tokenizer": {
    "type": "Whitespace"
  },
  "post_processor": null,
  "decoder": null,
  "model": {
    "type": "BPE",
    "dropout": null,
    "unk_token": "[UNK]",
    "continuing_subword_prefix": null,
    "end_of_word_suffix": null,
    "fuse_unk": false,
    "vocab": {
      "[PAD]": 0,
      "[UNK]": 1,
      "!": 2,
      "\"": 3,
      "#": 4,
      "%": 5,
      "&": 6,
      "'": 7,
      "(": 8,
      ")": 9,
      "*": 10,
      "+": 11,
      ",": 12,
      "-": 13,
      ".": 14,
      "/": 15,
      "0": 16,
      "1": 17,
      "2": 18,
      "3": 19,
      "4": 20,
      "5": 21,
      "6": 22,
      "7": 23,
      "8": 24,
      "9": 25,
      ":": 26,
      ";": 27,
      "<": 28,
      "=": 29,
      ">": 30,
      "?": 31,
      "A": 32,
      "B": 33,
      "C": 34,
      "D": 35,
      "E": 36,
      "F": 37,
      "G": 38,
      "H": 39,
      "I": 40,
      "J": 41,
      "K": 42,
      "L": 43,
      "M": 44,
      "N": 45,
      "O": 46,
      "P": 47,
      "Q": 48,
      "R": 49,
      "S": 50,
      "T": 51,
      "U": 52,
      "V": 53,
      "W": 54,
      "X": 55,
      "Y": 56,
      "Z": 57,
      "[": 58,
      "\\": 59,
      "_": 60,
      "`": 61,
      "a": 62,
      "b": 63,
      "c": 64,
      "d": 65,
      "e": 66,
      "f": 67,
      "g": 68,
      "h": 69,
      "i": 70,
      "j": 71,
      "k": 72,
      "l": 73,
      "m": 74,
      "n": 75,
      "o": 76,
      "p": 77,
      "q": 78,
      "r": 79,
      "s": 80,
      "t": 81,
      "u": 82,
      "v": 83,
      "w": 84,
      "x": 85,
      "y": 86,
      "z": 87,
      "{": 88,
      "}": 89,
      "°": 90,
      "µ": 91,
      "Â": 92,
      "–": 93,
      "”": 94,
      "lo": 95,
      "od": 96,
      "em": 97,
      "lood": 98,
      "Blood": 99,
      "tr": 100,
      "mg": 101,
      "at": 102,
      "Ch": 103,
      "in": 104,
      "is": 105,
      "Chem": 106,
      "try": 107,
      "istry": 108,
      "Chemistry": 109,
      "um": 110,
      "ium": 111,
      "Eq": 112,
      "mEq": 113,
      "dL": 114,
      "ate": 115,
      "00": 116,
      "ri": 117,
      "ato": 118,
      "emato": 119,
      "ta": 120,
      "on": 121,
      "gy": 122,
      "logy": 123,
      "de": 124,
      "Hemato": 125,
      "Hematology": 126,
      "en": 127,
      "mL": 128,
      "ine": 129,
      "lu": 130,
      "odium": 131,
      "ride": 132,
      "co": 133,
      "loride": 134,
      "ota": 135,
      "se": 136,
      "ca": 137,
      "re": 138,
      "an": 139,
      "10": 140,
      "sium": 141,
      "og": 142,
      "le": 143,
      "Sodium": 144,
      "100": 145,
      "Chloride": 146,
      "otas": 147,
      "otassium": 148,
      "50": 149,
      "ar": 150,
      "ol": 151,
      "bi": 152,
      "pl": 153,
      "lc": 154,
      "onate": 155,
      "bin": 156,
      "op": 157,
      "ac": 158,
      "IT": 159,
      "lcium": 160,
      "luco": 161,
      "lucose": 162,
      "atin": 163,
      "ch": 164,
      "ni": 165,
      "ap": 166,
      "ul": 167,
      "ion": 168,
      "12": 169,
      "glucose": 170,
      "ogen": 171,
      "rit": 172,
      "ra": 173,
      "tota": 174,
      "total": 175,
      "potassium": 176,
      "as": 177,
      "Flu": 178,
      "%;": 179,
      "sodium": 180,
      "bonate": 181,
      "ep": 182,
      "13": 183,
      "ro": 184,
      "chloride": 185,
      "let": 186,
      "crit": 187,
      "hemato": 188,
      "hematocrit": 189,
      "rea": 190,
      "atelet": 191,
      "platelet": 192,
      "cre": 193,
      "atinine": 194,
      "creatinine": 195,
      "calcium": 196,
      "car": 197,
      "hem": 198,
      "lobin": 199,
      "oglobin": 200,
      "hemoglobin": 201,
      "carbonate": 202,
      "urea": 203,
      "trogen": 204,
      "nitrogen": 205,
      "bicarbonate": 206,
      "et": 207,
      "sh": 208,
      "Flush": 209,
      "gap": 210,
      "anion": 211,
      "un": 212,
      "25": 213,
      "uL": 214,
      "coun": 215,
      "count": 216,
      "id": 217,
      "ir": 218,
      "tam": 219,
      "UN": 220,
      "ag": 221,
      "20": 222,
      "UNIT": 223,
      "40": 224,
      "500": 225,
      "Gas": 226,
      "tamin": 227,
      "gm": 228,
      "ex": 229,
      "Ac": 230,
      "1000": 231,
      "15": 232,
      "hy": 233,
      "al": 234,
      "arin": 235,
      "nan": 236,
      "Potassium": 237,
      "NE": 238,
      "am": 239,
      "14": 240,
      "Dex": 241,
      "hen": 242,
      "us": 243,
      "one": 244,
      "tro": 245,
      "Sul": 246,
      "{}": 247,
      "Sulf": 248,
      "ti": 249,
      "Dextro": 250,
      "ole": 251,
      "Dextrose": 252,
      "Hep": 253,
      "Heparin": 254,
      "mm": 255,
      "or": 256,
      "In": 257,
      "Sulfate": 258,
      "ne": 259,
      "rine": 260,
      "te": 261,
      "ph": 262,
      "HIT": 263,
      "WHIT": 264,
      "WHITE": 265,
      "Ace": 266,
      "Glu": 267,
      "taminop": 268,
      "taminophen": 269,
      "Acetaminophen": 270,
      "ent": 271,
      "Ca": 272,
      "agne": 273,
      "Magne": 274,
      "On": 275,
      "pt": 276,
      "raz": 277,
      "act": 278,
      "11": 279,
      "inr": 280,
      "Re": 281,
      "30": 282,
      "trate": 283,
      "Magnesium": 284,
      "iru": 285,
      "bil": 286,
      "irubin": 287,
      "bilirubin": 288,
      "ide": 289,
      "ase": 290,
      "actate": 291,
      "mmol": 292,
      "oc": 293,
      "na": 294,
      "yc": 295,
      "sp": 296,
      "TA": 297,
      "il": 298,
      "17": 299,
      "AG": 300,
      "artrate": 301,
      "BAG": 302,
      "Urine": 303,
      "TAB": 304,
      "Bag": 305,
      "lactate": 306,
      "bp": 307,
      "Calcium": 308,
      "az": 309,
      "Met": 310,
      "Al": 311,
      "RO": 312,
      "ocus": 313,
      "Docus": 314,
      "Docusate": 315,
      "ONE": 316,
      "ulin": 317,
      "sulin": 318,
      "Insulin": 319,
      "60": 320,
      "enna": 321,
      "Senna": 322,
      "orph": 323,
      "IC": 324,
      "200": 325,
      "5000": 326,
      "dr": 327,
      "th": 328,
      "Ox": 329,
      "er": 330,
      "sm": 331,
      "lol": 332,
      "conate": 333,
      "Gluconate": 334,
      "tron": 335,
      "dan": 336,
      "Ondan": 337,
      "Ondanse": 338,
      "Ondansetron": 339,
      "di": 340,
      "250": 341,
      "650": 342,
      "razole": 343,
      "80": 344,
      "os": 345,
      "16": 346,
      "DRO": 347,
      "yl": 348,
      "yco": 349,
      "Ne": 350,
      "itamin": 351,
      "AN": 352,
      "tatin": 353,
      "bu": 354,
      "el": 355,
      "23": 356,
      "24": 357,
      "hydr": 358,
      "Ap": 359,
      "cg": 360,
      "mcg": 361,
      "umin": 362,
      "rol": 363,
      "tic": 364,
      "Is": 365,
      "26": 366,
      "DONE": 367,
      "eth": 368,
      "Appl": 369,
      "ic": 370,
      "opro": 371,
      "epam": 372,
      "im": 373,
      "oly": 374,
      "gon": 375,
      "Gluca": 376,
      "Glucagon": 377,
      "pra": 378,
      "27": 379,
      "lease": 380,
      "Release": 381,
      "smo": 382,
      "Iso": 383,
      "ral": 384,
      "Osmo": 385,
      "Osmotic": 386,
      "nit": 387,
      "ml": 388,
      "terol": 389,
      "buterol": 390,
      "18": 391,
      "ip": 392,
      "nits": 393,
      "150": 394,
      "cal": 395,
      "Albuterol": 396,
      "wh": 397,
      "blood": 398,
      "whole": 399,
      "units": 400,
      "oprolol": 401,
      "Metoprolol": 402,
      "idine": 403,
      "irin": 404,
      "Asp": 405,
      "ot": 406,
      "Aspirin": 407,
      "and": 408,
      "400": 409,
      "rile": 410,
      "astatin": 411,
      "vastatin": 412,
      "Ste": 413,
      "Sterile": 414,
      "ater": 415,
      "Water": 416,
      "Onco": 417,
      "28": 418,
      "Dil": 419,
      "Hy": 420,
      "Tartrate": 421,
      "AL": 422,
      "ement": 423,
      "Vac": 424,
      "Repl": 425,
      "acement": 426,
      "Oncology": 427,
      "Replacement": 428,
      "edi": 429,
      "bumin": 430,
      "cine": 431,
      "ab": 432,
      "hos": 433,
      "enz": 434,
      "Le": 435,
      "Neb": 436,
      "val": 437,
      "ycin": 438,
      "thm": 439,
      "hythm": 440,
      "81": 441,
      "NEB": 442,
      "rate": 443,
      "325": 444,
      "he": 445,
      "Poly": 446,
      "caine": 447,
      "emp": 448,
      "ain": 449,
      "resp": 450,
      "pain": 451,
      "rhythm": 452,
      "o2": 453,
      "dbp": 454,
      "sat": 455,
      "sbp": 456,
      "temp": 457,
      "heartrate": 458,
      "resprate": 459,
      "o2sat": 460,
      "IU": 461,
      "ld": 462,
      "Gel": 463,
      "hydrogen": 464,
      "dehydrogen": 465,
      "dehydrogenase": 466,
      "morph": 467,
      "HY": 468,
      "HYDRO": 469,
      "morphone": 470,
      "29": 471,
      "HYDROmorphone": 472,
      "mycin": 473,
      "Imm": 474,
      "ediate": 475,
      "Immediate": 476,
      "ene": 477,
      "valent": 478,
      "ido": 479,
      "ud": 480,
      "of": 481,
      "idocaine": 482,
      "Lidocaine": 483,
      "oprazole": 484,
      "NS": 485,
      "98": 486,
      "ree": 487,
      "AM": 488,
      "Bis": 489,
      "aud": 490,
      "Dilaud": 491,
      "Dilaudid": 492,
      "hyl": 493,
      "acod": 494,
      "acodyl": 495,
      "Bisacodyl": 496,
      "albumin": 497,
      "Glucose": 498,
      "RIC": 499,
      "RICAN": 500,
      "Sol": 501,
      "Soln": 502,
      "22": 503,
      "Phos": 504,
      "Gl": 505,
      "19": 506,
      "ad": 507,
      "Lo": 508,
      "rox": 509,
      "ant": 510,
      "free": 511,
      "mide": 512,
      "ial": 513,
      "Inf": 514,
      "ulti": 515,
      "Multi": 516,
      "Vaccine": 517,
      "Lev": 518,
      "Multiv": 519,
      "Multivitamin": 520,
      "enza": 521,
      "luenza": 522,
      "Influenza": 523,
      "Oral": 524,
      "trop": 525,
      "antoprazole": 526,
      "Pantoprazole": 527,
      "At": 528,
      "Multivitamins": 529,
      "ox": 530,
      "300": 531,
      "IN": 532,
      "Ce": 533,
      "ear": 534,
      "Glyco": 535,
      "83": 536,
      "Pr": 537,
      "SW": 538,
      "Sim": 539,
      "sem": 540,
      "semide": 541,
      "orphine": 542,
      "ZO": 543,
      "tropium": 544,
      "Care": 545,
      "Morphine": 546,
      "hylene": 547,
      "lox": 548,
      "ethylene": 549,
      "Polyethylene": 550,
      "Glycol": 551,
      "75": 552,
      "Prop": 553,
      "anco": 554,
      "ancomycin": 555,
      "ical": 556,
      "Vancomycin": 557,
      "Om": 558,
      "21": 559,
      "Crit": 560,
      "Critical": 561,
      "Cef": 562,
      "SP": 563,
      "razepam": 564,
      "Lorazepam": 565,
      "Hyd": 566,
      "opri": 567,
      "uro": 568,
      "Furo": 569,
      "Furosemide": 570,
      "ing": 571,
      "lor": 572,
      "qu": 573,
      "PU": 574,
      "FF": 575,
      "PUFF": 576,
      "LA": 577,
      "eprazole": 578,
      "99": 579,
      "D5": 580,
      "Omeprazole": 581,
      "139": 582,
      "Phosph": 583,
      "INE": 584,
      "oL": 585,
      "138": 586,
      "Oxyco": 587,
      "OxycoDONE": 588,
      "LO": 589,
      "97": 590,
      "Acid": 591,
      "140": 592,
      "Sus": 593,
      "Pat": 594,
      "Patch": 595,
      "Car": 596,
      "pratropium": 597,
      "Ipratropium": 598,
      "isin": 599,
      "Vitamin": 600,
      "orvastatin": 601,
      "Atorvastatin": 602,
      "31": 603,
      "103": 604,
      "137": 605,
      "102": 606,
      "tan": 607,
      "104": 608,
      "CO": 609,
      "Ni": 610,
      "Susp": 611,
      "Qu": 612,
      "Pre": 613,
      "vir": 614,
      "romide": 615,
      "acin": 616,
      "Su": 617,
      "33": 618,
      "Oxy": 619,
      "DROP": 620,
      "VI": 621,
      "VIAL": 622,
      "Vial": 623,
      "101": 624,
      "sin": 625,
      "32": 626,
      "105": 627,
      "LE": 628,
      "othy": 629,
      "Dip": 630,
      "Am": 631,
      "141": 632,
      "083": 633,
      "Tra": 634,
      "Clo": 635,
      "othyrox": 636,
      "othyroxine": 637,
      "Li": 638,
      "Levothyroxine": 639,
      "ens": 640,
      "Ci": 641,
      "azole": 642,
      "Suc": 643,
      "sone": 644,
      "136": 645,
      "ension": 646,
      "Suspension": 647,
      "NI": 648,
      "Diphen": 649,
      "Bromide": 650,
      "tica": 651,
      "quid": 652,
      "adri": 653,
      "Liquid": 654,
      "ticasone": 655,
      "Quadri": 656,
      "Quadrivalent": 657,
      "Fluticasone": 658,
      "urine": 659,
      "IV": 660,
      "34": 661,
      "PH": 662,
      "azepam": 663,
      "OxyCO": 664,
      "Phosphate": 665,
      "loxacin": 666,
      "OxyCODONE": 667,
      "smear": 668,
      "apine": 669,
      "106": 670,
      "Carbonate": 671,
      "Th": 672,
      "rof": 673,
      "lopra": 674,
      "35": 675,
      "FoL": 676,
      "FoLIC": 677,
      "pe": 678,
      "600": 679,
      "125": 680,
      "opril": 681,
      "AF": 682,
      "entin": 683,
      "apentin": 684,
      "abapentin": 685,
      "Gabapentin": 686,
      "ale": 687,
      "37": 688,
      "yclo": 689,
      "AME": 690,
      "AMERICAN": 691,
      "SPR": 692,
      "SPRY": 693,
      "ccal": 694,
      "coccal": 695,
      "CK": 696,
      "BLA": 697,
      "AFRICAN": 698,
      "BLACK": 699,
      "ulo": 700,
      "ameth": 701,
      "band": 702,
      "bands": 703,
      "ia": 704,
      "Pro": 705,
      "142": 706,
      "96": 707,
      "135": 708,
      "Succ": 709,
      "ini": 710,
      "ethic": 711,
      "ethicone": 712,
      "Simethicone": 713,
      "CA": 714,
      "107": 715,
      "Pred": 716,
      "isinopril": 717,
      "Lisinopril": 718,
      "En": 719,
      "36": 720,
      "onazole": 721,
      "bc": 722,
      "wbc": 723,
      "Hydro": 724,
      "lin": 725,
      "Inh": 726,
      "Fen": 727,
      "amine": 728,
      "110": 729,
      "pf": 730,
      "hpf": 731,
      "meth": 732,
      "lus": 733,
      "tra": 734,
      "Plus": 735,
      "Mini": 736,
      "#/": 737,
      "tanyl": 738,
      "Fentanyl": 739,
      "mine": 740,
      "yr": 741,
      "Predni": 742,
      "SONE": 743,
      "PredniSONE": 744,
      "Hydr": 745,
      "arf": 746,
      "arfarin": 747,
      "Warfarin": 748,
      "95": 749,
      "Az": 750,
      "Rin": 751,
      "Rinse": 752,
      "CH": 753,
      "PT": 754,
      "PTCH": 755,
      "ER": 756,
      "aler": 757,
      "Inhaler": 758,
      "Fam": 759,
      "otidine": 760,
      "Famotidine": 761,
      "Chlor": 762,
      "ated": 763,
      "rt": 764,
      "134": 765,
      "NID": 766,
      "108": 767,
      "AMINE": 768,
      "hydrAMINE": 769,
      "calc": 770,
      "DiphenhydrAMINE": 771,
      "ulated": 772,
      "calculated": 773,
      "it": 774,
      "ys": 775,
      "int": 776,
      "if": 777,
      "Oint": 778,
      "ofol": 779,
      "Propofol": 780,
      "LOR": 781,
      "Cip": 782,
      "rofloxacin": 783,
      "Ciprofloxacin": 784,
      "hex": 785,
      "Citrate": 786,
      "eP": 787,
      "Tri": 788,
      "erin": 789,
      "LORazepam": 790,
      "NIDA": 791,
      "ionate": 792,
      "NO": 793,
      "pid": 794,
      "Chlorhex": 795,
      "Chlorhexidine": 796,
      "AS": 797,
      "143": 798,
      "der": 799,
      "illin": 800,
      "Propionate": 801,
      "Po": 802,
      "yclovir": 803,
      "Acyclovir": 804,
      "Pow": 805,
      "Powder": 806,
      "rid": 807,
      "Vir": 808,
      "Virus": 809,
      "38": 810,
      "Mid": 811,
      "Simvastatin": 812,
      "ua": 813,
      "ers": 814,
      "ZOLE": 815,
      "Gua": 816,
      "razine": 817,
      "chlor": 818,
      "perazine": 819,
      "Prochlor": 820,
      "Prochlorperazine": 821,
      "NIDAZOLE": 822,
      "Syr": 823,
      "pine": 824,
      "Lactate": 825,
      "inge": 826,
      "Syringe": 827,
      "Ring": 828,
      "Lactated": 829,
      "Ringers": 830,
      "Di": 831,
      "TIN": 832,
      "Ar": 833,
      "HydrAL": 834,
      "tif": 835,
      "Ran": 836,
      "000": 837,
      "Thi": 838,
      "94": 839,
      "Oxyc": 840,
      "Thiamine": 841,
      "eter": 842,
      "itidine": 843,
      "Ranitidine": 844,
      "109": 845,
      "MO": 846,
      "Tear": 847,
      "aparin": 848,
      "ment": 849,
      "icial": 850,
      "tificial": 851,
      "Artificial": 852,
      "Ointment": 853,
      "to": 854,
      "Hydrox": 855,
      "La": 856,
      "ycerin": 857,
      "Cl": 858,
      "133": 859,
      "Oph": 860,
      "ogl": 861,
      "Mil": 862,
      "DI": 863,
      "Ophth": 864,
      "oxaparin": 865,
      "Enoxaparin": 866,
      "trogl": 867,
      "troglycerin": 868,
      "Nitroglycerin": 869,
      "CAP": 870,
      "tal": 871,
      "Acet": 872,
      "MA": 873,
      "PK": 874,
      "PKT": 875,
      "Done": 876,
      "ZODone": 877,
      "TraZODone": 878,
      "olol": 879,
      "90": 880,
      "91": 881,
      "Zol": 882,
      "sia": 883,
      "Milk": 884,
      "Magnesia": 885,
      "TraMA": 886,
      "TraMAD": 887,
      "PHE": 888,
      "IM": 889,
      "ax": 890,
      "Nys": 891,
      "Nystatin": 892,
      "talopra": 893,
      "talopram": 894,
      "So": 895,
      "dipine": 896,
      "39": 897,
      "Lact": 898,
      "Alumin": 899,
      "Aluminum": 900,
      "ulose": 901,
      "Lactulose": 902,
      "OL": 903,
      "XL": 904,
      "etine": 905,
      "ET": 906,
      "70": 907,
      "144": 908,
      "CefeP": 909,
      "IME": 910,
      "CefePIME": 911,
      "Sal": 912,
      "ur": 913,
      "800": 914,
      "HCl": 915,
      "Neu": 916,
      "1500": 917,
      "Neutra": 918,
      "93": 919,
      "amide": 920,
      "INH": 921,
      "Succin": 922,
      "Me": 923,
      "tine": 924,
      "Bu": 925,
      "132": 926,
      "Polyvalent": 927,
      "RI": 928,
      "Salm": 929,
      "750": 930,
      "45": 931,
      "PHrine": 932,
      "bac": 933,
      "Succinate": 934,
      "bactam": 935,
      "D5W": 936,
      "asone": 937,
      "88": 938,
      "Dis": 939,
      "Trimeth": 940,
      "oprim": 941,
      "Trimethoprim": 942,
      "112": 943,
      "Sulfameth": 944,
      "teg": 945,
      "SR": 946,
      "umo": 947,
      "Pne": 948,
      "umococcal": 949,
      "Pneumococcal": 950,
      "eterol": 951,
      "Salmeterol": 952,
      "ream": 953,
      "PNE": 954,
      "UMO": 955,
      "PNEUMO": 956,
      "PNEUMOcoccal": 957,
      "Cream": 958,
      "92": 959,
      "Phen": 960,
      "Metoc": 961,
      "lopramide": 962,
      "Metoclopramide": 963,
      "odone": 964,
      "Lot": 965,
      "Tears": 966,
      "Tab": 967,
      "Dexameth": 968,
      "sac": 969,
      "sacch": 970,
      "aride": 971,
      "saccharide": 972,
      "Lotion": 973,
      "mineral": 974,
      "phrine": 975,
      "minerals": 976,
      "Dexamethasone": 977,
      "Disk": 978,
      "Diskus": 979,
      "vac": 980,
      "vaccine": 981,
      "Sar": 982,
      "poly": 983,
      "polysaccharide": 984,
      "Chl": 985,
      "Sarna": 986,
      "ct": 987,
      "Cap": 988,
      "eta": 989,
      "ifene": 990,
      "Guaifene": 991,
      "Guaifenesin": 992,
      "111": 993,
      "120": 994,
      "IR": 995,
      "TH": 996,
      "cort": 997,
      "line": 998,
      "EC": 999,
      "iol": 1000,
      "NY": 1001,
      "2NS": 1002,
      "tegr": 1003,
      "145": 1004,
      "PHENY": 1005,
      "PHENYLE": 1006,
      "ating": 1007,
      "Disin": 1008,
      "tegrating": 1009,
      "Disintegrating": 1010,
      "PHENYLEPHrine": 1011,
      "rect": 1012,
      "direct": 1013,
      "Tam": 1014,
      "KNO": 1015,
      "WN": 1016,
      "UNKNO": 1017,
      "UNKNOWN": 1018,
      "etam": 1019,
      "OTH": 1020,
      "OTHER": 1021,
      "131": 1022,
      "sulo": 1023,
      "sulosin": 1024,
      "Tamsulosin": 1025,
      "MetRO": 1026,
      "MetRONIDAZOLE": 1027,
      "FLa": 1028,
      "gyl": 1029,
      "FLagyl": 1030,
      "Nico": 1031,
      "Nicotine": 1032,
      "isone": 1033,
      "zapine": 1034,
      "cortisone": 1035,
      "Mic": 1036,
      "Ami": 1037,
      "67": 1038,
      "lone": 1039,
      "Miconazole": 1040,
      "Citalopram": 1041,
      "HI": 1042,
      "ANIC": 1043,
      "SPANIC": 1044,
      "LATIN": 1045,
      "HISPANIC": 1046,
      "LATINO": 1047,
      "Ur": 1048,
      "urin": 1049,
      "Cep": 1050,
      "lop": 1051,
      "65": 1052,
      "Fer": 1053,
      "Allop": 1054,
      "Oxycodone": 1055,
      "urinol": 1056,
      "Allopurinol": 1057,
      "sod": 1058,
      "sodiol": 1059,
      "Ursodiol": 1060,
      "alox": 1061,
      "romycin": 1062,
      "Azine": 1063,
      "rel": 1064,
      "85": 1065,
      "66": 1066,
      "Cy": 1067,
      "63": 1068,
      "89": 1069,
      "87": 1070,
      "64": 1071,
      "68": 1072,
      "thromycin": 1073,
      "tiaz": 1074,
      "Diltiaz": 1075,
      "Diltiazem": 1076,
      "ogrel": 1077,
      "pidogrel": 1078,
      "Clopidogrel": 1079,
      "Thro": 1080,
      "HydrALAzine": 1081,
      "86": 1082,
      "conazole": 1083,
      "Throat": 1084,
      "130": 1085,
      "rous": 1086,
      "Ferrous": 1087,
      "84": 1088,
      "cin": 1089,
      "PR": 1090,
      "41": 1091,
      "umar": 1092,
      "umarate": 1093,
      "Albumin": 1094,
      "69": 1095,
      "72": 1096,
      "Fumarate": 1097,
      "Methyl": 1098,
      "78": 1099,
      "Pip": 1100,
      "62": 1101,
      "2000": 1102,
      "71": 1103,
      "tral": 1104,
      ".-": 1105,
      "82": 1106,
      "74": 1107,
      "Ser": 1108,
      "traline": 1109,
      "Sertraline": 1110,
      "Nas": 1111,
      "col": 1112,
      "Nasal": 1113,
      "77": 1114,
      "Pheny": 1115,
      "Ti": 1116,
      "Mon": 1117,
      "NAS": 1118,
      "NASAL": 1119,
      "Hydrocortisone": 1120,
      "af": 1121,
      "79": 1122,
      "Acetate": 1123,
      "TRI": 1124,
      "artan": 1125,
      "PIC": 1126,
      "PICC": 1127,
      "ded": 1128,
      "lodipine": 1129,
      "epe": 1130,
      "LOZ": 1131,
      "Ket": 1132,
      "ended": 1133,
      "oxetine": 1134,
      "Ram": 1135,
      "76": 1136,
      "113": 1137,
      "dra": 1138,
      "42": 1139,
      "acillin": 1140,
      "azo": 1141,
      "Tazo": 1142,
      "Tazobactam": 1143,
      "Amlodipine": 1144,
      "bal": 1145,
      "73": 1146,
      "ED": 1147,
      "olac": 1148,
      "eracillin": 1149,
      "Piperacillin": 1150,
      "61": 1151,
      "teon": 1152,
      "elteon": 1153,
      "Ramelteon": 1154,
      "amin": 1155,
      "cobal": 1156,
      "ano": 1157,
      "cobalamin": 1158,
      "anocobalamin": 1159,
      "Cyanocobalamin": 1160,
      "58": 1161,
      "For": 1162,
      "Reg": 1163,
      "ular": 1164,
      "orus": 1165,
      "Phosphorus": 1166,
      "Regular": 1167,
      "55": 1168,
      "IAN": 1169,
      "ASIAN": 1170,
      "hosol": 1171,
      "Caphosol": 1172,
      "acetam": 1173,
      "Midline": 1174,
      "sert": 1175,
      "ions": 1176,
      "Insert": 1177,
      "Insertions": 1178,
      "44": 1179,
      "Hum": 1180,
      "iracetam": 1181,
      "ge": 1182,
      "NEG": 1183,
      "Human": 1184,
      "st": 1185,
      "icillin": 1186,
      "VET": 1187,
      "LeVET": 1188,
      "LeVETiracetam": 1189,
      "Diazepam": 1190,
      "tended": 1191,
      "114": 1192,
      "naz": 1193,
      "129": 1194,
      "Clonaz": 1195,
      "ofloxacin": 1196,
      "Ex": 1197,
      "orolac": 1198,
      "Levofloxacin": 1199,
      "loro": 1200,
      "ly": 1201,
      "Ketorolac": 1202,
      "AX": 1203,
      "Benz": 1204,
      "146": 1205,
      "Sp": 1206,
      "pidem": 1207,
      "Zolpidem": 1208,
      "Cat": 1209,
      "FE": 1210,
      "Ma": 1211,
      "Maalox": 1212,
      "Lab": 1213,
      "etalol": 1214,
      "Labetalol": 1215,
      "perid": 1216,
      "59": 1217,
      "XONE": 1218,
      "tria": 1219,
      "Ceftria": 1220,
      "CeftriaXONE": 1221,
      "arone": 1222,
      "Azi": 1223,
      "Azithromycin": 1224,
      "odarone": 1225,
      "Amiodarone": 1226,
      "Extended": 1227,
      "57": 1228,
      "Mir": 1229,
      "chloro": 1230,
      "54": 1231,
      "Fluconazole": 1232,
      "pi": 1233,
      "bup": 1234,
      "115": 1235,
      "rofen": 1236,
      "Ibup": 1237,
      "Ibuprofen": 1238,
      "iron": 1239,
      "actone": 1240,
      "olactone": 1241,
      "ironolactone": 1242,
      "Spironolactone": 1243,
      "128": 1244,
      "tazapine": 1245,
      "Mirtazapine": 1246,
      "epine": 1247,
      "pro": 1248,
      "ridine": 1249,
      "Meth": 1250,
      "ZINE": 1251,
      "va": 1252,
      "Diphenhy": 1253,
      "dramine": 1254,
      "Diphenhydramine": 1255,
      "900": 1256,
      "56": 1257,
      "olam": 1258,
      "tram": 1259,
      "Oxide": 1260,
      "Ul": 1261,
      "TraMADOL": 1262,
      "Ultram": 1263,
      "iaz": 1264,
      "CefTRI": 1265,
      "AXone": 1266,
      "CefTRIAXone": 1267,
      "ans": 1268,
      "onat": 1269,
      "TraMADol": 1270,
      "110mcg": 1271,
      "43": 1272,
      "ast": 1273,
      "oLIN": 1274,
      "ZODONE": 1275,
      "traZODONE": 1276,
      "QU": 1277,
      "Eti": 1278,
      "QUEti": 1279,
      "QUEtiapine": 1280,
      "do": 1281,
      "Cefaz": 1282,
      "CefazoLIN": 1283,
      "Val": 1284,
      "116": 1285,
      "PRED": 1286,
      "MethylPRED": 1287,
      "NISo": 1288,
      "MethylPREDNISo": 1289,
      "MethylPREDNISolone": 1290,
      "onatate": 1291,
      "Bi": 1292,
      "Benzonatate": 1293,
      "acol": 1294,
      "Cyclo": 1295,
      "Cepacol": 1296,
      "127": 1297,
      "Jel": 1298,
      "Jelly": 1299,
      "ODI": 1300,
      "Pine": 1301,
      "amL": 1302,
      "ODIPine": 1303,
      "amLODIPine": 1304,
      "zine": 1305,
      "AZINE": 1306,
      "HydrALAZINE": 1307,
      "5g": 1308,
      "SS": 1309,
      "Pra": 1310,
      "Rif": 1311,
      "Bicarbonate": 1312,
      "118": 1313,
      "117": 1314,
      "DE": 1315,
      "thiaz": 1316,
      "thiazide": 1317,
      "Mepe": 1318,
      "Meperidine": 1319,
      "AZol": 1320,
      "126": 1321,
      "ansoprazole": 1322,
      "enge": 1323,
      "53": 1324,
      "Lansoprazole": 1325,
      "zenge": 1326,
      "Lozenge": 1327,
      "toin": 1328,
      "MDI": 1329,
      "alo": 1330,
      "enolol": 1331,
      "Atenolol": 1332,
      "Spra": 1333,
      "Spray": 1334,
      "Halo": 1335,
      "peridol": 1336,
      "Haloperidol": 1337,
      "troNIDAZOLE": 1338,
      "MetroNIDAZOLE": 1339,
      "OX": 1340,
      "147": 1341,
      "52": 1342,
      "chlorothiazide": 1343,
      "Hydrochlorothiazide": 1344,
      "550": 1345,
      "azolam": 1346,
      "119": 1347,
      "otropium": 1348,
      "Tiotropium": 1349,
      "Midazolam": 1350,
      "121": 1351,
      "OR": 1352,
      "axim": 1353,
      "aximin": 1354,
      "Rifaximin": 1355,
      "122": 1356,
      "OLAN": 1357,
      "OLANZ": 1358,
      "OLANZapine": 1359,
      "onTIN": 1360,
      "OxyconTIN": 1361,
      "open": 1362,
      "ton": 1363,
      "LR": 1364,
      "imazole": 1365,
      "PRO": 1366,
      "ptic": 1367,
      "iFE": 1368,
      "Nesin": 1369,
      "iFENesin": 1370,
      "Pravastatin": 1371,
      "LOP": 1372,
      "ERamide": 1373,
      "LOPERamide": 1374,
      "GuaiFENesin": 1375,
      "48": 1376,
      "46": 1377,
      "PROP": 1378,
      "BuPROP": 1379,
      "BuPROPion": 1380,
      "Los": 1381,
      "Losartan": 1382,
      "123": 1383,
      "124": 1384,
      "51": 1385,
      "Mer": 1386,
      "lora": 1387,
      "Chlora": 1388,
      "septic": 1389,
      "Chloraseptic": 1390,
      "148": 1391,
      "47": 1392,
      "Bac": 1393,
      "Na": 1394,
      "oprost": 1395,
      "bital": 1396,
      "tri": 1397,
      "Phenytoin": 1398,
      "Amp": 1399,
      "Ampicillin": 1400,
      "1250": 1401,
      "openem": 1402,
      "Meropenem": 1403,
      "trimazole": 1404,
      "LevET": 1405,
      "LevETIR": 1406,
      "Acetam": 1407,
      "LevETIRAcetam": 1408,
      "Clotrimazole": 1409,
      "005": 1410,
      "fate": 1411,
      "adine": 1412,
      "indirect": 1413,
      "atan": 1414,
      "05": 1415,
      "zol": 1416,
      "Fluo": 1417,
      "ema": 1418,
      "epinephrine": 1419,
      "Phy": 1420,
      "onide": 1421,
      "cor": 1422,
      "Phyton": 1423,
      "Phytonad": 1424,
      "ione": 1425,
      "Phytonadione": 1426,
      "me": 1427,
      "Ato": 1428,
      "quone": 1429,
      "vaquone": 1430,
      "Atovaquone": 1431,
      "Tablet": 1432,
      "49": 1433,
      "azine": 1434,
      "atanoprost": 1435,
      "Latanoprost": 1436,
      "bic": 1437,
      "As": 1438,
      "Ascor": 1439,
      "Ascorbic": 1440,
      "tin": 1441,
      "kast": 1442,
      "lukast": 1443,
      "Con": 1444,
      "ce": 1445,
      "NOR": 1446,
      "telukast": 1447,
      "phen": 1448,
      "Montelukast": 1449,
      "NORepinephrine": 1450,
      "ralfate": 1451,
      "Sucralfate": 1452,
      "etil": 1453,
      "oxin": 1454,
      "goxin": 1455,
      "Digoxin": 1456,
      "Enema": 1457,
      "opa": 1458,
      "imus": 1459,
      "Top": 1460,
      "orbi": 1461,
      "edilol": 1462,
      "aban": 1463,
      "149": 1464,
      "Ven": 1465,
      "osorbi": 1466,
      "Isosorbi": 1467,
      "SL": 1468,
      "Isosorbide": 1469,
      "hol": 1470,
      "ePAM": 1471,
      "ClonazePAM": 1472,
      "XR": 1473,
      "160": 1474,
      "oni": 1475,
      "eti": 1476,
      "gine": 1477,
      "laf": 1478,
      "lafax": 1479,
      "lafaxine": 1480,
      "Alte": 1481,
      "plase": 1482,
      "Alteplase": 1483,
      "Tac": 1484,
      "Venlafaxine": 1485,
      "ib": 1486,
      "adone": 1487,
      "a1": 1488,
      "a1c": 1489,
      "Methadone": 1490,
      "Den": 1491,
      "OD": 1492,
      "ODT": 1493,
      "1200": 1494,
      "Dental": 1495,
      "Fluoride": 1496,
      "CAR": 1497,
      "Es": 1498,
      "DS": 1499,
      "ci": 1500,
      "dose": 1501,
      "Ros": 1502,
      "bine": 1503,
      "Hydroxide": 1504,
      "TRO": 1505,
      "uvastatin": 1506,
      "Rosuvastatin": 1507,
      "YR": 1508,
      "rolimus": 1509,
      "TROC": 1510,
      "syl": 1511,
      "SYR": 1512,
      "Tacrolimus": 1513,
      "tom": 1514,
      "adi": 1515,
      "FAZol": 1516,
      "FAZolin": 1517,
      "CeFAZolin": 1518,
      "Mu": 1519,
      "ru": 1520,
      "50mL": 1521,
      "tropine": 1522,
      "Contin": 1523,
      "MS": 1524,
      "ofetil": 1525,
      "aste": 1526,
      "vedilol": 1527,
      "Carvedilol": 1528,
      "Sulbactam": 1529,
      "180": 1530,
      "Dexme": 1531,
      "Dexmede": 1532,
      "tomidine": 1533,
      "Dexmedetomidine": 1534,
      "piro": 1535,
      "pirocin": 1536,
      "Mupirocin": 1537,
      "Cle": 1538,
      "olate": 1539,
      "Tim": 1540,
      "ptyl": 1541,
      "triptyl": 1542,
      "triptyline": 1543,
      "ance": 1544,
      "Prometh": 1545,
      "Promethazine": 1546,
      "ycophen": 1547,
      "ycophenolate": 1548,
      "Timolol": 1549,
      "Mycophenolate": 1550,
      "ix": 1551,
      "arium": 1552,
      "Barium": 1553,
      "arance": 1554,
      "Uro": 1555,
      "jet": 1556,
      "Urojet": 1557,
      "alate": 1558,
      "Hydroc": 1559,
      "Readi": 1560,
      "Cath": 1561,
      "Clearance": 1562,
      "Catheter": 1563,
      "inaste": 1564,
      "inasteride": 1565,
      "orphan": 1566,
      "Finasteride": 1567,
      "methorphan": 1568,
      "Dextromethorphan": 1569,
      "Sore": 1570,
      "hr": 1571,
      "ylc": 1572,
      "ed": 1573,
      "Preg": 1574,
      "alin": 1575,
      "abalin": 1576,
      "Pregabalin": 1577,
      "aleate": 1578,
      "Maleate": 1579,
      "Mofetil": 1580,
      "Dox": 1581,
      "Yzine": 1582,
      "OXYzine": 1583,
      "HydrOXYzine": 1584,
      "lephrine": 1585,
      "Phenylephrine": 1586,
      "5mg": 1587,
      "Atropine": 1588,
      "152": 1589,
      "Lop": 1590,
      "olone": 1591,
      "tim": 1592,
      "Free": 1593,
      "ation": 1594,
      "Ri": 1595,
      "151": 1596,
      "ga": 1597,
      "citalopram": 1598,
      "Oxalate": 1599,
      "Escitalopram": 1600,
      "Fil": 1601,
      "153": 1602,
      "Mononi": 1603,
      "Mononitrate": 1604,
      "TE": 1605,
      "240": 1606,
      "stim": 1607,
      "Mi": 1608,
      "220": 1609,
      "gra": 1610,
      "fen": 1611,
      "Fluoxetine": 1612,
      "Vis": 1613,
      "ramide": 1614,
      "yste": 1615,
      "ylcyste": 1616,
      "ylcysteine": 1617,
      "EL": 1618,
      "154": 1619,
      "Acetylcysteine": 1620,
      "175": 1621,
      "cous": 1622,
      "Viscous": 1623,
      "eramide": 1624,
      "Loperamide": 1625,
      "grastim": 1626,
      "Filgrastim": 1627,
      "ff": 1628,
      "tre": 1629,
      "rim": 1630,
      "Triam": 1631,
      "itr": 1632,
      "D5NS": 1633,
      "155": 1634,
      "Clonazepam": 1635,
      "FOR": 1636,
      "phag": 1637,
      "Gluco": 1638,
      "xin": 1639,
      "MIN": 1640,
      "FORMIN": 1641,
      "MetFORMIN": 1642,
      "phage": 1643,
      "Glucophage": 1644,
      "Caff": 1645,
      "benz": 1646,
      "taine": 1647,
      "ser": 1648,
      "sartan": 1649,
      "om": 1650,
      "Sustaine": 1651,
      "Sustained": 1652,
      "lofen": 1653,
      "Apix": 1654,
      "Apixaban": 1655,
      "325mg": 1656,
      "aprine": 1657,
      "benzaprine": 1658,
      "Cyclobenzaprine": 1659,
      "CR": 1660,
      "156": 1661,
      "talbital": 1662,
      "Butalbital": 1663,
      "Preser": 1664,
      "Et": 1665,
      "odrine": 1666,
      "Midodrine": 1667,
      "162": 1668,
      "Mo": 1669,
      "osin": 1670,
      "Ment": 1671,
      "Menthol": 1672,
      "Preserv": 1673,
      "LU": 1674,
      "tigm": 1675,
      "tigmine": 1676,
      "DD": 1677,
      "CADD": 1678,
      "Baclofen": 1679,
      "157": 1680,
      "Dap": 1681,
      "pyr": 1682,
      "Glycopyr": 1683,
      "Glycopyrrol": 1684,
      "Glycopyrrolate": 1685,
      "158": 1686,
      "Gly": 1687,
      "gin": 1688,
      "NiCAR": 1689,
      "NiCARdipine": 1690,
      "ostigmine": 1691,
      "ungin": 1692,
      "pinephrine": 1693,
      "lovir": 1694,
      "tabine": 1695,
      "tion": 1696,
      "lution": 1697,
      "Solution": 1698,
      "Valsartan": 1699,
      "159": 1700,
      "Cre": 1701,
      "Creon": 1702,
      "cinolone": 1703,
      "Capt": 1704,
      "Captopril": 1705,
      "SPOR": 1706,
      "SPORINE": 1707,
      "Triamcinolone": 1708,
      "Neo": 1709,
      "Acetonide": 1710,
      "nis": 1711,
      "Ol": 1712,
      "enadine": 1713,
      "exof": 1714,
      "exofenadine": 1715,
      "Fexofenadine": 1716,
      "170": 1717,
      "ime": 1718,
      "Oil": 1719,
      "valpro": 1720,
      "Queti": 1721,
      "Olan": 1722,
      "Quetiapine": 1723,
      "valproex": 1724,
      "Divalproex": 1725,
      "Olanzapine": 1726,
      "enof": 1727,
      "enofo": 1728,
      "Tenofo": 1729,
      "Amitriptyline": 1730,
      "161": 1731,
      "orsemide": 1732,
      "Torsemide": 1733,
      "ram": 1734,
      "zil": 1735,
      "Tenofovir": 1736,
      "bromide": 1737,
      "CycloSPORINE": 1738,
      "yn": 1739,
      "CODE": 1740,
      "CODEINE": 1741,
      "Hydrobromide": 1742,
      "Fle": 1743,
      "fungin": 1744,
      "cafungin": 1745,
      "Micafungin": 1746,
      "bicin": 1747,
      "163": 1748,
      "oside": 1749,
      "bid": 1750,
      "164": 1751,
      "atadine": 1752,
      "oposide": 1753,
      "Etoposide": 1754,
      "Lor": 1755,
      "165": 1756,
      "yrid": 1757,
      "EX": 1758,
      "Loratadine": 1759,
      "itracin": 1760,
      "Bacitracin": 1761,
      "250mL": 1762,
      "FLU": 1763,
      "FLUoxetine": 1764,
      "Em": 1765,
      "Da": 1766,
      "CI": 1767,
      "Du": 1768,
      "lium": 1769,
      "syllium": 1770,
      "Psyllium": 1771,
      "De": 1772,
      "166": 1773,
      "Dor": 1774,
      "Neostigmine": 1775,
      "bidopa": 1776,
      "lind": 1777,
      "Dulox": 1778,
      "Mes": 1779,
      "Clind": 1780,
      "amycin": 1781,
      "168": 1782,
      "Duloxetine": 1783,
      "Clindamycin": 1784,
      "Hydrocerin": 1785,
      "Oru": 1786,
      "odopa": 1787,
      "tide": 1788,
      "Orubicin": 1789,
      "zolamide": 1790,
      "Carbidopa": 1791,
      "Levodopa": 1792,
      "RIS": 1793,
      "Nalox": 1794,
      "Naloxone": 1795,
      "vi": 1796,
      "bar": 1797,
      "ril": 1798,
      "167": 1799,
      "barbital": 1800,
      "Oc": 1801,
      "Lox": 1802,
      "Cloni": 1803,
      "PHENO": 1804,
      "ATE": 1805,
      "DU": 1806,
      "Loxetine": 1807,
      "DULoxetine": 1808,
      "PHENObarbital": 1809,
      "but": 1810,
      "tamine": 1811,
      "169": 1812,
      "otide": 1813,
      "treotide": 1814,
      "Octreotide": 1815,
      "rimon": 1816,
      "ycline": 1817,
      "rimonidine": 1818,
      "Er": 1819,
      "ALPR": 1820,
      "AZolam": 1821,
      "ALPRAZolam": 1822,
      "tomycin": 1823,
      "Daptomycin": 1824,
      "Dorzolamide": 1825,
      "zan": 1826,
      "1300": 1827,
      "09": 1828,
      "trex": 1829,
      "tocol": 1830,
      "Nad": 1831,
      "Nadolol": 1832,
      "Brimonidine": 1833,
      "CV": 1834,
      "Glutamine": 1835,
      "Don": 1836,
      "iram": 1837,
      "oLONE": 1838,
      "nisoLONE": 1839,
      "Glydo": 1840,
      "iramate": 1841,
      "Topiramate": 1842,
      "clovir": 1843,
      "amax": 1844,
      "Topamax": 1845,
      "des": 1846,
      "carb": 1847,
      "171": 1848,
      "172": 1849,
      "Col": 1850,
      "Amox": 1851,
      "25g": 1852,
      "500mL": 1853,
      "Amoxicillin": 1854,
      "450": 1855,
      "PrednisoLONE": 1856,
      "epezil": 1857,
      "Donepezil": 1858,
      "Hydroxy": 1859,
      "azepine": 1860,
      "Pyrid": 1861,
      "173": 1862,
      "res": 1863,
      "174": 1864,
      "225": 1865,
      "2500": 1866,
      "ylate": 1867,
      "uth": 1868,
      "ran": 1869,
      "ythromycin": 1870,
      "Erythromycin": 1871,
      "ple": 1872,
      "ega": 1873,
      "ish": 1874,
      "176": 1875,
      "Omega": 1876,
      "Fish": 1877,
      "DR": 1878,
      "tric": 1879,
      "TO": 1880,
      "opres": 1881,
      "opressin": 1882,
      "ori": 1883,
      "ICU": 1884,
      "190": 1885,
      "yed": 1886,
      "Vori": 1887,
      "Emtric": 1888,
      "Voriconazole": 1889,
      "Bus": 1890,
      "DOX": 1891,
      "DOXOrubicin": 1892,
      "Do": 1893,
      "Metho": 1894,
      "av": 1895,
      "480": 1896,
      "Clob": 1897,
      "178": 1898,
      "ron": 1899,
      "177": 1900,
      "179": 1901,
      "08": 1902,
      "itabine": 1903,
      "Fleet": 1904,
      "Emtricitabine": 1905,
      "06": 1906,
      "ynin": 1907,
      "butynin": 1908,
      "Vin": 1909,
      "etiri": 1910,
      "Oxybutynin": 1911,
      "etirizine": 1912,
      "183": 1913,
      "Com": 1914,
      "Cetirizine": 1915,
      "Flud": 1916,
      "182": 1917,
      "NIFE": 1918,
      "181": 1919,
      "NIFEdipine": 1920,
      "185": 1921,
      "aph": 1922,
      "4000": 1923,
      "188": 1924,
      "Inhal": 1925,
      "leep": 1926,
      "Chemo": 1927,
      "Inhalation": 1928,
      "CRIS": 1929,
      "VinCRIS": 1930,
      "VinCRIStine": 1931,
      "vacaine": 1932,
      "184": 1933,
      "Tizan": 1934,
      "Tizanidine": 1935,
      "186": 1936,
      "PIR": 1937,
      "BusPIR": 1938,
      "BusPIRone": 1939,
      "ter": 1940,
      "187": 1941,
      "Par": 1942,
      "var": 1943,
      "Phenol": 1944,
      "Cepast": 1945,
      "Cepastat": 1946,
      "avir": 1947,
      "Aqu": 1948,
      "vin": 1949,
      "aphor": 1950,
      "Aquaphor": 1951,
      "Paroxetine": 1952,
      "Oncovin": 1953,
      "sylate": 1954,
      "189": 1955,
      "inc": 1956,
      "Trigine": 1957,
      "MOTrigine": 1958,
      "LaMOTrigine": 1959,
      "07": 1960,
      "cl": 1961,
      "Nor": 1962,
      "Zinc": 1963,
      "idime": 1964,
      "Zidime": 1965,
      "TAZidime": 1966,
      "192": 1967,
      "CefTAZidime": 1968,
      "cov": 1969,
      "Leu": 1970,
      "Te": 1971,
      "ycycline": 1972,
      "194": 1973,
      "ycl": 1974,
      "Doxycycline": 1975,
      "Hycl": 1976,
      "da": 1977,
      "Hyclate": 1978,
      "EP": 1979,
      "%/": 1980,
      "195": 1981,
      "198": 1982,
      "EPINE": 1983,
      "EPINEPHrine": 1984,
      "orin": 1985,
      "196": 1986,
      "193": 1987,
      "sol": 1988,
      "191": 1989,
      "pivacaine": 1990,
      "Bupivacaine": 1991,
      "etasol": 1992,
      "desonide": 1993,
      "erap": 1994,
      "oxine": 1995,
      "Clobetasol": 1996,
      "covorin": 1997,
      "203": 1998,
      "Pyridoxine": 1999,
      "amil": 2000,
      "197": 2001,
      "Verap": 2002,
      "Verapamil": 2003,
      "io": 2004,
      "Valpro": 2005,
      "Epinephrine": 2006,
      "Leucovorin": 2007,
      "udine": 2008,
      "my": 2009,
      "razosin": 2010,
      "oxaban": 2011,
      "etamine": 2012,
      "myxin": 2013,
      "Polymyxin": 2014,
      "199": 2015,
      "Comple": 2016,
      "varoxaban": 2017,
      "ulan": 2018,
      "201": 2019,
      "Rivaroxaban": 2020,
      "CEL": 2021,
      "EXCEL": 2022,
      "avulan": 2023,
      "Clavulan": 2024,
      "Mesal": 2025,
      "Protocol": 2026,
      "Mouth": 2027,
      "CVICU": 2028,
      "210": 2029,
      "oxylate": 2030,
      "Diphenoxylate": 2031,
      "Cas": 2032,
      "FI": 2033,
      "Complex": 2034,
      "Mesalamine": 2035,
      "204": 2036,
      "205": 2037,
      "atr": 2038,
      "rocortisone": 2039,
      "OB": 2040,
      "202": 2041,
      "Fludrocortisone": 2042,
      "AB": 2043,
      "206": 2044,
      "abin": 2045,
      "abinol": 2046,
      "Dron": 2047,
      "Dronabinol": 2048,
      "Vas": 2049,
      "Vasopressin": 2050,
      "208": 2051,
      "april": 2052,
      "la": 2053,
      "Lam": 2054,
      "ps": 2055,
      "IDE": 2056,
      "ew": 2057,
      "212": 2058,
      "Clavulanic": 2059,
      "ada": 2060,
      "ranolol": 2061,
      "Tru": 2062,
      "209": 2063,
      "vada": 2064,
      "Truvada": 2065,
      "Propranolol": 2066,
      "LaM": 2067,
      "207": 2068,
      "GAN": 2069,
      "tein": 2070,
      "ValGAN": 2071,
      "Lamo": 2072,
      "ValGANCI": 2073,
      "TRIgine": 2074,
      "LamoTRIgine": 2075,
      "Ris": 2076,
      "AR": 2077,
      "211": 2078,
      "ValGANCIclovir": 2079,
      "PE": 2080,
      "1600": 2081,
      "icin": 2082,
      "Budesonide": 2083,
      "elc": 2084,
      "Gelc": 2085,
      "lair": 2086,
      "Gelclair": 2087,
      "214": 2088,
      "IVudine": 2089,
      "LaMIVudine": 2090,
      "D5LR": 2091,
      "DINE": 2092,
      "Sin": 2093,
      "217": 2094,
      "213": 2095,
      "hale": 2096,
      "halexin": 2097,
      "Cephalexin": 2098,
      "oate": 2099,
      "Sinus": 2100,
      "215": 2101,
      "Hydrocodone": 2102,
      "Neoral": 2103,
      "216": 2104,
      "trexate": 2105,
      "Methotrexate": 2106,
      "MODI": 2107,
      "FIED": 2108,
      "MODIFIED": 2109,
      "224": 2110,
      "Colch": 2111,
      "icine": 2112,
      "Colchicine": 2113,
      "tara": 2114,
      "Cytara": 2115,
      "Ez": 2116,
      "etim": 2117,
      "ibe": 2118,
      "Ezetim": 2119,
      "Ezetimibe": 2120,
      "218": 2121,
      "Cytarabine": 2122,
      "tegra": 2123,
      "ctal": 2124,
      "Rectal": 2125,
      "CIT": 2126,
      "ith": 2127,
      "able": 2128,
      "219": 2129,
      "CloniDINE": 2130,
      "dine": 2131,
      "RATE": 2132,
      "CITRATE": 2133,
      "Dose": 2134,
      "YC": 2135,
      "Layed": 2136,
      "DELayed": 2137,
      "221": 2138,
      "223": 2139,
      "222": 2140,
      "350": 2141,
      "Calc": 2142,
      "tegravir": 2143,
      "Sod": 2144,
      "230": 2145,
      "eine": 2146,
      "set": 2147,
      "226": 2148,
      "Casset": 2149,
      "Cassette": 2150,
      "ABLE": 2151,
      "UNABLE": 2152,
      "228": 2153,
      "peridone": 2154,
      "TAIN": 2155,
      "OBTAIN": 2156,
      "AC": 2157,
      "04": 2158,
      "OP": 2159,
      "243": 2160,
      "cohol": 2161,
      "Nortriptyline": 2162,
      "227": 2163,
      "Alcohol": 2164,
      "quine": 2165,
      "232": 2166,
      "With": 2167,
      "phetamine": 2168,
      "229": 2169,
      "draw": 2170,
      "Withdraw": 2171,
      "Withdrawal": 2172,
      "280": 2173,
      "ello": 2174,
      "day": 2175,
      "Naf": 2176,
      "Nap": 2177,
      "375": 2178,
      "cillin": 2179,
      "Nafcillin": 2180,
      "235": 2181,
      "atio": 2182,
      "Yello": 2183,
      "Yellow": 2184,
      "Mine": 2185,
      "233": 2186,
      "entam": 2187,
      "231": 2188,
      "Des": 2189,
      "chloroquine": 2190,
      "234": 2191,
      "Hydroxychloroquine": 2192,
      "239": 2193,
      "zed": 2194,
      "320": 2195,
      "cop": 2196,
      "Mac": 2197,
      "236": 2198,
      "No": 2199,
      "Neomycin": 2200,
      "Line": 2201,
      "olamine": 2202,
      "onized": 2203,
      "zolid": 2204,
      "initrate": 2205,
      "237": 2206,
      "875": 2207,
      "Linezolid": 2208,
      "Dinitrate": 2209,
      "argine": 2210,
      "copolamine": 2211,
      "cavir": 2212,
      "Glargine": 2213,
      "238": 2214,
      "Scopolamine": 2215,
      "roxen": 2216,
      "Naproxen": 2217,
      "lid": 2218,
      "RT": 2219,
      "CRRT": 2220,
      "sca": 2221,
      "scale": 2222,
      "245": 2223,
      "Ionized": 2224,
      "slid": 2225,
      "sliding": 2226,
      "gl": 2227,
      "ipi": 2228,
      "ipiZ": 2229,
      "ipiZIDE": 2230,
      "meta": 2231,
      "alapril": 2232,
      "GlipiZIDE": 2233,
      "Enalapril": 2234,
      "azosin": 2235,
      "242": 2236,
      "Doxazosin": 2237,
      "aconazole": 2238,
      "360": 2239,
      "carbazepine": 2240,
      "ramine": 2241,
      "1400": 2242,
      "zoline": 2243,
      "255": 2244,
      "NA": 2245,
      "Oxymeta": 2246,
      "Oxymetazoline": 2247,
      "Fo": 2248,
      "241": 2249,
      "247": 2250,
      "odeine": 2251,
      "Codeine": 2252,
      "244": 2253,
      "Pos": 2254,
      "Posaconazole": 2255,
      "Rhythm": 2256,
      "oin": 2257,
      "Nore": 2258,
      "une": 2259,
      "246": 2260,
      "Prep": 2261,
      "sleep": 2262,
      "249": 2263,
      "ZOL": 2264,
      "Aceta": 2265,
      "ZOLamide": 2266,
      "AcetaZOLamide": 2267,
      "Fos": 2268,
      "ux": 2269,
      "mip": 2270,
      "248": 2271,
      "AMP": 2272,
      "252": 2273,
      "254": 2274,
      "253": 2275,
      "ipine": 2276,
      "Movi": 2277,
      "MoviPrep": 2278,
      "251": 2279,
      "andi": 2280,
      "An": 2281,
      "mmune": 2282,
      "260": 2283,
      "Sandi": 2284,
      "Sandimmune": 2285,
      "Norepinephrine": 2286,
      "324": 2287,
      "Gentam": 2288,
      "Gentamicin": 2289,
      "for": 2290,
      "Be": 2291,
      "rin": 2292,
      "256": 2293,
      "talin": 2294,
      "Ritalin": 2295,
      "MethylPHE": 2296,
      "NIDATE": 2297,
      "MethylPHENIDATE": 2298,
      "258": 2299,
      "Terazosin": 2300,
      "NIDine": 2301,
      "sty": 2302,
      "259": 2303,
      "Samide": 2304,
      "LACO": 2305,
      "LACOSamide": 2306,
      "El": 2307,
      "CloNIDine": 2308,
      "270": 2309,
      "03": 2310,
      "3000": 2311,
      "tant": 2312,
      "praz": 2313,
      "prazolam": 2314,
      "Alprazolam": 2315,
      "257": 2316,
      "cli": 2317,
      "clizine": 2318,
      "Meclizine": 2319,
      "Tu": 2320,
      "repi": 2321,
      "repitant": 2322,
      "ytoin": 2323,
      "idone": 2324,
      "UP": 2325,
      "henytoin": 2326,
      "sphenytoin": 2327,
      "Fosphenytoin": 2328,
      "262": 2329,
      "267": 2330,
      "261": 2331,
      "Goly": 2332,
      "tely": 2333,
      "Golytely": 2334,
      "266": 2335,
      "265": 2336,
      "Waf": 2337,
      "Wafer": 2338,
      "ren": 2339,
      "WAF": 2340,
      "263": 2341,
      "sleeping": 2342,
      "Units": 2343,
      "264": 2344,
      "ily": 2345,
      "025": 2346,
      "odipine": 2347,
      "ratio": 2348,
      "protein": 2349,
      "Dia": 2350,
      "olesty": 2351,
      "olestyramine": 2352,
      "Cholestyramine": 2353,
      "SUP": 2354,
      "SUPP": 2355,
      "275": 2356,
      "Gastro": 2357,
      "ino": 2358,
      "Carb": 2359,
      "isatr": 2360,
      "acur": 2361,
      "isatracur": 2362,
      "isatracurium": 2363,
      "Cisatracurium": 2364,
      "Besylate": 2365,
      "Nim": 2366,
      "290": 2367,
      "Nimodipine": 2368,
      "Pan": 2369,
      "umine": 2370,
      "glumine": 2371,
      "zoate": 2372,
      "Meglumine": 2373,
      "trizoate": 2374,
      "view": 2375,
      "Diatrizoate": 2376,
      "Gastroview": 2377,
      "269": 2378,
      "268": 2379,
      "273": 2380,
      "272": 2381,
      "Amino": 2382,
      "01": 2383,
      "OS": 2384,
      "271": 2385,
      "274": 2386,
      "Prim": 2387,
      "Ente": 2388,
      "Entecavir": 2389,
      "onam": 2390,
      "Aztre": 2391,
      "Aztreonam": 2392,
      "lip": 2393,
      "Lith": 2394,
      "700": 2395,
      "02": 2396,
      "281": 2397,
      "aper": 2398,
      "Taper": 2399,
      "Clonidine": 2400,
      "276": 2401,
      "ob": 2402,
      "Tr": 2403,
      "DOP": 2404,
      "DOPamine": 2405,
      "imab": 2406,
      "Days": 2407,
      "Gam": 2408,
      "277": 2409,
      "Mesylate": 2410,
      "Op": 2411,
      "278": 2412,
      "oconazole": 2413,
      "Ketoconazole": 2414,
      "279": 2415,
      "exole": 2416,
      "mipexole": 2417,
      "Hydroxyurea": 2418,
      "ARI": 2419,
      "Piprazole": 2420,
      "ARIPiprazole": 2421,
      "valbuterol": 2422,
      "aprepitant": 2423,
      "Fosaprepitant": 2424,
      "platin": 2425,
      "Levalbuterol": 2426,
      "Valproic": 2427,
      "PAR": 2428,
      "Valproate": 2429,
      "annit": 2430,
      "annitol": 2431,
      "PARoxetine": 2432,
      "Sil": 2433,
      "Tol": 2434,
      "NATE": 2435,
      "YCLO": 2436,
      "nd": 2437,
      "dronate": 2438,
      "Risperidone": 2439,
      "285": 2440,
      "283": 2441,
      "snd": 2442,
      "sndz": 2443,
      "Mannitol": 2444,
      "onium": 2445,
      "282": 2446,
      "287": 2447,
      "endronate": 2448,
      "Daily": 2449,
      "Alendronate": 2450,
      "Once": 2451,
      "opy": 2452,
      "azone": 2453,
      "Lithium": 2454,
      "284": 2455,
      "pod": 2456,
      "Cefpod": 2457,
      "Cefpodox": 2458,
      "Prox": 2459,
      "Cefpodoxime": 2460,
      "Proxetil": 2461,
      "Gamm": 2462,
      "antine": 2463,
      "emantine": 2464,
      "Memantine": 2465,
      "unable": 2466,
      "Pris": 2467,
      "Vi": 2468,
      "les": 2469,
      "289": 2470,
      "291": 2471,
      "286": 2472,
      "isamide": 2473,
      "onisamide": 2474,
      "lipase": 2475,
      "trol": 2476,
      "288": 2477,
      "crelipase": 2478,
      "Pancrelipase": 2479,
      "Zonisamide": 2480,
      "Sup": 2481,
      "mas": 2482,
      "294": 2483,
      "citabine": 2484,
      "Prismas": 2485,
      "Prismasate": 2486,
      "293": 2487,
      "tonic": 2488,
      "296": 2489,
      "ramycin": 2490,
      "Ad": 2491,
      "1100": 2492,
      "Tob": 2493,
      "Tobramycin": 2494,
      "295": 2495,
      "975": 2496,
      "Ben": 2497,
      "odine": 2498,
      "292": 2499,
      "ges": 2500,
      "opyridine": 2501,
      "Ep": 2502,
      "azopyridine": 2503,
      "299": 2504,
      "Phenazopyridine": 2505,
      "iton": 2506,
      "Ral": 2507,
      "Tended": 2508,
      "EXTended": 2509,
      "Raltegravir": 2510,
      "amp": 2511,
      "etameth": 2512,
      "urant": 2513,
      "etamethasone": 2514,
      "per": 2515,
      "olazone": 2516,
      "Metolazone": 2517,
      "trof": 2518,
      "urantoin": 2519,
      "trofurantoin": 2520,
      "Vedilol": 2521,
      "CARVedilol": 2522,
      "DIC": 2523,
      "ixir": 2524,
      "YCLOMine": 2525,
      "DICYCLOMine": 2526,
      "Nitrofurantoin": 2527,
      "Elixir": 2528,
      "zole": 2529,
      "BO": 2530,
      "CARBO": 2531,
      "gestrol": 2532,
      "11000": 2533,
      "Megestrol": 2534,
      "Mesna": 2535,
      "otalol": 2536,
      "Betamethasone": 2537,
      "ID": 2538,
      "amazepine": 2539,
      "298": 2540,
      "Sotalol": 2541,
      "NAvir": 2542,
      "umps": 2543,
      "301": 2544,
      "TAMi": 2545,
      "ELTAMi": 2546,
      "Carbamazepine": 2547,
      "OSELTAMi": 2548,
      "OSELTAMivir": 2549,
      "asleep": 2550,
      "cy": 2551,
      "302": 2552,
      "297": 2553,
      "clumps": 2554,
      "rif": 2555,
      "GEL": 2556,
      "xil": 2557,
      "amphetamine": 2558,
      "oproxil": 2559,
      "altrex": 2560,
      "Oxcarbazepine": 2561,
      "Disoproxil": 2562,
      "altrexone": 2563,
      "terodine": 2564,
      "310": 2565,
      "read": 2566,
      "Viread": 2567,
      "Tolterodine": 2568,
      "Ari": 2569,
      "RiTO": 2570,
      "RiTONAvir": 2571,
      "IMin": 2572,
      "AXIMin": 2573,
      "rifAXIMin": 2574,
      "304": 2575,
      "trozole": 2576,
      "sta": 2577,
      "itriol": 2578,
      "Calcitriol": 2579,
      "kin": 2580,
      "uronium": 2581,
      "ofib": 2582,
      "renorphine": 2583,
      "iptan": 2584,
      "riDONE": 2585,
      "periDONE": 2586,
      "RisperiDONE": 2587,
      "305": 2588,
      "Acids": 2589,
      "Yclovir": 2590,
      "ACYclovir": 2591,
      "ValACYclovir": 2592,
      "Bup": 2593,
      "ofibrate": 2594,
      "306": 2595,
      "1700": 2596,
      "303": 2597,
      "atriptan": 2598,
      "Buprenorphine": 2599,
      "naltrexone": 2600,
      "307": 2601,
      "1800": 2602,
      "308": 2603,
      "bis": 2604,
      "311": 2605,
      "ela": 2606,
      "Dela": 2607,
      "Delayed": 2608,
      "312": 2609,
      "Hyper": 2610,
      "RE": 2611,
      "Fluoro": 2612,
      "313": 2613,
      "agen": 2614,
      "pip": 2615,
      "330": 2616,
      "piprazole": 2617,
      "Polyst": 2618,
      "yrene": 2619,
      "Polystyrene": 2620,
      "Sulfonate": 2621,
      "309": 2622,
      "Dextroamphetamine": 2623,
      "315": 2624,
      "DiC": 2625,
      "FLO": 2626,
      "BU": 2627,
      "lutegravir": 2628,
      "lar": 2629,
      "umatriptan": 2630,
      "Aripiprazole": 2631,
      "Sumatriptan": 2632,
      "gay": 2633,
      "Bengay": 2634,
      "ond": 2635,
      "lagen": 2636,
      "Collagen": 2637,
      "Collagenase": 2638,
      "319": 2639,
      "Sel": 2640,
      "RIDE": 2641,
      "BURIDE": 2642,
      "atab": 2643,
      "ondaparin": 2644,
      "GlyBURIDE": 2645,
      "ondaparinux": 2646,
      "Infatab": 2647,
      "314": 2648,
      "leu": 2649,
      "ric": 2650,
      "Fondaparinux": 2651,
      "red": 2652,
      "ug": 2653,
      "Pramipexole": 2654,
      "Hem": 2655,
      "317": 2656,
      "Dolutegravir": 2657,
      "Chew": 2658,
      "Chewable": 2659,
      "inil": 2660,
      "Prazosin": 2661,
      "ensi": 2662,
      "Methylnaltrexone": 2663,
      "ensiti": 2664,
      "ho": 2665,
      "ver": 2666,
      "tran": 2667,
      "rho": 2668,
      "idal": 2669,
      "orrho": 2670,
      "Hemorrho": 2671,
      "Hemorrhoidal": 2672,
      "cic": 2673,
      "Ferric": 2674,
      "2mg": 2675,
      "2200": 2676,
      "hyd": 2677,
      "ensitiz": 2678,
      "ensitization": 2679,
      "Amphetamine": 2680,
      "arun": 2681,
      "Self": 2682,
      "arunavir": 2683,
      "Gem": 2684,
      "Darunavir": 2685,
      "316": 2686,
      "Desensitization": 2687,
      "Gamma": 2688,
      "ome": 2689,
      "odaf": 2690,
      "thal": 2691,
      "oscy": 2692,
      "Hyoscy": 2693,
      "Dipro": 2694,
      "Dapsone": 2695,
      "Hyoscyamine": 2696,
      "ciclovir": 2697,
      "odafinil": 2698,
      "thalidone": 2699,
      "hi": 2700,
      "Chlorthalidone": 2701,
      "318": 2702,
      "Chlorpro": 2703,
      "MAZINE": 2704,
      "ChlorproMAZINE": 2705,
      "amol": 2706,
      "carbamol": 2707,
      "Methocarbamol": 2708,
      "retin": 2709,
      "321": 2710,
      "edic": 2711,
      "Ambis": 2712,
      "Ambisome": 2713,
      ".)": 2714,
      "340": 2715,
      "uss": 2716,
      "Xopen": 2717,
      "Xopenex": 2718,
      "oxif": 2719,
      "epin": 2720,
      "Doxepin": 2721,
      "Trans": 2722,
      "lion": 2723,
      "Opium": 2724,
      "323": 2725,
      "Eth": 2726,
      "tle": 2727,
      "Bot": 2728,
      "Rop": 2729,
      "edication": 2730,
      "Medication": 2731,
      "2400": 2732,
      "GAR": 2733,
      "GammaGAR": 2734,
      "GammaGARD": 2735,
      "WA": 2736,
      "protocol": 2737,
      "CIWA": 2738,
      "%-": 2739,
      "328": 2740,
      "322": 2741,
      "Bottle": 2742,
      "phamide": 2743,
      "326": 2744,
      "ber": 2745,
      "Levo": 2746,
      "LOm": 2747,
      "YCLOm": 2748,
      "DiCYCLOm": 2749,
      "DiCYCLOmine": 2750,
      "CVL": 2751,
      "Mineral": 2752,
      "sal": 2753,
      "oniaz": 2754,
      "oniazid": 2755,
      "Isoniazid": 2756,
      "ivir": 2757,
      "Niacin": 2758,
      "Mono": 2759,
      "333": 2760,
      "Decitabine": 2761,
      "BID": 2762,
      "roBID": 2763,
      "MacroBID": 2764,
      "Monohyd": 2765,
      "acil": 2766,
      "uracil": 2767,
      "TiC": 2768,
      "sel": 2769,
      "Fenofibrate": 2770,
      "AGRE": 2771,
      "TiCAGRE": 2772,
      "TiCAGRELOR": 2773,
      "Protein": 2774,
      "327": 2775,
      "hylax": 2776,
      "Prophylax": 2777,
      "Prophylaxis": 2778,
      "tamivir": 2779,
      "seltamivir": 2780,
      "Oseltamivir": 2781,
      "Via": 2782,
      "Benztropine": 2783,
      "rilex": 2784,
      "Vitamins": 2785,
      "olacrilex": 2786,
      "Polacrilex": 2787,
      "336": 2788,
      "329": 2789,
      "anciclovir": 2790,
      "Million": 2791,
      "athi": 2792,
      "oprine": 2793,
      "Azathi": 2794,
      "Azathioprine": 2795,
      "INV": 2796,
      "334": 2797,
      "331": 2798,
      "Ganciclovir": 2799,
      "hine": 2800,
      "culin": 2801,
      "Tuber": 2802,
      "Tuberculin": 2803,
      "idate": 2804,
      "SM": 2805,
      "Methimazole": 2806,
      "uta": 2807,
      "332": 2808,
      "Saline": 2809,
      "Machine": 2810,
      "Priming": 2811,
      "pred": 2812,
      "335": 2813,
      "olimus": 2814,
      "Cos": 2815,
      "vel": 2816,
      "smopressin": 2817,
      "1900": 2818,
      "Desmopressin": 2819,
      "PEN": 2820,
      "Fluorouracil": 2821,
      "338": 2822,
      "337": 2823,
      "339": 2824,
      "tropin": 2825,
      "8mg": 2826,
      "CycloPH": 2827,
      "UTA": 2828,
      "Epi": 2829,
      "fil": 2830,
      "Sub": 2831,
      "Pi": 2832,
      "yntropin": 2833,
      "tadine": 2834,
      "Cosyntropin": 2835,
      "ck": 2836,
      "345": 2837,
      "fos": 2838,
      "ure": 2839,
      "taz": 2840,
      "fosf": 2841,
      "mal": 2842,
      "Ifosf": 2843,
      "Ifosfamide": 2844,
      "Tuck": 2845,
      "Tucks": 2846,
      "ocin": 2847,
      "rinone": 2848,
      "341": 2849,
      "Xin": 2850,
      "afoate": 2851,
      "Xinafoate": 2852,
      "nisolone": 2853,
      "Milrinone": 2854,
      "Oxazepam": 2855,
      "344": 2856,
      "372": 2857,
      "cture": 2858,
      "1mg": 2859,
      "Tin": 2860,
      "Tincture": 2861,
      "terene": 2862,
      "icylate": 2863,
      "velam": 2864,
      "Triamterene": 2865,
      "342": 2866,
      "muth": 2867,
      "Rev": 2868,
      "Normal": 2869,
      "Pri": 2870,
      "348": 2871,
      "Prilo": 2872,
      "Bismuth": 2873,
      "8000": 2874,
      "salicylate": 2875,
      "Subsalicylate": 2876,
      "Fe": 2877,
      "itonin": 2878,
      "Clozapine": 2879,
      "Salmon": 2880,
      "Calcitonin": 2881,
      "Prilocaine": 2882,
      "Per": 2883,
      "Tem": 2884,
      "1mL": 2885,
      "fib": 2886,
      "rOP": 2887,
      "sevelam": 2888,
      "INIR": 2889,
      "rOPINIR": 2890,
      "rOPINIRole": 2891,
      "dena": 2892,
      "343": 2893,
      "denafil": 2894,
      "EpiPEN": 2895,
      "Sildenafil": 2896,
      "346": 2897,
      "irolimus": 2898,
      "347": 2899,
      "OXcarbazepine": 2900,
      "Sirolimus": 2901,
      "astrozole": 2902,
      "uximab": 2903,
      "349": 2904,
      "prednisolone": 2905,
      "Bum": 2906,
      "nide": 2907,
      "etanide": 2908,
      "Bumetanide": 2909,
      "357": 2910,
      "Methylprednisolone": 2911,
      "Modafinil": 2912,
      "fibro": 2913,
      "625": 2914,
      "353": 2915,
      "RISperidone": 2916,
      "GLU": 2917,
      "CONATE": 2918,
      "GLUCONATE": 2919,
      "Esmo": 2920,
      "Esmolol": 2921,
      "inib": 2922,
      "Rifamp": 2923,
      "Rifampin": 2924,
      "fa": 2925,
      "role": 2926,
      "351": 2927,
      "352": 2928,
      "inirole": 2929,
      "Roc": 2930,
      "cain": 2931,
      "ersal": 2932,
      "Reversal": 2933,
      "sevelamer": 2934,
      "afen": 2935,
      "rys": 2936,
      "354": 2937,
      "Rit": 2938,
      "Rituximab": 2939,
      "omeprazole": 2940,
      "NF": 2941,
      "Rocuronium": 2942,
      "rystal": 2943,
      "sa": 2944,
      "platelets": 2945,
      "large": 2946,
      "Gemfibro": 2947,
      "Gemfibrozil": 2948,
      "Ropinirole": 2949,
      "356": 2950,
      "biga": 2951,
      "bigatran": 2952,
      "exil": 2953,
      "exilate": 2954,
      "Pyridostigmine": 2955,
      "ACD": 2956,
      "Load": 2957,
      "Dabigatran": 2958,
      "Etexilate": 2959,
      "Pen": 2960,
      "Fluocin": 2961,
      "Dofetil": 2962,
      "Dofetilide": 2963,
      "355": 2964,
      "antadine": 2965,
      "370": 2966,
      "leukin": 2967,
      "7500": 2968,
      "359": 2969,
      "desleukin": 2970,
      "Gran": 2971,
      "358": 2972,
      "Flecain": 2973,
      "Flecainide": 2974,
      "Glycerin": 2975,
      "Pe": 2976,
      "Vag": 2977,
      "Amantadine": 2978,
      "crystal": 2979,
      "ell": 2980,
      "Aldesleukin": 2981,
      "Supps": 2982,
      "Nitrate": 2983,
      "crystals": 2984,
      "365": 2985,
      "IVE": 2986,
      "caps": 2987,
      "D10": 2988,
      "420": 2989,
      "ules": 2990,
      "gar": 2991,
      "Capsa": 2992,
      "Capsaicin": 2993,
      "Conj": 2994,
      "abine": 2995,
      "NAT": 2996,
      "CARBONATE": 2997,
      "ipril": 2998,
      "380": 2999,
      "Ve": 3000,
      "2800": 3001,
      "362": 3002,
      "Granules": 3003,
      "390": 3004,
      "KA": 3005,
      "atide": 3006,
      "ALAS": 3007,
      "INDI": 3008,
      "364": 3009,
      "NATIVE": 3010,
      "ALASKA": 3011,
      "INDIAN": 3012,
      "Sugar": 3013,
      "3200": 3014,
      "cen": 3015,
      "oxy": 3016,
      "367": 3017,
      "Xacin": 3018,
      "FLOXacin": 3019,
      "LevoFLOXacin": 3020,
      "oxalate": 3021,
      "363": 3022,
      "Hypertonic": 3023,
      "Succinylc": 3024,
      "holine": 3025,
      "Succinylcholine": 3026,
      "D10W": 3027,
      "russ": 3028,
      "phos": 3029,
      "tropruss": 3030,
      "Nitropruss": 3031,
      "Nitroprusside": 3032,
      "2100": 3033,
      "Nep": 3034,
      "B32": 3035,
      "hro": 3036,
      "Nephro": 3037,
      "Nephrocaps": 3038,
      "ipra": 3039,
      "K2": 3040,
      "sion": 3041,
      "366": 3042,
      "Temazepam": 3043,
      "Epid": 3044,
      "ulsion": 3045,
      "Emulsion": 3046,
      "arabine": 3047,
      "Quin": 3048,
      "Thy": 3049,
      "Prog": 3050,
      "B22": 3051,
      "K4": 3052,
      "Tretin": 3053,
      "361": 3054,
      "368": 3055,
      "Tretinoin": 3056,
      "Silver": 3057,
      "Cyclophos": 3058,
      "Cyclophosphamide": 3059,
      "ural": 3060,
      "Epidural": 3061,
      "371": 3062,
      "centrate": 3063,
      "Concentrate": 3064,
      "Esomeprazole": 3065,
      "Concentrated": 3066,
      "373": 3067,
      "azel": 3068,
      "Anti": 3069,
      "cardi": 3070,
      "cardia": 3071,
      "Isotonic": 3072,
      "Ximab": 3073,
      "374": 3074,
      "Benzo": 3075,
      "Supp": 3076,
      "3300": 3077,
      "Penicillin": 3078,
      "TR": 3079,
      "osit": 3080,
      "phenazine": 3081,
      "Sprin": 3082,
      "min": 3083,
      "ory": 3084,
      "ository": 3085,
      "iDONE": 3086,
      "plant": 3087,
      "PrimiDONE": 3088,
      "Transplant": 3089,
      "Program": 3090,
      "Suppository": 3091,
      "NTIN": 3092,
      "enem": 3093,
      "Res": 3094,
      "OxyCONTIN": 3095,
      "369": 3096,
      "tifib": 3097,
      "Eptifib": 3098,
      "Eptifibatide": 3099,
      "losta": 3100,
      "376": 3101,
      "oxazole": 3102,
      "kles": 3103,
      "atinib": 3104,
      "Sprinkles": 3105,
      "lostazol": 3106,
      "--": 3107,
      "378": 3108,
      "2700": 3109,
      "2300": 3110,
      "2900": 3111,
      "Sulfamethoxazole": 3112,
      "377": 3113,
      "favir": 3114,
      "favirenz": 3115,
      "Efavirenz": 3116,
      "381": 3117,
      "Sulfa": 3118,
      "386": 3119,
      "Ketamine": 3120,
      "Fludarabine": 3121,
      "atal": 3122,
      "moc": 3123,
      "SAL": 3124,
      "379": 3125,
      "SulfaSAL": 3126,
      "Im": 3127,
      "ue": 3128,
      "385": 3129,
      "Quinapril": 3130,
      "0625": 3131,
      "Test": 3132,
      "SulfaSALAzine": 3133,
      "niti": 3134,
      "Resc": 3135,
      "Initi": 3136,
      "Rescue": 3137,
      "Initial": 3138,
      "kal": 3139,
      "otamine": 3140,
      "Sulfadi": 3141,
      "Sulfadiazine": 3142,
      "410": 3143,
      "388": 3144,
      "Splatin": 3145,
      "release": 3146,
      "CISplatin": 3147,
      "Str": 3148,
      "Ratio": 3149,
      "NaCl": 3150,
      "extended": 3151,
      "CARBOplatin": 3152,
      "Ab": 3153,
      "virine": 3154,
      "384": 3155,
      "Desonide": 3156,
      "Chloro": 3157,
      "Pren": 3158,
      "Protamine": 3159,
      "382": 3160,
      "arit": 3161,
      "Clarit": 3162,
      "lex": 3163,
      "387": 3164,
      "Prenatal": 3165,
      "amole": 3166,
      "yridamole": 3167,
      "Anastrozole": 3168,
      "3100": 3169,
      "ym": 3170,
      "oxide": 3171,
      "Dipyridamole": 3172,
      "phate": 3173,
      "AUN": 3174,
      "DAUN": 3175,
      "3400": 3176,
      "Chlorothiazide": 3177,
      "391": 3178,
      "OSP": 3179,
      "OSPH": 3180,
      "389": 3181,
      "AMIDE": 3182,
      "CycloPHOSPH": 3183,
      "CycloPHOSPHAMIDE": 3184,
      "UXimab": 3185,
      "Felodipine": 3186,
      "Ata": 3187,
      "383": 3188,
      "met": 3189,
      "DAUNOrubicin": 3190,
      "rex": 3191,
      "ycer": 3192,
      "Benzocaine": 3193,
      "396": 3194,
      "ophos": 3195,
      "Glycer": 3196,
      "ophosphate": 3197,
      "Glycerophosphate": 3198,
      "2600": 3199,
      "gth": 3200,
      "ength": 3201,
      "azam": 3202,
      "Strength": 3203,
      "Sym": 3204,
      "be": 3205,
      "acavir": 3206,
      "itch": 3207,
      "Hazel": 3208,
      "Witch": 3209,
      "trogens": 3210,
      "Dipine": 3211,
      "MODipine": 3212,
      "osine": 3213,
      "395": 3214,
      "Pad": 3215,
      "Abacavir": 3216,
      "398": 3217,
      "397": 3218,
      "Estrogens": 3219,
      "ugated": 3220,
      "Conjugated": 3221,
      "zanavir": 3222,
      "Atazanavir": 3223,
      "es": 3224,
      "phenidate": 3225,
      "bicort": 3226,
      "393": 3227,
      "Symbicort": 3228,
      "alafen": 3229,
      "hed": 3230,
      "oep": 3231,
      "locar": 3232,
      "seud": 3233,
      "hedrine": 3234,
      "oephedrine": 3235,
      "locarpine": 3236,
      "seudoephedrine": 3237,
      "Pseudoephedrine": 3238,
      "Clobazam": 3239,
      "hromycin": 3240,
      "Clarithromycin": 3241,
      "flex": 3242,
      "Viaflex": 3243,
      "3600": 3244,
      "500mg": 3245,
      "NiMODipine": 3246,
      "Methylphenidate": 3247,
      "hycardia": 3248,
      "Tachycardia": 3249,
      "ulfate": 3250,
      "392": 3251,
      "terone": 3252,
      "401": 3253,
      "200mg": 3254,
      "ME": 3255,
      "24hr": 3256,
      "alan": 3257,
      "3500": 3258,
      "394": 3259,
      "roxide": 3260,
      "ban": 3261,
      "lob": 3262,
      "zom": 3263,
      "zomib": 3264,
      "SulfaSALAzine_": 3265,
      "25mg": 3266,
      "ambut": 3267,
      "Ethambut": 3268,
      "Ethambutol": 3269,
      "Fluocinonide": 3270,
      "399": 3271,
      "440": 3272,
      "Peroxide": 3273,
      "ubi": 3274,
      "well": 3275,
      "402": 3276,
      "Riton": 3277,
      "Ritonavir": 3278,
      "Nam": 3279,
      "cycline": 3280,
      "850": 3281,
      "404": 3282,
      "Iron": 3283,
      "pof": 3284,
      "enda": 3285,
      "409": 3286,
      "prost": 3287,
      "Caspof": 3288,
      "Namenda": 3289,
      "Caspofungin": 3290,
      "Dwell": 3291,
      "osterone": 3292,
      "Cilostazol": 3293,
      "ipramine": 3294,
      "carboxy": 3295,
      "Io": 3296,
      "carboxyhemoglobin": 3297,
      "408": 3298,
      "Glob": 3299,
      "403": 3300,
      "gan": 3301,
      "405": 3302,
      "methacin": 3303,
      "domethacin": 3304,
      "Indomethacin": 3305,
      "Ang": 3306,
      "hexol": 3307,
      "Iohexol": 3308,
      "yte": 3309,
      "407": 3310,
      "411": 3311,
      "413": 3312,
      "itaz": 3313,
      "itazone": 3314,
      "IOp": 3315,
      "aTH": 3316,
      "orte": 3317,
      "AzaTH": 3318,
      "IOprine": 3319,
      "AzaTHIOprine": 3320,
      "SCO": 3321,
      "edema": 3322,
      "ioedema": 3323,
      "Angioedema": 3324,
      "VY": 3325,
      "430": 3326,
      "DESCO": 3327,
      "Testosterone": 3328,
      "DESCOVY": 3329,
      "415": 3330,
      "emia": 3331,
      "inavir": 3332,
      "Tige": 3333,
      "Hyperkal": 3334,
      "Tigecycline": 3335,
      "Hyperkalemia": 3336,
      "Alfa": 3337,
      "curonium": 3338,
      "Borte": 3339,
      "Bortezomib": 3340,
      "BAM": 3341,
      "406": 3342,
      "BAMazepine": 3343,
      "CarBAMazepine": 3344,
      "HC": 3345,
      "methemoglobin": 3346,
      "425": 3347,
      "travirine": 3348,
      "The": 3349,
      "Hydrochloride": 3350,
      "sug": 3351,
      "Prasug": 3352,
      "Prasugrel": 3353,
      "Etravirine": 3354,
      "418": 3355,
      "Rib": 3356,
      "LI": 3357,
      "414": 3358,
      "Lopinavir": 3359,
      "budesonide": 3360,
      "Aminoca": 3361,
      "412": 3362,
      "inamide": 3363,
      "ViaFLO": 3364,
      "tronid": 3365,
      "Dakin": 3366,
      "Perphenazine": 3367,
      "Dakins": 3368,
      "ump": 3369,
      "Vecuronium": 3370,
      "416": 3371,
      "Pump": 3372,
      "Metronid": 3373,
      "426": 3374,
      "oo": 3375,
      "pramipexole": 3376,
      "421": 3377,
      "bit": 3378,
      "Imip": 3379,
      "Aminocapro": 3380,
      "Cil": 3381,
      "Imipenem": 3382,
      "Cilastatin": 3383,
      "uc": 3384,
      "Enalaprilat": 3385,
      "codone": 3386,
      "Aminocaproic": 3387,
      "417": 3388,
      "Multiple": 3389,
      "Liq": 3390,
      "Ramipril": 3391,
      "aseptic": 3392,
      "Phenaseptic": 3393,
      "RIT": 3394,
      "434": 3395,
      "Neonat": 3396,
      "HYDROcodone": 3397,
      "Neonatal": 3398,
      "mic": 3399,
      "tax": 3400,
      "olazine": 3401,
      "MU": 3402,
      "rod": 3403,
      "ocl": 3404,
      "Pilocarpine": 3405,
      "IAB": 3406,
      "IABP": 3407,
      "423": 3408,
      "tt": 3409,
      "etocl": 3410,
      "etoclax": 3411,
      "gtt": 3412,
      "etin": 3413,
      "Globulin": 3414,
      "taxel": 3415,
      "428": 3416,
      "troban": 3417,
      "cos": 3418,
      "cosamide": 3419,
      "Intr": 3420,
      "427": 3421,
      "419": 3422,
      "Pol": 3423,
      "422": 3424,
      "isti": 3425,
      "Polisti": 3426,
      "Polistirex": 3427,
      "Tetan": 3428,
      "460": 3429,
      "Tetanus": 3430,
      "Etom": 3431,
      "amid": 3432,
      "Etomidate": 3433,
      "vox": 3434,
      "424": 3435,
      "Pamid": 3436,
      "ronate": 3437,
      "Pamidronate": 3438,
      "oglitazone": 3439,
      "Pioglitazone": 3440,
      "gatroban": 3441,
      "Argatroban": 3442,
      "429": 3443,
      "Py": 3444,
      "Atr": 3445,
      "Tox": 3446,
      "Diph": 3447,
      "Carbamide": 3448,
      "Atrial": 3449,
      "RITUXimab": 3450,
      "Sh": 3451,
      "3800": 3452,
      "Ter": 3453,
      "Topical": 3454,
      "Lacosamide": 3455,
      "ampoo": 3456,
      "Shampoo": 3457,
      "Pent": 3458,
      "deral": 3459,
      "Rab": 3460,
      "Bisulfate": 3461,
      "oic": 3462,
      "Fib": 3463,
      "Mel": 3464,
      "rop": 3465,
      "Thymoc": 3466,
      "Rabbit": 3467,
      "Thymocyte": 3468,
      "derall": 3469,
      "Adderall": 3470,
      "orine": 3471,
      "sporine": 3472,
      "Av": 3473,
      "tradi": 3474,
      "432": 3475,
      "433": 3476,
      "oxifloxacin": 3477,
      "436": 3478,
      "UT": 3479,
      "tradiol": 3480,
      "Blu": 3481,
      "DOB": 3482,
      "atit": 3483,
      "ister": 3484,
      "Hepatit": 3485,
      "Admin": 3486,
      "UTamine": 3487,
      "Blue": 3488,
      "DOBUTamine": 3489,
      "istering": 3490,
      "Hepatitis": 3491,
      "Administering": 3492,
      "431": 3493,
      "phalan": 3494,
      "Melphalan": 3495,
      "tar": 3496,
      "Opht": 3497,
      "Cyclosporine": 3498,
      "ptop": 3499,
      "Caffeine": 3500,
      "captop": 3501,
      "ophyl": 3502,
      "TRA": 3503,
      "captopurine": 3504,
      "enic": 3505,
      "439": 3506,
      "lation": 3507,
      "rillation": 3508,
      "ophylline": 3509,
      "435": 3510,
      "ylline": 3511,
      "oxifylline": 3512,
      "443": 3513,
      "Fibrillation": 3514,
      "441": 3515,
      "Tax": 3516,
      "ace": 3517,
      "Fluvox": 3518,
      "roid": 3519,
      "Fluvoxamine": 3520,
      "442": 3521,
      "ATRA": 3522,
      "All": 3523,
      "retinoic": 3524,
      "Transretinoic": 3525,
      "Pentoxifylline": 3526,
      "Mercaptopurine": 3527,
      "ard": 3528,
      "Lac": 3529,
      "tat": 3530,
      "agard": 3531,
      "Gammagard": 3532,
      "senic": 3533,
      "Lovastatin": 3534,
      "Trioxide": 3535,
      "Arsenic": 3536,
      "520": 3537,
      "1750": 3538,
      "Rac": 3539,
      "Racepinephrine": 3540,
      "AZOLE": 3541,
      "MetronidAZOLE": 3542,
      "437": 3543,
      "iramine": 3544,
      "TL": 3545,
      "apleu": 3546,
      "Intrapleu": 3547,
      "Intrapleural": 3548,
      "470": 3549,
      "438": 3550,
      "oetin": 3551,
      "Epoetin": 3552,
      "Eple": 3553,
      "renone": 3554,
      "Eplerenone": 3555,
      "CL": 3556,
      "ZI": 3557,
      "ST": 3558,
      "binaf": 3559,
      "3700": 3560,
      "Theophylline": 3561,
      "binafine": 3562,
      "otri": 3563,
      "besartan": 3564,
      "Pert": 3565,
      "Pentam": 3566,
      "Pentamidine": 3567,
      "vudine": 3568,
      "mo": 3569,
      "449": 3570,
      "llu": 3571,
      "Acellu": 3572,
      "DiphTox": 3573,
      "Pertuss": 3574,
      "Acellular": 3575,
      "ulf": 3576,
      "444": 3577,
      "umab": 3578,
      "mi": 3579,
      "rab": 3580,
      "451": 3581,
      "morphine": 3582,
      "455": 3583,
      "ie": 3584,
      "Paste": 3585,
      "ipotri": 3586,
      "Calcipotri": 3587,
      "Calcipotriene": 3588,
      "Terbinafine": 3589,
      "720": 3590,
      "445": 3591,
      "504": 3592,
      "Ir": 3593,
      "Ade": 3594,
      "Lip": 3595,
      "rabase": 3596,
      "clo": 3597,
      "Orabase": 3598,
      "umi": 3599,
      "PAC": 3600,
      "anol": 3601,
      "446": 3602,
      "Ceftaz": 3603,
      "IDI": 3604,
      "447": 3605,
      "CeftazIDI": 3606,
      "CeftazIDIME": 3607,
      "almic": 3608,
      "Letrozole": 3609,
      "antin": 3610,
      "448": 3611,
      "OSphamide": 3612,
      "CycloPHOSphamide": 3613,
      "LItaxel": 3614,
      "PACLItaxel": 3615,
      "Temp": 3616,
      "rom": 3617,
      "ASidone": 3618,
      "PRASidone": 3619,
      "TLCL": 3620,
      "ZIPRASidone": 3621,
      "490": 3622,
      "flu": 3623,
      "453": 3624,
      "Lumi": 3625,
      "Lumigan": 3626,
      "Ophthalmic": 3627,
      "Ethanol": 3628,
      "456": 3629,
      "Ranolazine": 3630,
      "DW": 3631,
      "ELL": 3632,
      "DWELL": 3633,
      "LM": 3634,
      "4500": 3635,
      "nosine": 3636,
      "Adenosine": 3637,
      "Fat": 3638,
      "acel": 3639,
      "FILM": 3640,
      "Adacel": 3641,
      "no": 3642,
      "rica": 3643,
      "Med": 3644,
      "oxan": 3645,
      "enol": 3646,
      "458": 3647,
      "100000": 3648,
      "464": 3649,
      "lofenac": 3650,
      "ock": 3651,
      "Combi": 3652,
      "475": 3653,
      "3900": 3654,
      "Estradiol": 3655,
      "Macrod": 3656,
      "Macrodantin": 3657,
      "454": 3658,
      "TaxOL": 3659,
      "540": 3660,
      "452": 3661,
      "560": 3662,
      "Qvar": 3663,
      "sis": 3664,
      "Resta": 3665,
      "itin": 3666,
      "Restasis": 3667,
      "alfa": 3668,
      "azol": 3669,
      "Min": 3670,
      "Busulf": 3671,
      "Busulfan": 3672,
      "457": 3673,
      "ements": 3674,
      "cinex": 3675,
      "Mucinex": 3676,
      "Elements": 3677,
      "Trace": 3678,
      "469": 3679,
      "459": 3680,
      "nase": 3681,
      "Lactic": 3682,
      "Desitin": 3683,
      "461": 3684,
      "methamine": 3685,
      "462": 3686,
      "otic": 3687,
      "biotic": 3688,
      "Venetoclax": 3689,
      "Film": 3690,
      "Dextran": 3691,
      "sr": 3692,
      "466": 3693,
      "PCA": 3694,
      "azep": 3695,
      "itinib": 3696,
      "HCT": 3697,
      "463": 3698,
      "omycin": 3699,
      "prostone": 3700,
      "Lubi": 3701,
      "6000": 3702,
      "Lubiprostone": 3703,
      "Toprol": 3704,
      "zumab": 3705,
      "HCTZ": 3706,
      "Thyroid": 3707,
      "Gemcitabine": 3708,
      "exipril": 3709,
      "Moexipril": 3710,
      "ostat": 3711,
      "Zido": 3712,
      "Zidovudine": 3713,
      "epi": 3714,
      "eme": 3715,
      "Tamoxif": 3716,
      "Tamoxifen": 3717,
      "irbesartan": 3718,
      "oprostenol": 3719,
      "Epoprostenol": 3720,
      "sidone": 3721,
      "1334": 3722,
      "up": 3723,
      "apex": 3724,
      "Mirapex": 3725,
      "468": 3726,
      "tinib": 3727,
      "Tricor": 3728,
      "465": 3729,
      "467": 3730,
      "474": 3731,
      "Por": 3732,
      "Lock": 3733,
      "Pac": 3734,
      "Aprepitant": 3735,
      "481": 3736,
      "rig": 3737,
      "metholone": 3738,
      "483": 3739,
      "471": 3740,
      "473": 3741,
      "Imipramine": 3742,
      "472": 3743,
      "476": 3744,
      "order": 3745,
      "ocycline": 3746,
      "Fluorometholone": 3747,
      "Minocycline": 3748,
      "gil": 3749,
      "Irrig": 3750,
      "MD": 3751,
      "bo": 3752,
      "daily": 3753,
      "478": 3754,
      "{>": 3755,
      "etiracetam": 3756,
      "MOD": 3757,
      "ilet": 3758,
      "modafinil": 3759,
      "exilet": 3760,
      "exiletine": 3761,
      "Mexiletine": 3762,
      "Nex": 3763,
      "4100": 3764,
      "HP": 3765,
      "imepi": 3766,
      "imepiride": 3767,
      "Antibiotic": 3768,
      "479": 3769,
      "ivacaine": 3770,
      "ALI": 3771,
      "Ropivacaine": 3772,
      "Co": 3773,
      "Trav": 3774,
      "495": 3775,
      "Mit": 3776,
      "razinamide": 3777,
      "Polysaccharide": 3778,
      "Levetiracetam": 3779,
      "Pyrazinamide": 3780,
      "Polysaccharides": 3781,
      "485": 3782,
      "tu": 3783,
      "idomide": 3784,
      "Foam": 3785,
      "486": 3786,
      "488": 3787,
      "alidomide": 3788,
      "ane": 3789,
      "493": 3790,
      "cam": 3791,
      "olyn": 3792,
      "romolyn": 3793,
      "ve": 3794,
      "489": 3795,
      "Port": 3796,
      "482": 3797,
      "Irrigation": 3798,
      "trone": 3799,
      "oxantrone": 3800,
      "Mitoxantrone": 3801,
      "484": 3802,
      "Mis": 3803,
      "vid": 3804,
      "Cele": 3805,
      "Hydromorphone": 3806,
      "4400": 3807,
      "oprostol": 3808,
      "Clevid": 3809,
      "Misoprostol": 3810,
      "Clevidipine": 3811,
      "497": 3812,
      "Dic": 3813,
      "abu": 3814,
      "cap": 3815,
      "NEO": 3816,
      "Diclofenac": 3817,
      "510": 3818,
      "Rifabu": 3819,
      "Rifabutin": 3820,
      "Syrup": 3821,
      "Fluocinolone": 3822,
      "487": 3823,
      "477": 3824,
      "ali": 3825,
      "elb": 3826,
      "avirin": 3827,
      "Ribavirin": 3828,
      "capone": 3829,
      "xostat": 3830,
      "buxostat": 3831,
      "DAS": 3832,
      "othyron": 3833,
      "othyronine": 3834,
      "ubicin": 3835,
      "524": 3836,
      "505": 3837,
      "4200": 3838,
      "Febuxostat": 3839,
      "Dornase": 3840,
      "660": 3841,
      "Late": 3842,
      "tarol": 3843,
      "Ceftarol": 3844,
      "Latex": 3845,
      "Ceftaroline": 3846,
      "DASatinib": 3847,
      "Imatinib": 3848,
      "olitinib": 3849,
      "Travatan": 3850,
      "anastrozole": 3851,
      "Rom": 3852,
      "lostim": 3853,
      "iplostim": 3854,
      "Romiplostim": 3855,
      "515": 3856,
      "letri": 3857,
      "Veletri": 3858,
      "499": 3859,
      "496": 3860,
      "492": 3861,
      "514": 3862,
      "net": 3863,
      "carnet": 3864,
      "ralax": 3865,
      "Miralax": 3866,
      "Bro": 3867,
      "Liothyronine": 3868,
      "fenofibrate": 3869,
      "494": 3870,
      "491": 3871,
      "Cromolyn": 3872,
      "502": 3873,
      "ropionate": 3874,
      "unolol": 3875,
      "obunolol": 3876,
      "FA": 3877,
      "kacin": 3878,
      "Amikacin": 3879,
      "vap": 3880,
      "Tolvap": 3881,
      "Tolvaptan": 3882,
      "508": 3883,
      "ptine": 3884,
      "Levobunolol": 3885,
      "riptine": 3886,
      "501": 3887,
      "mocriptine": 3888,
      "Bromocriptine": 3889,
      "LG": 3890,
      "pa": 3891,
      "506": 3892,
      "Pap": 3893,
      "Glas": 3894,
      "stane": 3895,
      "emestane": 3896,
      "Papain": 3897,
      "Foscarnet": 3898,
      "afenone": 3899,
      "Iver": 3900,
      "ctin": 3901,
      "mectin": 3902,
      "Ivermectin": 3903,
      "methasone": 3904,
      "tartrate": 3905,
      "clomethasone": 3906,
      "HFA": 3907,
      "Ly": 3908,
      "503": 3909,
      "Propafenone": 3910,
      "511": 3911,
      "Moxifloxacin": 3912,
      "ist": 3913,
      "Lyrica": 3914,
      "Glass": 3915,
      "507": 3916,
      "roxy": 3917,
      "640": 3918,
      "chol": 3919,
      "ven": 3920,
      "tril": 3921,
      "TB": 3922,
      "517": 3923,
      "ON": 3924,
      "Fluphenazine": 3925,
      "667": 3926,
      "523": 3927,
      "olo": 3928,
      "Cin": 3929,
      "acalc": 3930,
      "penem": 3931,
      "509": 3932,
      "Cinacalc": 3933,
      "Cinacalcet": 3934,
      "glimepiride": 3935,
      "498": 3936,
      "Bic": 3937,
      "GO": 3938,
      "GE": 3939,
      "ria": 3940,
      "525": 3941,
      "SI": 3942,
      "530": 3943,
      "vancomycin": 3944,
      "Omni": 3945,
      "513": 3946,
      "Flucy": 3947,
      "Desipramine": 3948,
      "ubitril": 3949,
      "Flucyt": 3950,
      "adon": 3951,
      "580": 3952,
      "lav": 3953,
      "oflav": 3954,
      "que": 3955,
      "oflavin": 3956,
      "Riboflavin": 3957,
      "paque": 3958,
      "Omnipaque": 3959,
      "Sac": 3960,
      "Arubicin": 3961,
      "IDArubicin": 3962,
      "Flucytosine": 3963,
      "516": 3964,
      "Beth": 3965,
      "anechol": 3966,
      "Sacubitril": 3967,
      "Bethanechol": 3968,
      "Q10": 3969,
      "suc": 3970,
      "opt": 3971,
      "fenib": 3972,
      "Vol": 3973,
      "con": 3974,
      "Chlordi": 3975,
      "Medroxy": 3976,
      "518": 3977,
      "ERone": 3978,
      "PROGE": 3979,
      "STERone": 3980,
      "MedroxyPROGE": 3981,
      "MedroxyPROGESTERone": 3982,
      "537": 3983,
      "Zipra": 3984,
      "cid": 3985,
      "amate": 3986,
      "Ziprasidone": 3987,
      "ry": 3988,
      "526": 3989,
      "620": 3990,
      "519": 3991,
      "onaz": 3992,
      "ara": 3993,
      "rafenib": 3994,
      "vair": 3995,
      "avuc": 3996,
      "Advair": 3997,
      "onazonium": 3998,
      "avuconazonium": 3999,
      "elbamate": 4000,
      "538": 4001,
      "Bell": 4002,
      "mbin": 4003,
      "adonna": 4004,
      "Belladonna": 4005,
      "gam": 4006,
      "ub": 4007,
      "30mg": 4008,
      "Isavuconazonium": 4009,
      "2250": 4010,
      "pheniramine": 4011,
      "Nov": 4012,
      "tapenem": 4013,
      "vigil": 4014,
      "Ellip": 4015,
      "Ellipta": 4016,
      "570": 4017,
      "680": 4018,
      "enalidomide": 4019,
      "Chlorpheniramine": 4020,
      "521": 4021,
      "Naph": 4022,
      "Ertapenem": 4023,
      "tol": 4024,
      "azoline": 4025,
      "Naphazoline": 4026,
      "512": 4027,
      "oz": 4028,
      "inal": 4029,
      "Provigil": 4030,
      "Combivir": 4031,
      "522": 4032,
      "Vaginal": 4033,
      "532": 4034,
      "Pul": 4035,
      "535": 4036,
      "CE": 4037,
      "dex": 4038,
      "nitine": 4039,
      "finamide": 4040,
      "Ethac": 4041,
      "545": 4042,
      "list": 4043,
      "Oxali": 4044,
      "Oxaliplatin": 4045,
      "529": 4046,
      "Blist": 4047,
      "Ev": 4048,
      "Blistex": 4049,
      "536": 4050,
      "rux": 4051,
      "531": 4052,
      "Clavulanate": 4053,
      "Au": 4054,
      "Ru": 4055,
      "Azopt": 4056,
      "ozolo": 4057,
      "ente": 4058,
      "533": 4059,
      "590": 4060,
      "Beta": 4061,
      "Ras": 4062,
      "575": 4063,
      "539": 4064,
      "ista": 4065,
      "ozolomide": 4066,
      "Pheniramine": 4067,
      "Thrombin": 4068,
      "Evista": 4069,
      "ruxolitinib": 4070,
      "Rufinamide": 4071,
      "Tre": 4072,
      "4600": 4073,
      "CLA": 4074,
      "PF": 4075,
      "bene": 4076,
      "GELCLA": 4077,
      "nomide": 4078,
      "GELCLAIR": 4079,
      "534": 4080,
      "xolol": 4081,
      "cinate": 4082,
      "succinate": 4083,
      "528": 4084,
      "carnitine": 4085,
      "549": 4086,
      "544": 4087,
      "obid": 4088,
      "Lithobid": 4089,
      "555": 4090,
      "610": 4091,
      "thin": 4092,
      "Probene": 4093,
      "Probenecid": 4094,
      "CYCLO": 4095,
      "EMU": 4096,
      "LSI": 4097,
      "OPH": 4098,
      "CYCLOSPORINE": 4099,
      "EMULSI": 4100,
      "OPHTH": 4101,
      "EMULSION": 4102,
      "ma": 4103,
      "moxifloxacin": 4104,
      "mesartan": 4105,
      "Leup": 4106,
      "630": 4107,
      "546": 4108,
      "flunomide": 4109,
      "rolide": 4110,
      "thindr": 4111,
      "Leuprolide": 4112,
      "Vio": 4113,
      "552": 4114,
      "thindrone": 4115,
      "gesty": 4116,
      "543": 4117,
      "Pangesty": 4118,
      "5400": 4119,
      "Propoxy": 4120,
      "phene": 4121,
      "Betaxolol": 4122,
      "Propoxyphene": 4123,
      "osbu": 4124,
      "ofosbu": 4125,
      "OXALI": 4126,
      "ofosbuvir": 4127,
      "OXALIplatin": 4128,
      "4800": 4129,
      "can": 4130,
      "556": 4131,
      "Levocarnitine": 4132,
      "Viok": 4133,
      "Pangestyme": 4134,
      "527": 4135,
      "ticaria": 4136,
      "Urticaria": 4137,
      "554": 4138,
      "548": 4139,
      "TUXimab": 4140,
      "riTUXimab": 4141,
      "bucaine": 4142,
      "Pack": 4143,
      "Amiloride": 4144,
      "Exemestane": 4145,
      "cyclo": 4146,
      "ote": 4147,
      "Nitine": 4148,
      "CARNitine": 4149,
      "Flex": 4150,
      "542": 4151,
      "Lin": 4152,
      "brin": 4153,
      "Apap": 4154,
      "exa": 4155,
      "Ranexa": 4156,
      "Aer": 4157,
      "547": 4158,
      "Combo": 4159,
      "azepoxide": 4160,
      "vent": 4161,
      "Loading": 4162,
      "MI": 4163,
      "553": 4164,
      "rimethamine": 4165,
      "Dibucaine": 4166,
      "micort": 4167,
      "563": 4168,
      "eron": 4169,
      "648": 4170,
      "fumarate": 4171,
      "Chlordiazepoxide": 4172,
      "541": 4173,
      "rone": 4174,
      "umet": 4175,
      "Aerogen": 4176,
      "darone": 4177,
      "moterol": 4178,
      "585": 4179,
      "Drone": 4180,
      "ben": 4181,
      "trac": 4182,
      "Pulmicort": 4183,
      "Dronedarone": 4184,
      "561": 4185,
      "558": 4186,
      "nin": 4187,
      "atonin": 4188,
      "gram": 4189,
      "tamide": 4190,
      "Tro": 4191,
      "aMI": 4192,
      "Loride": 4193,
      "Ethyl": 4194,
      "aMILoride": 4195,
      "566": 4196,
      "voprost": 4197,
      "travoprost": 4198,
      "mel": 4199,
      "tacapone": 4200,
      "lev": 4201,
      "Tromethamine": 4202,
      "565": 4203,
      "Bitartrate": 4204,
      "rutinib": 4205,
      "Augm": 4206,
      "4300": 4207,
      "567": 4208,
      "557": 4209,
      "cycloSPORINE": 4210,
      "571": 4211,
      "lutamide": 4212,
      "lon": 4213,
      "Viokase": 4214,
      "562": 4215,
      "melatonin": 4216,
      "hep": 4217,
      "vil": 4218,
      "10000": 4219,
      "6400": 4220,
      "nic": 4221,
      "rynic": 4222,
      "Ethacrynic": 4223,
      "568": 4224,
      "din": 4225,
      "icar": 4226,
      "Benicar": 4227,
      "vas": 4228,
      "LOX": 4229,
      "azepril": 4230,
      "umetone": 4231,
      "559": 4232,
      "STCK": 4233,
      "594": 4234,
      "588": 4235,
      "EN": 4236,
      "Ethylsuccinate": 4237,
      "Nab": 4238,
      "666": 4239,
      "DiCLOX": 4240,
      "Nexium": 4241,
      "Nabumetone": 4242,
      "DiCLOXacillin": 4243,
      "569": 4244,
      "li": 4245,
      "rad": 4246,
      "carbazine": 4247,
      "Volum": 4248,
      "lix": 4249,
      "xib": 4250,
      "coxib": 4251,
      "fomycin": 4252,
      "Fosfomycin": 4253,
      "Pyrimethamine": 4254,
      "564": 4255,
      "atoprost": 4256,
      "Cypro": 4257,
      "551": 4258,
      "heptadine": 4259,
      "Cyproheptadine": 4260,
      "Sofosbuvir": 4261,
      "Clomi": 4262,
      "PRAMINE": 4263,
      "Linz": 4264,
      "ClomiPRAMINE": 4265,
      "apro": 4266,
      "ess": 4267,
      "Linzess": 4268,
      "ered": 4269,
      "leflunomide": 4270,
      "idin": 4271,
      "irudin": 4272,
      "589": 4273,
      "acet": 4274,
      "NovoLIN": 4275,
      "vastigmine": 4276,
      "rady": 4277,
      "Otic": 4278,
      "Vale": 4279,
      "Valerate": 4280,
      "573": 4281,
      "cilostazol": 4282,
      "LevoCARNitine": 4283,
      "6300": 4284,
      "lum": 4285,
      "midex": 4286,
      "Arimidex": 4287,
      "Lipos": 4288,
      "592": 4289,
      "IB": 4290,
      "yme": 4291,
      "605": 4292,
      "radycardia": 4293,
      "sate": 4294,
      "astine": 4295,
      "prosate": 4296,
      "Eskal": 4297,
      "camprosate": 4298,
      "Eskalith": 4299,
      "UA": 4300,
      "Avapro": 4301,
      "596": 4302,
      "574": 4303,
      "Acamprosate": 4304,
      "Bradycardia": 4305,
      "Buff": 4306,
      "Buffered": 4307,
      "5500": 4308,
      "577": 4309,
      "felbamate": 4310,
      "572": 4311,
      "sed": 4312,
      "agil": 4313,
      "Methylene": 4314,
      "Nevir": 4315,
      "Combigan": 4316,
      "Nevirapine": 4317,
      "5800": 4318,
      "576": 4319,
      "740": 4320,
      "par": 4321,
      "yphen": 4322,
      "idyl": 4323,
      "dip": 4324,
      "hexyphen": 4325,
      "iban": 4326,
      "ibrutinib": 4327,
      "alantamine": 4328,
      "hexyphenidyl": 4329,
      "cle": 4330,
      "entan": 4331,
      "MetOL": 4332,
      "IUM": 4333,
      "Vision": 4334,
      "MetOLazone": 4335,
      "578": 4336,
      "7000": 4337,
      "Hear": 4338,
      "Trihexyphenidyl": 4339,
      "4700": 4340,
      "Heart": 4341,
      "595": 4342,
      "6500": 4343,
      "ustine": 4344,
      "rofiban": 4345,
      "Tirofiban": 4346,
      "Fa": 4347,
      "ilu": 4348,
      "serum": 4349,
      "clidin": 4350,
      "clearance": 4351,
      "Failu": 4352,
      "clidinium": 4353,
      "Failure": 4354,
      "oth": 4355,
      "trim": 4356,
      "pivirine": 4357,
      "ented": 4358,
      "Augmented": 4359,
      "581": 4360,
      "593": 4361,
      "asvir": 4362,
      "linide": 4363,
      "582": 4364,
      "Gen": 4365,
      "Vigam": 4366,
      "Vigamox": 4367,
      "579": 4368,
      "fu": 4369,
      "Volumen": 4370,
      "agiline": 4371,
      "all": 4372,
      "CELE": 4373,
      "597": 4374,
      "598": 4375,
      "XIB": 4376,
      "tolo": 4377,
      "azelastine": 4378,
      "NexIUM": 4379,
      "587": 4380,
      "584": 4381,
      "brex": 4382,
      "Stri": 4383,
      "sulfate": 4384,
      "atment": 4385,
      "bild": 4386,
      "Dacarbazine": 4387,
      "Treatment": 4388,
      "Stribild": 4389,
      "Lat": 4390,
      "izumab": 4391,
      "uda": 4392,
      "Latuda": 4393,
      "5100": 4394,
      "583": 4395,
      "591": 4396,
      "icam": 4397,
      "aglinide": 4398,
      "ermo": 4399,
      "valirudin": 4400,
      "Bivalirudin": 4401,
      "PreserVision": 4402,
      "760": 4403,
      "Rep": 4404,
      "Repaglinide": 4405,
      "675": 4406,
      "cep": 4407,
      "matoprost": 4408,
      "istin": 4409,
      "bimatoprost": 4410,
      "intub": 4411,
      "formoterol": 4412,
      "brinzolamide": 4413,
      "Gra": 4414,
      "elon": 4415,
      "ica": 4416,
      "Chall": 4417,
      "Graded": 4418,
      "Challenge": 4419,
      "magne": 4420,
      "Colistin": 4421,
      "magnesium": 4422,
      "Cop": 4423,
      "crea": 4424,
      "ume": 4425,
      "004": 4426,
      "ella": 4427,
      "tracycline": 4428,
      "602": 4429,
      "603": 4430,
      "rilpivirine": 4431,
      "umeclidinium": 4432,
      "feron": 4433,
      "azodone": 4434,
      "601": 4435,
      "Azole": 4436,
      "IMAzole": 4437,
      "Exelon": 4438,
      "pilocarpine": 4439,
      "MethIMAzole": 4440,
      "terferon": 4441,
      "Tetracycline": 4442,
      "Pancrea": 4443,
      "letrozole": 4444,
      "Disopy": 4445,
      "Disopyramide": 4446,
      "633": 4447,
      "ulk": 4448,
      "2c": 4449,
      "ris": 4450,
      "614": 4451,
      "MT": 4452,
      "pent": 4453,
      "atol": 4454,
      "626": 4455,
      "618": 4456,
      "Ble": 4457,
      "Stine": 4458,
      "BLAStine": 4459,
      "VinBLAStine": 4460,
      "covy": 4461,
      "Descovy": 4462,
      "venetoclax": 4463,
      "Bleomycin": 4464,
      "5600": 4465,
      "roc": 4466,
      "608": 4467,
      "lotinib": 4468,
      "ICtal": 4469,
      "omal": 4470,
      "LaMICtal": 4471,
      "otecan": 4472,
      "Liposomal": 4473,
      "sedated": 4474,
      "fam": 4475,
      "beclomethasone": 4476,
      "benazepril": 4477,
      "dipropionate": 4478,
      "UD": 4479,
      "mil": 4480,
      "eppra": 4481,
      "Aspar": 4482,
      "623": 4483,
      "612": 4484,
      "606": 4485,
      "COXIB": 4486,
      "CELECOXIB": 4487,
      "itra": 4488,
      "tem": 4489,
      "calutamide": 4490,
      "604": 4491,
      "Fosamp": 4492,
      "renavir": 4493,
      "Bicitra": 4494,
      "Fosamprenavir": 4495,
      "Keppra": 4496,
      "olapril": 4497,
      "andolapril": 4498,
      "viroc": 4499,
      "Trandolapril": 4500,
      "araviroc": 4501,
      "645": 4502,
      "ophi": 4503,
      "26mg": 4504,
      "quini": 4505,
      "Beclomethasone": 4506,
      "ophilus": 4507,
      "quiniDINE": 4508,
      "586": 4509,
      "635": 4510,
      "960": 4511,
      "Irin": 4512,
      "Men": 4513,
      "24mg": 4514,
      "Irinotecan": 4515,
      "690": 4516,
      "Vel": 4517,
      "Bactrim": 4518,
      "617": 4519,
      "dor": 4520,
      "oro": 4521,
      "tep": 4522,
      "ator": 4523,
      "riz": 4524,
      "imet": 4525,
      "Benzoyl": 4526,
      "665": 4527,
      "dap": 4528,
      "ket": 4529,
      "607": 4530,
      "Pancrease": 4531,
      "Sorbi": 4532,
      "ak": 4533,
      "609": 4534,
      "Dipropionate": 4535,
      "Sorbitol": 4536,
      "Vanco": 4537,
      "Vancocin": 4538,
      "Maraviroc": 4539,
      "dro": 4540,
      "6200": 4541,
      "FLI": 4542,
      "Lenalidomide": 4543,
      "InFLI": 4544,
      "InFLIXimab": 4545,
      "Triazolam": 4546,
      "conj": 4547,
      "Velban": 4548,
      "4900": 4549,
      "615": 4550,
      "Fem": 4551,
      "mon": 4552,
      "Methazol": 4553,
      "RifAMP": 4554,
      "Methazolamide": 4555,
      "RifAMPin": 4556,
      "622": 4557,
      "670": 4558,
      "Ala": 4559,
      "ostim": 4560,
      "Inflix": 4561,
      "Sargram": 4562,
      "intubated": 4563,
      "Infliximab": 4564,
      "Sargramostim": 4565,
      "5200": 4566,
      "599": 4567,
      "616": 4568,
      "629": 4569,
      "odar": 4570,
      "emax": 4571,
      "Lotemax": 4572,
      "Tenofov": 4573,
      "621": 4574,
      "Cimet": 4575,
      "Ple": 4576,
      "STA": 4577,
      "vidone": 4578,
      "zosin": 4579,
      "tegrav": 4580,
      "fuzosin": 4581,
      "pentolate": 4582,
      "Cimetidine": 4583,
      "Se": 4584,
      "rivastigmine": 4585,
      "anterol": 4586,
      "Ceftolo": 4587,
      "Cyclopentolate": 4588,
      "zane": 4589,
      "ugate": 4590,
      "vilanterol": 4591,
      "conjugate": 4592,
      "Ceftolozane": 4593,
      "5300": 4594,
      "PALI": 4595,
      "ridex": 4596,
      "Peridex": 4597,
      "619": 4598,
      "mb": 4599,
      "Povidone": 4600,
      "6700": 4601,
      "Emtricit": 4602,
      "Bictegrav": 4603,
      "famciclovir": 4604,
      "brimonidine": 4605,
      "5700": 4606,
      "Donn": 4607,
      "verolimus": 4608,
      "Rasagiline": 4609,
      "Dermo": 4610,
      "100mL": 4611,
      "plast": 4612,
      "Dermoplast": 4613,
      "634": 4614,
      "Ledi": 4615,
      "Tran": 4616,
      "galantamine": 4617,
      "pasvir": 4618,
      "tocin": 4619,
      "Oxytocin": 4620,
      "Celebrex": 4621,
      "Ledipasvir": 4622,
      "613": 4623,
      "tec": 4624,
      "Anoro": 4625,
      "PALIperidone": 4626,
      "632": 4627,
      "BR": 4628,
      "NIN": 4629,
      "opag": 4630,
      "tromb": 4631,
      "EDS": 4632,
      "AREDS": 4633,
      "Norethindrone": 4634,
      "MENIN": 4635,
      "GOcoccal": 4636,
      "trombopag": 4637,
      "MENINGOcoccal": 4638,
      "ATRI": 4639,
      "PLA": 4640,
      "ind": 4641,
      "actra": 4642,
      "Inj": 4643,
      "Menactra": 4644,
      "ATRIPLA": 4645,
      "631": 4646,
      "725": 4647,
      "Iod": 4648,
      "olmesartan": 4649,
      "alfuzosin": 4650,
      "azide": 4651,
      "eltrombopag": 4652,
      "655": 4653,
      "Paced": 4654,
      "dil": 4655,
      "isop": 4656,
      "646": 4657,
      "ranolazine": 4658,
      "rodol": 4659,
      "Iodide": 4660,
      "isoprodol": 4661,
      "CUP": 4662,
      "za": 4663,
      "ralox": 4664,
      "salazide": 4665,
      "raloxifene": 4666,
      "611": 4667,
      "715": 4668,
      "To": 4669,
      "albuterol": 4670,
      "Andro": 4671,
      "AndroGel": 4672,
      "Air": 4673,
      "Dan": 4674,
      "EA": 4675,
      "mustine": 4676,
      "ProAir": 4677,
      "afib": 4678,
      "timolol": 4679,
      "BREX": 4680,
      "9000": 4681,
      "Propyl": 4682,
      "Carmustine": 4683,
      "kg": 4684,
      "1979": 4685,
      "649": 4686,
      "nore": 4687,
      "6600": 4688,
      "rcep": 4689,
      "nercep": 4690,
      "enzyme": 4691,
      "Dilu": 4692,
      "Temozolomide": 4693,
      "temozolomide": 4694,
      "nercept": 4695,
      "pionate": 4696,
      "rasidone": 4697,
      "etasone": 4698,
      "639": 4699,
      "Pl": 4700,
      "utr": 4701,
      "lurasidone": 4702,
      "aclo": 4703,
      "thio": 4704,
      "bisoprolol": 4705,
      "tuzumab": 4706,
      "Propylthio": 4707,
      "Propylthiouracil": 4708,
      "(*": 4709,
      "Ha": 4710,
      "Naltrexone": 4711,
      "Zy": 4712,
      "Act": 4713,
      "Pres": 4714,
      "million": 4715,
      "637": 4716,
      "Drop": 4717,
      "Lyte": 4718,
      "Ta": 4719,
      "ive": 4720,
      "lenalidomide": 4721,
      "ose": 4722,
      "asma": 4723,
      "Cypionate": 4724,
      "Plasma": 4725,
      "Talc": 4726,
      "emophilus": 4727,
      "only": 4728,
      "citrate": 4729,
      "ometasone": 4730,
      "Haemophilus": 4731,
      "624": 4732,
      "636": 4733,
      "use": 4734,
      "taurin": 4735,
      "entacapone": 4736,
      "ostaurin": 4737,
      "GN": 4738,
      "ath": 4739,
      "etanercept": 4740,
      "REGN": 4741,
      "REGN1979": 4742,
      "950": 4743,
      "haler": 4744,
      "pul": 4745,
      "641": 4746,
      "Diluent": 4747,
      "628": 4748,
      "bulk": 4749,
      "642": 4750,
      "erid": 4751,
      "inase": 4752,
      "ional": 4753,
      "carisoprodol": 4754,
      "aginase": 4755,
      "Clof": 4756,
      "Azolam": 4757,
      "652": 4758,
      "TRIAzolam": 4759,
      "Asparaginase": 4760,
      "Everolimus": 4761,
      "ntine": 4762,
      "legil": 4763,
      "MAntine": 4764,
      "PKG": 4765,
      "664": 4766,
      "644": 4767,
      "MEMAntine": 4768,
      "legiline": 4769,
      "He": 4770,
      "pep": 4771,
      "inter": 4772,
      "Applic": 4773,
      "656": 4774,
      "Applicator": 4775,
      "Jan": 4776,
      "ary": 4777,
      "ilast": 4778,
      "burica": 4779,
      "aled": 4780,
      "Inhaled": 4781,
      "Sorafenib": 4782,
      "Rasburica": 4783,
      "ventional": 4784,
      "monary": 4785,
      "pulmonary": 4786,
      "interventional": 4787,
      "Rasburicase": 4788,
      "Urea": 4789,
      "nib": 4790,
      "vacizumab": 4791,
      "Bevacizumab": 4792,
      "627": 4793,
      "nsr": 4794,
      "661": 4795,
      "662": 4796,
      "780": 4797,
      "653": 4798,
      "eride": 4799,
      "gabapentin": 4800,
      "{\"": 4801,
      "Chain": 4802,
      "tive": 4803,
      "yceride": 4804,
      "span": 4805,
      "Trigl": 4806,
      "672": 4807,
      "prednisoLONE": 4808,
      "Quinine": 4809,
      "Medium": 4810,
      "Hespan": 4811,
      "ycerides": 4812,
      "Triglycerides": 4813,
      "840": 4814,
      "senna": 4815,
      "990": 4816,
      "Flexhaler": 4817,
      "*)": 4818,
      "oline": 4819,
      "opica": 4820,
      "651": 4821,
      "Doxil": 4822,
      "Tropica": 4823,
      "Tropicamide": 4824,
      "\"}": 4825,
      "a2": 4826,
      "top": 4827,
      "TAcapone": 4828,
      "roflum": 4829,
      "ENTAcapone": 4830,
      "Femara": 4831,
      "roflumilast": 4832,
      "Bath": 4833,
      "Muro": 4834,
      "ronized": 4835,
      "Indap": 4836,
      "astin": 4837,
      "Olmesartan": 4838,
      "Indapamide": 4839,
      "mometasone": 4840,
      "vo": 4841,
      "deni": 4842,
      "Salt": 4843,
      "654": 4844,
      "669": 4845,
      "Avastin": 4846,
      "denies": 4847,
      "clofenac": 4848,
      "diclofenac": 4849,
      "Ave": 4850,
      "Celecoxib": 4851,
      "CeleBREX": 4852,
      "aquine": 4853,
      "enpep": 4854,
      "1050": 4855,
      "Primaquine": 4856,
      "638": 4857,
      "880": 4858,
      "657": 4859,
      "6900": 4860,
      "dextro": 4861,
      "710": 4862,
      "multi": 4863,
      "van": 4864,
      "tac": 4865,
      "exam": 4866,
      "acetate": 4867,
      "examic": 4868,
      "730": 4869,
      "vim": 4870,
      "674": 4871,
      "658": 4872,
      "659": 4873,
      "norethindrone": 4874,
      "Lan": 4875,
      "Non": 4876,
      "throid": 4877,
      "1950": 4878,
      "DRIN": 4879,
      "Clofarabine": 4880,
      "Nutr": 4881,
      "Zenpep": 4882,
      "carbidopa": 4883,
      "ition": 4884,
      "663": 4885,
      "647": 4886,
      "Thera": 4887,
      "Nutrition": 4888,
      "4mg": 4889,
      "687": 4890,
      "Triflu": 4891,
      "671": 4892,
      "Copper": 4893,
      "Tranexamic": 4894,
      "689": 4895,
      "ya": 4896,
      "acid": 4897,
      "643": 4898,
      "Irbesartan": 4899,
      "igl": 4900,
      "706": 4901,
      "Rosigl": 4902,
      "Rosiglitazone": 4903,
      "685": 4904,
      "Lial": 4905,
      "fe": 4906,
      "lpf": 4907,
      "istat": 4908,
      "tane": 4909,
      "cast": 4910,
      "ETT": 4911,
      "673": 4912,
      "esomeprazole": 4913,
      "UDCUP": 4914,
      "Lialda": 4915,
      "casts": 4916,
      "681": 4917,
      "ADI": 4918,
      "aside": 4919,
      "ett": 4920,
      "SulfADI": 4921,
      "imen": 4922,
      "684": 4923,
      "asidenib": 4924,
      "693": 4925,
      "716": 4926,
      "Dimen": 4927,
      "Sta": 4928,
      "cel": 4929,
      "mac": 4930,
      "ripar": 4931,
      "idra": 4932,
      "hyDRIN": 4933,
      "tiga": 4934,
      "Zytiga": 4935,
      "DimenhyDRIN": 4936,
      "riparatide": 4937,
      "DimenhyDRINATE": 4938,
      "790": 4939,
      "Iodine": 4940,
      "sti": 4941,
      "Hepa": 4942,
      "buto": 4943,
      "oxyl": 4944,
      "Metronidazole": 4945,
      "Genvo": 4946,
      "butolol": 4947,
      "Genvoya": 4948,
      "688": 4949,
      "7600": 4950,
      "{.": 4951,
      "ative": 4952,
      "abrafenib": 4953,
      "668": 4954,
      "nol": 4955,
      "eno": 4956,
      "1875": 4957,
      "679": 4958,
      "686": 4959,
      "Benzoate": 4960,
      "bicistat": 4961,
      "Aveeno": 4962,
      "SulfADIAzine": 4963,
      "713": 4964,
      "enasidenib": 4965,
      "Nef": 4966,
      "ick": 4967,
      "Valtrex": 4968,
      "51mg": 4969,
      "49mg": 4970,
      "rednol": 4971,
      "HepaGam": 4972,
      "722": 4973,
      "Ry": 4974,
      "econazole": 4975,
      "lotep": 4976,
      "801": 4977,
      "etabonate": 4978,
      "dornase": 4979,
      "loteprednol": 4980,
      "694": 4981,
      "692": 4982,
      "Eff": 4983,
      "Sys": 4984,
      "pan": 4985,
      "pella": 4986,
      "Acebutolol": 4987,
      "balsalazide": 4988,
      "Excel": 4989,
      "DRP": 4990,
      "trolene": 4991,
      "tazoxan": 4992,
      "Impella": 4993,
      "Dantrolene": 4994,
      "Nefazodone": 4995,
      "Systane": 4996,
      "tazoxanide": 4997,
      "696": 4998,
      "with": 4999,
      "acyclovir": 5000,
      "nab": 5001,
      "estradiol": 5002,
      "CoQ10": 5003,
      "712": 5004,
      "728": 5005,
      "lansoprazole": 5006,
      "emir": 5007,
      "lecoxib": 5008,
      "HYDROCH": 5009,
      "LORIDE": 5010,
      "5900": 5011,
      "celecoxib": 5012,
      "Niacinamide": 5013,
      "Tou": 5014,
      "HYDROCHLORIDE": 5015,
      "683": 5016,
      "DO": 5017,
      "Flo": 5018,
      "Felbamate": 5019,
      "bris": 5020,
      "1350": 5021,
      "Asleep": 5022,
      "tary": 5023,
      "tacrolimus": 5024,
      "Rytary": 5025,
      "brisentan": 5026,
      "D3": 5027,
      "Dep": 5028,
      "via": 5029,
      "{<": 5030,
      "Entacapone": 5031,
      "tub": 5032,
      "dextroamphetamine": 5033,
      "698": 5034,
      "SO": 5035,
      "Intub": 5036,
      "677": 5037,
      "820": 5038,
      "860": 5039,
      "Lant": 5040,
      "ope": 5041,
      "epate": 5042,
      "razepate": 5043,
      "roxicam": 5044,
      "Clorazepate": 5045,
      "Dipotassium": 5046,
      "701": 5047,
      "FEW": 5048,
      "hydro": 5049,
      "Piroxicam": 5050,
      "aclotide": 5051,
      "Lantus": 5052,
      "745": 5053,
      "810": 5054,
      "unex": 5055,
      "Methy": 5056,
      "755": 5057,
      "Thioth": 5058,
      "678": 5059,
      "ixene": 5060,
      "Gamunex": 5061,
      "Lacta": 5062,
      "Thiothixene": 5063,
      "dal": 5064,
      "Chan": 5065,
      "exemestane": 5066,
      "NSR": 5067,
      "Time": 5068,
      "Donnatol": 5069,
      "SO4": 5070,
      "695": 5071,
      "fo": 5072,
      "ipratropium": 5073,
      "ana": 5074,
      "705": 5075,
      "vite": 5076,
      "7400": 5077,
      "765": 5078,
      "Acarb": 5079,
      "iva": 5080,
      "ROR": 5081,
      "otene": 5082,
      "linaclotide": 5083,
      "ERROR": 5084,
      "708": 5085,
      "682": 5086,
      "Acarbose": 5087,
      "VAL": 5088,
      "ecitabine": 5089,
      "tiq": 5090,
      "707": 5091,
      "Capecitabine": 5092,
      "Xi": 5093,
      "lim": 5094,
      "pH": 5095,
      "salate": 5096,
      "taren": 5097,
      "the": 5098,
      "eline": 5099,
      "Liver": 5100,
      "Salsalate": 5101,
      "676": 5102,
      "Erlotinib": 5103,
      "TObarbital": 5104,
      "PENTObarbital": 5105,
      "Voltaren": 5106,
      "2mL": 5107,
      "6100": 5108,
      "699": 5109,
      "Rux": 5110,
      "dabrafenib": 5111,
      "inyl": 5112,
      "anum": 5113,
      "thanum": 5114,
      "Immu": 5115,
      "loxicam": 5116,
      "ERE": 5117,
      "Tabs": 5118,
      "Lanthanum": 5119,
      "limid": 5120,
      "Ruxolitinib": 5121,
      "691": 5122,
      "732": 5123,
      "736": 5124,
      "TERE": 5125,
      "Ze": 5126,
      "oTERE": 5127,
      "emtuzumab": 5128,
      "tab": 5129,
      "lera": 5130,
      "1320": 5131,
      "ambrisentan": 5132,
      "TAL": 5133,
      "Alemtuzumab": 5134,
      "Dulera": 5135,
      "Pristiq": 5136,
      "TaxoTERE": 5137,
      "Cobicistat": 5138,
      "CEtaxel": 5139,
      "rizatriptan": 5140,
      "ketorolac": 5141,
      "PleTAL": 5142,
      "DOCEtaxel": 5143,
      "Flum": 5144,
      "ucovorin": 5145,
      "enil": 5146,
      "oleucovorin": 5147,
      "azenil": 5148,
      "60mg": 5149,
      "Levoleucovorin": 5150,
      "Atgam": 5151,
      "Selegiline": 5152,
      "Flumazenil": 5153,
      "7200": 5154,
      "724": 5155,
      "Avi": 5156,
      "Or": 5157,
      "est": 5158,
      "rog": 5159,
      "end": 5160,
      "bicalutamide": 5161,
      "vimeline": 5162,
      "7100": 5163,
      "fre": 5164,
      "pom": 5165,
      "uzumab": 5166,
      "001": 5167,
      "coenzyme": 5168,
      "Interferon": 5169,
      "otin": 5170,
      "Glimepiride": 5171,
      "pomalidomide": 5172,
      "770": 5173,
      "920": 5174,
      "US": 5175,
      "_UNIT": 5176,
      "goline": 5177,
      "702": 5178,
      "704": 5179,
      "Biotene": 5180,
      "cevimeline": 5181,
      "ginterferon": 5182,
      "bergoline": 5183,
      "Peginterferon": 5184,
      "3250": 5185,
      "TS": 5186,
      "gre": 5187,
      "anz": 5188,
      "Dexil": 5189,
      "tiv": 5190,
      "2350": 5191,
      "Levemir": 5192,
      "Prednisolone": 5193,
      "Dexilant": 5194,
      "714": 5195,
      "717": 5196,
      "onatinib": 5197,
      "Avodar": 5198,
      "Xiidra": 5199,
      "Avodart": 5200,
      "719": 5201,
      "721": 5202,
      "riva": 5203,
      "749": 5204,
      "NAD": 5205,
      "Send": 5206,
      "fedi": 5207,
      "ise": 5208,
      "tel": 5209,
      "Preservative": 5210,
      "stitu": 5211,
      "726": 5212,
      "735": 5213,
      "Citra": 5214,
      "acetamide": 5215,
      "Valacyclovir": 5216,
      "Bicalutamide": 5217,
      "Trifluope": 5218,
      "fresh": 5219,
      "Citracal": 5220,
      "Trifluoperazine": 5221,
      "D20": 5222,
      "Eps": 5223,
      "itrate": 5224,
      "759": 5225,
      "709": 5226,
      "DEHP": 5227,
      "Calcitrate": 5228,
      "STAT": 5229,
      "D20W": 5230,
      "Epsom": 5231,
      "731": 5232,
      "uvia": 5233,
      "Januvia": 5234,
      "711": 5235,
      "CC": 5236,
      "pat": 5237,
      "ss": 5238,
      "yt": 5239,
      "Levoxyl": 5240,
      "Saliva": 5241,
      "indolol": 5242,
      "767": 5243,
      "LIM": 5244,
      "My": 5245,
      "VLIM": 5246,
      "ZYR": 5247,
      "pen": 5248,
      "enium": 5249,
      "ult": 5250,
      "Refresh": 5251,
      "1680": 5252,
      "Trast": 5253,
      "Soma": 5254,
      "703": 5255,
      "REVLIM": 5256,
      "Revlimid": 5257,
      "Intubation": 5258,
      "Lactaid": 5259,
      "ZYRtec": 5260,
      "Trastuzumab": 5261,
      "REVLIMID": 5262,
      "697": 5263,
      "Pindolol": 5264,
      "cabergoline": 5265,
      "albu": 5266,
      "tioxetine": 5267,
      "ortioxetine": 5268,
      "Protop": 5269,
      "IMatinib": 5270,
      "fortic": 5271,
      "levodopa": 5272,
      "Myfortic": 5273,
      "Protopic": 5274,
      "718": 5275,
      "Bo": 5276,
      "Star": 5277,
      "si": 5278,
      "coal": 5279,
      "arcoal": 5280,
      "raf": 5281,
      "1480": 5282,
      "300mg": 5283,
      "756": 5284,
      "methadone": 5285,
      "Parente": 5286,
      "FlexTou": 5287,
      "tivated": 5288,
      "Parenteral": 5289,
      "FlexTouch": 5290,
      "TTS": 5291,
      "Charcoal": 5292,
      "acitidine": 5293,
      "Activated": 5294,
      "ethinyl": 5295,
      "Azacitidine": 5296,
      "meloxicam": 5297,
      "orinostat": 5298,
      "micronized": 5299,
      "venlafaxine": 5300,
      "isetron": 5301,
      "FR": 5302,
      "Felb": 5303,
      "OCC": 5304,
      "alone": 5305,
      "ZOFR": 5306,
      "afi": 5307,
      "Droperid": 5308,
      "Felbatol": 5309,
      "ZOFRAN": 5310,
      "Droperidol": 5311,
      "768": 5312,
      "Brin": 5313,
      "Jak": 5314,
      "Rh": 5315,
      "Uni": 5316,
      "mid": 5317,
      "2050": 5318,
      "Sulfide": 5319,
      "empro": 5320,
      "Prempro": 5321,
      "Selenium": 5322,
      "prostinil": 5323,
      "Treprostinil": 5324,
      "fedipine": 5325,
      "Jakafi": 5326,
      "6800": 5327,
      "739": 5328,
      "7800": 5329,
      "785": 5330,
      "786": 5331,
      "741": 5332,
      "iriva": 5333,
      "Docusat": 5334,
      "ialys": 5335,
      "Phospho": 5336,
      "Carfil": 5337,
      "Midostaurin": 5338,
      "Spiriva": 5339,
      "Soda": 5340,
      "ialysis": 5341,
      "Carfilzomib": 5342,
      "2a": 5343,
      "729": 5344,
      "Itr": 5345,
      "MP": 5346,
      "mannitol": 5347,
      "otif": 5348,
      "trel": 5349,
      "etinib": 5350,
      "PUMP": 5351,
      "970": 5352,
      "1120": 5353,
      "776": 5354,
      "trametinib": 5355,
      "dexlansoprazole": 5356,
      "stitute": 5357,
      "Itraconazole": 5358,
      "otifen": 5359,
      "734": 5360,
      "ponatinib": 5361,
      "ste": 5362,
      "vitamin": 5363,
      "entra": 5364,
      "rax": 5365,
      "Sulfacetamide": 5366,
      "Resp": 5367,
      "imat": 5368,
      "758": 5369,
      "axone": 5370,
      "742": 5371,
      "748": 5372,
      "761": 5373,
      "Temodar": 5374,
      "Diphthe": 5375,
      "Copaxone": 5376,
      "Respimat": 5377,
      "Diphtheria": 5378,
      "775": 5379,
      "Bre": 5380,
      "Tres": 5381,
      "eo": 5382,
      "zant": 5383,
      "com": 5384,
      "erol": 5385,
      "calcif": 5386,
      "iba": 5387,
      "Substitute": 5388,
      "bozant": 5389,
      "vilazodone": 5390,
      "ketotifen": 5391,
      "Breo": 5392,
      "Tresiba": 5393,
      "calciferol": 5394,
      "bozantinib": 5395,
      "762": 5396,
      "Id": 5397,
      "KED": 5398,
      "PO": 5399,
      "Ro": 5400,
      "UM": 5401,
      "Unab": 5402,
      "VAC": 5403,
      "abi": 5404,
      "aza": 5405,
      "azeP": 5406,
      "ldopa": 5407,
      "743": 5408,
      "OXIDE": 5409,
      "Teal": 5410,
      "Optive": 5411,
      "GammaKED": 5412,
      "Claritin": 5413,
      "ChlordiazeP": 5414,
      "GenTeal": 5415,
      "Methyldopa": 5416,
      "Unable": 5417,
      "ChlordiazePOXIDE": 5418,
      "723": 5419,
      "Gum": 5420,
      "St": 5421,
      "vy": 5422,
      "zyme": 5423,
      "athe": 5424,
      "2450": 5425,
      "Forte": 5426,
      "athecal": 5427,
      "763": 5428,
      "8100": 5429,
      "rater": 5430,
      "onex": 5431,
      "aspan": 5432,
      "Alpro": 5433,
      "2750": 5434,
      "753": 5435,
      "Niaspan": 5436,
      "CITID": 5437,
      "stadil": 5438,
      "kinra": 5439,
      "Intrathecal": 5440,
      "anakinra": 5441,
      "azaCITID": 5442,
      "raterone": 5443,
      "Alprostadil": 5444,
      "azaCITIDine": 5445,
      "738": 5446,
      "769": 5447,
      "GUM": 5448,
      "Ralox": 5449,
      "Vit": 5450,
      "iz": 5451,
      "plet": 5452,
      "unit": 5453,
      "Procain": 5454,
      "744": 5455,
      "746": 5456,
      "TREX": 5457,
      "fovir": 5458,
      "Raloxifene": 5459,
      "Procainamide": 5460,
      "727": 5461,
      "7300": 5462,
      "733": 5463,
      "825": 5464,
      "Br": 5465,
      "Jun": 5466,
      "yca": 5467,
      "epime": 5468,
      "drin": 5469,
      "752": 5470,
      "Cefepime": 5471,
      "Mega": 5472,
      "782": 5473,
      "OREL": 5474,
      "Navel": 5475,
      "benzo": 5476,
      "VinOREL": 5477,
      "Avibactam": 5478,
      "plete": 5479,
      "Navelbine": 5480,
      "VinORELbine": 5481,
      "815": 5482,
      "Dali": 5483,
      "Pal": 5484,
      "rib": 5485,
      "und": 5486,
      "COQ10": 5487,
      "Probiotic": 5488,
      "Defe": 5489,
      "Ocu": 5490,
      "Stavudine": 5491,
      "Floor": 5492,
      "Stock": 5493,
      "Daliresp": 5494,
      "Flol": 5495,
      "Lu": 5496,
      "rivar": 5497,
      "lee": 5498,
      "aryl": 5499,
      "1360": 5500,
      "Acular": 5501,
      "Sulind": 5502,
      "805": 5503,
      "roxamine": 5504,
      "754": 5505,
      "Amaryl": 5506,
      "Comtan": 5507,
      "Avyca": 5508,
      "abiraterone": 5509,
      "Junel": 5510,
      "Deferoxamine": 5511,
      "Flolan": 5512,
      "rivaracetam": 5513,
      "Sulindac": 5514,
      "Avycaz": 5515,
      "797": 5516,
      "771": 5517,
      "812": 5518,
      "Rem": 5519,
      "VUD": 5520,
      "ect": 5521,
      "iVUD": 5522,
      "ktar": 5523,
      "xalone": 5524,
      "ye": 5525,
      "tretin": 5526,
      "biv": 5527,
      "ussin": 5528,
      "1140": 5529,
      "Alphag": 5530,
      "Simbrin": 5531,
      "751": 5532,
      "Exce": 5533,
      "Biktar": 5534,
      "metaxalone": 5535,
      "iVUDine": 5536,
      "tretinoin": 5537,
      "Alphagan": 5538,
      "Simbrinza": 5539,
      "Excedrin": 5540,
      "Biktarvy": 5541,
      "980": 5542,
      "PA": 5543,
      "Xime": 5544,
      "sim": 5545,
      "vortioxetine": 5546,
      "Bisoprolol": 5547,
      "Huma": 5548,
      "DiaRes": 5549,
      "bitussin": 5550,
      "teparin": 5551,
      "tellix": 5552,
      "Robitussin": 5553,
      "DiaResQ": 5554,
      "796": 5555,
      "784": 5556,
      "890": 5557,
      "870": 5558,
      "Can": 5559,
      "Syn": 5560,
      "UTR": 5561,
      "nys": 5562,
      "sica": 5563,
      "802": 5564,
      "elzine": 5565,
      "757": 5566,
      "LOG": 5567,
      "Phenelzine": 5568,
      "747": 5569,
      "Vesica": 5570,
      "vec": 5571,
      "dorzolamide": 5572,
      "leevec": 5573,
      "HumaLOG": 5574,
      "Vesicare": 5575,
      "792": 5576,
      "Blin": 5577,
      "Brivaracetam": 5578,
      "Gleevec": 5579,
      "cru": 5580,
      "mab": 5581,
      "pu": 5582,
      "ryn": 5583,
      "atumo": 5584,
      "ocrystal": 5585,
      "itentan": 5586,
      "844": 5587,
      "773": 5588,
      "osinopril": 5589,
      "erapy": 5590,
      "Abrax": 5591,
      "Ethacryn": 5592,
      "lized": 5593,
      "Drops": 5594,
      "VALTREX": 5595,
      "Bound": 5596,
      "midostaurin": 5597,
      "Synthroid": 5598,
      "Blinatumo": 5599,
      "ocrystallized": 5600,
      "Abraxane": 5601,
      "Ethacrynate": 5602,
      "Blinatumomab": 5603,
      "gua": 5604,
      "pol": 5605,
      "biotin": 5606,
      "1440": 5607,
      "808": 5608,
      "Qui": 5609,
      "777": 5610,
      "779": 5611,
      "tricular": 5612,
      "Complera": 5613,
      "Remeron": 5614,
      "737": 5615,
      "813": 5616,
      "8500": 5617,
      "Bal": 5618,
      "Myr": 5619,
      "Sk": 5620,
      "trin": 5621,
      "ler": 5622,
      "Intra": 5623,
      "nebiv": 5624,
      "1150": 5625,
      "804": 5626,
      "elax": 5627,
      "triq": 5628,
      "Rivastigmine": 5629,
      "Tetra": 5630,
      "betriq": 5631,
      "Myrbetriq": 5632,
      "Skelax": 5633,
      "Intraven": 5634,
      "nebivolol": 5635,
      "Skelaxin": 5636,
      "BEN": 5637,
      "DAm": 5638,
      "Kcen": 5639,
      "yes": 5640,
      "emoth": 5641,
      "insulin": 5642,
      "chemoth": 5643,
      "idil": 5644,
      "henamine": 5645,
      "ill": 5646,
      "AMOX": 5647,
      "oxidil": 5648,
      "methrin": 5649,
      "Complete": 5650,
      "gestrel": 5651,
      "salt": 5652,
      "Minoxidil": 5653,
      "USE": 5654,
      "Ocuvite": 5655,
      "Lutein": 5656,
      "BENDAm": 5657,
      "Kcentra": 5658,
      "chemotherapy": 5659,
      "AMOXicillin": 5660,
      "BENDAmustine": 5661,
      "778": 5662,
      "Ara": 5663,
      "nisone": 5664,
      "vorinostat": 5665,
      "reg": 5666,
      "bicarb": 5667,
      "1000mg": 5668,
      "Incru": 5669,
      "Nitazoxanide": 5670,
      "Acetic": 5671,
      "levo": 5672,
      "macitentan": 5673,
      "Arava": 5674,
      "Incruse": 5675,
      "783": 5676,
      "794": 5677,
      "789": 5678,
      "iph": 5679,
      "Aciph": 5680,
      "TAXime": 5681,
      "803": 5682,
      "835": 5683,
      "Lax": 5684,
      "desvenlafaxine": 5685,
      "Donnatal": 5686,
      "Aciphex": 5687,
      "-}": 5688,
      "1650": 5689,
      "795": 5690,
      "766": 5691,
      "764": 5692,
      "MG": 5693,
      "Sleep": 5694,
      "Tic": 5695,
      "modipine": 5696,
      "vance": 5697,
      "ze": 5698,
      "enazine": 5699,
      "nimodipine": 5700,
      "asatinib": 5701,
      "aspar": 5702,
      "teriparatide": 5703,
      "3050": 5704,
      "icill": 5705,
      "iperid": 5706,
      "ippu": 5707,
      "SolTab": 5708,
      "ensa": 5709,
      "lopidine": 5710,
      "Nasonex": 5711,
      "Extra": 5712,
      "LamiVUDine": 5713,
      "Penicill": 5714,
      "acetaminophen": 5715,
      "Inject": 5716,
      "Idar": 5717,
      "Paliperid": 5718,
      "Ticlopidine": 5719,
      "ippurate": 5720,
      "Penicillamine": 5721,
      "Paliperidone": 5722,
      "799": 5723,
      "793": 5724,
      "772": 5725,
      "818": 5726,
      "Max": 5727,
      "clus": 5728,
      "miron": 5729,
      "nor": 5730,
      "oTAXime": 5731,
      "so": 5732,
      "1080": 5733,
      "irlukast": 5734,
      "Apris": 5735,
      "CefoTAXime": 5736,
      "afirlukast": 5737,
      "gerid": 5738,
      "Elmiron": 5739,
      "Epclus": 5740,
      "Zegerid": 5741,
      "steride": 5742,
      "nystatin": 5743,
      "Intraventricular": 5744,
      "Idarubicin": 5745,
      "Apriso": 5746,
      "Epclusa": 5747,
      "2B": 5748,
      "791": 5749,
      "Prol": 5750,
      "Tar": 5751,
      "gran": 5752,
      "ira": 5753,
      "moxetine": 5754,
      "pac": 5755,
      "eptive": 5756,
      "ids": 5757,
      "1540": 5758,
      "Docusa": 5759,
      "Salagen": 5760,
      "848": 5761,
      "Humalo": 5762,
      "Humira": 5763,
      "mebo": 5764,
      "Domebo": 5765,
      "Advance": 5766,
      "contrac": 5767,
      "Unithroid": 5768,
      "Injection": 5769,
      "Prolensa": 5770,
      "Humalog": 5771,
      "Domeboro": 5772,
      "Advanced": 5773,
      "contraceptive": 5774,
      "774": 5775,
      "814": 5776,
      "883": 5777,
      "AER": 5778,
      "Galantamine": 5779,
      "Hiz": 5780,
      "Ise": 5781,
      "PN": 5782,
      "cet": 5783,
      "orid": 5784,
      "luzole": 5785,
      "cole": 5786,
      "1060": 5787,
      "aration": 5788,
      "thionate": 5789,
      "Amph": 5790,
      "Thiorid": 5791,
      "7700": 5792,
      "Teriparatide": 5793,
      "Preparation": 5794,
      "mozyme": 5795,
      "Pulmozyme": 5796,
      "AERD": 5797,
      "Hizentra": 5798,
      "Isethionate": 5799,
      "colesevelam": 5800,
      "Thioridazine": 5801,
      "824": 5802,
      "OG": 5803,
      "Rol": 5804,
      "Vim": 5805,
      "aids": 5806,
      "glu": 5807,
      "oil": 5808,
      "ricin": 5809,
      "chlo": 5810,
      "ras": 5811,
      "uLIN": 5812,
      "1520": 5813,
      "ocyt": 5814,
      "1850": 5815,
      "Immune": 5816,
      "833": 5817,
      "oLOG": 5818,
      "HumuLIN": 5819,
      "Peg": 5820,
      "clotrimazole": 5821,
      "NovoLOG": 5822,
      "otericin": 5823,
      "Acting": 5824,
      "Depocyt": 5825,
      "Orth": 5826,
      "Rolaids": 5827,
      "Vimpat": 5828,
      "3125": 5829,
      "798": 5830,
      "817": 5831,
      "8400": 5832,
      "845": 5833,
      "910": 5834,
      "Maxim": 5835,
      "TC": 5836,
      "prop": 5837,
      "sb": 5838,
      "yx": 5839,
      "1260": 5840,
      "20mg": 5841,
      "Prednisone": 5842,
      "Dexametha": 5843,
      "847": 5844,
      "Prograf": 5845,
      "guaiFENesin": 5846,
      "Amphotericin": 5847,
      "Maximum": 5848,
      "781": 5849,
      "788": 5850,
      "816": 5851,
      "Eye": 5852,
      "Fast": 5853,
      "Lon": 5854,
      "ig": 5855,
      "riluzole": 5856,
      "cape": 5857,
      "50mg": 5858,
      "opan": 5859,
      "tera": 5860,
      "test": 5861,
      "ictal": 5862,
      "sinus": 5863,
      "CAVAC": 5864,
      "DECAVAC": 5865,
      "trexed": 5866,
      "Lamictal": 5867,
      "Benazepril": 5868,
      "Starter": 5869,
      "Sleeping": 5870,
      "Long": 5871,
      "capecitabine": 5872,
      "830": 5873,
      "826": 5874,
      "Bulk": 5875,
      "zafirlukast": 5876,
      "coles": 5877,
      "actant": 5878,
      "agabine": 5879,
      "tipol": 5880,
      "Leflunomide": 5881,
      "adribine": 5882,
      "Cladribine": 5883,
      "885": 5884,
      "Tiagabine": 5885,
      "Migra": 5886,
      "Defibro": 5887,
      "acetylcysteine": 5888,
      "colestipol": 5889,
      "Migraine": 5890,
      "Defibrotide": 5891,
      "4250": 5892,
      "811": 5893,
      "828": 5894,
      "Base": 5895,
      "BTL": 5896,
      "ade": 5897,
      "hippurate": 5898,
      "ut": 5899,
      "odialysis": 5900,
      "Choo": 5901,
      "atomoxetine": 5902,
      "iren": 5903,
      "1420": 5904,
      "832": 5905,
      "Click": 5906,
      "8700": 5907,
      "Serum": 5908,
      "Hemodialysis": 5909,
      "Coenzyme": 5910,
      "Change": 5911,
      "Choose": 5912,
      "868": 5913,
      "Leter": 5914,
      "iv": 5915,
      "emtric": 5916,
      "cabozantinib": 5917,
      "tix": 5918,
      "Rel": 5919,
      "807": 5920,
      "809": 5921,
      "80mg": 5922,
      "Necon": 5923,
      "Promac": 5924,
      "Microg": 5925,
      "856": 5926,
      "843": 5927,
      "Ultra": 5928,
      "copper": 5929,
      "permethrin": 5930,
      "methenamine": 5931,
      "movir": 5932,
      "Chantix": 5933,
      "estin": 5934,
      "Letermovir": 5935,
      "Promacta": 5936,
      "Microgestin": 5937,
      "8200": 5938,
      "821": 5939,
      "Evox": 5940,
      "Zyr": 5941,
      "duta": 5942,
      "maleate": 5943,
      "trad": 5944,
      "atum": 5945,
      "ontin": 5946,
      "desartan": 5947,
      "1340": 5948,
      "40mg": 5949,
      "1460": 5950,
      "ort": 5951,
      "806": 5952,
      "tralac": 5953,
      "ValGANCIclo": 5954,
      "Pletal": 5955,
      "TheraTears": 5956,
      "Evoxac": 5957,
      "dutasteride": 5958,
      "2150": 5959,
      "829": 5960,
      "CT": 5961,
      "Dal": 5962,
      "Lub": 5963,
      "Wel": 5964,
      "cream": 5965,
      "dazole": 5966,
      "gel": 5967,
      "gron": 5968,
      "Chol": 5969,
      "100mg": 5970,
      "nitazoxanide": 5971,
      "rabe": 5972,
      "1550": 5973,
      "tik": 5974,
      "1640": 5975,
      "837": 5976,
      "Conc": 5977,
      "Movan": 5978,
      "mirabe": 5979,
      "bendazole": 5980,
      "Forteo": 5981,
      "WelChol": 5982,
      "Movantik": 5983,
      "mirabegron": 5984,
      "895": 5985,
      "940": 5986,
      "AZI": 5987,
      "HR": 5988,
      "Kit": 5989,
      "Peme": 5990,
      "Zof": 5991,
      "janz": 5992,
      "attera": 5993,
      "nanocrystallized": 5994,
      "1450": 5995,
      "eljanz": 5996,
      "enzalutamide": 5997,
      "97mg": 5998,
      "103mg": 5999,
      "LECT": 6000,
      "887": 6001,
      "Micronized": 6002,
      "849": 6003,
      "Strattera": 6004,
      "AZILECT": 6005,
      "Pemetrexed": 6006,
      "Zofran": 6007,
      "822": 6008,
      "By": 6009,
      "Raz": 6010,
      "Xeljanz": 6011,
      "nt": 6012,
      "tter": 6013,
      "yne": 6014,
      "ensin": 6015,
      "1380": 6016,
      "adyne": 6017,
      "831": 6018,
      "838": 6019,
      "axitinib": 6020,
      "afil": 6021,
      "sertraline": 6022,
      "vinyl": 6023,
      "clocycline": 6024,
      "ricant": 6025,
      "emeclocycline": 6026,
      "PlasmaLyte": 6027,
      "rasagiline": 6028,
      "Lubricant": 6029,
      "Razadyne": 6030,
      "%)": 6031,
      "3150": 6032,
      "5mL": 6033,
      "823": 6034,
      "866": 6035,
      "Mult": 6036,
      "RAR": 6037,
      "Tdap": 6038,
      "Vic": 6039,
      "cromolyn": 6040,
      "fac": 6041,
      "obenz": 6042,
      "tenofo": 6043,
      "vine": 6044,
      "istu": 6045,
      "tadal": 6046,
      "irfen": 6047,
      "Ondans": 6048,
      "819": 6049,
      "1980": 6050,
      "888": 6051,
      "857": 6052,
      "7900": 6053,
      "Moistu": 6054,
      "Tegre": 6055,
      "Sodi": 6056,
      "inocort": 6057,
      "Terconazole": 6058,
      "levothyroxine": 6059,
      "Aspart": 6060,
      "rizing": 6061,
      "grelor": 6062,
      "Rhinocort": 6063,
      "RARE": 6064,
      "obenzamide": 6065,
      "tadalafil": 6066,
      "irfenidone": 6067,
      "Moisturizing": 6068,
      "Tegretol": 6069,
      "5mcg": 6070,
      "881": 6071,
      "Gil": 6072,
      "Lune": 6073,
      "MB": 6074,
      "Ure": 6075,
      "crom": 6076,
      "nilotinib": 6077,
      "actor": 6078,
      "1880": 6079,
      "839": 6080,
      "Nifedipine": 6081,
      "861": 6082,
      "862": 6083,
      "Gastrocrom": 6084,
      "bisacodyl": 6085,
      "Poractant": 6086,
      "Travoprost": 6087,
      "brexpiprazole": 6088,
      "paced": 6089,
      "Lunesta": 6090,
      "925": 6091,
      "Bys": 6092,
      "Banz": 6093,
      "Flora": 6094,
      "adr": 6095,
      "prog": 6096,
      "sofosbuvir": 6097,
      "etta": 6098,
      "osentan": 6099,
      "3750": 6100,
      "ASEN": 6101,
      "907": 6102,
      "Titralac": 6103,
      "Benadr": 6104,
      "RESTA": 6105,
      "SIS": 6106,
      "tolic": 6107,
      "Flexpen": 6108,
      "Balsalazide": 6109,
      "Byetta": 6110,
      "Bystolic": 6111,
      "Banzel": 6112,
      "ASENapine": 6113,
      "Benadryl": 6114,
      "RESTASIS": 6115,
      ".}": 6116,
      "787": 6117,
      "8300": 6118,
      "9100": 6119,
      "ONAvir": 6120,
      "OCARNitine": 6121,
      "Pep": 6122,
      "go": 6123,
      "jade": 6124,
      "kcal": 6125,
      "man": 6126,
      "raclo": 6127,
      "lope": 6128,
      "selegiline": 6129,
      "bien": 6130,
      "nidine": 6131,
      "idax": 6132,
      "agel": 6133,
      "ICIAN": 6134,
      "Ondanset": 6135,
      "Apraclo": 6136,
      "Multivi": 6137,
      "INICIAN": 6138,
      "834": 6139,
      "Ambien": 6140,
      "Sooth": 6141,
      "3950": 6142,
      "Exjade": 6143,
      "triam": 6144,
      "orphanol": 6145,
      "omicin": 6146,
      "Ocella": 6147,
      "RITONAvir": 6148,
      "CLINICIAN": 6149,
      "Coreg": 6150,
      "Dalteparin": 6151,
      "Sodiu": 6152,
      "Pepcid": 6153,
      "loperamide": 6154,
      "idaxomicin": 6155,
      "Apraclonidine": 6156,
      "Soothe": 6157,
      "863": 6158,
      "AT": 6159,
      "BB": 6160,
      "Tel": 6161,
      "edronate": 6162,
      "2550": 6163,
      "agrel": 6164,
      "Alis": 6165,
      "Albendazole": 6166,
      "Decan": 6167,
      "EpiPen": 6168,
      "Granisetron": 6169,
      "esterone": 6170,
      "Danazol": 6171,
      "Stalevo": 6172,
      "propyl": 6173,
      "tenofovir": 6174,
      "Decanoate": 6175,
      "1125": 6176,
      "864": 6177,
      "924": 6178,
      "clob": 6179,
      "gase": 6180,
      "py": 6181,
      "bica": 6182,
      "opedic": 6183,
      "nitrate": 6184,
      "tig": 6185,
      "1180": 6186,
      "Aller": 6187,
      "idofovir": 6188,
      "Caraf": 6189,
      "3550": 6190,
      "882": 6191,
      "884": 6192,
      "Trimethobenzamide": 6193,
      "851": 6194,
      "841": 6195,
      "ugh": 6196,
      "Autolo": 6197,
      "Depak": 6198,
      "Brintellix": 6199,
      "Gummi": 6200,
      "aspargase": 6201,
      "Pegaspargase": 6202,
      "Orthopedic": 6203,
      "930": 6204,
      "928": 6205,
      "Cidofovir": 6206,
      "dul": 6207,
      "pirfenidone": 6208,
      "ypro": 6209,
      "zinc": 6210,
      "sera": 6211,
      "acitinib": 6212,
      "Flutter": 6213,
      "rocuronium": 6214,
      "letermo": 6215,
      "Hepsera": 6216,
      "idel": 6217,
      "imer": 6218,
      "ofacitinib": 6219,
      "1960": 6220,
      "836": 6221,
      "886": 6222,
      "854": 6223,
      "846": 6224,
      "ylcypro": 6225,
      "Cold": 6226,
      "formin": 6227,
      "sucralfate": 6228,
      "Packet": 6229,
      "Tranylcypro": 6230,
      "letermovir": 6231,
      "Tranylcypromine": 6232,
      "3mg": 6233,
      "927": 6234,
      "918": 6235,
      "9600": 6236,
      "938": 6237,
      "CF": 6238,
      "Hick": 6239,
      "It": 6240,
      "Nat": 6241,
      "NINE": 6242,
      "Vem": 6243,
      "Well": 6244,
      "latanoprost": 6245,
      "onel": 6246,
      "Neur": 6247,
      "butrin": 6248,
      "Oralbal": 6249,
      "toz": 6250,
      "905": 6251,
      "842": 6252,
      "Month": 6253,
      "Loxapine": 6254,
      "Hydroxypropyl": 6255,
      "glyco": 6256,
      "Cough": 6257,
      "atorvastatin": 6258,
      "Actonel": 6259,
      "QuiNINE": 6260,
      "granisetron": 6261,
      "Zyrtec": 6262,
      "Hickman": 6263,
      "Wellbutrin": 6264,
      "Neurontin": 6265,
      "Oralbalance": 6266,
      "4NS": 6267,
      "Ani": 6268,
      "Aro": 6269,
      "Cole": 6270,
      "Dasatinib": 6271,
      "K1": 6272,
      "ik": 6273,
      "ite": 6274,
      "ied": 6275,
      "ptal": 6276,
      "sub": 6277,
      "ting": 6278,
      "vit": 6279,
      "tair": 6280,
      "setron": 6281,
      "ritinib": 6282,
      "2525": 6283,
      "ordil": 6284,
      "teritinib": 6285,
      "dron": 6286,
      "Isopro": 6287,
      "Isordil": 6288,
      "Letair": 6289,
      "1970": 6290,
      "968": 6291,
      "itting": 6292,
      "dermal": 6293,
      "858": 6294,
      "Throid": 6295,
      "afungin": 6296,
      "ORAL": 6297,
      "fenac": 6298,
      "terenol": 6299,
      "Parcop": 6300,
      "masin": 6301,
      "Transdermal": 6302,
      "velamer": 6303,
      "romfenac": 6304,
      "Sevelamer": 6305,
      "Brinzolamide": 6306,
      "Gilteritinib": 6307,
      "dulafungin": 6308,
      "Nature": 6309,
      "Anidulafungin": 6310,
      "Aromasin": 6311,
      "Isoproterenol": 6312,
      "Letairis": 6313,
      "Parcopa": 6314,
      "2650": 6315,
      "5250": 6316,
      "827": 6317,
      "937": 6318,
      "fosinopril": 6319,
      "gus": 6320,
      "monium": 6321,
      "emet": 6322,
      "onor": 6323,
      "asse": 6324,
      "ammonium": 6325,
      "illus": 6326,
      "Apri": 6327,
      "otine": 6328,
      "985": 6329,
      "LevOCARNitine": 6330,
      "992": 6331,
      "996": 6332,
      "Prev": 6333,
      "852": 6334,
      "871": 6335,
      "Tec": 6336,
      "Elidel": 6337,
      "ropion": 6338,
      "Pacli": 6339,
      "simethicone": 6340,
      "Tetracaine": 6341,
      "sorafenib": 6342,
      "testosterone": 6343,
      "tigotine": 6344,
      "Allergy": 6345,
      "Autologus": 6346,
      "Paclitaxel": 6347,
      "040": 6348,
      "898": 6349,
      "921": 6350,
      "932": 6351,
      "Ed": 6352,
      "Ode": 6353,
      "Rex": 6354,
      "Urox": 6355,
      "brox": 6356,
      "fse": 6357,
      "pax": 6358,
      "rand": 6359,
      "suL": 6360,
      "urafenib": 6361,
      "1280": 6362,
      "tamsuL": 6363,
      "alt": 6364,
      "trosp": 6365,
      "1780": 6366,
      "Alfac": 6367,
      "904": 6368,
      "878": 6369,
      "dolutegravir": 6370,
      "Debrox": 6371,
      "Aqueo": 6372,
      "glycerin": 6373,
      "OSIN": 6374,
      "Cosopt": 6375,
      "methyl": 6376,
      "Augmentin": 6377,
      "Maxalt": 6378,
      "Relpax": 6379,
      "progesterone": 6380,
      "onorgestrel": 6381,
      "assess": 6382,
      "Odefse": 6383,
      "Rexulti": 6384,
      "Uroxa": 6385,
      "tamsuLOSIN": 6386,
      "trospium": 6387,
      "Alfacon": 6388,
      "Aqueous": 6389,
      "Odefsey": 6390,
      "891": 6391,
      "9500": 6392,
      "Bel": 6393,
      "Cet": 6394,
      "HBr": 6395,
      "Kw": 6396,
      "LS": 6397,
      "Mag": 6398,
      "Zole": 6399,
      "bromfenac": 6400,
      "brand": 6401,
      "dis": 6402,
      "eq": 6403,
      "mit": 6404,
      "mello": 6405,
      "obac": 6406,
      "sulf": 6407,
      "tofacitinib": 6408,
      "iumeq": 6409,
      "1240": 6410,
      "hypro": 6411,
      "Requ": 6412,
      "Retaine": 6413,
      "ostatin": 6414,
      "osimer": 6415,
      "1620": 6416,
      "987": 6417,
      "972": 6418,
      "951": 6419,
      "menthol": 6420,
      "901": 6421,
      "909": 6422,
      "853": 6423,
      "8900": 6424,
      "873": 6425,
      "879": 6426,
      "buprenorphine": 6427,
      "CREA": 6428,
      "Triumeq": 6429,
      "miconazole": 6430,
      "topical": 6431,
      "MGD": 6432,
      "dronic": 6433,
      "Kwik": 6434,
      "Zoledronic": 6435,
      "mellose": 6436,
      "obacillus": 6437,
      "hypromellose": 6438,
      "Requip": 6439,
      "osimertinib": 6440,
      "894": 6441,
      "911": 6442,
      "ION": 6443,
      "Morph": 6444,
      "UVI": 6445,
      "Ved": 6446,
      "Zym": 6447,
      "famp": 6448,
      "{-": 6449,
      "nifedipine": 6450,
      "epa": 6451,
      "critical": 6452,
      "ida": 6453,
      "pha": 6454,
      "Metformin": 6455,
      "otinib": 6456,
      "984": 6457,
      "989": 6458,
      "993": 6459,
      "971": 6460,
      "VIR": 6461,
      "ifem": 6462,
      "Neupro": 6463,
      "874": 6464,
      "omomycin": 6465,
      "valproic": 6466,
      "rampan": 6467,
      "ACE": 6468,
      "ACYCLO": 6469,
      "lidy": 6470,
      "Pentostatin": 6471,
      "fluconazole": 6472,
      "olog": 6473,
      "rizotinib": 6474,
      "VALACYCLO": 6475,
      "PACK": 6476,
      "Candesartan": 6477,
      "agrelide": 6478,
      "Vemlidy": 6479,
      "UVIA": 6480,
      "Zymar": 6481,
      "fampridine": 6482,
      "rampanel": 6483,
      "VALACYCLOVIR": 6484,
      "899": 6485,
      "893": 6486,
      "865": 6487,
      "933": 6488,
      "Bim": 6489,
      "Cr": 6490,
      "Dori": 6491,
      "EM": 6492,
      "Erib": 6493,
      "Xtan": 6494,
      "brel": 6495,
      "ding": 6496,
      "fide": 6497,
      "gotamine": 6498,
      "kiren": 6499,
      "xime": 6500,
      "otaxime": 6501,
      "caff": 6502,
      "revir": 6503,
      "chole": 6504,
      "apa": 6505,
      "ulas": 6506,
      "1310": 6507,
      "1560": 6508,
      "drop": 6509,
      "erlotinib": 6510,
      "Neulas": 6511,
      "Cefotaxime": 6512,
      "974": 6513,
      "tanding": 6514,
      "965": 6515,
      "955": 6516,
      "ifen": 6517,
      "942": 6518,
      "relle": 6519,
      "855": 6520,
      "vizumab": 6521,
      "ARA": 6522,
      "oxybutynin": 6523,
      "acetonide": 6524,
      "paromomycin": 6525,
      "cepas": 6526,
      "FemARA": 6527,
      "JanUVIA": 6528,
      "Aliskiren": 6529,
      "Tecfide": 6530,
      "Uroxatral": 6531,
      "Bimatoprost": 6532,
      "Doripenem": 6533,
      "Eribulin": 6534,
      "Xtandi": 6535,
      "Neulasta": 6536,
      "Tecfidera": 6537,
      "4150": 6538,
      "912": 6539,
      "915": 6540,
      "Nalbu": 6541,
      "Sensiti": 6542,
      "Ty": 6543,
      "USP": 6544,
      "ay": 6545,
      "lidocaine": 6546,
      "moxine": 6547,
      "nagel": 6548,
      "rnagel": 6549,
      "rezol": 6550,
      "1040": 6551,
      "rost": 6552,
      "4060": 6553,
      "phine": 6554,
      "1190": 6555,
      "1786": 6556,
      "nitinib": 6557,
      "976": 6558,
      "Sunitinib": 6559,
      "DEPH": 6560,
      "4850": 6561,
      "Alternagel": 6562,
      "Visc": 6563,
      "Durezol": 6564,
      "Sprintec": 6565,
      "Trifluridine": 6566,
      "Gummy": 6567,
      "triamcinolone": 6568,
      "Nalbuphine": 6569,
      "Sensitive": 6570,
      "897": 6571,
      "892": 6572,
      "913": 6573,
      "9300": 6574,
      "<--": 6575,
      "Enab": 6576,
      "Fom": 6577,
      "Factor": 6578,
      "Ilop": 6579,
      "Trile": 6580,
      "betamethasone": 6581,
      "crizotinib": 6582,
      "ule": 6583,
      "vem": 6584,
      "viaz": 6585,
      "1220": 6586,
      "azopan": 6587,
      "buride": 6588,
      "ALEM": 6589,
      "Polyvinyl": 6590,
      "997": 6591,
      "Tramet": 6592,
      "1070": 6593,
      "Enbrel": 6594,
      "tified": 6595,
      "944": 6596,
      "948": 6597,
      "toza": 6598,
      "877": 6599,
      "Fortified": 6600,
      "dom": 6601,
      "Glyburide": 6602,
      "Toviaz": 6603,
      "albuter": 6604,
      "Victoza": 6605,
      "Carafate": 6606,
      "Cetuximab": 6607,
      "ifenacin": 6608,
      "<---": 6609,
      "Enablex": 6610,
      "Iloprost": 6611,
      "Trileptal": 6612,
      "vemurafenib": 6613,
      "azopanib": 6614,
      "ALEMtuzumab": 6615,
      "Trametinib": 6616,
      "923": 6617,
      "934": 6618,
      "Cul": 6619,
      "Fyco": 6620,
      "SA": 6621,
      "Tas": 6622,
      "dac": 6623,
      "fidaxomicin": 6624,
      "mpa": 6625,
      "nep": 6626,
      "not": 6627,
      "tolamine": 6628,
      "uan": 6629,
      "atiram": 6630,
      "taNY": 6631,
      "cand": 6632,
      "10mL": 6633,
      "lect": 6634,
      "rotigotine": 6635,
      "teolol": 6636,
      "1110": 6637,
      "erta": 6638,
      "986": 6639,
      "988": 6640,
      "Acidophilus": 6641,
      "Carteolol": 6642,
      "952": 6643,
      "954": 6644,
      "956": 6645,
      "945": 6646,
      "889": 6647,
      "Phentolamine": 6648,
      "872": 6649,
      "869": 6650,
      "gest": 6651,
      "fentaNY": 6652,
      "butorphanol": 6653,
      "lesonide": 6654,
      "ciclesonide": 6655,
      "capsule": 6656,
      "Chloroquine": 6657,
      "Atacand": 6658,
      "epizole": 6659,
      "turelle": 6660,
      "Concerta": 6661,
      "ATG": 6662,
      "Gummies": 6663,
      "Fomepizole": 6664,
      "domperidone": 6665,
      "Culturelle": 6666,
      "Fycompa": 6667,
      "atiramer": 6668,
      "fentaNYL": 6669,
      "Cand": 6670,
      "Rap": 6671,
      "Vyt": 6672,
      "Xenazine": 6673,
      "Zi": 6674,
      "dosin": 6675,
      "doxyl": 6676,
      "frin": 6677,
      "jeo": 6678,
      "lat": 6679,
      "lovastatin": 6680,
      "lodosin": 6681,
      "trab": 6682,
      "bican": 6683,
      "optan": 6684,
      "orb": 6685,
      "ormoterol": 6686,
      "1740": 6687,
      "Albican": 6688,
      "ercalciferol": 6689,
      "1830": 6690,
      "995": 6691,
      "virtide": 6692,
      "Procarbazine": 6693,
      "961": 6694,
      "Enfu": 6695,
      "arformoterol": 6696,
      "906": 6697,
      "Lactobacillus": 6698,
      "Lotensin": 6699,
      "Isosorbid": 6700,
      "Doxercalciferol": 6701,
      "glatiramer": 6702,
      "afenac": 6703,
      "fluticasone": 6704,
      "Novolog": 6705,
      "Viokace": 6706,
      "STATIN": 6707,
      "dalfampridine": 6708,
      "Candida": 6709,
      "Vytorin": 6710,
      "Zioptan": 6711,
      "doxylamine": 6712,
      "trabenazine": 6713,
      "Albicans": 6714,
      "Enfuvirtide": 6715,
      "867": 6716,
      "917": 6717,
      "926": 6718,
      "919": 6719,
      "931": 6720,
      "935": 6721,
      "D2": 6722,
      "Dom": 6723,
      "G10": 6724,
      "Von": 6725,
      "Wil": 6726,
      "ba": 6727,
      "reco": 6728,
      "leum": 6729,
      "lebrand": 6730,
      "optic": 6731,
      "niMODipine": 6732,
      "troleum": 6733,
      "tetrabenazine": 6734,
      "TATE": 6735,
      "otepa": 6736,
      "Dilantin": 6737,
      "982": 6738,
      "9900": 6739,
      "3350": 6740,
      "966": 6741,
      "Thiotepa": 6742,
      "941": 6743,
      "946": 6744,
      "947": 6745,
      "902": 6746,
      "4550": 6747,
      "859": 6748,
      "alono": 6749,
      "vica": 6750,
      "Mesalam": 6751,
      "Petroleum": 6752,
      "dextran": 6753,
      "silodosin": 6754,
      "gocalciferol": 6755,
      "ACETATE": 6756,
      "aparib": 6757,
      "nepafenac": 6758,
      "Domperidone": 6759,
      "Willebrand": 6760,
      "alonosetron": 6761,
      "+}": 6762,
      "998": 6763,
      "939": 6764,
      "?}": 6765,
      "Aid": 6766,
      "Bosentan": 6767,
      "Camil": 6768,
      "Fosinopril": 6769,
      "Haler": 6770,
      "IMA": 6771,
      "Lep": 6772,
      "L001": 6773,
      "Ops": 6774,
      "Pali": 6775,
      "RCo": 6776,
      "VW": 6777,
      "Vy": 6778,
      "bru": 6779,
      "gla": 6780,
      "port": 6781,
      "{?}": 6782,
      "Chest": 6783,
      "umit": 6784,
      "asorb": 6785,
      "ptin": 6786,
      "1720": 6787,
      "diflu": 6788,
      "buca": 6789,
      "Stegla": 6790,
      "2950": 6791,
      "Multivit": 6792,
      "INJ": 6793,
      "Subc": 6794,
      "Hydrochlo": 6795,
      "949": 6796,
      "908": 6797,
      "3975": 6798,
      "Buccal": 6799,
      "gestim": 6800,
      "Congest": 6801,
      "ABL001": 6802,
      "verbal": 6803,
      "film": 6804,
      "phosphate": 6805,
      "ropinirole": 6806,
      "mbinant": 6807,
      "Flovent": 6808,
      "hydrochloride": 6809,
      "Zeasorb": 6810,
      "tablet": 6811,
      "simvastatin": 6812,
      "norgestim": 6813,
      "Edoxaban": 6814,
      "Belbuca": 6815,
      "mito": 6816,
      "Morphin": 6817,
      "recombinant": 6818,
      "Camila": 6819,
      "Lepirudin": 6820,
      "Opsumit": 6821,
      "Palivizumab": 6822,
      "VWF": 6823,
      "bruvica": 6824,
      "Steglatro": 6825,
      "Subcut": 6826,
      "Hydrochloric": 6827,
      "Congestion": 6828,
      "norgestimate": 6829,
      "914": 6830,
      "Asm": 6831,
      "Dialysis": 6832,
      "Ka": 6833,
      "Phe": 6834,
      "Palonosetron": 6835,
      "SUSP": 6836,
      "Zir": 6837,
      "demeclocycline": 6838,
      "nate": 6839,
      "pazopanib": 6840,
      "ssa": 6841,
      "tor": 6842,
      "zco": 6843,
      "oder": 6844,
      "athine": 6845,
      "anex": 6846,
      "levalbuterol": 6847,
      "argin": 6848,
      "bix": 6849,
      "eters": 6850,
      "til": 6851,
      "dane": 6852,
      "osyn": 6853,
      "ylase": 6854,
      "butalbital": 6855,
      "mlin": 6856,
      "1840": 6857,
      "Critic": 6858,
      "Prezco": 6859,
      "Ento": 6860,
      "Disulf": 6861,
      "876": 6862,
      "Formoterol": 6863,
      "Benzathine": 6864,
      "bupropion": 6865,
      "5670": 6866,
      "Catheters": 6867,
      "edoxaban": 6868,
      "resis": 6869,
      "avis": 6870,
      "Aqua": 6871,
      "Risedronate": 6872,
      "prednate": 6873,
      "Volume": 6874,
      "benzocaine": 6875,
      "emtricitabine": 6876,
      "daclat": 6877,
      "difluprednate": 6878,
      "Asmanex": 6879,
      "Pheresis": 6880,
      "Zirgan": 6881,
      "arginine": 6882,
      "Prezcobix": 6883,
      "Entocort": 6884,
      "Disulfiram": 6885,
      "daclatasvir": 6886,
      "015": 6887,
      "3T": 6888,
      "896": 6889,
      "9200": 6890,
      "981": 6891,
      "AA": 6892,
      "Dry": 6893,
      "Pak": 6894,
      "Toc": 6895,
      "Tyl": 6896,
      "Trin": 6897,
      "bom": 6898,
      "cir": 6899,
      "flo": 6900,
      "trum": 6901,
      "dec": 6902,
      "anu": 6903,
      "olic": 6904,
      "chel": 6905,
      "asp": 6906,
      "1375": 6907,
      "etyx": 6908,
      "20mL": 6909,
      "amph": 6910,
      "phri": 6911,
      "Cabom": 6912,
      "ilizumab": 6913,
      "ROM": 6914,
      "diaz": 6915,
      "thmia": 6916,
      "978": 6917,
      "957": 6918,
      "Arry": 6919,
      "Solo": 6920,
      "1127": 6921,
      "Phenoxy": 6922,
      "Titrad": 6923,
      "Azilect": 6924,
      "does": 6925,
      "Chloram": 6926,
      "benzamine": 6927,
      "trolatum": 6928,
      "Adcir": 6929,
      "hydroxy": 6930,
      "Imbruvica": 6931,
      "dexameth": 6932,
      "Zyflo": 6933,
      "Toujeo": 6934,
      "Cangrelor": 6935,
      "pyrimethamine": 6936,
      "Tocilizumab": 6937,
      "Tylenol": 6938,
      "Trintellix": 6939,
      "chelate": 6940,
      "Cabometyx": 6941,
      "Arrythmia": 6942,
      "Phenoxybenzamine": 6943,
      "Titradose": 6944,
      "Adcirca": 6945,
      "5130": 6946,
      "916": 6947,
      "922": 6948,
      "DF": 6949,
      "ENS": 6950,
      "PAN": 6951,
      "Rim": 6952,
      "Tun": 6953,
      "XE": 6954,
      "Xal": 6955,
      "aq": 6956,
      "lis": 6957,
      "lam": 6958,
      "lif": 6959,
      "odex": 6960,
      "umumab": 6961,
      "rix": 6962,
      "selex": 6963,
      "reth": 6964,
      "rest": 6965,
      "10mg": 6966,
      "1081": 6967,
      "led": 6968,
      "bitartrate": 6969,
      "radine": 6970,
      "1330": 6971,
      "2080": 6972,
      "Acce": 6973,
      "1596": 6974,
      "neled": 6975,
      "Cabozantinib": 6976,
      "Apidra": 6977,
      "ipag": 6978,
      "abradine": 6979,
      "1940": 6980,
      "991": 6981,
      "979": 6982,
      "COPA": 6983,
      "1062": 6984,
      "964": 6985,
      "953": 6986,
      "ittle": 6987,
      "943": 6988,
      "Mechlo": 6989,
      "baclofen": 6990,
      "NYSTATIN": 6991,
      "Cyto": 6992,
      "5940": 6993,
      "mesal": 6994,
      "180mcg": 6995,
      "Casodex": 6996,
      "lacosamide": 6997,
      "PARCOPA": 6998,
      "ofibric": 6999,
      "Strep": 7000,
      "Lindane": 7001,
      "levonorgestrel": 7002,
      "CELEBREX": 7003,
      "norepinephrine": 7004,
      "QuiNIDine": 7005,
      "Laxative": 7006,
      "ivabradine": 7007,
      "ValGANCIclovi": 7008,
      "clobazam": 7009,
      "Depakote": 7010,
      "Itumumab": 7011,
      "SUSPENS": 7012,
      "PANItumumab": 7013,
      "Rimantadine": 7014,
      "Tunneled": 7015,
      "Xalatan": 7016,
      "selexipag": 7017,
      "rethamine": 7018,
      "Access": 7019,
      "Mechlorethamine": 7020,
      "mesalamine": 7021,
      "SUSPENSION": 7022,
      "76000": 7023,
      "929": 7024,
      "AmL": 7025,
      "Gay": 7026,
      "Mix": 7027,
      "beta": 7028,
      "everolimus": 7029,
      "little": 7030,
      "nar": 7031,
      "yac": 7032,
      "{+}": 7033,
      "triptan": 7034,
      "coLA": 7035,
      "rev": 7036,
      "1075": 7037,
      "olaparib": 7038,
      "1270": 7039,
      "AccoLA": 7040,
      "Sulfat": 7041,
      "entuximab": 7042,
      "actin": 7043,
      "1160": 7044,
      "1176": 7045,
      "Alyac": 7046,
      "diphen": 7047,
      "1630": 7048,
      "24000": 7049,
      "1810": 7050,
      "963": 7051,
      "958": 7052,
      "959": 7053,
      "Nysta": 7054,
      "3960": 7055,
      "5550": 7056,
      "5160": 7057,
      "Ergocalciferol": 7058,
      "terbinafine": 7059,
      "solifenacin": 7060,
      "BenGay": 7061,
      "bovine": 7062,
      "multivitamin": 7063,
      "vanse": 7064,
      "dalteparin": 7065,
      "Aviane": 7066,
      "Brentuximab": 7067,
      "Previfem": 7068,
      "Vyvanse": 7069,
      "AmLactin": 7070,
      "AccoLATE": 7071,
      "Alyacen": 7072,
      "936": 7073,
      "Econazole": 7074,
      "Gavis": 7075,
      "Klor": 7076,
      "NT": 7077,
      "PM": 7078,
      "RA": 7079,
      "Va": 7080,
      "Vyx": 7081,
      "atropine": 7082,
      "cod": 7083,
      "dol": 7084,
      "eos": 7085,
      "finavir": 7086,
      "lfinavir": 7087,
      "tent": 7088,
      "zop": 7089,
      "{-}": 7090,
      "colus": 7091,
      "anosine": 7092,
      "olatum": 7093,
      "rase": 7094,
      "asite": 7095,
      "idanosine": 7096,
      "Invi": 7097,
      "ylic": 7098,
      "Nelfinavir": 7099,
      "iconazole": 7100,
      "iclone": 7101,
      "icylic": 7102,
      "1890": 7103,
      "1870": 7104,
      "ipran": 7105,
      "2975": 7106,
      "oxone": 7107,
      "GlycoLax": 7108,
      "SPIMA": 7109,
      "quin": 7110,
      "999": 7111,
      "973": 7112,
      "COMB": 7113,
      "Sutent": 7114,
      "962": 7115,
      "967": 7116,
      "Hydrolatum": 7117,
      "Azasite": 7118,
      "903": 7119,
      "Dexamethas": 7120,
      "Nascobal": 7121,
      "Pramoxine": 7122,
      "ceva": 7123,
      "Orub": 7124,
      "Adult": 7125,
      "RESPIMA": 7126,
      "Suboxone": 7127,
      "Perfo": 7128,
      "IVENT": 7129,
      "DAUNOrub": 7130,
      "Adefovir": 7131,
      "romist": 7132,
      "Coal": 7133,
      "liothyronine": 7134,
      "XIBROM": 7135,
      "Tarceva": 7136,
      "Vedotin": 7137,
      "SoloStar": 7138,
      "Gaviscon": 7139,
      "Vyxeos": 7140,
      "zopiclone": 7141,
      "colustrum": 7142,
      "Invirase": 7143,
      "COMBIVENT": 7144,
      "RESPIMAT": 7145,
      "Perforomist": 7146,
      "1135": 7147,
      "3175": 7148,
      "D15": 7149,
      "Didanosine": 7150,
      "Ho": 7151,
      "Mg": 7152,
      "Mal": 7153,
      "brimon": 7154,
      "galo": 7155,
      "ht": 7156,
      "non": 7157,
      "ovine": 7158,
      "phyl": 7159,
      "rmin": 7160,
      "sup": 7161,
      "standing": 7162,
      "taph": 7163,
      "caple": 7164,
      "anak": 7165,
      "arm": 7166,
      "bicar": 7167,
      "1112": 7168,
      "asetron": 7169,
      "Alvim": 7170,
      "250mg": 7171,
      "hydrated": 7172,
      "gonovine": 7173,
      "INRA": 7174,
      "Cetaph": 7175,
      "2160": 7176,
      "994": 7177,
      "virus": 7178,
      "1059": 7179,
      "perampanel": 7180,
      "1077": 7181,
      "stor": 7182,
      "5760": 7183,
      "megalo": 7184,
      "cilo": 7185,
      "Timoptic": 7186,
      "Dehydrated": 7187,
      "Becaple": 7188,
      "mild": 7189,
      "Methyler": 7190,
      "Uniphyl": 7191,
      "glutide": 7192,
      "Florastor": 7193,
      "Multivitam": 7194,
      "Cytomegalo": 7195,
      "D15W": 7196,
      "Hour": 7197,
      "Malarone": 7198,
      "brimondine": 7199,
      "anakINRA": 7200,
      "Alvimopan": 7201,
      "Cetaphil": 7202,
      "Becaplermin": 7203,
      "Methylergonovine": 7204,
      "Cytomegalovirus": 7205,
      "1106": 7206,
      "1107": 7207,
      "1130": 7208,
      "4650": 7209,
      "8600": 7210,
      "Bul": 7211,
      "DH": 7212,
      "ERO": 7213,
      "Lid": 7214,
      "Tw": 7215,
      "XAN": 7216,
      "Zo": 7217,
      "Zadi": 7218,
      "bs": 7219,
      "docus": 7220,
      "dasatinib": 7221,
      "faz": 7222,
      "iole": 7223,
      "mu": 7224,
      "pr": 7225,
      "isth": 7226,
      "1020": 7227,
      "1026": 7228,
      "1096": 7229,
      "ogam": 7230,
      "1009": 7231,
      "1225": 7232,
      "1580": 7233,
      "Ind": 7234,
      "ted": 7235,
      "tek": 7236,
      "1117": 7237,
      "1119": 7238,
      "1170": 7239,
      "osan": 7240,
      "1660": 7241,
      "oxiconazole": 7242,
      "977": 7243,
      "NIVAC": 7244,
      "1068": 7245,
      "1109": 7246,
      "Syringes": 7247,
      "Divi": 7248,
      "polysulfate": 7249,
      "6450": 7250,
      "4825": 7251,
      "4920": 7252,
      "TRONE": 7253,
      "TENIVAC": 7254,
      "fenofibric": 7255,
      "Becon": 7256,
      "stavudine": 7257,
      "Epidiole": 7258,
      "estrad": 7259,
      "eszopiclone": 7260,
      "clofaz": 7261,
      "vera": 7262,
      "choline": 7263,
      "liquid": 7264,
      "liver": 7265,
      "pentosan": 7266,
      "fetal": 7267,
      "gluconate": 7268,
      "ign": 7269,
      "methylphenidate": 7270,
      "Magic": 7271,
      "mitoXAN": 7272,
      "oderate": 7273,
      "decyl": 7274,
      "aspirin": 7275,
      "dexamethasone": 7276,
      "DFO": 7277,
      "Bullet": 7278,
      "Twisth": 7279,
      "Zaditor": 7280,
      "docusate": 7281,
      "Divigel": 7282,
      "Beconase": 7283,
      "Epidiolex": 7284,
      "mitoXANTRONE": 7285,
      "Twisthaler": 7286,
      "3275": 7287,
      "7140": 7288,
      "8800": 7289,
      "AQ": 7290,
      "AZ": 7291,
      "BRE": 7292,
      "Centra": 7293,
      "Demeclocycline": 7294,
      "Rub": 7295,
      "Sy": 7296,
      "Spe": 7297,
      "Tud": 7298,
      "Vorinostat": 7299,
      "YAZ": 7300,
      "Zosyn": 7301,
      "alu": 7302,
      "acort": 7303,
      "betasol": 7304,
      "cetirizine": 7305,
      "ft": 7306,
      "fer": 7307,
      "ka": 7308,
      "ketamine": 7309,
      "nac": 7310,
      "ying": 7311,
      "”(": 7312,
      "detem": 7313,
      "seraz": 7314,
      "1029": 7315,
      "artificial": 7316,
      "1230": 7317,
      "raglutide": 7318,
      "1325": 7319,
      "etter": 7320,
      "idase": 7321,
      "orza": 7322,
      "1760": 7323,
      "Align": 7324,
      "ROli": 7325,
      "dilution": 7326,
      "Hyalu": 7327,
      "1046": 7328,
      "1047": 7329,
      "ticagrelor": 7330,
      "Proc": 7331,
      "969": 7332,
      "1076": 7333,
      "1082": 7334,
      "1088": 7335,
      "1090": 7336,
      "1203": 7337,
      "Nasacort": 7338,
      "afor": 7339,
      "Humulin": 7340,
      "benzon": 7341,
      "omatropine": 7342,
      "ronidase": 7343,
      "PEMB": 7344,
      "Sinemet": 7345,
      "Trul": 7346,
      "Botox": 7347,
      "Petrolatum": 7348,
      "alafenamide": 7349,
      "Lipid": 7350,
      "benseraz": 7351,
      "multivit": 7352,
      "vites": 7353,
      "penta": 7354,
      "sita": 7355,
      "BBB": 7356,
      "rixafor": 7357,
      "clofazamine": 7358,
      "BREO": 7359,
      "Centravites": 7360,
      "Spec": 7361,
      "Tudorza": 7362,
      "nacipran": 7363,
      "detemir": 7364,
      "ROlizumab": 7365,
      "Hyaluronidase": 7366,
      "PEMBROlizumab": 7367,
      "benserazide": 7368,
      "1143": 7369,
      "7a": 7370,
      "9400": 7371,
      "CY": 7372,
      "Epine": 7373,
      "GLI": 7374,
      "HD": 7375,
      "Hor": 7376,
      "Kine": 7377,
      "LY": 7378,
      "Oz": 7379,
      "Ptin": 7380,
      "Sitting": 7381,
      "TU": 7382,
      "Unis": 7383,
      "iqu": 7384,
      "sitting": 7385,
      "ves": 7386,
      "zin": 7387,
      "trium": 7388,
      "atine": 7389,
      "ret": 7390,
      "1011": 7391,
      "1099": 7392,
      "1031": 7393,
      "1210": 7394,
      "1218": 7395,
      "1590": 7396,
      "amylase": 7397,
      "Dexam": 7398,
      "orcin": 7399,
      "telin": 7400,
      "1197": 7401,
      "1196": 7402,
      "1188": 7403,
      "1174": 7404,
      "3025": 7405,
      "osol": 7406,
      "ylres": 7407,
      "2425": 7408,
      "1820": 7409,
      "983": 7410,
      "2140": 7411,
      "1370": 7412,
      "1045": 7413,
      "CON": 7414,
      "Prevac": 7415,
      "3240": 7416,
      "PHAR": 7417,
      "1061": 7418,
      "35E": 7419,
      "Prome": 7420,
      "1086": 7421,
      "hexylres": 7422,
      "MACY": 7423,
      "1124": 7424,
      "6330": 7425,
      "5580": 7426,
      "4450": 7427,
      "1148": 7428,
      "1155": 7429,
      "5340": 7430,
      "Asacol": 7431,
      "Astelin": 7432,
      "seron": 7433,
      "osidenib": 7434,
      "Tolcapone": 7435,
      "Vivel": 7436,
      "Gemtuzumab": 7437,
      "ONLY": 7438,
      "Betaseron": 7439,
      "liraglutide": 7440,
      "trimeth": 7441,
      "Pancreaze": 7442,
      "drosp": 7443,
      "Plerixafor": 7444,
      "Lactase": 7445,
      "theophylline": 7446,
      "Tetradecyl": 7447,
      "ivosidenib": 7448,
      "diphenhydrAMINE": 7449,
      "Zovia": 7450,
      "ogamicin": 7451,
      "sitaGLI": 7452,
      "Horse": 7453,
      "Kineret": 7454,
      "Ozogamicin": 7455,
      "Unisom": 7456,
      "orcinol": 7457,
      "Prevacid": 7458,
      "PHARMACY": 7459,
      "Prometrium": 7460,
      "hexylresorcinol": 7461,
      "Vivelle": 7462,
      "sitaGLIPtin": 7463,
      "1104": 7464,
      "1105": 7465,
      "1136": 7466,
      "5W": 7467,
      "Dol": 7468,
      "Dot": 7469,
      "GG": 7470,
      "Gre": 7471,
      "Ib": 7472,
      "Jar": 7473,
      "Mad": 7474,
      "Mumps": 7475,
      "Opt": 7476,
      "Pax": 7477,
      "Taf": 7478,
      "VE": 7479,
      "Vose": 7480,
      "Zone": 7481,
      "Zel": 7482,
      "better": 7483,
      "cr": 7484,
      "mar": 7485,
      "nos": 7486,
      "pv": 7487,
      "propionate": 7488,
      "sud": 7489,
      "sive": 7490,
      "wn": 7491,
      "inlar": 7492,
      "umoxy": 7493,
      "rip": 7494,
      "tapenta": 7495,
      "anagrelide": 7496,
      "1010": 7497,
      "1095": 7498,
      "1007": 7499,
      "opar": 7500,
      "aprevir": 7501,
      "1232": 7502,
      "Flurazepam": 7503,
      "aldesleukin": 7504,
      "amox": 7505,
      "netar": 7506,
      "azal": 7507,
      "diance": 7508,
      "1625": 7509,
      "2668": 7510,
      "1860": 7511,
      "2825": 7512,
      "respon": 7513,
      "1920": 7514,
      "Infant": 7515,
      "3360": 7516,
      "1052": 7517,
      "Thalidomide": 7518,
      "petro": 7519,
      "Famciclovir": 7520,
      "1091": 7521,
      "1093": 7522,
      "1126": 7523,
      "lopatadine": 7524,
      "1149": 7525,
      "1153": 7526,
      "Valium": 7527,
      "iximab": 7528,
      "TEGre": 7529,
      "Ergotamine": 7530,
      "Colazal": 7531,
      "sair": 7532,
      "gard": 7533,
      "micon": 7534,
      "boraf": 7535,
      "Mitomycin": 7536,
      "Pressair": 7537,
      "hydrochlorothiazide": 7538,
      "levocarnitine": 7539,
      "aspart": 7540,
      "irenone": 7541,
      "Kwikpen": 7542,
      "Tasmar": 7543,
      "supp": 7544,
      "Multivitami": 7545,
      "Rubella": 7546,
      "ferrous": 7547,
      "drospirenone": 7548,
      "Dolasetron": 7549,
      "Ibrutinib": 7550,
      "Jardiance": 7551,
      "Madopar": 7552,
      "Opth": 7553,
      "Paxil": 7554,
      "Tafinlar": 7555,
      "Vosevi": 7556,
      "Zonegran": 7557,
      "Zelboraf": 7558,
      "pvc": 7559,
      "sudil": 7560,
      "umoxytol": 7561,
      "tapentadol": 7562,
      "netarsudil": 7563,
      "TEGretol": 7564,
      "1103": 7565,
      "1133": 7566,
      "1131": 7567,
      "5190": 7568,
      "8290": 7569,
      "Ati": 7570,
      "CLO": 7571,
      "II": 7572,
      "Ibu": 7573,
      "LBBB": 7574,
      "Nan": 7575,
      "RAB": 7576,
      "Sant": 7577,
      "STer": 7578,
      "TUS": 7579,
      "aDONE": 7580,
      "aCLO": 7581,
      "bri": 7582,
      "bact": 7583,
      "cb": 7584,
      "iot": 7585,
      "zemet": 7586,
      "trans": 7587,
      "ataz": 7588,
      "inh": 7589,
      "inia": 7590,
      "isib": 7591,
      "rifen": 7592,
      "care": 7593,
      "rep": 7594,
      "1017": 7595,
      "1098": 7596,
      "10MG": 7597,
      "legra": 7598,
      "5050": 7599,
      "1275": 7600,
      "asles": 7601,
      "1335": 7602,
      "creatine": 7603,
      "agli": 7604,
      "alcohol": 7605,
      "alpha": 7606,
      "amnos": 7607,
      "1490": 7608,
      "1470": 7609,
      "usion": 7610,
      "1118": 7611,
      "1193": 7612,
      "TAN": 7613,
      "Alpha": 7614,
      "Nevan": 7615,
      "elastine": 7616,
      "24h": 7617,
      "24HR": 7618,
      "1930": 7619,
      "Phospholine": 7620,
      "1035": 7621,
      "1041": 7622,
      "1043": 7623,
      "VIal": 7624,
      "1056": 7625,
      "1065": 7626,
      "peroxide": 7627,
      "1071": 7628,
      "Enzyme": 7629,
      "wbcp": 7630,
      "linaCLO": 7631,
      "methaDONE": 7632,
      "Azelastine": 7633,
      "Pomal": 7634,
      "Measles": 7635,
      "1122": 7636,
      "1129": 7637,
      "Ferumoxytol": 7638,
      "proGE": 7639,
      "meal": 7640,
      "CART": 7641,
      "itrex": 7642,
      "avella": 7643,
      "ValGANCIc": 7644,
      "Anzemet": 7645,
      "lipoic": 7646,
      "Eprazole": 7647,
      "cyanocobalamin": 7648,
      "Imitrex": 7649,
      "Angiot": 7650,
      "SIcare": 7651,
      "Clofaz": 7652,
      "Janumet": 7653,
      "LanTUS": 7654,
      "Intubated": 7655,
      "Rhamnos": 7656,
      "ValGANCIclov": 7657,
      "Multivita": 7658,
      "tozone": 7659,
      "KwikPen": 7660,
      "drops": 7661,
      "tilide": 7662,
      "Proctozone": 7663,
      "VESIcare": 7664,
      "responsive": 7665,
      "Ativan": 7666,
      "Ibutilide": 7667,
      "Nanocrystallized": 7668,
      "RABEprazole": 7669,
      "Santyl": 7670,
      "STerone": 7671,
      "rifenacin": 7672,
      "agliptin": 7673,
      "Nevanac": 7674,
      "linaCLOtide": 7675,
      "proGESTerone": 7676,
      "Angiotensin": 7677,
      "Rhamnosus": 7678,
      "1101": 7679,
      "6250": 7680,
      "Afrin": 7681,
      "BE": 7682,
      "Bas": 7683,
      "Dabrafenib": 7684,
      "Handi": 7685,
      "KIT": 7686,
      "Mul": 7687,
      "Mometasone": 7688,
      "Of": 7689,
      "Oat": 7690,
      "Ren": 7691,
      "Ril": 7692,
      "Savella": 7693,
      "Up": 7694,
      "Votri": 7695,
      "Vortioxetine": 7696,
      "Yas": 7697,
      "aqu": 7698,
      "bosentan": 7699,
      "ganciclovir": 7700,
      "halo": 7701,
      "icol": 7702,
      "out": 7703,
      "olopatadine": 7704,
      "por": 7705,
      "tenof": 7706,
      "vers": 7707,
      "wel": 7708,
      "yna": 7709,
      "ydis": 7710,
      "zydis": 7711,
      "low": 7712,
      "truc": 7713,
      "cobicistat": 7714,
      "1022": 7715,
      "letriptan": 7716,
      "1001": 7717,
      "pla": 7718,
      "acidin": 7719,
      "1227": 7720,
      "1238": 7721,
      "1269": 7722,
      "1278": 7723,
      "1242": 7724,
      "ritide": 7725,
      "ray": 7726,
      "alb": 7727,
      "1430": 7728,
      "Sulbact": 7729,
      "Sulfur": 7730,
      "1175": 7731,
      "1169": 7732,
      "3075": 7733,
      "spironolactone": 7734,
      "1790": 7735,
      "Alb": 7736,
      "Allegra": 7737,
      "Nesi": 7738,
      "Nessa": 7739,
      "2475": 7740,
      "hydrate": 7741,
      "imine": 7742,
      "Carnitine": 7743,
      "1038": 7744,
      "1055": 7745,
      "Amin": 7746,
      "Citruc": 7747,
      "1368": 7748,
      "1063": 7749,
      "1067": 7750,
      "1069": 7751,
      "1072": 7752,
      "1074": 7753,
      "methadon": 7754,
      "TriNessa": 7755,
      "Nyst": 7756,
      "Salicylic": 7757,
      "Meloxicam": 7758,
      "1128": 7759,
      "1207": 7760,
      "Humate": 7761,
      "1146": 7762,
      "epinephri": 7763,
      "5625": 7764,
      "5697": 7765,
      "4830": 7766,
      "5180": 7767,
      "Bactroban": 7768,
      "ceFAZolin": 7769,
      "NORepinephri": 7770,
      "phenicol": 7771,
      "Esbri": 7772,
      "itretin": 7773,
      "Loryna": 7774,
      "Hydroxyzine": 7775,
      "opressa": 7776,
      "Anagrelide": 7777,
      "Suprep": 7778,
      "Ethinyl": 7779,
      "fiber": 7780,
      "PFNS": 7781,
      "IBgard": 7782,
      "Orap": 7783,
      "Bowel": 7784,
      "Rhopressa": 7785,
      "benzoyl": 7786,
      "nortriptyline": 7787,
      "cetir": 7788,
      "testos": 7789,
      "Telaprevir": 7790,
      "clobetasol": 7791,
      "Depakene": 7792,
      "tozocin": 7793,
      "diazePAM": 7794,
      "Chloramphenicol": 7795,
      "resting": 7796,
      "Streptozocin": 7797,
      "betaxolol": 7798,
      "HandiHaler": 7799,
      "Oatmeal": 7800,
      "Renacidin": 7801,
      "Rilpivirine": 7802,
      "Votrient": 7803,
      "Yasmin": 7804,
      "halobetasol": 7805,
      "Nesiritide": 7806,
      "Citrucel": 7807,
      "Esbriet": 7808,
      ")}": 7809,
      "080": 7810,
      "1141": 7811,
      "2190": 7812,
      "3t": 7813,
      "7175": 7814,
      "7455": 7815,
      "Bex": 7816,
      "Boo": 7817,
      "Cal": 7818,
      "Dact": 7819,
      "Ec": 7820,
      "Eph": 7821,
      "Fet": 7822,
      "NPH": 7823,
      "PV": 7824,
      "Wom": 7825,
      "Xe": 7826,
      "bb": 7827,
      "ctr": 7828,
      "fexofenadine": 7829,
      "fctr": 7830,
      "hif": 7831,
      "mult": 7832,
      "ok": 7833,
      "winia": 7834,
      "yra": 7835,
      "zim": 7836,
      "loda": 7837,
      "lock": 7838,
      "atif": 7839,
      "taflu": 7840,
      "lutek": 7841,
      "coQ10": 7842,
      "1018": 7843,
      "1005": 7844,
      "5010": 7845,
      "chrys": 7846,
      "ulizumab": 7847,
      "1292": 7848,
      "1272": 7849,
      "1273": 7850,
      "4075": 7851,
      "1530": 7852,
      "1488": 7853,
      "Dexraz": 7854,
      "usol": 7855,
      "1182": 7856,
      "1173": 7857,
      "iliximab": 7858,
      "ergotamine": 7859,
      "butal": 7860,
      "elvi": 7861,
      "icy": 7862,
      "imatinib": 7863,
      "head": 7864,
      "2110": 7865,
      "1390": 7866,
      "Carisoprodol": 7867,
      "1037": 7868,
      "Sugam": 7869,
      "1255": 7870,
      "Enza": 7871,
      "travi": 7872,
      "minera": 7873,
      "Famvir": 7874,
      "Ciprod": 7875,
      "Nystat": 7876,
      "3980": 7877,
      "ursodiol": 7878,
      "polyvinyl": 7879,
      "ctate": 7880,
      "ctinib": 7881,
      "1204": 7882,
      "1206": 7883,
      "6580": 7884,
      "78300": 7885,
      "stid": 7886,
      "Ampyra": 7887,
      "Venlafax": 7888,
      "Rilutek": 7889,
      "Erwinia": 7890,
      "avan": 7891,
      "ABT": 7892,
      "inomycin": 7893,
      "bisopro": 7894,
      "hydrocortisone": 7895,
      "salicy": 7896,
      "Terbutal": 7897,
      "Fiber": 7898,
      "oxane": 7899,
      "madex": 7900,
      "candesartan": 7901,
      "Liposome": 7902,
      "risedronate": 7903,
      "milnacipran": 7904,
      "dextromethorphan": 7905,
      "opectate": 7906,
      "patasvir": 7907,
      "comfor": 7908,
      "Idhif": 7909,
      "Balance": 7910,
      "Colestid": 7911,
      "subsalicy": 7912,
      "sulfameth": 7913,
      "cholecalciferol": 7914,
      "Kaopectate": 7915,
      "mlintide": 7916,
      "naratriptan": 7917,
      "Clofazimine": 7918,
      "Basiliximab": 7919,
      "Uptravi": 7920,
      "versol": 7921,
      "Book": 7922,
      "Dactinomycin": 7923,
      "Eculizumab": 7924,
      "Fetzim": 7925,
      "Xeloda": 7926,
      "atifloxacin": 7927,
      "tafluprost": 7928,
      "chrysan": 7929,
      "Dexrazoxane": 7930,
      "Sugammadex": 7931,
      "Enzalutamide": 7932,
      "Ciprodex": 7933,
      "Terbutaline": 7934,
      "Idhifa": 7935,
      "Fetzima": 7936,
      "**": 7937,
      "1144": 7938,
      "5650": 7939,
      "6750": 7940,
      "D12": 7941,
      "ES": 7942,
      "Fi": 7943,
      "Gro": 7944,
      "Gup": 7945,
      "Klon": 7946,
      "Lar": 7947,
      "ML": 7948,
      "MAN": 7949,
      "Nue": 7950,
      "Pamp": 7951,
      "Ponatinib": 7952,
      "Sti": 7953,
      "Sing": 7954,
      "Zolo": 7955,
      "bramycin": 7956,
      "clex": 7957,
      "eletriptan": 7958,
      "hum": 7959,
      "ita": 7960,
      "itegra": 7961,
      "ies": 7962,
      "kl": 7963,
      "lact": 7964,
      "mycophenolate": 7965,
      "moderate": 7966,
      "vol": 7967,
      "zi": 7968,
      "zap": 7969,
      "umen": 7970,
      "umad": 7971,
      "lutein": 7972,
      "cobic": 7973,
      "cocet": 7974,
      "relin": 7975,
      "1025": 7976,
      "1083": 7977,
      "1094": 7978,
      "1008": 7979,
      "100mcg": 7980,
      "5040": 7981,
      "olto": 7982,
      "opin": 7983,
      "acitretin": 7984,
      "1290": 7985,
      "astr": 7986,
      "1311": 7987,
      "1316": 7988,
      "20mEq": 7989,
      "2060": 7990,
      "alprazolam": 7991,
      "1425": 7992,
      "ptom": 7993,
      "1111": 7994,
      "1116": 7995,
      "1165": 7996,
      "1163": 7997,
      "1187": 7998,
      "1172": 7999,
      "Ondansetr": 8000,
      "2430": 8001,
      "2675": 8002,
      "2725": 8003,
      "2790": 8004,
      "Immun": 8005,
      "ofree": 8006,
      "adrine": 8007,
      "INT": 8008,
      "1032": 8009,
      "1034": 8010,
      "1042": 8011,
      "1044": 8012,
      "1048": 8013,
      "QuVa": 8014,
      "1051": 8015,
      "3450": 8016,
      "3575": 8017,
      "1254": 8018,
      "Provera": 8019,
      "travite": 8020,
      "1089": 8021,
      "3850": 8022,
      "Dihydro": 8023,
      "tobramycin": 8024,
      "Laying": 8025,
      "Clar": 8026,
      "Mekin": 8027,
      "1123": 8028,
      "THC": 8029,
      "6840": 8030,
      "5850": 8031,
      "1147": 8032,
      "lying": 8033,
      "5790": 8034,
      "1154": 8035,
      "1156": 8036,
      "Biofree": 8037,
      "5320": 8038,
      "4740": 8039,
      "metroNIDAZOLE": 8040,
      "cef": 8041,
      "phenadrine": 8042,
      "Venclex": 8043,
      "ibry": 8044,
      "1802": 8045,
      "TERO": 8046,
      "Olanzap": 8047,
      "carbamazepine": 8048,
      "ories": 8049,
      "oricet": 8050,
      "Without": 8051,
      "glipiZIDE": 8052,
      "Viibry": 8053,
      "leuton": 8054,
      "Rockl": 8055,
      "ositories": 8056,
      "Symptom": 8057,
      "Symbicortbudesonide": 8058,
      "Aminocapr": 8059,
      "Coumad": 8060,
      "vented": 8061,
      "dexta": 8062,
      "maa": 8063,
      "dilt": 8064,
      "Ortho": 8065,
      "Telavan": 8066,
      "Itch": 8067,
      "lifitegra": 8068,
      "quinidine": 8069,
      "cilos": 8070,
      "Spectravite": 8071,
      "TUBE": 8072,
      "trimethoprim": 8073,
      "creme": 8074,
      "suppositories": 8075,
      "PVC": 8076,
      "Women": 8077,
      "elvitegr": 8078,
      "sulfamethoxazole": 8079,
      "Fioricet": 8080,
      "Guppy": 8081,
      "Klonopin": 8082,
      "MANY": 8083,
      "Nuedexta": 8084,
      "Pamprin": 8085,
      "Stiolto": 8086,
      "Zoloft": 8087,
      "cobicist": 8088,
      "Dihydroergotamine": 8089,
      "Mekinist": 8090,
      "Biofreeze": 8091,
      "Venclexta": 8092,
      "Viibryd": 8093,
      "Rocklatan": 8094,
      "Coumadin": 8095,
      "Telavancin": 8096,
      "lifitegrast": 8097,
      "Acal": 8098,
      "AERO": 8099,
      "Cell": 8100,
      "Corte": 8101,
      "DBTL": 8102,
      "Folic": 8103,
      "Myco": 8104,
      "OINT": 8105,
      "SIT": 8106,
      "Zom": 8107,
      "edrop": 8108,
      "factor": 8109,
      "honium": 8110,
      "ibin": 8111,
      "mvi": 8112,
      "ous": 8113,
      "oral": 8114,
      "ococcal": 8115,
      "ohydrate": 8116,
      "pogen": 8117,
      "ping": 8118,
      "sus": 8119,
      "statin": 8120,
      "scol": 8121,
      "sostigmine": 8122,
      "zox": 8123,
      "trase": 8124,
      "inium": 8125,
      "tach": 8126,
      "1012": 8127,
      "1030": 8128,
      "1027": 8129,
      "1021": 8130,
      "1097": 8131,
      "olizumab": 8132,
      "1216": 8133,
      "1234": 8134,
      "1236": 8135,
      "1295": 8136,
      "1262": 8137,
      "eprevir": 8138,
      "unresponsive": 8139,
      "tamuc": 8140,
      "NEORAL": 8141,
      "1410": 8142,
      "tiray": 8143,
      "1113": 8144,
      "1181": 8145,
      "1185": 8146,
      "3040": 8147,
      "3080": 8148,
      "6030": 8149,
      "2001": 8150,
      "throm": 8151,
      "Oxacillin": 8152,
      "1690": 8153,
      "abrutinib": 8154,
      "Lescol": 8155,
      "81mg": 8156,
      "2925": 8157,
      "1990": 8158,
      "adal": 8159,
      "ING": 8160,
      "ingococcal": 8161,
      "9700": 8162,
      "1049": 8163,
      "Niac": 8164,
      "3375": 8165,
      "LEEP": 8166,
      "Dipive": 8167,
      "3525": 8168,
      "Proct": 8169,
      "10700": 8170,
      "1347": 8171,
      "7035": 8172,
      "Salicylate": 8173,
      "Neupogen": 8174,
      "Metax": 8175,
      "Metamuc": 8176,
      "BuPR": 8177,
      "1121": 8178,
      "1152": 8179,
      "1157": 8180,
      "Ultrase": 8181,
      "4320": 8182,
      "5220": 8183,
      "5280": 8184,
      "Physostigmine": 8185,
      "Denies": 8186,
      "deso": 8187,
      "Mesalamin": 8188,
      "Beano": 8189,
      "Trumen": 8190,
      "Optiray": 8191,
      "Silibin": 8192,
      "saliva": 8193,
      "filgrastim": 8194,
      "Percocet": 8195,
      "welling": 8196,
      "Ioversol": 8197,
      "Avonex": 8198,
      "rabeprazole": 8199,
      "clonaz": 8200,
      "tuck": 8201,
      "maal": 8202,
      "Meningococcal": 8203,
      "monohydrate": 8204,
      "multiv": 8205,
      "combo": 8206,
      "Mesalami": 8207,
      "revlimid": 8208,
      "Indwelling": 8209,
      "Group": 8210,
      "Acalabrutinib": 8211,
      "Cortef": 8212,
      "Mycostatin": 8213,
      "SITagliptin": 8214,
      "edrophonium": 8215,
      "zoxazone": 8216,
      "Dipivefrin": 8217,
      "Metamucil": 8218,
      "Trumenba": 8219,
      "Silibinin": 8220,
      "1137": 8221,
      "1132": 8222,
      "4750": 8223,
      "4175": 8224,
      "8250": 8225,
      "8150": 8226,
      "Atri": 8227,
      "ACI": 8228,
      "Afib": 8229,
      "Boc": 8230,
      "Brom": 8231,
      "Colac": 8232,
      "Camp": 8233,
      "Det": 8234,
      "Fidaxomicin": 8235,
      "Len": 8236,
      "Myl": 8237,
      "MIDE": 8238,
      "Roz": 8239,
      "VIC": 8240,
      "Xy": 8241,
      "Xulan": 8242,
      "Zan": 8243,
      "cil": 8244,
      "folic": 8245,
      "mul": 8246,
      "meterol": 8247,
      "mib": 8248,
      "otre": 8249,
      "pantoprazole": 8250,
      "samine": 8251,
      "syr": 8252,
      "thy": 8253,
      "yataz": 8254,
      "zac": 8255,
      "odin": 8256,
      "0015": 8257,
      "carip": 8258,
      "anta": 8259,
      "antel": 8260,
      "1015": 8261,
      "1016": 8262,
      "50IU": 8263,
      "aclid": 8264,
      "nitroglycerin": 8265,
      "1212": 8266,
      "1215": 8267,
      "1211": 8268,
      "1224": 8269,
      "1283": 8270,
      "1288": 8271,
      "1284": 8272,
      "1241": 8273,
      "1315": 8274,
      "1383": 8275,
      "1338": 8276,
      "25mcg": 8277,
      "4050": 8278,
      "hyper": 8279,
      "ala": 8280,
      "amune": 8281,
      "14mg": 8282,
      "1414": 8283,
      "tib": 8284,
      "tease": 8285,
      "1115": 8286,
      "1195": 8287,
      "1166": 8288,
      "1179": 8289,
      "Redi": 8290,
      "Reyataz": 8291,
      "nalox": 8292,
      "Ald": 8293,
      "1610": 8294,
      "2460": 8295,
      "imumab": 8296,
      "semba": 8297,
      "3180": 8298,
      "CO2": 8299,
      "Nivol": 8300,
      "Oxytrol": 8301,
      "1057": 8302,
      "1058": 8303,
      "LEX": 8304,
      "1365": 8305,
      "1066": 8306,
      "1251": 8307,
      "1351": 8308,
      "1079": 8309,
      "1084": 8310,
      "1085": 8311,
      "1087": 8312,
      "1092": 8313,
      "toi": 8314,
      "3940": 8315,
      "ETCO2": 8316,
      "1209": 8317,
      "6510": 8318,
      "6420": 8319,
      "6440": 8320,
      "1304": 8321,
      "PRA": 8322,
      "6240": 8323,
      "colax": 8324,
      "azomib": 8325,
      "7350": 8326,
      "1151": 8327,
      "1158": 8328,
      "1159": 8329,
      "DEX": 8330,
      "4890": 8331,
      "1247": 8332,
      "bictegravir": 8333,
      "edrine": 8334,
      "Glucosamine": 8335,
      "Cresemba": 8336,
      "darifenacin": 8337,
      "glargine": 8338,
      "proteinase": 8339,
      "PENTo": 8340,
      "foscarnet": 8341,
      "Perampanel": 8342,
      "Lipoic": 8343,
      "sedation": 8344,
      "combi": 8345,
      "Pegfilgrastim": 8346,
      "PrevACI": 8347,
      "uanil": 8348,
      "Rapamune": 8349,
      "hydroxyp": 8350,
      "iquantel": 8351,
      "inhib": 8352,
      "Ephedrine": 8353,
      "Larotre": 8354,
      "Singles": 8355,
      "adalimumab": 8356,
      "Proctosol": 8357,
      "Metaxalone": 8358,
      "Atripla": 8359,
      "Boceprevir": 8360,
      "Colace": 8361,
      "Campath": 8362,
      "Detemir": 8363,
      "Mylanta": 8364,
      "Xulane": 8365,
      "thyroid": 8366,
      "cariprazine": 8367,
      "aclidinium": 8368,
      "Nivolumab": 8369,
      "PENTobarbital": 8370,
      "PrevACID": 8371,
      "Larotrectinib": 8372,
      "1134": 8373,
      "2gm": 8374,
      "4125": 8375,
      "6mg": 8376,
      "6270": 8377,
      "Bif": 8378,
      "Cor": 8379,
      "Crinone": 8380,
      "Doc": 8381,
      "Ful": 8382,
      "Nu": 8383,
      "NAL": 8384,
      "OMIDE": 8385,
      "Standing": 8386,
      "Slow": 8387,
      "Tum": 8388,
      "Xge": 8389,
      "ble": 8390,
      "base": 8391,
      "eg": 8392,
      "ient": 8393,
      "ized": 8394,
      "men": 8395,
      "mint": 8396,
      "otropin": 8397,
      "pear": 8398,
      "pres": 8399,
      "som": 8400,
      "tate": 8401,
      "torphanol": 8402,
      "zz": 8403,
      "lose": 8404,
      "losartan": 8405,
      "trant": 8406,
      "isos": 8407,
      "ondan": 8408,
      "lunomide": 8409,
      "lulose": 8410,
      "sec": 8411,
      "1013": 8412,
      "legy": 8413,
      "1002": 8414,
      "1004": 8415,
      "olide": 8416,
      "bip": 8417,
      "apatinib": 8418,
      "appear": 8419,
      "1229": 8420,
      "1297": 8421,
      "1296": 8422,
      "1239": 8423,
      "1263": 8424,
      "1271": 8425,
      "1261": 8426,
      "1244": 8427,
      "1243": 8428,
      "1314": 8429,
      "1328": 8430,
      "20mcg": 8431,
      "4080": 8432,
      "1510": 8433,
      "1412": 8434,
      "1422": 8435,
      "1479": 8436,
      "terif": 8437,
      "entine": 8438,
      "1198": 8439,
      "1164": 8440,
      "1186": 8441,
      "1184": 8442,
      "1171": 8443,
      "Methenamine": 8444,
      "erem": 8445,
      "dibucaine": 8446,
      "osulfate": 8447,
      "osumab": 8448,
      "1670": 8449,
      "2360": 8450,
      "icit": 8451,
      "oprocaine": 8452,
      "imod": 8453,
      "pram": 8454,
      "2875": 8455,
      "9800": 8456,
      "2220": 8457,
      "2230": 8458,
      "1975": 8459,
      "Loes": 8460,
      "Levonorgestrel": 8461,
      "Propara": 8462,
      "quick": 8463,
      "1036": 8464,
      "1039": 8465,
      "1371": 8466,
      "LENAL": 8467,
      "PHrin": 8468,
      "1064": 8469,
      "3520": 8470,
      "3780": 8471,
      "1108": 8472,
      "Miniquick": 8473,
      "Chloroprocaine": 8474,
      "3860": 8475,
      "3875": 8476,
      "Armo": 8477,
      "Thiosulfate": 8478,
      "Budeso": 8479,
      "Butorphanol": 8480,
      "4590": 8481,
      "1201": 8482,
      "1208": 8483,
      "1459": 8484,
      "PHENYLEPHrin": 8485,
      "Cept": 8486,
      "6685": 8487,
      "6480": 8488,
      "1302": 8489,
      "5910": 8490,
      "5950": 8491,
      "5740": 8492,
      "4350": 8493,
      "phenytoin": 8494,
      "Denosumab": 8495,
      "nisolide": 8496,
      "permint": 8497,
      "IDOMIDE": 8498,
      "bismuth": 8499,
      "velpatasvir": 8500,
      "Permethrin": 8501,
      "bes": 8502,
      "Theo": 8503,
      "fluoro": 8504,
      "right": 8505,
      "Trelegy": 8506,
      "FlexPen": 8507,
      "Genotropin": 8508,
      "fused": 8509,
      "montelukast": 8510,
      "peppermint": 8511,
      "Avelox": 8512,
      "stipol": 8513,
      "table": 8514,
      "stitution": 8515,
      "patch": 8516,
      "Colesevelam": 8517,
      "Colestipol": 8518,
      "substitution": 8519,
      "sulfacetamide": 8520,
      "Vedolizumab": 8521,
      "Kariva": 8522,
      "nonverbal": 8523,
      "DHA": 8524,
      "Lidoc": 8525,
      "mupirocin": 8526,
      "Symlin": 8527,
      "Trulicit": 8528,
      "vestrant": 8529,
      "Albumi": 8530,
      "comfortable": 8531,
      "CellCept": 8532,
      "Rozerem": 8533,
      "RediHaler": 8534,
      "naloxeg": 8535,
      "Docu": 8536,
      "Fulvestrant": 8537,
      "Tums": 8538,
      "Xgeva": 8539,
      "teriflunomide": 8540,
      "Loestrin": 8541,
      "Proparacaine": 8542,
      "LENALIDOMIDE": 8543,
      "Armour": 8544,
      "Trulicity": 8545,
      "naloxegol": 8546,
      "0375": 8547,
      "1138": 8548,
      "2120": 8549,
      "5150": 8550,
      "AV": 8551,
      "Alo": 8552,
      "Bene": 8553,
      "Cry": 8554,
      "Cort": 8555,
      "Dul": 8556,
      "DEC": 8557,
      "Epe": 8558,
      "Eyes": 8559,
      "Flin": 8560,
      "Hip": 8561,
      "Ix": 8562,
      "Lis": 8563,
      "Mep": 8564,
      "Mys": 8565,
      "Nate": 8566,
      "OATE": 8567,
      "Ogestrel": 8568,
      "SER": 8569,
      "SLEEP": 8570,
      "TEC": 8571,
      "XTAN": 8572,
      "Zar": 8573,
      "bul": 8574,
      "bad": 8575,
      "brax": 8576,
      "eye": 8577,
      "gace": 8578,
      "homatropine": 8579,
      "ithromycin": 8580,
      "iptin": 8581,
      "lapatinib": 8582,
      "osm": 8583,
      "orelin": 8584,
      "prev": 8585,
      "rbip": 8586,
      "sul": 8587,
      "sotalol": 8588,
      "tst": 8589,
      "uat": 8590,
      "ucalcium": 8591,
      "wa": 8592,
      "zatriptan": 8593,
      "zivir": 8594,
      "atac": 8595,
      "Choline": 8596,
      "isal": 8597,
      "rioc": 8598,
      "onavir": 8599,
      "del": 8600,
      "inex": 8601,
      "report": 8602,
      "1014": 8603,
      "1024": 8604,
      "1028": 8605,
      "1019": 8606,
      "5025": 8607,
      "arv": 8608,
      "bivudine": 8609,
      "opraz": 8610,
      "12mg": 8611,
      "1217": 8612,
      "1231": 8613,
      "1285": 8614,
      "1289": 8615,
      "1264": 8616,
      "1277": 8617,
      "ritonavir": 8618,
      "ept": 8619,
      "1399": 8620,
      "ros": 8621,
      "ethyl": 8622,
      "aglif": 8623,
      "2025": 8624,
      "2040": 8625,
      "1523": 8626,
      "1533": 8627,
      "alisib": 8628,
      "amorelin": 8629,
      "1428": 8630,
      "1434": 8631,
      "ones": 8632,
      "Inter": 8633,
      "neste": 8634,
      "tear": 8635,
      "1183": 8636,
      "1199": 8637,
      "1194": 8638,
      "1168": 8639,
      "1178": 8640,
      "3060": 8641,
      "1775": 8642,
      "1770": 8643,
      "azithromycin": 8644,
      "Alum": 8645,
      "Alrex": 8646,
      "Alfuzosin": 8647,
      "6060": 8648,
      "1652": 8649,
      "ANOATE": 8650,
      "2860": 8651,
      "ycinate": 8652,
      "1910": 8653,
      "75mg": 8654,
      "loratadine": 8655,
      "quel": 8656,
      "1033": 8657,
      "Nilotinib": 8658,
      "Ambrisentan": 8659,
      "Amneste": 8660,
      "Librax": 8661,
      "3560": 8662,
      "1252": 8663,
      "1253": 8664,
      "1258": 8665,
      "3740": 8666,
      "1353": 8667,
      "1073": 8668,
      "methad": 8669,
      "yst": 8670,
      "Trim": 8671,
      "Trizivir": 8672,
      "1438": 8673,
      "Diaper": 8674,
      "PHENo": 8675,
      "3925": 8676,
      "7070": 8677,
      "9360": 8678,
      "Megace": 8679,
      "4575": 8680,
      "Caps": 8681,
      "1202": 8682,
      "1301": 8683,
      "4180": 8684,
      "7315": 8685,
      "4480": 8686,
      "5775": 8687,
      "5460": 8688,
      "5490": 8689,
      "down": 8690,
      "CycloSER": 8691,
      "4675": 8692,
      "1200mg": 8693,
      "rufinamide": 8694,
      "Continu": 8695,
      "Rizatriptan": 8696,
      "Duloxe": 8697,
      "PHENOb": 8698,
      "06125": 8699,
      "glycinate": 8700,
      "Anusol": 8701,
      "Anamorelin": 8702,
      "lipop": 8703,
      "Trisal": 8704,
      "Bupropion": 8705,
      "selle": 8706,
      "predni": 8707,
      "Prilosec": 8708,
      "Vagifem": 8709,
      "NATinib": 8710,
      "metoprolol": 8711,
      "Melatonin": 8712,
      "ief": 8713,
      "cloNIDine": 8714,
      "Cocaine": 8715,
      "Glassia": 8716,
      "dexam": 8717,
      "cyclosporine": 8718,
      "vaso": 8719,
      "dipyridamole": 8720,
      "DOTS": 8721,
      "Orphenadrine": 8722,
      "midodrine": 8723,
      "PONATinib": 8724,
      "izer": 8725,
      "Brand": 8726,
      "zeka": 8727,
      "iguat": 8728,
      "Relief": 8729,
      "ZyrTEC": 8730,
      "Ureacin": 8731,
      "Telbivudine": 8732,
      "Tyvaso": 8733,
      "Tyzeka": 8734,
      "Rapid": 8735,
      "amoxapine": 8736,
      "Pomalyst": 8737,
      "MLT": 8738,
      "human": 8739,
      "Clarinex": 8740,
      "susp": 8741,
      "thrombin": 8742,
      "syringe": 8743,
      "Benefiber": 8744,
      "Cryselle": 8745,
      "Cortisone": 8746,
      "Dulcolax": 8747,
      "DECANOATE": 8748,
      "Epeleuton": 8749,
      "Flintst": 8750,
      "Hiprex": 8751,
      "Lispro": 8752,
      "Mysoline": 8753,
      "XTANDI": 8754,
      "Zarontin": 8755,
      "rbiprofen": 8756,
      "atacept": 8757,
      "riociguat": 8758,
      "Interleukin": 8759,
      "Amnesteem": 8760,
      "PHENobarbital": 8761,
      "CycloSERINE": 8762,
      "Trisalicylate": 8763,
      "Flintstones": 8764,
      "063": 8765,
      "1mEq": 8766,
      "1102": 8767,
      "1142": 8768,
      "1145": 8769,
      "2170": 8770,
      "3130": 8771,
      "4140": 8772,
      "5285": 8773,
      "AY": 8774,
      "Atro": 8775,
      "Afenib": 8776,
      "DAC": 8777,
      "Densitization": 8778,
      "Euc": 8779,
      "Fu": 8780,
      "Homatropine": 8781,
      "Harv": 8782,
      "Iber": 8783,
      "IPRA": 8784,
      "Ky": 8785,
      "NP": 8786,
      "Nuc": 8787,
      "One": 8788,
      "PIUM": 8789,
      "SV": 8790,
      "SOR": 8791,
      "Saqu": 8792,
      "Uc": 8793,
      "Vil": 8794,
      "block": 8795,
      "fish": 8796,
      "fes": 8797,
      "fusion": 8798,
      "gER": 8799,
      "glinide": 8800,
      "len": 8801,
      "nas": 8802,
      "oint": 8803,
      "oterodine": 8804,
      "pre": 8805,
      "sle": 8806,
      "some": 8807,
      "tz": 8808,
      "was": 8809,
      "locaine": 8810,
      "lozin": 8811,
      "ogast": 8812,
      "1003": 8813,
      "armodafinil": 8814,
      "ache": 8815,
      "1213": 8816,
      "1226": 8817,
      "1219": 8818,
      "1233": 8819,
      "1245": 8820,
      "1265": 8821,
      "1286": 8822,
      "Flurbiprofen": 8823,
      "1312": 8824,
      "1323": 8825,
      "1318": 8826,
      "1398": 8827,
      "1333": 8828,
      "1336": 8829,
      "etexilate": 8830,
      "25gm": 8831,
      "irumab": 8832,
      "2070": 8833,
      "4040": 8834,
      "15mg": 8835,
      "alant": 8836,
      "1418": 8837,
      "1419": 8838,
      "1432": 8839,
      "1496": 8840,
      "1468": 8841,
      "1472": 8842,
      "1476": 8843,
      "Int": 8844,
      "tes": 8845,
      "tero": 8846,
      "Cabergoline": 8847,
      "1167": 8848,
      "bilif": 8849,
      "1710": 8850,
      "1728": 8851,
      "Alka": 8852,
      "eris": 8853,
      "lollipop": 8854,
      "1634": 8855,
      "bucil": 8856,
      "2325": 8857,
      "2660": 8858,
      "imipramine": 8859,
      "pramoxine": 8860,
      "1508": 8861,
      "Aspi": 8862,
      "ALBU": 8863,
      "ALAT": 8864,
      "2210": 8865,
      "2225": 8866,
      "1911": 8867,
      "7550": 8868,
      "9750": 8869,
      "1405": 8870,
      "1374": 8871,
      "1378": 8872,
      "3220": 8873,
      "1053": 8874,
      "1362": 8875,
      "1366": 8876,
      "3460": 8877,
      "SPRAY": 8878,
      "1078": 8879,
      "3620": 8880,
      "9550": 8881,
      "1349": 8882,
      "ysine": 8883,
      "TINomycin": 8884,
      "1449": 8885,
      "INHALAT": 8886,
      "6545": 8887,
      "6690": 8888,
      "Ramuc": 8889,
      "6180": 8890,
      "5880": 8891,
      "5575": 8892,
      "5450": 8893,
      "5430": 8894,
      "5610": 8895,
      "5640": 8896,
      "5215": 8897,
      "1249": 8898,
      "pheno": 8899,
      "Esci": 8900,
      "TROPIUM": 8901,
      "graf": 8902,
      "ynta": 8903,
      "Day": 8904,
      "Dacom": 8905,
      "Ocuta": 8906,
      "dabigatran": 8907,
      "atrol": 8908,
      "YCIN": 8909,
      "gliptin": 8910,
      "praziquantel": 8911,
      "Carbatrol": 8912,
      "Seltz": 8913,
      "Revatio": 8914,
      "Antithrombin": 8915,
      "enicline": 8916,
      "flunisolide": 8917,
      "vere": 8918,
      "levetiracetam": 8919,
      "Gengraf": 8920,
      "5970": 8921,
      "temazepam": 8922,
      "Depot": 8923,
      "hydrocodone": 8924,
      "ZegER": 8925,
      "VitEyes": 8926,
      "zeon": 8927,
      "Tart": 8928,
      "CarafATE": 8929,
      "subQ": 8930,
      "amphe": 8931,
      "Chlorambucil": 8932,
      "lispro": 8933,
      "DHEA": 8934,
      "Epinephri": 8935,
      "Aminophylline": 8936,
      "Caltrate": 8937,
      "headache": 8938,
      "Venlafaxin": 8939,
      "TEROL": 8940,
      "Zomig": 8941,
      "Zantac": 8942,
      "Aldactone": 8943,
      "Nateglinide": 8944,
      "SLEEPING": 8945,
      "agliflozin": 8946,
      "Atrovent": 8947,
      "DACTINomycin": 8948,
      "Eucerin": 8949,
      "Fuzeon": 8950,
      "Harvoni": 8951,
      "Iberogast": 8952,
      "IPRATROPIUM": 8953,
      "Kytril": 8954,
      "Nucynta": 8955,
      "SVT": 8956,
      "SORAfenib": 8957,
      "Saquinavir": 8958,
      "Uceris": 8959,
      "Vilazodone": 8960,
      "fesoterodine": 8961,
      "nasal": 8962,
      "bilify": 8963,
      "lollipops": 8964,
      "ALBUTEROL": 8965,
      "INHALATION": 8966,
      "Ramucirumab": 8967,
      "Dacomitinib": 8968,
      "Ocutabs": 8969,
      "Seltzer": 8970,
      "ZegERID": 8971,
      "1g": 8972,
      "1139": 8973,
      "4mEq": 8974,
      "6150": 8975,
      "Ax": 8976,
      "Fum": 8977,
      "Flip": 8978,
      "GR": 8979,
      "H1": 8980,
      "Hr": 8981,
      "Her": 8982,
      "Larin": 8983,
      "Man": 8984,
      "M20": 8985,
      "Olu": 8986,
      "PB": 8987,
      "Prof": 8988,
      "PAX": 8989,
      "REL": 8990,
      "SD": 8991,
      "SMO": 8992,
      "Sita": 8993,
      "Unit": 8994,
      "VSL": 8995,
      "West": 8996,
      "`}": 8997,
      "don": 8998,
      "fetamine": 8999,
      "ght": 9000,
      "ker": 9001,
      "kana": 9002,
      "mer": 9003,
      "maraviroc": 9004,
      "nine": 9005,
      "potas": 9006,
      "prine": 9007,
      "plon": 9008,
      "syn": 9009,
      "scopolamine": 9010,
      "sunit": 9011,
      "ura": 9012,
      "ute": 9013,
      "zale": 9014,
      "tract": 9015,
      "Chil": 9016,
      "interferon": 9017,
      "isosorbi": 9018,
      "tasteride": 9019,
      "dev": 9020,
      "enalapril": 9021,
      "reva": 9022,
      "1023": 9023,
      "ledip": 9024,
      "nico": 9025,
      "niacin": 9026,
      "ulized": 9027,
      "1214": 9028,
      "1222": 9029,
      "1235": 9030,
      "1279": 9031,
      "1246": 9032,
      "1326": 9033,
      "1327": 9034,
      "1381": 9035,
      "1322": 9036,
      "rosin": 9037,
      "2560": 9038,
      "2575": 9039,
      "25000": 9040,
      "2592": 9041,
      "irreg": 9042,
      "2020": 9043,
      "4025": 9044,
      "15ml": 9045,
      "1519": 9046,
      "1585": 9047,
      "1548": 9048,
      "1547": 9049,
      "amit": 9050,
      "1463": 9051,
      "1474": 9052,
      "uste": 9053,
      "orp": 9054,
      "Invo": 9055,
      "rinert": 9056,
      "tedi": 9057,
      "1114": 9058,
      "1191": 9059,
      "1192": 9060,
      "1177": 9061,
      "3010": 9062,
      "ilnine": 9063,
      "1748": 9064,
      "ertib": 9065,
      "dix": 9066,
      "diz": 9067,
      "osux": 9068,
      "1629": 9069,
      "1638": 9070,
      "1668": 9071,
      "2375": 9072,
      "2480": 9073,
      "24Hr": 9074,
      "imd": 9075,
      "imide": 9076,
      "18mg": 9077,
      "2850": 9078,
      "Nebulized": 9079,
      "2260": 9080,
      "2280": 9081,
      "LAR": 9082,
      "1393": 9083,
      "1397": 9084,
      "1384": 9085,
      "1387": 9086,
      "1404": 9087,
      "Patanol": 9088,
      "1376": 9089,
      "3320": 9090,
      "1054": 9091,
      "ensol": 9092,
      "IVPB": 9093,
      "3425": 9094,
      "Procardia": 9095,
      "9660": 9096,
      "3660": 9097,
      "1343": 9098,
      "1344": 9099,
      "1345": 9100,
      "itol": 9101,
      "3810": 9102,
      "9420": 9103,
      "1444": 9104,
      "Bupro": 9105,
      "Butrans": 9106,
      "4560": 9107,
      "1454": 9108,
      "1455": 9109,
      "1458": 9110,
      "Nicotin": 9111,
      "6720": 9112,
      "6360": 9113,
      "1303": 9114,
      "Tirosin": 9115,
      "4280": 9116,
      "5845": 9117,
      "4375": 9118,
      "5350": 9119,
      "alon": 9120,
      "PRODEX": 9121,
      "metronid": 9122,
      "pheny": 9123,
      "ramivir": 9124,
      "CIPRODEX": 9125,
      "Dutasteride": 9126,
      "Testim": 9127,
      "Tess": 9128,
      "Verapa": 9129,
      "Vascep": 9130,
      "formeterol": 9131,
      "Berinert": 9132,
      "03mg": 9133,
      "kinumab": 9134,
      "ricella": 9135,
      "Peramivir": 9136,
      "Proguanil": 9137,
      "SulfaSALAzi": 9138,
      "metered": 9139,
      "ganic": 9140,
      "fluocin": 9141,
      "DAS181": 9142,
      "tolcapone": 9143,
      "agilne": 9144,
      "parcop": 9145,
      "diltiaz": 9146,
      "Flonase": 9147,
      "Organic": 9148,
      "complete": 9149,
      "norgestrel": 9150,
      "rasagilne": 9151,
      "igna": 9152,
      "Vicodin": 9153,
      "Floradix": 9154,
      "Alisertib": 9155,
      "Magtab": 9156,
      "caffeine": 9157,
      "Tyker": 9158,
      "Tasigna": 9159,
      "lisdexam": 9160,
      "lamo": 9161,
      "lamiVUDine": 9162,
      "Streptomycin": 9163,
      "Varicella": 9164,
      "Syprine": 9165,
      "Trulance": 9166,
      "transfusion": 9167,
      "porcine": 9168,
      "Olanzapi": 9169,
      "PVCs": 9170,
      "clonazepam": 9171,
      "appears": 9172,
      "fluorometholone": 9173,
      "Ixazomib": 9174,
      "Trimipramine": 9175,
      "suspension": 9176,
      "wash": 9177,
      "Intensol": 9178,
      "Flipid": 9179,
      "Herbs": 9180,
      "Olux": 9181,
      "Profilnine": 9182,
      "RELPAX": 9183,
      "SMOFlipid": 9184,
      "Sitagliptin": 9185,
      "Westcort": 9186,
      "mercaptopurine": 9187,
      "sunitinib": 9188,
      "zaleplon": 9189,
      "Childr": 9190,
      "isosorbide": 9191,
      "ledipasvir": 9192,
      "niacinamide": 9193,
      "Invokana": 9194,
      "tedizolid": 9195,
      "osuximide": 9196,
      "Tirosint": 9197,
      "metronidazole": 9198,
      "Tessalon": 9199,
      "Vascepa": 9200,
      "Tykerb": 9201,
      "lisdexamfetamine": 9202,
      "030": 9203,
      "1a": 9204,
      "1Neb": 9205,
      "2156": 9206,
      "3g": 9207,
      "3650": 9208,
      "3325": 9209,
      "3140": 9210,
      "5750": 9211,
      "6335": 9212,
      "7105": 9213,
      "8155": 9214,
      "Amm": 9215,
      "Abilify": 9216,
      "Auste": 9217,
      "Ber": 9218,
      "CB": 9219,
      "Cim": 9220,
      "DM": 9221,
      "Dro": 9222,
      "Eta": 9223,
      "EVIC": 9224,
      "FLEX": 9225,
      "Gatifloxacin": 9226,
      "Hippurate": 9227,
      "IS": 9228,
      "Idel": 9229,
      "Jole": 9230,
      "KR": 9231,
      "LC": 9232,
      "N1": 9233,
      "NAC": 9234,
      "Oce": 9235,
      "Ph": 9236,
      "PCB": 9237,
      "SB": 9238,
      "Sonat": 9239,
      "SIm": 9240,
      "SERO": 9241,
      "TIS": 9242,
      "Uste": 9243,
      "Vap": 9244,
      "VOR": 9245,
      "Vick": 9246,
      "Xan": 9247,
      "aca": 9248,
      "cip": 9249,
      "dox": 9250,
      "dinitrate": 9251,
      "fi": 9252,
      "gly": 9253,
      "gris": 9254,
      "gatifloxacin": 9255,
      "hu": 9256,
      "ivudine": 9257,
      "itane": 9258,
      "jen": 9259,
      "lisinopril": 9260,
      "lbes": 9261,
      "mafen": 9262,
      "none": 9263,
      "ocobalamin": 9264,
      "ores": 9265,
      "ovan": 9266,
      "po": 9267,
      "rmon": 9268,
      "uation": 9269,
      "utetrabenazine": 9270,
      "vatinib": 9271,
      "zia": 9272,
      "{`}": 9273,
      "talol": 9274,
      "deutetrabenazine": 9275,
      "enatide": 9276,
      "cogin": 9277,
      "seep": 9278,
      "refused": 9279,
      "anase": 9280,
      "anagrel": 9281,
      "anastr": 9282,
      "1006": 9283,
      "art": 9284,
      "arotene": 9285,
      "olinib": 9286,
      "olizer": 9287,
      "plas": 9288,
      "lcel": 9289,
      "1223": 9290,
      "1228": 9291,
      "1287": 9292,
      "1282": 9293,
      "1274": 9294,
      "1248": 9295,
      "rity": 9296,
      "radipine": 9297,
      "totane": 9298,
      "astrin": 9299,
      "1324": 9300,
      "carvedilol": 9301,
      "uncomfortable": 9302,
      "2010": 9303,
      "2075": 9304,
      "2090": 9305,
      "4020": 9306,
      "Accol": 9307,
      "1591": 9308,
      "1588": 9309,
      "1563": 9310,
      "1544": 9311,
      "1554": 9312,
      "alseep": 9313,
      "1415": 9314,
      "1481": 9315,
      "1483": 9316,
      "1499": 9317,
      "1431": 9318,
      "1494": 9319,
      "1465": 9320,
      "1485": 9321,
[...]
