{
  "version": "1.0",
  "truncation": null,
  "padding": null,
  "added_tokens": [
    {
      "id": 0,
      "content": "[PAD]",
      "single_word": false,
      "lstrip": false,
      "rstrip": false,
      "normalized": false,
      "special": true
    },
    {
      "id": 1,
      "content": "[UNK]",
      "single_word": false,
      "lstrip": false,
      "rstrip": false,
      "normalized": false,
      "special": true
    },
    {
      "id": 2,
      "content": "[pad]",
      "single_word": false,
      "lstrip": false,
      "rstrip": false,
      "normalized": false,
      "special": true
    }
  ],
  "normalizer": null,
  "pre_tokenizer": {
    "type": "Whitespace"
  },
  "post_processor": null,
  "decoder": null,
  "model": {
    "type": "BPE",
    "dropout": null,
    "unk_token": "[UNK]",
    "continuing_subword_prefix": null,
    "end_of_word_suffix": null,
    "fuse_unk": false,
    "vocab": {
      "[PAD]": 0,
      "[UNK]": 1,
      "[pad]": 2,
      "!": 3,
      "\"": 4,
      "#": 5,
      "$": 6,
      "%": 7,
      "&": 8,
      "'": 9,
      "(": 10,
      ")": 11,
      "*": 12,
      "+": 13,
      ",": 14,
      "-": 15,
      ".": 16,
      "0": 17,
      "1": 18,
      "2": 19,
      "3": 20,
      "4": 21,
      "5": 22,
      "6": 23,
      "7": 24,
      "8": 25,
      "9": 26,
      ":": 27,
      ";": 28,
      "<": 29,
      "=": 30,
      ">": 31,
      "?": 32,
      "[": 33,
      "\\": 34,
      "_": 35,
      "`": 36,
      "a": 37,
      "b": 38,
      "c": 39,
      "d": 40,
      "e": 41,
      "f": 42,
      "g": 43,
      "h": 44,
      "i": 45,
      "j": 46,
      "k": 47,
      "l": 48,
      "m": 49,
      "n": 50,
      "o": 51,
      "p": 52,
      "q": 53,
      "r": 54,
      "s": 55,
      "t": 56,
      "u": 57,
      "v": 58,
      "w": 59,
      "x": 60,
      "y": 61,
      "z": 62,
      "°": 63,
      "µ": 64,
      "â": 65,
      "–": 66,
      "”": 67,
      "pa": 68,
      "pad": 69,
      "lo": 70,
      "od": 71,
      "he": 72,
      "hem": 73,
      "blo": 74,
      "blood": 75,
      "tr": 76,
      "mg": 77,
      "at": 78,
      "in": 79,
      "is": 80,
      "chem": 81,
      "try": 82,
      "istry": 83,
      "chemistry": 84,
      "me": 85,
      "um": 86,
      "ium": 87,
      "00": 88,
      "meq": 89,
      "dl": 90,
      "de": 91,
      "ate": 92,
      "on": 93,
      "ri": 94,
      "ta": 95,
      "ato": 96,
      "hemato": 97,
      "gy": 98,
      "logy": 99,
      "hematology": 100,
      "ca": 101,
      "ml": 102,
      "ch": 103,
      "ine": 104,
      "se": 105,
      "ni": 106,
      "sod": 107,
      "lu": 108,
      "re": 109,
      "sodium": 110,
      "chlo": 111,
      "ride": 112,
      "10": 113,
      "chloride": 114,
      "co": 115,
      "ota": 116,
      "le": 117,
      "ac": 118,
      "sium": 119,
      "og": 120,
      "ul": 121,
      "50": 122,
      "100": 123,
      "en": 124,
      "ro": 125,
      "glu": 126,
      "pota": 127,
      "potas": 128,
      "potassium": 129,
      "ga": 130,
      "an": 131,
      "cal": 132,
      "nt": 133,
      "bi": 134,
      "di": 135,
      "pl": 136,
      "12": 137,
      "onate": 138,
      "te": 139,
      "bin": 140,
      "calc": 141,
      "ra": 142,
      "atin": 143,
      "op": 144,
      "40": 145,
      "gluco": 146,
      "ol": 147,
      "calcium": 148,
      "glucose": 149,
      "flu": 150,
      "rin": 151,
      "ne": 152,
      "20": 153,
      "25": 154,
      "ag": 155,
      "13": 156,
      "ogen": 157,
      "rit": 158,
      "car": 159,
      "nit": 160,
      "crit": 161,
      "tota": 162,
      "total": 163,
      "hy": 164,
      "carb": 165,
      "%;": 166,
      "carbonate": 167,
      "unit": 168,
      "cre": 169,
      "one": 170,
      "nitr": 171,
      "15": 172,
      "al": 173,
      "let": 174,
      "hematocrit": 175,
      "atinine": 176,
      "creatinine": 177,
      "atelet": 178,
      "platelet": 179,
      "rea": 180,
      "bicarbonate": 181,
      "urea": 182,
      "nitrogen": 183,
      "lobin": 184,
      "hemog": 185,
      "hemoglobin": 186,
      "ani": 187,
      "11": 188,
      "sh": 189,
      "tam": 190,
      "flush": 191,
      "gap": 192,
      "anion": 193,
      "sul": 194,
      "cou": 195,
      "count": 196,
      "d2": 197,
      "ti": 198,
      "30": 199,
      "d5": 200,
      "dv": 201,
      "500": 202,
      "ace": 203,
      "tamin": 204,
      "78": 205,
      "19": 206,
      "nan": 207,
      "1000": 208,
      "wh": 209,
      "dz": 210,
      "gm": 211,
      "14": 212,
      "hen": 213,
      "sp": 214,
      "d4": 215,
      "li": 216,
      "bag": 217,
      "parin": 218,
      "gas": 219,
      "dex": 220,
      "mo": 221,
      "vi": 222,
      "th": 223,
      "ole": 224,
      "do": 225,
      "hyd": 226,
      "heparin": 227,
      "tro": 228,
      "ph": 229,
      "ar": 230,
      "sulf": 231,
      "yc": 232,
      "dextro": 233,
      "90": 234,
      "mi": 235,
      "dextrose": 236,
      "ite": 237,
      "white": 238,
      "raz": 239,
      "us": 240,
      "sulfate": 241,
      "pt": 242,
      "acetamin": 243,
      "acetaminop": 244,
      "acetaminophen": 245,
      "80": 246,
      "lac": 247,
      "na": 248,
      "81": 249,
      "rine": 250,
      "az": 251,
      "17": 252,
      "mag": 253,
      "magne": 254,
      "60": 255,
      "29": 256,
      "inr": 257,
      "d3": 258,
      "ox": 259,
      "tab": 260,
      "ap": 261,
      "va": 262,
      "24": 263,
      "trate": 264,
      "magnesium": 265,
      "id": 266,
      "ru": 267,
      "lact": 268,
      "urine": 269,
      "ase": 270,
      "bili": 271,
      "rubin": 272,
      "bilirubin": 273,
      "d7": 274,
      "23": 275,
      "alb": 276,
      "18": 277,
      "27": 278,
      "d78": 279,
      "lactate": 280,
      "neb": 281,
      "doc": 282,
      "docus": 283,
      "docusate": 284,
      "dk": 285,
      "am": 286,
      "28": 287,
      "mm": 288,
      "tron": 289,
      "mmol": 290,
      "pro": 291,
      "16": 292,
      "d27": 293,
      "sen": 294,
      "dr": 295,
      "senna": 296,
      "5000": 297,
      "86": 298,
      "200": 299,
      "49": 300,
      "odone": 301,
      "rph": 302,
      "mide": 303,
      "si": 304,
      "33": 305,
      "650": 306,
      "hydro": 307,
      "sulin": 308,
      "insulin": 309,
      "85": 310,
      "bp": 311,
      "ge": 312,
      "morph": 313,
      "os": 314,
      "st": 315,
      "ond": 316,
      "lol": 317,
      "ondan": 318,
      "ondanse": 319,
      "ondansetron": 320,
      "ic": 321,
      "razole": 322,
      "99": 323,
      "la": 324,
      "met": 325,
      "22": 326,
      "89": 327,
      "yl": 328,
      "250": 329,
      "83": 330,
      "45": 331,
      "epa": 332,
      "vitamin": 333,
      "26": 334,
      "oxyc": 335,
      "gluc": 336,
      "gluconate": 337,
      "rol": 338,
      "moti": 339,
      "ral": 340,
      "statin": 341,
      "87": 342,
      "meth": 343,
      "su": 344,
      "terol": 345,
      "400": 346,
      "df": 347,
      "oxycodone": 348,
      "epam": 349,
      "et": 350,
      "qu": 351,
      "spi": 352,
      "d6": 353,
      "vac": 354,
      "70": 355,
      "spr": 356,
      "ment": 357,
      "mc": 358,
      "mcg": 359,
      "pol": 360,
      "d40": 361,
      "opro": 362,
      "rele": 363,
      "release": 364,
      "iso": 365,
      "31": 366,
      "dn": 367,
      "im": 368,
      "96": 369,
      "poly": 370,
      "21": 371,
      "pra": 372,
      "cag": 373,
      "glucag": 374,
      "glucagon": 375,
      "95": 376,
      "appl": 377,
      "umin": 378,
      "98": 379,
      "91": 380,
      "vastatin": 381,
      "pi": 382,
      "albu": 383,
      "albuterol": 384,
      "aspi": 385,
      "aspirin": 386,
      "oprolol": 387,
      "metoprolol": 388,
      "150": 389,
      "units": 390,
      "d4019": 391,
      "ste": 392,
      "cine": 393,
      "osmoti": 394,
      "osmotic": 395,
      "vaccine": 396,
      "tar": 397,
      "tartrate": 398,
      "93": 399,
      "325": 400,
      "enz": 401,
      "dg": 402,
      "vial": 403,
      "lev": 404,
      "medi": 405,
      "51": 406,
      "loraz": 407,
      "lorazepam": 408,
      "onco": 409,
      "dv5": 410,
      "and": 411,
      "140": 412,
      "immedi": 413,
      "immediate": 414,
      "ad": 415,
      "pe": 416,
      "ci": 417,
      "phen": 418,
      "gel": 419,
      "ly": 420,
      "morphone": 421,
      "hydromorphone": 422,
      "vale": 423,
      "valent": 424,
      "repl": 425,
      "acement": 426,
      "oncology": 427,
      "replacement": 428,
      "rile": 429,
      "fa": 430,
      "82": 431,
      "ce": 432,
      "caine": 433,
      "albumin": 434,
      "sterile": 435,
      "ater": 436,
      "water": 437,
      "dj": 438,
      "whole": 439,
      "bis": 440,
      "fen": 441,
      "rica": 442,
      "ycin": 443,
      "rican": 444,
      "bisac": 445,
      "bisacod": 446,
      "bisacodyl": 447,
      "col": 448,
      "d57": 449,
      "oprazole": 450,
      "did": 451,
      "dila": 452,
      "udid": 453,
      "dilaudid": 454,
      "lido": 455,
      "lidocaine": 456,
      "dc": 457,
      "sol": 458,
      "mycin": 459,
      "mp": 460,
      "ns": 461,
      "ld": 462,
      "rogen": 463,
      "iu": 464,
      "dehyd": 465,
      "rogenase": 466,
      "dehydrogenase": 467,
      "thm": 468,
      "rhy": 469,
      "rhythm": 470,
      "soln": 471,
      "300": 472,
      "temp": 473,
      "pain": 474,
      "mul": 475,
      "hear": 476,
      "2s": 477,
      "dbp": 478,
      "o2s": 479,
      "sbp": 480,
      "respr": 481,
      "heartrate": 482,
      "o2sat": 483,
      "resprate": 484,
      "enza": 485,
      "multi": 486,
      "32": 487,
      "influ": 488,
      "influenza": 489,
      "vir": 490,
      "multivitamin": 491,
      "41": 492,
      "gly": 493,
      "pu": 494,
      "multivitamins": 495,
      "000": 496,
      "75": 497,
      "39": 498,
      "dy": 499,
      "pant": 500,
      "pantoprazole": 501,
      "of": 502,
      "trop": 503,
      "dd6": 504,
      "79": 505,
      "azole": 506,
      "lox": 507,
      "fre": 508,
      "free": 509,
      "oral": 510,
      "38": 511,
      "dm": 512,
      "clo": 513,
      "tri": 514,
      "sone": 515,
      "mine": 516,
      "d0": 517,
      "ot": 518,
      "878": 519,
      "36": 520,
      "ethy": 521,
      "lene": 522,
      "ome": 523,
      "glycol": 524,
      "polyethy": 525,
      "polyethylene": 526,
      "cef": 527,
      "d30": 528,
      "104": 529,
      "d276": 530,
      "morphine": 531,
      "opri": 532,
      "prazole": 533,
      "uro": 534,
      "ff": 535,
      "tin": 536,
      "tropium": 537,
      "103": 538,
      "pre": 539,
      "dv586": 540,
      "semide": 541,
      "59": 542,
      "omeprazole": 543,
      "69": 544,
      "139": 545,
      "84": 546,
      "sw": 547,
      "xine": 548,
      "dine": 549,
      "97": 550,
      "dt": 551,
      "care": 552,
      "rop": 553,
      "puff": 554,
      "d530": 555,
      "furo": 556,
      "furosemide": 557,
      "sal": 558,
      "138": 559,
      "tch": 560,
      "van": 561,
      "vanco": 562,
      "vancomycin": 563,
      "isin": 564,
      "ical": 565,
      "patch": 566,
      "de87": 567,
      "pho": 568,
      "inh": 569,
      "acid": 570,
      "critical": 571,
      "88": 572,
      "idine": 573,
      "ator": 574,
      "atorvastatin": 575,
      "chlor": 576,
      "d99": 577,
      "102": 578,
      "125": 579,
      "oco": 580,
      "42": 581,
      "di10": 582,
      "pine": 583,
      "35": 584,
      "sph": 585,
      "phosph": 586,
      "ipra": 587,
      "ipratropium": 588,
      "dv15": 589,
      "92": 590,
      "101": 591,
      "d2724": 592,
      "34": 593,
      "or": 594,
      "137": 595,
      "d25": 596,
      "sin": 597,
      "47": 598,
      "ringe": 599,
      "acin": 600,
      "105": 601,
      "bro": 602,
      "isone": 603,
      "94": 604,
      "141": 605,
      "gab": 606,
      "d53081": 607,
      "d20": 608,
      "110": 609,
      "hyro": 610,
      "62": 611,
      "drop": 612,
      "bromide": 613,
      "37": 614,
      "levot": 615,
      "levothyro": 616,
      "levothyroxine": 617,
      "eti": 618,
      "af": 619,
      "predn": 620,
      "de78": 621,
      "600": 622,
      "tan": 623,
      "083": 624,
      "bu": 625,
      "tica": 626,
      "flutica": 627,
      "fluticasone": 628,
      "suc": 629,
      "d285": 630,
      "quad": 631,
      "rivalent": 632,
      "quadrivalent": 633,
      "il": 634,
      "susp": 635,
      "136": 636,
      "dv45": 637,
      "dz7": 638,
      "61": 639,
      "dv4": 640,
      "72": 641,
      "loxacin": 642,
      "opril": 643,
      "106": 644,
      "diphen": 645,
      "ow": 646,
      "ide": 647,
      "dz878": 648,
      "ramine": 649,
      "apen": 650,
      "gabapen": 651,
      "gabapentin": 652,
      "ale": 653,
      "apine": 654,
      "d42": 655,
      "liqu": 656,
      "liquid": 657,
      "ame": 658,
      "american": 659,
      "52": 660,
      "sion": 661,
      "dz87891": 662,
      "219": 663,
      "blac": 664,
      "african": 665,
      "black": 666,
      "d780": 667,
      "ension": 668,
      "suspension": 669,
      "diphenhyd": 670,
      "diphenhydramine": 671,
      "yclo": 672,
      "olic": 673,
      "folic": 674,
      "71": 675,
      "de785": 676,
      "con": 677,
      "oin": 678,
      "ccal": 679,
      "142": 680,
      "ococcal": 681,
      "pne": 682,
      "pneum": 683,
      "pneumococcal": 684,
      "db": 685,
      "spry": 686,
      "449": 687,
      "43": 688,
      "lisin": 689,
      "lisinopril": 690,
      "propi": 691,
      "phosphate": 692,
      "min": 693,
      "iv": 694,
      "112": 695,
      "68": 696,
      "cin": 697,
      "135": 698,
      "ameth": 699,
      "d45": 700,
      "849": 701,
      "simeth": 702,
      "icone": 703,
      "simethicone": 704,
      "sme": 705,
      "smear": 706,
      "thi": 707,
      "dk219": 708,
      "d19": 709,
      "azodone": 710,
      "trazodone": 711,
      "119": 712,
      "tram": 713,
      "azine": 714,
      "d25000": 715,
      "em": 716,
      "tion": 717,
      "109": 718,
      "107": 719,
      "111": 720,
      "66": 721,
      "dy9": 722,
      "d427": 723,
      "lin": 724,
      "d311": 725,
      "war": 726,
      "farin": 727,
      "warfarin": 728,
      "band": 729,
      "bands": 730,
      "dipine": 731,
      "sar": 732,
      "phrine": 733,
      "dz86": 734,
      "prednisone": 735,
      "df3": 736,
      "di25": 737,
      "ser": 738,
      "amine": 739,
      "dv1582": 740,
      "ex": 741,
      "phos": 742,
      "ptch": 743,
      "419": 744,
      "taz": 745,
      "sy": 746,
      "65": 747,
      "xa": 748,
      "conazole": 749,
      "bc": 750,
      "wbc": 751,
      "lus": 752,
      "plus": 753,
      "x5": 754,
      "mini": 755,
      "aler": 756,
      "thro": 757,
      "inhaler": 758,
      "d70": 759,
      "hydrox": 760,
      "d300": 761,
      "da": 762,
      "floxacin": 763,
      "hp": 764,
      "er": 765,
      "46": 766,
      "cipro": 767,
      "ciprofloxacin": 768,
      "hpf": 769,
      "74": 770,
      "d56": 771,
      "propionate": 772,
      "sim": 773,
      "motidine": 774,
      "famotidine": 775,
      "simvastatin": 776,
      "fentan": 777,
      "fentanyl": 778,
      "108": 779,
      "nasal": 780,
      "di4": 781,
      "virus": 782,
      "800": 783,
      "134": 784,
      "df329": 785,
      "prop": 786,
      "dz790": 787,
      "54": 788,
      "dz867": 789,
      "mil": 790,
      "143": 791,
      "d42731": 792,
      "oint": 793,
      "pheny": 794,
      "dv12": 795,
      "909": 796,
      "x5a": 797,
      "ifen": 798,
      "ua": 799,
      "bac": 800,
      "ici": 801,
      "citrate": 802,
      "aparin": 803,
      "razine": 804,
      "ifene": 805,
      "prochlor": 806,
      "perazine": 807,
      "prochlorperazine": 808,
      "cl": 809,
      "rinse": 810,
      "gua": 811,
      "guaifene": 812,
      "guaifenesin": 813,
      "cap": 814,
      "ax": 815,
      "der": 816,
      "acyclo": 817,
      "acyclovir": 818,
      "de9": 819,
      "pow": 820,
      "powder": 821,
      "1401": 822,
      "d4280": 823,
      "enox": 824,
      "enoxaparin": 825,
      "metron": 826,
      "idazole": 827,
      "metronidazole": 828,
      "lodipine": 829,
      "811": 830,
      "ated": 831,
      "hydral": 832,
      "hydralazine": 833,
      "azol": 834,
      "ranit": 835,
      "ranitidine": 836,
      "rs": 837,
      "amlodipine": 838,
      "lactated": 839,
      "ringers": 840,
      "990": 841,
      "hex": 842,
      "cor": 843,
      "oph": 844,
      "d2449": 845,
      "thiamine": 846,
      "d41401": 847,
      "illin": 848,
      "ulated": 849,
      "calculated": 850,
      "ofol": 851,
      "propofol": 852,
      "df419": 853,
      "ophth": 854,
      "chlorhex": 855,
      "chlorhexidine": 856,
      "390": 857,
      "loz": 858,
      "dz9": 859,
      "d790": 860,
      "tif": 861,
      "d2859": 862,
      "d04": 863,
      "d493": 864,
      "syringe": 865,
      "sia": 866,
      "milk": 867,
      "magnesia": 868,
      "tear": 869,
      "xl": 870,
      "artif": 871,
      "icial": 872,
      "artificial": 873,
      "adol": 874,
      "tramadol": 875,
      "ointment": 876,
      "tal": 877,
      "yce": 878,
      "lyce": 879,
      "pk": 880,
      "dz85": 881,
      "pkt": 882,
      "pram": 883,
      "cita": 884,
      "lopram": 885,
      "133": 886,
      "citalopram": 887,
      "lope": 888,
      "acet": 889,
      "succin": 890,
      "d428": 891,
      "dg47": 892,
      "lycerin": 893,
      "tra": 894,
      "triax": 895,
      "ceftriax": 896,
      "ceftriaxone": 897,
      "cy": 898,
      "hcl": 899,
      "etine": 900,
      "d733": 901,
      "tine": 902,
      "succinate": 903,
      "d5849": 904,
      "d3051": 905,
      "oglycerin": 906,
      "nitroglycerin": 907,
      "d30000": 908,
      "63": 909,
      "no": 910,
      "130": 911,
      "76": 912,
      "pic": 913,
      "dv5861": 914,
      "race": 915,
      "189": 916,
      "di50": 917,
      "331": 918,
      "lose": 919,
      "ulose": 920,
      "lactulose": 921,
      "959": 922,
      "polyvalent": 923,
      "leveti": 924,
      "racetam": 925,
      "levetiracetam": 926,
      "alumin": 927,
      "aluminum": 928,
      "77": 929,
      "be": 930,
      "neu": 931,
      "750": 932,
      "144": 933,
      "neutra": 934,
      "ds": 935,
      "ny": 936,
      "dis": 937,
      "nystatin": 938,
      "d250": 939,
      "179": 940,
      "sr": 941,
      "un": 942,
      "for": 943,
      "de0": 944,
      "64": 945,
      "meterol": 946,
      "salmeterol": 947,
      "de878": 948,
      "di2510": 949,
      "dv5811": 950,
      "132": 951,
      "mon": 952,
      "53": 953,
      "dk5": 954,
      "1500": 955,
      "de8": 956,
      "ten": 957,
      "trimeth": 958,
      "phenyle": 959,
      "phenylephrine": 960,
      "trimethopri": 961,
      "trimethoprim": 962,
      "sulfameth": 963,
      "epi": 964,
      "asone": 965,
      "cream": 966,
      "disk": 967,
      "diskus": 968,
      "ur": 969,
      "zol": 970,
      "mineral": 971,
      "sac": 972,
      "d5990": 973,
      "d35": 974,
      "lone": 975,
      "cha": 976,
      "900": 977,
      "saccha": 978,
      "120": 979,
      "polysaccha": 980,
      "polysaccharide": 981,
      "teg": 982,
      "129": 983,
      "cefepi": 984,
      "cefepime": 985,
      "dg89": 986,
      "oclo": 987,
      "metoclo": 988,
      "pramide": 989,
      "metoclopramide": 990,
      "bactam": 991,
      "d787": 992,
      "chl": 993,
      "lotion": 994,
      "210": 995,
      "minerals": 996,
      "d070": 997,
      "benz": 998,
      "dd": 999,
      "nico": 1000,
      "nicotine": 1001,
      "sarna": 1002,
      "dexameth": 1003,
      "73": 1004,
      "de9331": 1005,
      "dz95": 1006,
      "d5w": 1007,
      "44": 1008,
      "tears": 1009,
      "dexamethasone": 1010,
      "losin": 1011,
      "tamsu": 1012,
      "tamsulosin": 1013,
      "dv1251": 1014,
      "ec": 1015,
      "nic": 1016,
      "789": 1017,
      "d287": 1018,
      "pid": 1019,
      "rec": 1020,
      "rel": 1021,
      "dz5": 1022,
      "fer": 1023,
      "d49390": 1024,
      "dr0": 1025,
      "d288": 1026,
      "dz7901": 1027,
      "othe": 1028,
      "other": 1029,
      "his": 1030,
      "latin": 1031,
      "panic": 1032,
      "hispanic": 1033,
      "latino": 1034,
      "de93": 1035,
      "cefazol": 1036,
      "cefazolin": 1037,
      "131": 1038,
      "67": 1039,
      "ogrel": 1040,
      "clopid": 1041,
      "clopidogrel": 1042,
      "cort": 1043,
      "d55": 1044,
      "ami": 1045,
      "d338": 1046,
      "145": 1047,
      "2ns": 1048,
      "to": 1049,
      "d278": 1050,
      "tegr": 1051,
      "ating": 1052,
      "disin": 1053,
      "tegrating": 1054,
      "disintegrating": 1055,
      "now": 1056,
      "unk": 1057,
      "nown": 1058,
      "unknown": 1059,
      "enem": 1060,
      "de119": 1061,
      "fla": 1062,
      "gyl": 1063,
      "flagyl": 1064,
      "rous": 1065,
      "ferrous": 1066,
      "dz79": 1067,
      "113": 1068,
      "dn179": 1069,
      "de039": 1070,
      "cortisone": 1071,
      "d996": 1072,
      "de11": 1073,
      "58": 1074,
      "miconazole": 1075,
      "beta": 1076,
      "val": 1077,
      "d2761": 1078,
      "dv5867": 1079,
      "dv49": 1080,
      "queti": 1081,
      "quetiapine": 1082,
      "de6": 1083,
      "dj45": 1084,
      "451": 1085,
      "56": 1086,
      "48": 1087,
      "dv10": 1088,
      ".-": 1089,
      "dz794": 1090,
      "rinol": 1091,
      "allo": 1092,
      "purinol": 1093,
      "allopurinol": 1094,
      "throat": 1095,
      "dil": 1096,
      "tral": 1097,
      "per": 1098,
      "d28": 1099,
      "fum": 1100,
      "arate": 1101,
      "fumarate": 1102,
      "sertral": 1103,
      "sertraline": 1104,
      "dilti": 1105,
      "diltiaz": 1106,
      "ded": 1107,
      "diltiazem": 1108,
      "sartan": 1109,
      "spir": 1110,
      "exten": 1111,
      "extended": 1112,
      "55": 1113,
      "thromycin": 1114,
      "direc": 1115,
      "direct": 1116,
      "dy929": 1117,
      "eto": 1118,
      "amin": 1119,
      "859": 1120,
      "280": 1121,
      "azepam": 1122,
      "114": 1123,
      "df17": 1124,
      "d2720": 1125,
      "dh": 1126,
      "dz68": 1127,
      "d327": 1128,
      "dz6": 1129,
      "sodi": 1130,
      "ursodi": 1131,
      "ursodiol": 1132,
      "el": 1133,
      "dv125": 1134,
      "succ": 1135,
      "keto": 1136,
      "d32723": 1137,
      "2000": 1138,
      "hyl": 1139,
      "d7870": 1140,
      "ma": 1141,
      "239": 1142,
      "cepa": 1143,
      "dd649": 1144,
      "zapine": 1145,
      "predniso": 1146,
      "prednisolone": 1147,
      "mel": 1148,
      "chloro": 1149,
      "dj45909": 1150,
      "bal": 1151,
      "de849": 1152,
      "methyl": 1153,
      "180": 1154,
      "d26": 1155,
      "121": 1156,
      "mid": 1157,
      "ibu": 1158,
      "profen": 1159,
      "ibuprofen": 1160,
      "ocobal": 1161,
      "cyan": 1162,
      "ocobalamin": 1163,
      "cyanocobalamin": 1164,
      "d33829": 1165,
      "115": 1166,
      "acetate": 1167,
      "d724": 1168,
      "teon": 1169,
      "ramel": 1170,
      "ramelteon": 1171,
      "d496": 1172,
      "zepam": 1173,
      "nazepam": 1174,
      "clonazepam": 1175,
      "57": 1176,
      "ramide": 1177,
      "rid": 1178,
      "cyclo": 1179,
      "hydrocortisone": 1180,
      "diazepam": 1181,
      "pinephrine": 1182,
      "loperamide": 1183,
      "ofloxacin": 1184,
      "601": 1185,
      "levofloxacin": 1186,
      "dem": 1187,
      "pidem": 1188,
      "zolpidem": 1189,
      "asi": 1190,
      "olan": 1191,
      "olanzapine": 1192,
      "asian": 1193,
      "picc": 1194,
      "rolac": 1195,
      "ketorolac": 1196,
      "d518": 1197,
      "809": 1198,
      "dt451": 1199,
      "d36": 1200,
      "160": 1201,
      "dz86718": 1202,
      "oxide": 1203,
      "d78791": 1204,
      "dg4733": 1205,
      "di489": 1206,
      "d15": 1207,
      "dz5111": 1208,
      "df17210": 1209,
      "cat": 1210,
      "339": 1211,
      "de871": 1212,
      "dline": 1213,
      "midline": 1214,
      "ultram": 1215,
      "dc78": 1216,
      "d27651": 1217,
      "509": 1218,
      "inser": 1219,
      "tions": 1220,
      "insertions": 1221,
      "116": 1222,
      "d2875": 1223,
      "mir": 1224,
      "d486": 1225,
      "phosphor": 1226,
      "phosphorus": 1227,
      "dy92": 1228,
      "acillin": 1229,
      "act": 1230,
      "tazo": 1231,
      "tazobactam": 1232,
      "ve": 1233,
      "tazapine": 1234,
      "mirtazapine": 1235,
      "actone": 1236,
      "onol": 1237,
      "spironol": 1238,
      "spironolactone": 1239,
      "d73300": 1240,
      "dv4582": 1241,
      "piper": 1242,
      "piperacillin": 1243,
      "118": 1244,
      "dt451x5a": 1245,
      "dr7": 1246,
      "d56400": 1247,
      "dj449": 1248,
      "azide": 1249,
      "azi": 1250,
      "128": 1251,
      "d33": 1252,
      "azithromycin": 1253,
      "chlorothi": 1254,
      "arone": 1255,
      "chlorothiazide": 1256,
      "146": 1257,
      "neg": 1258,
      "maa": 1259,
      "maalox": 1260,
      "labeta": 1261,
      "labetalol": 1262,
      "odarone": 1263,
      "amiodarone": 1264,
      "ona": 1265,
      "amide": 1266,
      "onat": 1267,
      "xim": 1268,
      "110mcg": 1269,
      "d707": 1270,
      "d68": 1271,
      "dk7": 1272,
      "nolol": 1273,
      "dz7902": 1274,
      "toin": 1275,
      "hydrochlorothiazide": 1276,
      "168": 1277,
      "dy83": 1278,
      "reg": 1279,
      "atenolol": 1280,
      "dv0": 1281,
      "ular": 1282,
      "cepacol": 1283,
      "di4891": 1284,
      "df10": 1285,
      "d729": 1286,
      "regular": 1287,
      "as": 1288,
      "zine": 1289,
      "caphos": 1290,
      "caphosol": 1291,
      "dg8929": 1292,
      "hum": 1293,
      "benzonat": 1294,
      "benzonatate": 1295,
      "fluconazole": 1296,
      "human": 1297,
      "501": 1298,
      "ans": 1299,
      "so": 1300,
      "d412": 1301,
      "550": 1302,
      "05": 1303,
      "de669": 1304,
      "d27800": 1305,
      "ss": 1306,
      "methylprednisolone": 1307,
      "dn390": 1308,
      "d715": 1309,
      "181": 1310,
      "dv85": 1311,
      "149": 1312,
      "enge": 1313,
      "lozenge": 1314,
      "rifa": 1315,
      "dk59": 1316,
      "dd7": 1317,
      "d345": 1318,
      "dk5900": 1319,
      "ridine": 1320,
      "ray": 1321,
      "spray": 1322,
      "ir": 1323,
      "ontin": 1324,
      "d788": 1325,
      "148": 1326,
      "oxycontin": 1327,
      "ximin": 1328,
      "rifaximin": 1329,
      "409": 1330,
      "otropium": 1331,
      "tiotropium": 1332,
      "dv436": 1333,
      "tic": 1334,
      "di110": 1335,
      "oxetine": 1336,
      "127": 1337,
      "d5715": 1338,
      "jel": 1339,
      "jelly": 1340,
      "db96": 1341,
      "lans": 1342,
      "fluoxetine": 1343,
      "lansoprazole": 1344,
      "de8798": 1345,
      "dz8": 1346,
      "126": 1347,
      "dc7": 1348,
      "d2768": 1349,
      "117": 1350,
      "ha": 1351,
      "d34": 1352,
      "ridol": 1353,
      "122": 1354,
      "losartan": 1355,
      "loperidol": 1356,
      "haloperidol": 1357,
      "dj9": 1358,
      "dc9": 1359,
      "pravastatin": 1360,
      "metho": 1361,
      "%$": 1362,
      "bupropi": 1363,
      "bupropion": 1364,
      "hydroxy": 1365,
      "d44": 1366,
      "xxa": 1367,
      "dt8": 1368,
      "01": 1369,
      "861": 1370,
      "bar": 1371,
      "dox": 1372,
      "1400": 1373,
      "951": 1374,
      "mdi": 1375,
      "ptic": 1376,
      "147": 1377,
      "dy922": 1378,
      "dv87": 1379,
      "lat": 1380,
      "dv5866": 1381,
      "dg4700": 1382,
      "dy92230": 1383,
      "d296": 1384,
      "5g": 1385,
      "dose": 1386,
      "dc8": 1387,
      "dv8741": 1388,
      "lr": 1389,
      "d78061": 1390,
      "dd696": 1391,
      "dd62": 1392,
      "197": 1393,
      "phenol": 1394,
      "190": 1395,
      "oprost": 1396,
      "bital": 1397,
      "dz96": 1398,
      "mepe": 1399,
      "meperidine": 1400,
      "ka": 1401,
      "ban": 1402,
      "dk3": 1403,
      "d69": 1404,
      "chlora": 1405,
      "845": 1406,
      "di6": 1407,
      "septic": 1408,
      "chloraseptic": 1409,
      "adine": 1410,
      "182": 1411,
      "221": 1412,
      "123": 1413,
      "005": 1414,
      "d00": 1415,
      "de8497": 1416,
      "dz80": 1417,
      "d20280": 1418,
      "dk70": 1419,
      "810": 1420,
      "dy92239": 1421,
      "py": 1422,
      "d42789": 1423,
      "oni": 1424,
      "d49": 1425,
      "phenytoin": 1426,
      "dv100": 1427,
      "my": 1428,
      "ampic": 1429,
      "azolam": 1430,
      "ampicillin": 1431,
      "imazole": 1432,
      "cr": 1433,
      "201": 1434,
      "d2809": 1435,
      "nore": 1436,
      "220": 1437,
      "dm5": 1438,
      "es": 1439,
      "124": 1440,
      "latan": 1441,
      "latanoprost": 1442,
      "bic": 1443,
      "d28800": 1444,
      "781": 1445,
      "midazolam": 1446,
      "fate": 1447,
      "xaban": 1448,
      "ven": 1449,
      "d78701": 1450,
      "dv1254": 1451,
      "282": 1452,
      "xr": 1453,
      "di7": 1454,
      "d600": 1455,
      "d20500": 1456,
      "dv16": 1457,
      "norepinephrine": 1458,
      "d284": 1459,
      "dv103": 1460,
      "luka": 1461,
      "lukast": 1462,
      "ter": 1463,
      "d60000": 1464,
      "d78959": 1465,
      "dz90": 1466,
      "dv4581": 1467,
      "ascor": 1468,
      "ascorbic": 1469,
      "telukast": 1470,
      "montelukast": 1471,
      "1250": 1472,
      "du": 1473,
      "240": 1474,
      "241": 1475,
      "orbi": 1476,
      "d5771": 1477,
      "d40390": 1478,
      "d112": 1479,
      "170": 1480,
      "dulox": 1481,
      "sl": 1482,
      "duloxetine": 1483,
      "di3": 1484,
      "isos": 1485,
      "enema": 1486,
      "isosorbi": 1487,
      "isosorbide": 1488,
      "dz8673": 1489,
      "sucral": 1490,
      "sucralfate": 1491,
      "a1": 1492,
      "onide": 1493,
      "dk6": 1494,
      "dilol": 1495,
      "carve": 1496,
      "carvedilol": 1497,
      "dz86711": 1498,
      "dv153": 1499,
      "de876": 1500,
      "d2762": 1501,
      "venla": 1502,
      "venlafa": 1503,
      "venlafaxine": 1504,
      "di252": 1505,
      "fluo": 1506,
      "dv5865": 1507,
      "tablet": 1508,
      "oxin": 1509,
      "dig": 1510,
      "digoxin": 1511,
      "de43": 1512,
      "odt": 1513,
      "d07054": 1514,
      "dd70": 1515,
      "merop": 1516,
      "meropenem": 1517,
      "ed": 1518,
      "254": 1519,
      "183": 1520,
      "d5712": 1521,
      "clotr": 1522,
      "clotrimazole": 1523,
      "gine": 1524,
      "de83": 1525,
      "1200": 1526,
      "atova": 1527,
      "quone": 1528,
      "atovaquone": 1529,
      "289": 1530,
      "methad": 1531,
      "mu": 1532,
      "dd728": 1533,
      "rosu": 1534,
      "rosuvastatin": 1535,
      "methadone": 1536,
      "184": 1537,
      "952": 1538,
      "dl0": 1539,
      "401": 1540,
      "indirect": 1541,
      "188": 1542,
      "phy": 1543,
      "phyt": 1544,
      "phytona": 1545,
      "phytonadi": 1546,
      "phytonadione": 1547,
      "d346": 1548,
      "molol": 1549,
      "etil": 1550,
      "di8": 1551,
      "de872": 1552,
      "d41400": 1553,
      "mus": 1554,
      "valpro": 1555,
      "d536": 1556,
      "dk9": 1557,
      "659": 1558,
      "roli": 1559,
      "rolimus": 1560,
      "d5859": 1561,
      "dy84": 1562,
      "d5770": 1563,
      "dv104": 1564,
      "d3004": 1565,
      "dz955": 1566,
      "410": 1567,
      "hol": 1568,
      "dw": 1569,
      "dz683": 1570,
      "dk766": 1571,
      "ina": 1572,
      "151": 1573,
      "tropine": 1574,
      "ptyl": 1575,
      "triptyl": 1576,
      "triptyline": 1577,
      "syl": 1578,
      "d2851": 1579,
      "a1c": 1580,
      "d5723": 1581,
      "d7904": 1582,
      "d7890": 1583,
      "159": 1584,
      "dr740": 1585,
      "d3572": 1586,
      "dj189": 1587,
      "440": 1588,
      "contin": 1589,
      "d453": 1590,
      "ms": 1591,
      "praz": 1592,
      "d5119": 1593,
      "alte": 1594,
      "di480": 1595,
      "oxal": 1596,
      "altepl": 1597,
      "alteplase": 1598,
      "dg40": 1599,
      "152": 1600,
      "cla": 1601,
      "dz858": 1602,
      "dr5": 1603,
      "d34590": 1604,
      "timolol": 1605,
      "d34690": 1606,
      "prometh": 1607,
      "promethazine": 1608,
      "de860": 1609,
      "dg6": 1610,
      "d29": 1611,
      "d71590": 1612,
      "steride": 1613,
      "fina": 1614,
      "255": 1615,
      "609": 1616,
      "finasteride": 1617,
      "eine": 1618,
      "d2749": 1619,
      "d7907": 1620,
      "dn400": 1621,
      "line": 1622,
      "sulbactam": 1623,
      "270": 1624,
      "db19": 1625,
      "d28860": 1626,
      "dv6": 1627,
      "oxalate": 1628,
      "380": 1629,
      "dg93": 1630,
      "d78052": 1631,
      "d440": 1632,
      "d562": 1633,
      "162": 1634,
      "tac": 1635,
      "de5": 1636,
      "321": 1637,
      "tacrolimus": 1638,
      "dd509": 1639,
      "den": 1640,
      "male": 1641,
      "maleate": 1642,
      "502": 1643,
      "9181": 1644,
      "formin": 1645,
      "metformin": 1646,
      "rphan": 1647,
      "185": 1648,
      "d7070": 1649,
      "dextrometho": 1650,
      "dextromethorphan": 1651,
      "glucoph": 1652,
      "age": 1653,
      "dz966": 1654,
      "glucophage": 1655,
      "rat": 1656,
      "vo": 1657,
      "xin": 1658,
      "alin": 1659,
      "pregab": 1660,
      "pregabalin": 1661,
      "ep": 1662,
      "d42832": 1663,
      "tamine": 1664,
      "sore": 1665,
      "dk74": 1666,
      "hr": 1667,
      "cod": 1668,
      "d4168": 1669,
      "piro": 1670,
      "codeine": 1671,
      "cle": 1672,
      "dd6959": 1673,
      "dz99": 1674,
      "dental": 1675,
      "fluoride": 1676,
      "d00845": 1677,
      "621": 1678,
      "259": 1679,
      "myco": 1680,
      "mupiro": 1681,
      "fil": 1682,
      "mupirocin": 1683,
      "phenolate": 1684,
      "mycophenolate": 1685,
      "mononi": 1686,
      "oxy": 1687,
      "mononitrate": 1688,
      "dz798": 1689,
      "dy9200": 1690,
      "syr": 1691,
      "vin": 1692,
      "troc": 1693,
      "387": 1694,
      "hydroxyzine": 1695,
      "lamo": 1696,
      "lamotri": 1697,
      "lamotrigine": 1698,
      "atropine": 1699,
      "ance": 1700,
      "d4589": 1701,
      "209": 1702,
      "d305": 1703,
      "dr50": 1704,
      "sti": 1705,
      "jet": 1706,
      "urojet": 1707,
      "5mg": 1708,
      "escitalopram": 1709,
      "barium": 1710,
      "222": 1711,
      "clear": 1712,
      "clearance": 1713,
      "da0": 1714,
      "173": 1715,
      "hydroxide": 1716,
      "dv4986": 1717,
      "dr197": 1718,
      "50ml": 1719,
      "d294": 1720,
      "dd72829": 1721,
      "cathe": 1722,
      "catheter": 1723,
      "readi": 1724,
      "d719": 1725,
      "481": 1726,
      "olam": 1727,
      "alpraz": 1728,
      "alprazolam": 1729,
      "di959": 1730,
      "d78060": 1731,
      "caff": 1732,
      "dm4": 1733,
      "d200": 1734,
      "d5762": 1735,
      "d16": 1736,
      "d7245": 1737,
      "9902": 1738,
      "d07070": 1739,
      "dy838": 1740,
      "ion": 1741,
      "dv1255": 1742,
      "338": 1743,
      "d79902": 1744,
      "dopa": 1745,
      "202": 1746,
      "de8788": 1747,
      "154": 1748,
      "mof": 1749,
      "mofetil": 1750,
      "nidine": 1751,
      "de1165": 1752,
      "clonidine": 1753,
      "d1985": 1754,
      "d78702": 1755,
      "153": 1756,
      "dr6": 1757,
      "d535": 1758,
      "dz87": 1759,
      "dv8": 1760,
      "d438": 1761,
      "d53": 1762,
      "mede": 1763,
      "dexmede": 1764,
      "dexmedeto": 1765,
      "midine": 1766,
      "dexmedetomidine": 1767,
      "omycin": 1768,
      "butal": 1769,
      "taine": 1770,
      "butalbital": 1771,
      "aprine": 1772,
      "benzaprine": 1773,
      "cyclobenzaprine": 1774,
      "sus": 1775,
      "tained": 1776,
      "sustained": 1777,
      "dg893": 1778,
      "dd4": 1779,
      "175": 1780,
      "dr5081": 1781,
      "de861": 1782,
      "dy92009": 1783,
      "vis": 1784,
      "d25060": 1785,
      "api": 1786,
      "apixaban": 1787,
      "rox": 1788,
      "161": 1789,
      "de9320": 1790,
      "d2639": 1791,
      "d78820": 1792,
      "d303": 1793,
      "d30500": 1794,
      "phe": 1795,
      "d78659": 1796,
      "di5032": 1797,
      "mod": 1798,
      "902": 1799,
      "triam": 1800,
      "dv4365": 1801,
      "di27": 1802,
      "dz66": 1803,
      "831": 1804,
      "592": 1805,
      "309": 1806,
      "des": 1807,
      "dm79": 1808,
      "09": 1809,
      "tor": 1810,
      "1818": 1811,
      "dv1581": 1812,
      "dd61818": 1813,
      "d27801": 1814,
      "dz951": 1815,
      "829": 1816,
      "dj9601": 1817,
      "de94": 1818,
      "dj96": 1819,
      "osin": 1820,
      "d42822": 1821,
      "d2387": 1822,
      "211": 1823,
      "ylcy": 1824,
      "menthol": 1825,
      "d51881": 1826,
      "acetylcy": 1827,
      "acetylcyste": 1828,
      "acetylcysteine": 1829,
      "450": 1830,
      "d7840": 1831,
      "d1120": 1832,
      "155": 1833,
      "mox": 1834,
      "d03": 1835,
      "cous": 1836,
      "viscous": 1837,
      "d2880": 1838,
      "de46": 1839,
      "dm810": 1840,
      "dr13": 1841,
      "d5ns": 1842,
      "325mg": 1843,
      "stim": 1844,
      "valsartan": 1845,
      "d4241": 1846,
      "dd5": 1847,
      "d7242": 1848,
      "gra": 1849,
      "baclo": 1850,
      "baclofen": 1851,
      "d2767": 1852,
      "epinephrine": 1853,
      "d3659": 1854,
      "801": 1855,
      "tre": 1856,
      "d1977": 1857,
      "dr112": 1858,
      "dr0902": 1859,
      "db1920": 1860,
      "d28419": 1861,
      "8510": 1862,
      "d20300": 1863,
      "db3": 1864,
      "dv4589": 1865,
      "156": 1866,
      "dr000": 1867,
      "d29680": 1868,
      "d1970": 1869,
      "158": 1870,
      "ris": 1871,
      "d28529": 1872,
      "869": 1873,
      "dy848": 1874,
      "dj4": 1875,
      "d5180": 1876,
      "dc79": 1877,
      "filgra": 1878,
      "filgrastim": 1879,
      "dv4364": 1880,
      "top": 1881,
      "284": 1882,
      "d79092": 1883,
      "dz94": 1884,
      "d27652": 1885,
      "249": 1886,
      "fex": 1887,
      "ofen": 1888,
      "d4240": 1889,
      "fexofen": 1890,
      "fexofenadine": 1891,
      "preser": 1892,
      "d995": 1893,
      "creon": 1894,
      "divalpro": 1895,
      "divalproex": 1896,
      "parox": 1897,
      "paroxetine": 1898,
      "zil": 1899,
      "oil": 1900,
      "dg92": 1901,
      "dg40909": 1902,
      "fe": 1903,
      "d6826": 1904,
      "cadd": 1905,
      "amitriptyline": 1906,
      "olone": 1907,
      "dv4282": 1908,
      "cinolone": 1909,
      "d4254": 1910,
      "04": 1911,
      "amox": 1912,
      "midod": 1913,
      "midodrine": 1914,
      "amoxic": 1915,
      "preserv": 1916,
      "amoxicillin": 1917,
      "dz681": 1918,
      "dv4983": 1919,
      "dz23": 1920,
      "ram": 1921,
      "torsemide": 1922,
      "tabine": 1923,
      "dg629": 1924,
      "d45621": 1925,
      "capt": 1926,
      "d78900": 1927,
      "d28803": 1928,
      "da419": 1929,
      "006": 1930,
      "231": 1931,
      "dm255": 1932,
      "ble": 1933,
      "dz006": 1934,
      "dn189": 1935,
      "hydrobromide": 1936,
      "d73390": 1937,
      "di129": 1938,
      "osi": 1939,
      "tenof": 1940,
      "225": 1941,
      "de559": 1942,
      "d309": 1943,
      "d28522": 1944,
      "dz853": 1945,
      "214": 1946,
      "df0": 1947,
      "d78321": 1948,
      "tenofo": 1949,
      "d2841": 1950,
      "di8510": 1951,
      "d5363": 1952,
      "194": 1953,
      "de8342": 1954,
      "d7823": 1955,
      "dr4": 1956,
      "d4439": 1957,
      "lution": 1958,
      "dr9": 1959,
      "213": 1960,
      "tiz": 1961,
      "157": 1962,
      "238": 1963,
      "solution": 1964,
      "una": 1965,
      "d50": 1966,
      "de8339": 1967,
      "dd709": 1968,
      "triamcinolone": 1969,
      "tenofovir": 1970,
      "fle": 1971,
      "471": 1972,
      "acetonide": 1973,
      "d99592": 1974,
      "dv1046": 1975,
      "d7140": 1976,
      "de88": 1977,
      "d56210": 1978,
      "db95": 1979,
      "169": 1980,
      "707": 1981,
      "lorat": 1982,
      "dz9221": 1983,
      "loratadine": 1984,
      "df43": 1985,
      "dt380": 1986,
      "orine": 1987,
      "sporine": 1988,
      "cyclosporine": 1989,
      "dq": 1990,
      "dv5869": 1991,
      "d0389": 1992,
      "171": 1993,
      "d459": 1994,
      "pyri": 1995,
      "opa": 1996,
      "glyco": 1997,
      "dm19": 1998,
      "ation": 1999,
      "d42833": 2000,
      "dm109": 2001,
      "de6601": 2002,
      "nicar": 2003,
      "bri": 2004,
      "541": 2005,
      "d6930": 2006,
      "d7291": 2007,
      "dv1083": 2008,
      "dv707": 2009,
      "d56409": 2010,
      "rrol": 2011,
      "pyrrol": 2012,
      "glycopyrrol": 2013,
      "glycopyrrolate": 2014,
      "208": 2015,
      "dr188": 2016,
      "186": 2017,
      "carbi": 2018,
      "dd638": 2019,
      "carbidopa": 2020,
      "dv4501": 2021,
      "de8780": 2022,
      "captopril": 2023,
      "d569": 2024,
      "aze": 2025,
      "dg43": 2026,
      "dm1990": 2027,
      "de875": 2028,
      "178": 2029,
      "lium": 2030,
      "psyl": 2031,
      "psyllium": 2032,
      "d78650": 2033,
      "d5070": 2034,
      "odopa": 2035,
      "levodopa": 2036,
      "di5033": 2037,
      "dor": 2038,
      "d5761": 2039,
      "tazol": 2040,
      "max": 2041,
      "069": 2042,
      "d3569": 2043,
      "ini": 2044,
      "gmine": 2045,
      "d99859": 2046,
      "leu": 2047,
      "dam": 2048,
      "164": 2049,
      "clin": 2050,
      "ran": 2051,
      "dr65": 2052,
      "nicardipine": 2053,
      "di693": 2054,
      "dz923": 2055,
      "modi": 2056,
      "damycin": 2057,
      "clindamycin": 2058,
      "de930": 2059,
      "gin": 2060,
      "prox": 2061,
      "d585": 2062,
      "d4011": 2063,
      "da047": 2064,
      "163": 2065,
      "done": 2066,
      "zolamide": 2067,
      "dl9": 2068,
      "nalox": 2069,
      "d99591": 2070,
      "iram": 2071,
      "naloxone": 2072,
      "but": 2073,
      "d997": 2074,
      "dd630": 2075,
      "azepine": 2076,
      "topiram": 2077,
      "topiramate": 2078,
      "d04104": 2079,
      "165": 2080,
      "191": 2081,
      "pamax": 2082,
      "topamax": 2083,
      "dv160": 2084,
      "res": 2085,
      "dz850": 2086,
      "d289": 2087,
      "ycline": 2088,
      "dt4": 2089,
      "de84": 2090,
      "d3383": 2091,
      "itr": 2092,
      "de8490": 2093,
      "pezil": 2094,
      "dz85828": 2095,
      "donepezil": 2096,
      "ungin": 2097,
      "dk7031": 2098,
      "d2760": 2099,
      "dolol": 2100,
      "d2853": 2101,
      "dt380x5a": 2102,
      "dorzolamide": 2103,
      "dr339": 2104,
      "830": 2105,
      "di951": 2106,
      "bacitr": 2107,
      "bacitracin": 2108,
      "monidine": 2109,
      "d30981": 2110,
      "brimonidine": 2111,
      "172": 2112,
      "dz9981": 2113,
      "dv130": 2114,
      "d4580": 2115,
      "bicin": 2116,
      "nadolol": 2117,
      "oside": 2118,
      "etop": 2119,
      "etoposide": 2120,
      "dv4572": 2121,
      "oc": 2122,
      "yn": 2123,
      "dc787": 2124,
      "d2500": 2125,
      "d45981": 2126,
      "d51889": 2127,
      "166": 2128,
      "ridone": 2129,
      "peridone": 2130,
      "d7850": 2131,
      "omega": 2132,
      "dz98": 2133,
      "fis": 2134,
      "fish": 2135,
      "d49320": 2136,
      "d596": 2137,
      "d038": 2138,
      "dg43909": 2139,
      "dr1310": 2140,
      "d415": 2141,
      "271": 2142,
      "d17": 2143,
      "xxxa": 2144,
      "d20400": 2145,
      "cerin": 2146,
      "288": 2147,
      "rubicin": 2148,
      "hydrocerin": 2149,
      "167": 2150,
      "d80": 2151,
      "dr10": 2152,
      "d45829": 2153,
      "402": 2154,
      "db9620": 2155,
      "day": 2156,
      "de870": 2157,
      "barbital": 2158,
      "d1983": 2159,
      "812": 2160,
      "pheno": 2161,
      "de7800": 2162,
      "di5022": 2163,
      "gan": 2164,
      "risperidone": 2165,
      "319": 2166,
      "224": 2167,
      "d70703": 2168,
      "vul": 2169,
      "clavul": 2170,
      "d99674": 2171,
      "phenobarbital": 2172,
      "de8782": 2173,
      "dd6481": 2174,
      "emtr": 2175,
      "tide": 2176,
      "emtrici": 2177,
      "d599": 2178,
      "d49121": 2179,
      "229": 2180,
      "d333": 2181,
      "pyrido": 2182,
      "oxybut": 2183,
      "ynin": 2184,
      "oxybutynin": 2185,
      "234": 2186,
      "851": 2187,
      "ylate": 2188,
      "dr109": 2189,
      "fungin": 2190,
      "cafungin": 2191,
      "micafungin": 2192,
      "d785": 2193,
      "anidine": 2194,
      "tizanidine": 2195,
      "dz9181": 2196,
      "d042": 2197,
      "1300": 2198,
      "198": 2199,
      "d567": 2200,
      "de112": 2201,
      "lay": 2202,
      "delay": 2203,
      "delayed": 2204,
      "203": 2205,
      "dj90": 2206,
      "fleet": 2207,
      "dv1588": 2208,
      "250ml": 2209,
      "d78720": 2210,
      "ing": 2211,
      "nife": 2212,
      "dk7469": 2213,
      "fi": 2214,
      "emtricitabine": 2215,
      "trex": 2216,
      "d18": 2217,
      "ril": 2218,
      "da4": 2219,
      "nifedipine": 2220,
      "dr110": 2221,
      "dv462": 2222,
      "174": 2223,
      "503": 2224,
      "de8770": 2225,
      "ceti": 2226,
      "ptomycin": 2227,
      "dl89": 2228,
      "otide": 2229,
      "treotide": 2230,
      "octreotide": 2231,
      "daptomycin": 2232,
      "cetiri": 2233,
      "cetirizine": 2234,
      "ery": 2235,
      "erythromycin": 2236,
      "dv4586": 2237,
      "269": 2238,
      "unable": 2239,
      "dk831": 2240,
      "d2689": 2241,
      "anic": 2242,
      "clavulanic": 2243,
      "waf": 2244,
      "252": 2245,
      "dz781": 2246,
      "176": 2247,
      "ab": 2248,
      "dm549": 2249,
      "df319": 2250,
      "dk3189": 2251,
      "ib": 2252,
      "2500": 2253,
      "251": 2254,
      "299": 2255,
      "de1140": 2256,
      "195": 2257,
      "0001": 2258,
      "tigmine": 2259,
      "d410": 2260,
      "ostigmine": 2261,
      "neostigmine": 2262,
      "de8889": 2263,
      "d1550": 2264,
      "192": 2265,
      "d73313": 2266,
      "06": 2267,
      "orubicin": 2268,
      "doxorubicin": 2269,
      "187": 2270,
      "212": 2271,
      "dj98": 2272,
      "dk3184": 2273,
      "riva": 2274,
      "dc9200": 2275,
      "glydo": 2276,
      "dm545": 2277,
      "dc7951": 2278,
      "301": 2279,
      "buspir": 2280,
      "buspirone": 2281,
      "d5718": 2282,
      "dz93": 2283,
      "177": 2284,
      "d79": 2285,
      "d2752": 2286,
      "dr509": 2287,
      "dr51": 2288,
      "lex": 2289,
      "desonide": 2290,
      "283": 2291,
      "232": 2292,
      "dz9049": 2293,
      "cic": 2294,
      "480": 2295,
      "dk72": 2296,
      "de8781": 2297,
      "rab": 2298,
      "proto": 2299,
      "protocol": 2300,
      "d5601": 2301,
      "stat": 2302,
      "08": 2303,
      "dd684": 2304,
      "ciclo": 2305,
      "df1010": 2306,
      "199": 2307,
      "193": 2308,
      "d5533": 2309,
      "682": 2310,
      "codone": 2311,
      "ycycline": 2312,
      "hydrocodone": 2313,
      "doxycycline": 2314,
      "hycl": 2315,
      "hyclate": 2316,
      "ciclovir": 2317,
      "d2930": 2318,
      "dj3": 2319,
      "cepastat": 2320,
      "dv1005": 2321,
      "d41519": 2322,
      "d295": 2323,
      "nor": 2324,
      "02": 2325,
      "vacaine": 2326,
      "d2753": 2327,
      "pivacaine": 2328,
      "dc8339": 2329,
      "opres": 2330,
      "opressin": 2331,
      "dt828": 2332,
      "d99685": 2333,
      "vera": 2334,
      "vorin": 2335,
      "d5559": 2336,
      "gl": 2337,
      "verapa": 2338,
      "inhal": 2339,
      "inhalation": 2340,
      "verapamil": 2341,
      "sel": 2342,
      "roxaban": 2343,
      "d7802": 2344,
      "rivaroxaban": 2345,
      "ganciclovir": 2346,
      "25g": 2347,
      "500ml": 2348,
      "atri": 2349,
      "covorin": 2350,
      "d8": 2351,
      "glutamine": 2352,
      "dime": 2353,
      "d999": 2354,
      "d27669": 2355,
      "di739": 2356,
      "dk75": 2357,
      "d28749": 2358,
      "pp": 2359,
      "supp": 2360,
      "phale": 2361,
      "cephale": 2362,
      "cephalexin": 2363,
      "leucovorin": 2364,
      "d53550": 2365,
      "dt36": 2366,
      "inc": 2367,
      "dz684": 2368,
      "dk57": 2369,
      "olol": 2370,
      "455": 2371,
      "dk7290": 2372,
      "idime": 2373,
      "ceftaz": 2374,
      "ceftazidime": 2375,
      "d36201": 2376,
      "vori": 2377,
      "voriconazole": 2378,
      "d560": 2379,
      "vu": 2380,
      "d04149": 2381,
      "d78079": 2382,
      "zinc": 2383,
      "d70715": 2384,
      "d30390": 2385,
      "4000": 2386,
      "230": 2387,
      "dz7682": 2388,
      "310": 2389,
      "420": 2390,
      "206": 2391,
      "d7295": 2392,
      "d9": 2393,
      "d349": 2394,
      "mesal": 2395,
      "d43": 2396,
      "istine": 2397,
      "cristine": 2398,
      "vincristine": 2399,
      "carbam": 2400,
      "df4310": 2401,
      "262": 2402,
      "350": 2403,
      "df112": 2404,
      "205": 2405,
      "dc85": 2406,
      "aqu": 2407,
      "amp": 2408,
      "d7821": 2409,
      "dv441": 2410,
      "d42732": 2411,
      "248": 2412,
      "mesalamine": 2413,
      "sylate": 2414,
      "ari": 2415,
      "d5641": 2416,
      "betasol": 2417,
      "di0": 2418,
      "196": 2419,
      "242": 2420,
      "clobetasol": 2421,
      "dd689": 2422,
      "aqua": 2423,
      "d7837": 2424,
      "comp": 2425,
      "de8859": 2426,
      "bupivacaine": 2427,
      "pyridoxine": 2428,
      "phor": 2429,
      "aquaphor": 2430,
      "d30393": 2431,
      "dz9114": 2432,
      "218": 2433,
      "dh409": 2434,
      "228": 2435,
      "dv163": 2436,
      "pheni": 2437,
      "chemo": 2438,
      "de27": 2439,
      "dv850": 2440,
      "281": 2441,
      "dt86": 2442,
      "oncovin": 2443,
      "001": 2444,
      "d348": 2445,
      "233": 2446,
      "d59": 2447,
      "di70": 2448,
      "sty": 2449,
      "man": 2450,
      "complex": 2451,
      "vudine": 2452,
      "dz720": 2453,
      "dr6521": 2454,
      "dro": 2455,
      "dk7460": 2456,
      "d25002": 2457,
      "d511": 2458,
      "320": 2459,
      "dz9484": 2460,
      "d29181": 2461,
      "propran": 2462,
      "piprazole": 2463,
      "leep": 2464,
      "io": 2465,
      "propranolol": 2466,
      "258": 2467,
      "cil": 2468,
      "204": 2469,
      "542": 2470,
      "d3485": 2471,
      "de1122": 2472,
      "dv4579": 2473,
      "dm069": 2474,
      "d47": 2475,
      "aripiprazole": 2476,
      "cu": 2477,
      "818": 2478,
      "dz800": 2479,
      "d78552": 2480,
      "tru": 2481,
      "d53789": 2482,
      "fludro": 2483,
      "fludrocortisone": 2484,
      "dz8546": 2485,
      "dz6841": 2486,
      "de8499": 2487,
      "226": 2488,
      "889": 2489,
      "cillin": 2490,
      "d78830": 2491,
      "tu": 2492,
      "oxylate": 2493,
      "diphenoxylate": 2494,
      "d286": 2495,
      "vada": 2496,
      "truvada": 2497,
      "gli": 2498,
      "dc8338": 2499,
      "d78039": 2500,
      "875": 2501,
      "07": 2502,
      "302": 2503,
      "xx": 2504,
      "budesonide": 2505,
      "dv433": 2506,
      "d2536": 2507,
      "d716": 2508,
      "df1021": 2509,
      "d793": 2510,
      "375": 2511,
      "di130": 2512,
      "264": 2513,
      "wi": 2514,
      "ds0": 2515,
      "dj6": 2516,
      "dk7030": 2517,
      "di824": 2518,
      "dc34": 2519,
      "839": 2520,
      "d5722": 2521,
      "d79029": 2522,
      "d42823": 2523,
      "d2662": 2524,
      "dr78": 2525,
      "dv442": 2526,
      "360": 2527,
      "dk29": 2528,
      "binol": 2529,
      "drona": 2530,
      "dronabinol": 2531,
      "263": 2532,
      "lami": 2533,
      "dn183": 2534,
      "de115": 2535,
      "d5609": 2536,
      "d20501": 2537,
      "rabine": 2538,
      "d28850": 2539,
      "dv6284": 2540,
      "dv08": 2541,
      "602": 2542,
      "207": 2543,
      "d0414": 2544,
      "d33394": 2545,
      "dr7881": 2546,
      "223": 2547,
      "dz89": 2548,
      "411": 2549,
      "d5280": 2550,
      "961": 2551,
      "d5768": 2552,
      "d30391": 2553,
      "ez": 2554,
      "mibe": 2555,
      "etimibe": 2556,
      "ezetimibe": 2557,
      "colch": 2558,
      "icine": 2559,
      "colchicine": 2560,
      "dv1272": 2561,
      "dh5": 2562,
      "d7812": 2563,
      "d34982": 2564,
      "d4928": 2565,
      "de9342": 2566,
      "dv1082": 2567,
      "d0417": 2568,
      "d041": 2569,
      "d23875": 2570,
      "dz9884": 2571,
      "dk80": 2572,
      "d0413": 2573,
      "d04111": 2574,
      "d2800": 2575,
      "d20410": 2576,
      "fos": 2577,
      "cel": 2578,
      "d593": 2579,
      "phenid": 2580,
      "901": 2581,
      "db370": 2582,
      "d48": 2583,
      "215": 2584,
      "polymy": 2585,
      "polymyxin": 2586,
      "235": 2587,
      "dz7982": 2588,
      "d5853": 2589,
      "di350": 2590,
      "dt85": 2591,
      "d5569": 2592,
      "icin": 2593,
      "april": 2594,
      "dj690": 2595,
      "d7862": 2596,
      "dz950": 2597,
      "dj441": 2598,
      "d2763": 2599,
      "dk861": 2600,
      "d11": 2601,
      "216": 2602,
      "009": 2603,
      "d433": 2604,
      "217": 2605,
      "lamivudine": 2606,
      "278": 2607,
      "dv851": 2608,
      "dc786": 2609,
      "489": 2610,
      "di2720": 2611,
      "ob": 2612,
      "excel": 2613,
      "227": 2614,
      "dy832": 2615,
      "d519": 2616,
      "dd618": 2617,
      "tegra": 2618,
      "nortriptyline": 2619,
      "d1976": 2620,
      "d728": 2621,
      "d90": 2622,
      "df05": 2623,
      "dm797": 2624,
      "1600": 2625,
      "quine": 2626,
      "dr627": 2627,
      "di5023": 2628,
      "dj9811": 2629,
      "di45": 2630,
      "dv454": 2631,
      "dk86": 2632,
      "d05": 2633,
      "df0390": 2634,
      "d60": 2635,
      "d5lr": 2636,
      "di340": 2637,
      "d51919": 2638,
      "rectal": 2639,
      "tein": 2640,
      "methylphenid": 2641,
      "methylphenidate": 2642,
      "d04112": 2643,
      "dicyclo": 2644,
      "dicyclomine": 2645,
      "calci": 2646,
      "db9689": 2647,
      "dm7": 2648,
      "dl975": 2649,
      "dv173": 2650,
      "290": 2651,
      "253": 2652,
      "piz": 2653,
      "di272": 2654,
      "amphe": 2655,
      "261": 2656,
      "246": 2657,
      "cli": 2658,
      "chloroquine": 2659,
      "tegravir": 2660,
      "glipiz": 2661,
      "amphetamine": 2662,
      "de440": 2663,
      "dv4502": 2664,
      "glipizide": 2665,
      "dz8249": 2666,
      "protein": 2667,
      "243": 2668,
      "vas": 2669,
      "d25541": 2670,
      "vasopressin": 2671,
      "valganciclovir": 2672,
      "gelcla": 2673,
      "gelclair": 2674,
      "hydroxychloroquine": 2675,
      "di26": 2676,
      "dc83": 2677,
      "oate": 2678,
      "naprox": 2679,
      "naproxen": 2680,
      "245": 2681,
      "dv600": 2682,
      "dy920": 2683,
      "899": 2684,
      "dr001": 2685,
      "uth": 2686,
      "mouth": 2687,
      "dr791": 2688,
      "d6822": 2689,
      "d99931": 2690,
      "d34830": 2691,
      "dr079": 2692,
      "sco": 2693,
      "d78906": 2694,
      "260": 2695,
      "d5589": 2696,
      "5090": 2697,
      "dv1011": 2698,
      "polamine": 2699,
      "scopolamine": 2700,
      "d78909": 2701,
      "dz952": 2702,
      "03": 2703,
      "dk4": 2704,
      "d7824": 2705,
      "cvi": 2706,
      "cvicu": 2707,
      "db952": 2708,
      "di81": 2709,
      "272": 2710,
      "df1120": 2711,
      "605": 2712,
      "dz803": 2713,
      "d27542": 2714,
      "373": 2715,
      "neoral": 2716,
      "set": 2717,
      "cas": 2718,
      "sette": 2719,
      "cassette": 2720,
      "tain": 2721,
      "modifi": 2722,
      "obtain": 2723,
      "modified": 2724,
      "8x5a": 2725,
      "d730": 2726,
      "291": 2727,
      "dc9000": 2728,
      "pri": 2729,
      "dv09": 2730,
      "d60001": 2731,
      "303": 2732,
      "oxcarb": 2733,
      "oxcarbazepine": 2734,
      "d59654": 2735,
      "oxi": 2736,
      "de222": 2737,
      "dz16": 2738,
      "d28411": 2739,
      "trexate": 2740,
      "methotrexate": 2741,
      "di482": 2742,
      "dk12": 2743,
      "8580": 2744,
      "d19889": 2745,
      "dd701": 2746,
      "d53085": 2747,
      "cos": 2748,
      "244": 2749,
      "dr338": 2750,
      "di471": 2751,
      "dd89": 2752,
      "lacos": 2753,
      "lacosamide": 2754,
      "236": 2755,
      "low": 2756,
      "dv8801": 2757,
      "sinus": 2758,
      "with": 2759,
      "dr0789": 2760,
      "dl97": 2761,
      "yel": 2762,
      "yellow": 2763,
      "dz7984": 2764,
      "dk7581": 2765,
      "di2699": 2766,
      "enal": 2767,
      "de106": 2768,
      "cyta": 2769,
      "237": 2770,
      "dt80": 2771,
      "d7856": 2772,
      "dm480": 2773,
      "dv1302": 2774,
      "de116": 2775,
      "entam": 2776,
      "naf": 2777,
      "cytarabine": 2778,
      "dt402": 2779,
      "d41071": 2780,
      "di509": 2781,
      "nafcillin": 2782,
      "cohol": 2783,
      "alcohol": 2784,
      "dr531": 2785,
      "azosin": 2786,
      "doxazosin": 2787,
      "d43889": 2788,
      "dr29": 2789,
      "d5789": 2790,
      "472": 2791,
      "de9308": 2792,
      "256": 2793,
      "tami": 2794,
      "903": 2795,
      "d25080": 2796,
      "2800": 2797,
      "d7804": 2798,
      "dr911": 2799,
      "293": 2800,
      "dd61810": 2801,
      "osel": 2802,
      "tamivir": 2803,
      "oseltamivir": 2804,
      "d249": 2805,
      "dn401": 2806,
      "xil": 2807,
      "dra": 2808,
      "wal": 2809,
      "db182": 2810,
      "withdra": 2811,
      "withdrawal": 2812,
      "dk921": 2813,
      "dl03": 2814,
      "d6961": 2815,
      "d9966": 2816,
      "dv1204": 2817,
      "dg936": 2818,
      "dr634": 2819,
      "di87": 2820,
      "257": 2821,
      "di95": 2822,
      "d30503": 2823,
      "273": 2824,
      "dm54": 2825,
      "279": 2826,
      "dz590": 2827,
      "d29420": 2828,
      "wa": 2829,
      "d369": 2830,
      "d99688": 2831,
      "285": 2832,
      "dk830": 2833,
      "318": 2834,
      "mecli": 2835,
      "dini": 2836,
      "dinitrate": 2837,
      "cavir": 2838,
      "di214": 2839,
      "d04185": 2840,
      "dz993": 2841,
      "d20288": 2842,
      "d57420": 2843,
      "dz87440": 2844,
      "dr600": 2845,
      "rene": 2846,
      "de8498": 2847,
      "dm8580": 2848,
      "700": 2849,
      "ratio": 2850,
      "dk56": 2851,
      "ton": 2852,
      "d78097": 2853,
      "dt402x5a": 2854,
      "332": 2855,
      "324": 2856,
      "de10": 2857,
      "d9974": 2858,
      "d5781": 2859,
      "d71941": 2860,
      "d452": 2861,
      "d3899": 2862,
      "d515": 2863,
      "247": 2864,
      "d591": 2865,
      "zolid": 2866,
      "d78009": 2867,
      "linezolid": 2868,
      "d4271": 2869,
      "dd539": 2870,
      "d7806": 2871,
      "dc7931": 2872,
      "dx5": 2873,
      "dx58": 2874,
      "d70722": 2875,
      "d795": 2876,
      "d5845": 2877,
      "de890": 2878,
      "298": 2879,
      "nimodi": 2880,
      "1052": 2881,
      "nimodipine": 2882,
      "dc220": 2883,
      "d2869": 2884,
      "dr55": 2885,
      "dz8619": 2886,
      "d52801": 2887,
      "gar": 2888,
      "dk8": 2889,
      "dr918": 2890,
      "d5772": 2891,
      "de1142": 2892,
      "d1962": 2893,
      "dz4": 2894,
      "dz801": 2895,
      "meclizine": 2896,
      "d72989": 2897,
      "d3559": 2898,
      "491": 2899,
      "de1151": 2900,
      "cis": 2901,
      "d45341": 2902,
      "de9352": 2903,
      "oxyme": 2904,
      "dronate": 2905,
      "tazoline": 2906,
      "oxymetazoline": 2907,
      "dg25": 2908,
      "dg9340": 2909,
      "dl031": 2910,
      "701": 2911,
      "d24900": 2912,
      "dw19": 2913,
      "rita": 2914,
      "teraz": 2915,
      "terazosin": 2916,
      "ritalin": 2917,
      "d99812": 2918,
      "carbamazepine": 2919,
      "pex": 2920,
      "dv4987": 2921,
      "zed": 2922,
      "265": 2923,
      "neomycin": 2924,
      "275": 2925,
      "rt": 2926,
      "d33818": 2927,
      "dv161": 2928,
      "d2948": 2929,
      "dz931": 2930,
      "d56211": 2931,
      "dd469": 2932,
      "da0472": 2933,
      "de8792": 2934,
      "dv1052": 2935,
      "d78609": 2936,
      "dz7952": 2937,
      "dk521": 2938,
      "oxime": 2939,
      "pod": 2940,
      "cefpod": 2941,
      "dk94": 2942,
      "cefpodoxime": 2943,
      "d99811": 2944,
      "proxetil": 2945,
      "d29410": 2946,
      "str": 2947,
      "tol": 2948,
      "d56981": 2949,
      "pos": 2950,
      "d1961": 2951,
      "fo": 2952,
      "onized": 2953,
      "d39": 2954,
      "441": 2955,
      "d07032": 2956,
      "idone": 2957,
      "gol": 2958,
      "dv1301": 2959,
      "d553": 2960,
      "ritona": 2961,
      "ritonavir": 2962,
      "gentam": 2963,
      "gentamicin": 2964,
      "df17200": 2965,
      "d79311": 2966,
      "d56722": 2967,
      "db961": 2968,
      "d478": 2969,
      "653": 2970,
      "384": 2971,
      "dr45": 2972,
      "d7906": 2973,
      "d71690": 2974,
      "dk567": 2975,
      "dg2581": 2976,
      "780": 2977,
      "df12": 2978,
      "prep": 2979,
      "di255": 2980,
      "267": 2981,
      "3000": 2982,
      "enalapril": 2983,
      "dv0980": 2984,
      "di429": 2985,
      "d799": 2986,
      "dr32": 2987,
      "crrt": 2988,
      "acon": 2989,
      "yte": 2990,
      "8381": 2991,
      "de8809": 2992,
      "dg8": 2993,
      "movi": 2994,
      "moviprep": 2995,
      "dz21": 2996,
      "ding": 2997,
      "d27952": 2998,
      "d5778": 2999,
      "dc7989": 3000,
      "sca": 3001,
      "scale": 3002,
      "dy8": 3003,
      "aconazole": 3004,
      "d75": 3005,
      "dr42": 3006,
      "312": 3007,
      "de780": 3008,
      "di878": 3009,
      "dr569": 3010,
      "golyte": 3011,
      "golytely": 3012,
      "sli": 3013,
      "266": 3014,
      "ionized": 3015,
      "sliding": 3016,
      "dr64": 3017,
      "dz85118": 3018,
      "d1629": 3019,
      "pan": 3020,
      "de9478": 3021,
      "d794": 3022,
      "353": 3023,
      "832": 3024,
      "wafer": 3025,
      "acetazol": 3026,
      "acetazolamide": 3027,
      "511": 3028,
      "ily": 3029,
      "daily": 3030,
      "268": 3031,
      "dk5903": 3032,
      "d30501": 3033,
      "025": 3034,
      "dr21": 3035,
      "d7210": 3036,
      "d4414": 3037,
      "sleep": 3038,
      "dl270": 3039,
      "dv1009": 3040,
      "dz932": 3041,
      "posaconazole": 3042,
      "argine": 3043,
      "glargine": 3044,
      "dk760": 3045,
      "d99659": 3046,
      "d78901": 3047,
      "d725": 3048,
      "lith": 3049,
      "chole": 3050,
      "df4": 3051,
      "d786": 3052,
      "dg620": 3053,
      "dc9201": 3054,
      "dz85038": 3055,
      "d3320": 3056,
      "d23871": 3057,
      "dk85": 3058,
      "dk529": 3059,
      "dj95": 3060,
      "dy831": 3061,
      "styramine": 3062,
      "cholestyramine": 3063,
      "di472": 3064,
      "dm3": 3065,
      "d99749": 3066,
      "dd473": 3067,
      "df11": 3068,
      "dv443": 3069,
      "d43310": 3070,
      "292": 3071,
      "dy830": 3072,
      "d5711": 3073,
      "df10239": 3074,
      "dl03116": 3075,
      "ump": 3076,
      "de538": 3077,
      "dv4571": 3078,
      "d51189": 3079,
      "dv0481": 3080,
      "d340": 3081,
      "d6929": 3082,
      "di49": 3083,
      "d20502": 3084,
      "d72400": 3085,
      "dt82868": 3086,
      "dt814": 3087,
      "dr739": 3088,
      "dr45851": 3089,
      "274": 3090,
      "d25061": 3091,
      "277": 3092,
      "d1": 3093,
      "d4148": 3094,
      "une": 3095,
      "d5680": 3096,
      "510": 3097,
      "d4139": 3098,
      "di82": 3099,
      "dk5909": 3100,
      "d2630": 3101,
      "d56089": 3102,
      "dk449": 3103,
      "d7240": 3104,
      "role": 3105,
      "dc92": 3106,
      "ropini": 3107,
      "ropinirole": 3108,
      "mesylate": 3109,
      "950": 3110,
      "prami": 3111,
      "phosphamide": 3112,
      "cyclophosphamide": 3113,
      "333": 3114,
      "pexole": 3115,
      "pramipexole": 3116,
      "db9561": 3117,
      "dv427": 3118,
      "d49322": 3119,
      "azop": 3120,
      "d5920": 3121,
      "d25050": 3122,
      "311": 3123,
      "tant": 3124,
      "dt814xxa": 3125,
      "d30401": 3126,
      "mmune": 3127,
      "de873": 3128,
      "d261": 3129,
      "dk2": 3130,
      "db1910": 3131,
      "dj398": 3132,
      "dt82868a": 3133,
      "dw18": 3134,
      "dr410": 3135,
      "san": 3136,
      "dk2270": 3137,
      "15a": 3138,
      "276": 3139,
      "d135": 3140,
      "apre": 3141,
      "dv1051": 3142,
      "zon": 3143,
      "isamide": 3144,
      "d2874": 3145,
      "zonisamide": 3146,
      "meman": 3147,
      "memantine": 3148,
      "dj9621": 3149,
      "dv5863": 3150,
      "d0088": 3151,
      "d33819": 3152,
      "dw19xxxa": 3153,
      "df14": 3154,
      "d7820": 3155,
      "pitant": 3156,
      "aprepitant": 3157,
      "dj439": 3158,
      "de2740": 3159,
      "alen": 3160,
      "alendronate": 3161,
      "dimmune": 3162,
      "dx58xxxa": 3163,
      "sandimmune": 3164,
      "371": 3165,
      "d7994": 3166,
      "di4892": 3167,
      "dt455": 3168,
      "4281": 3169,
      "d70714": 3170,
      "db181": 3171,
      "dv1209": 3172,
      "dz96653": 3173,
      "dl03115": 3174,
      "dz85820": 3175,
      "ketoconazole": 3176,
      "ente": 3177,
      "d4659": 3178,
      "mac": 3179,
      "once": 3180,
      "lithium": 3181,
      "d58381": 3182,
      "dz79899": 3183,
      "dk5090": 3184,
      "442": 3185,
      "trac": 3186,
      "ytoin": 3187,
      "henytoin": 3188,
      "sphenytoin": 3189,
      "fosphenytoin": 3190,
      "ben": 3191,
      "ath": 3192,
      "d1623": 3193,
      "dc7800": 3194,
      "d52800": 3195,
      "d6827": 3196,
      "d20050": 3197,
      "391": 3198,
      "sleeping": 3199,
      "di826": 3200,
      "dn170": 3201,
      "d7830": 3202,
      "d4940": 3203,
      "d1570": 3204,
      "dr05": 3205,
      "286": 3206,
      "nat": 3207,
      "dv422": 3208,
      "d30560": 3209,
      "dd801": 3210,
      "mes": 3211,
      "372": 3212,
      "dt50": 3213,
      "entecavir": 3214,
      "taper": 3215,
      "methasone": 3216,
      "dv440": 3217,
      "de8786": 3218,
      "de113": 3219,
      "df10129": 3220,
      "megl": 3221,
      "umine": 3222,
      "meglumine": 3223,
      "days": 3224,
      "d27541": 3225,
      "dz96641": 3226,
      "ew": 3227,
      "zoate": 3228,
      "diatri": 3229,
      "gastro": 3230,
      "view": 3231,
      "diatrizoate": 3232,
      "gastroview": 3233,
      "330": 3234,
      "dv4281": 3235,
      "uran": 3236,
      "d2867": 3237,
      "nitrof": 3238,
      "nitrofuran": 3239,
      "nitrofurantoin": 3240,
      "dopamine": 3241,
      "d28981": 3242,
      "pancre": 3243,
      "fat": 3244,
      "d53010": 3245,
      "2210": 3246,
      "d30301": 3247,
      "dv1271": 3248,
      "dz6823": 3249,
      "dt865": 3250,
      "di4581": 3251,
      "d71945": 3252,
      "rate": 3253,
      "ck": 3254,
      "dg20": 3255,
      "308": 3256,
      "caps": 3257,
      "df1290": 3258,
      "hydroxyurea": 3259,
      "de11649": 3260,
      "uta": 3261,
      "iop": 3262,
      "sil": 3263,
      "valproic": 3264,
      "odine": 3265,
      "pen": 3266,
      "de11621": 3267,
      "459": 3268,
      "d7100": 3269,
      "levalbuterol": 3270,
      "287": 3271,
      "dv4573": 3272,
      "dv420": 3273,
      "d1551": 3274,
      "yridine": 3275,
      "azath": 3276,
      "ioprine": 3277,
      "azathioprine": 3278,
      "dv463": 3279,
      "d078": 3280,
      "304": 3281,
      "d6823": 3282,
      "bra": 3283,
      "d25063": 3284,
      "dd500": 3285,
      "phenazop": 3286,
      "phenazopyridine": 3287,
      "dc9202": 3288,
      "de9289": 3289,
      "d3310": 3290,
      "295": 3291,
      "d72402": 3292,
      "dz894": 3293,
      "294": 3294,
      "982": 3295,
      "d46": 3296,
      "d7847": 3297,
      "d5793": 3298,
      "dc7801": 3299,
      "dz96651": 3300,
      "d0549": 3301,
      "d2113": 3302,
      "dy92238": 3303,
      "platin": 3304,
      "d53019": 3305,
      "atrac": 3306,
      "urium": 3307,
      "ximab": 3308,
      "cisatrac": 3309,
      "cisatracurium": 3310,
      "besylate": 3311,
      "lix": 3312,
      "352": 3313,
      "d07": 3314,
      "xd": 3315,
      "amino": 3316,
      "ver": 3317,
      "nal": 3318,
      "363": 3319,
      "d444": 3320,
      "de80": 3321,
      "dn319": 3322,
      "terodine": 3323,
      "dc6": 3324,
      "pr": 3325,
      "342": 3326,
      "d99682": 3327,
      "d31401": 3328,
      "dz6843": 3329,
      "tolterodine": 3330,
      "dc772": 3331,
      "di952": 3332,
      "d150": 3333,
      "dv1042": 3334,
      "di872": 3335,
      "d25062": 3336,
      "dc250": 3337,
      "dz8505": 3338,
      "d27950": 3339,
      "db20": 3340,
      "dc5": 3341,
      "d3970": 3342,
      "dc91": 3343,
      "975": 3344,
      "d6989": 3345,
      "elix": 3346,
      "elixir": 3347,
      "dj069": 3348,
      "813": 3349,
      "d185": 3350,
      "pase": 3351,
      "lipase": 3352,
      "d29620": 3353,
      "onam": 3354,
      "aztre": 3355,
      "aztreonam": 3356,
      "dl7": 3357,
      "d44023": 3358,
      "1100": 3359,
      "dh54": 3360,
      "d78057": 3361,
      "pancrelipase": 3362,
      "748": 3363,
      "dz940": 3364,
      "dz933": 3365,
      "dv8541": 3366,
      "528": 3367,
      "d07030": 3368,
      "370": 3369,
      "d27650": 3370,
      "dk9189": 3371,
      "296": 3372,
      "962": 3373,
      "sota": 3374,
      "sotalol": 3375,
      "d71946": 3376,
      "dj910": 3377,
      "d42830": 3378,
      "les": 3379,
      "sulfa": 3380,
      "d78829": 3381,
      "d43820": 3382,
      "dh9": 3383,
      "ptan": 3384,
      "zole": 3385,
      "valproate": 3386,
      "de8351": 3387,
      "di714": 3388,
      "6a": 3389,
      "d7213": 3390,
      "dz860": 3391,
      "dk2970": 3392,
      "dl299": 3393,
      "d5939": 3394,
      "d0785": 3395,
      "dk76": 3396,
      "4290": 3397,
      "gamm": 3398,
      "gamma": 3399,
      "gestr": 3400,
      "dz6842": 3401,
      "raltegravir": 3402,
      "fosaprepitant": 3403,
      "d3558": 3404,
      "dz981": 3405,
      "bid": 3406,
      "glybu": 3407,
      "d4571": 3408,
      "d04119": 3409,
      "glyburide": 3410,
      "sate": 3411,
      "betamethasone": 3412,
      "d7919": 3413,
      "dv641": 3414,
      "dk5190": 3415,
      "dm86": 3416,
      "d1890": 3417,
      "lax": 3418,
      "d2883": 3419,
      "atriptan": 3420,
      "d3441": 3421,
      "de11319": 3422,
      "nitol": 3423,
      "mannitol": 3424,
      "d59970": 3425,
      "603": 3426,
      "valacyclovir": 3427,
      "dz6822": 3428,
      "de9305": 3429,
      "dc7802": 3430,
      "dv1007": 3431,
      "702": 3432,
      "403": 3433,
      "dz6820": 3434,
      "ulin": 3435,
      "dk64": 3436,
      "d431": 3437,
      "d7905": 3438,
      "dy9289": 3439,
      "gard": 3440,
      "d85": 3441,
      "megestr": 3442,
      "megestrol": 3443,
      "dr53": 3444,
      "tran": 3445,
      "trozole": 3446,
      "313": 3447,
      "sn": 3448,
      "mesna": 3449,
      "sndz": 3450,
      "d4829": 3451,
      "de7": 3452,
      "azone": 3453,
      "gammagard": 3454,
      "dv1006": 3455,
      "dz95810": 3456,
      "oproxil": 3457,
      "disoproxil": 3458,
      "dextroamphetamine": 3459,
      "olazone": 3460,
      "metolazone": 3461,
      "read": 3462,
      "viread": 3463,
      "di9581": 3464,
      "dg8918": 3465,
      "297": 3466,
      "d7231": 3467,
      "d25040": 3468,
      "sum": 3469,
      "d5790": 3470,
      "dy7": 3471,
      "d1179": 3472,
      "dd3": 3473,
      "fenof": 3474,
      "bupre": 3475,
      "bupreno": 3476,
      "rphine": 3477,
      "d695": 3478,
      "buprenorphine": 3479,
      "306": 3480,
      "d292": 3481,
      "d51181": 3482,
      "329": 3483,
      "de104": 3484,
      "dt45515a": 3485,
      "dt83": 3486,
      "d737": 3487,
      "sumatriptan": 3488,
      "dz96652": 3489,
      "1a": 3490,
      "ibrate": 3491,
      "fenofibrate": 3492,
      "trexone": 3493,
      "naltrexone": 3494,
      "db965": 3495,
      "d87": 3496,
      "triol": 3497,
      "calcitriol": 3498,
      "d30183": 3499,
      "tobra": 3500,
      "dk632": 3501,
      "dd72819": 3502,
      "dv1551": 3503,
      "dz907": 3504,
      "dz944": 3505,
      "dz515": 3506,
      "tobramycin": 3507,
      "tonic": 3508,
      "de8352": 3509,
      "pris": 3510,
      "d29590": 3511,
      "di69354": 3512,
      "d4239": 3513,
      "dg9": 3514,
      "d78062": 3515,
      "dk589": 3516,
      "dm6": 3517,
      "kin": 3518,
      "d533": 3519,
      "dz6824": 3520,
      "onium": 3521,
      "d4550": 3522,
      "382": 3523,
      "prazosin": 3524,
      "dr1013": 3525,
      "dj84": 3526,
      "d71536": 3527,
      "hyos": 3528,
      "hyoscy": 3529,
      "d2766": 3530,
      "hyoscyamine": 3531,
      "d3071": 3532,
      "uximab": 3533,
      "x6a": 3534,
      "340": 3535,
      "thal": 3536,
      "dc509": 3537,
      "d86": 3538,
      "412": 3539,
      "305": 3540,
      "dm796": 3541,
      "dn13": 3542,
      "d7455": 3543,
      "d29690": 3544,
      "322": 3545,
      "chlorthal": 3546,
      "chlorthalidone": 3547,
      "d5780": 3548,
      "d36250": 3549,
      "d30400": 3550,
      "dl409": 3551,
      "di65": 3552,
      "999": 3553,
      "846": 3554,
      "d03842": 3555,
      "d78605": 3556,
      "rituximab": 3557,
      "d30550": 3558,
      "dm46": 3559,
      "asleep": 3560,
      "mer": 3561,
      "prisma": 3562,
      "prismasate": 3563,
      "dh35": 3564,
      "d1628": 3565,
      "d37": 3566,
      "dv168": 3567,
      "dz6830": 3568,
      "dk1230": 3569,
      "d434": 3570,
      "dj9809": 3571,
      "dz808": 3572,
      "d4739": 3573,
      "umps": 3574,
      "307": 3575,
      "dr0600": 3576,
      "methocarbam": 3577,
      "methocarbamol": 3578,
      "d5368": 3579,
      "infat": 3580,
      "infatab": 3581,
      "d95": 3582,
      "ren": 3583,
      "d2989": 3584,
      "969": 3585,
      "d20190": 3586,
      "mono": 3587,
      "d2440": 3588,
      "lar": 3589,
      "dk922": 3590,
      "dr29810": 3591,
      "monohyd": 3592,
      "de8796": 3593,
      "di428": 3594,
      "d7843": 3595,
      "clumps": 3596,
      "315": 3597,
      "dy842": 3598,
      "gay": 3599,
      "bengay": 3600,
      "dy92234": 3601,
      "dz6837": 3602,
      ".)": 3603,
      "dd89811": 3604,
      "macro": 3605,
      "d70719": 3606,
      "d44024": 3607,
      "d2819": 3608,
      "d9971": 3609,
      "df19": 3610,
      "d5738": 3611,
      "7989": 3612,
      "macrobid": 3613,
      "d49392": 3614,
      "d59971": 3615,
      "agen": 3616,
      "dc771": 3617,
      "d0416": 3618,
      "d53390": 3619,
      "dt368x5a": 3620,
      "lutegravir": 3621,
      "dolutegravir": 3622,
      "2400": 3623,
      "ric": 3624,
      "314": 3625,
      "dv444": 3626,
      "dv4972": 3627,
      "d30001": 3628,
      "d7102": 3629,
      "df1011": 3630,
      "dr319": 3631,
      "dr4701": 3632,
      "dr8": 3633,
      "dv5812": 3634,
      "d1749": 3635,
      "rh": 3636,
      "11000": 3637,
      "381": 3638,
      "lor": 3639,
      "do99": 3640,
      "939": 3641,
      "dar": 3642,
      "inil": 3643,
      "1800": 3644,
      "2mg": 3645,
      "che": 3646,
      "acrile": 3647,
      "polacrile": 3648,
      "polacrilex": 3649,
      "unavir": 3650,
      "darunavir": 3651,
      "fluoro": 3652,
      "dz6832": 3653,
      "epin": 3654,
      "dv13": 3655,
      "doxepin": 3656,
      "ux": 3657,
      "464": 3658,
      "d34831": 3659,
      "dr6520": 3660,
      "d3694": 3661,
      "d2721": 3662,
      "d5303": 3663,
      "211a": 3664,
      "029": 3665,
      "dj811": 3666,
      "316": 3667,
      "fond": 3668,
      "ferric": 3669,
      "fondaparin": 3670,
      "fondaparinux": 3671,
      "lagen": 3672,
      "collagen": 3673,
      "collagenase": 3674,
      "benztropine": 3675,
      "323": 3676,
      "d319": 3677,
      "782": 3678,
      "d44020": 3679,
      "d27900": 3680,
      "d20020": 3681,
      "317": 3682,
      "dz96642": 3683,
      "dk1231": 3684,
      "relor": 3685,
      "de1065": 3686,
      "d07044": 3687,
      "dr748": 3688,
      "polysty": 3689,
      "dz86010": 3690,
      "polystyrene": 3691,
      "sulfonate": 3692,
      "361": 3693,
      "df209": 3694,
      "1700": 3695,
      "d30590": 3696,
      "dj9691": 3697,
      "d4779": 3698,
      "d4111": 3699,
      "wable": 3700,
      "chewable": 3701,
      "d3331": 3702,
      "2100": 3703,
      "9001": 3704,
      "de806": 3705,
      "di5030": 3706,
      "ticag": 3707,
      "self": 3708,
      "ticagrelor": 3709,
      "di97": 3710,
      "d99731": 3711,
      "dz6831": 3712,
      "d4561": 3713,
      "modaf": 3714,
      "dg3": 3715,
      "vitamins": 3716,
      "prom": 3717,
      "methimazole": 3718,
      "oid": 3719,
      "dg7": 3720,
      "eth": 3721,
      "d3314": 3722,
      "chlorprom": 3723,
      "chlorpromazine": 3724,
      "328": 3725,
      "hemor": 3726,
      "rhoid": 3727,
      "hemorrhoid": 3728,
      "hemorrhoidal": 3729,
      "modafinil": 3730,
      "mip": 3731,
      "dz6825": 3732,
      "dw0": 3733,
      "d4430": 3734,
      "dap": 3735,
      "dz807": 3736,
      "d45382": 3737,
      "891": 3738,
      "methylnaltrexone": 3739,
      "df0280": 3740,
      "dz915": 3741,
      "df909": 3742,
      "d736": 3743,
      "d99664": 3744,
      "336": 3745,
      "dv4975": 3746,
      "dz958": 3747,
      "883": 3748,
      "dl033": 3749,
      "dz85528": 3750,
      "dz9119": 3751,
      "dv180": 3752,
      "tub": 3753,
      "dk920": 3754,
      "dipro": 3755,
      "838": 3756,
      "uronium": 3757,
      "dz6821": 3758,
      "d72981": 3759,
      "dy833": 3760,
      "di5020": 3761,
      "932": 3762,
      "df418": 3763,
      "acids": 3764,
      "348": 3765,
      "dm478": 3766,
      "d1991": 3767,
      "dy836": 3768,
      "dt361": 3769,
      "d45182": 3770,
      "326": 3771,
      "medicat": 3772,
      "ciwa": 3773,
      "medication": 3774,
      "d45342": 3775,
      "dapsone": 3776,
      "hylax": 3777,
      "prophylax": 3778,
      "prophylaxis": 3779,
      "niacin": 3780,
      "lion": 3781,
      "million": 3782,
      "d43411": 3783,
      "335": 3784,
      "d3669": 3785,
      "98a": 3786,
      "dv1043": 3787,
      "dk8590": 3788,
      "d70705": 3789,
      "di86": 3790,
      "di447": 3791,
      "d42831": 3792,
      "di080": 3793,
      "dr471": 3794,
      "de8783": 3795,
      "d1561": 3796,
      "di21": 3797,
      "dz6835": 3798,
      "di21a1": 3799,
      "x0": 3800,
      "dv17": 3801,
      "open": 3802,
      "xopen": 3803,
      "d3384": 3804,
      "xopenex": 3805,
      "hyper": 3806,
      "dt361x5a": 3807,
      "358": 3808,
      "sensi": 3809,
      "d4568": 3810,
      "d7300": 3811,
      "d7921": 3812,
      "343": 3813,
      "dz9861": 3814,
      "dz8572": 3815,
      "d56081": 3816,
      "d590": 3817,
      "de85": 3818,
      "d2410": 3819,
      "d29281": 3820,
      "dr4182": 3821,
      "dl97519": 3822,
      "dz8701": 3823,
      "334": 3824,
      "dt80211a": 3825,
      "tization": 3826,
      "lide": 3827,
      "369": 3828,
      "dl97529": 3829,
      "dr1011": 3830,
      "desensi": 3831,
      "d5570": 3832,
      "desensitization": 3833,
      "opium": 3834,
      "terene": 3835,
      "triamterene": 3836,
      "d28489": 3837,
      "dv453": 3838,
      "de103": 3839,
      "dn182": 3840,
      "di313": 3841,
      "etin": 3842,
      "d1173": 3843,
      "dc92z": 3844,
      "dc9110": 3845,
      "dl76": 3846,
      "df1020": 3847,
      "30xa": 3848,
      "dc259": 3849,
      "d3576": 3850,
      "dr1312": 3851,
      "d7243": 3852,
      "dr8271": 3853,
      "2200": 3854,
      "d9982": 3855,
      "dz930": 3856,
      "dr26": 3857,
      "d426": 3858,
      "oxazepam": 3859,
      "dm485": 3860,
      "dr40": 3861,
      "dz934": 3862,
      "dz85850": 3863,
      "d5693": 3864,
      "d7810": 3865,
      "d1830": 3866,
      "d2738": 3867,
      "x5s": 3868,
      "df39": 3869,
      "dk7200": 3870,
      "dz6827": 3871,
      "327": 3872,
      "376": 3873,
      "db9562": 3874,
      "d532": 3875,
      "7611": 3876,
      "dr040": 3877,
      "d44021": 3878,
      "d4263": 3879,
      "dk209": 3880,
      "d71596": 3881,
      "d45381": 3882,
      "dy846": 3883,
      "azid": 3884,
      "d5728": 3885,
      "dz91": 3886,
      "988": 3887,
      "354": 3888,
      "da4151": 3889,
      "383": 3890,
      "dv1079": 3891,
      "dm4800": 3892,
      "948": 3893,
      "d04109": 3894,
      "isoni": 3895,
      "db957": 3896,
      "isoniazid": 3897,
      "dz8551": 3898,
      "de162": 3899,
      "d6960": 3900,
      "sub": 3901,
      "d43491": 3902,
      "trans": 3903,
      "di890": 3904,
      "dy92019": 3905,
      "590": 3906,
      "dv1087": 3907,
      "dv1749": 3908,
      "374": 3909,
      "dk8020": 3910,
      "d07999": 3911,
      "d34839": 3912,
      "d78907": 3913,
      "963": 3914,
      "mal": 3915,
      "d5121": 3916,
      "dg4730": 3917,
      "amb": 3918,
      "saline": 3919,
      "tadine": 3920,
      "d79001": 3921,
      "d64": 3922,
      "d5716": 3923,
      "8110": 3924,
      "d96": 3925,
      "d487": 3926,
      "dv166": 3927,
      "meta": 3928,
      "dm542": 3929,
      "dw1830xa": 3930,
      "acil": 3931,
      "uracil": 3932,
      "dk8689": 3933,
      "mbi": 3934,
      "d7892": 3935,
      "8mg": 3936,
      "citabine": 3937,
      "dd721": 3938,
      "da084": 3939,
      "1189": 3940,
      "368": 3941,
      "dr7611": 3942,
      "di420": 3943,
      "dt81": 3944,
      "349": 3945,
      "392": 3946,
      "d57142": 3947,
      "dz6834": 3948,
      "d20283": 3949,
      "898": 3950,
      "971": 3951,
      "d7813": 3952,
      "408": 3953,
      "d4538": 3954,
      "341": 3955,
      "men": 3956,
      "890": 3957,
      "conj": 3958,
      "344": 3959,
      "dz953": 3960,
      "d55320": 3961,
      "d73679": 3962,
      "5a": 3963,
      "dz87820": 3964,
      "d4556": 3965,
      "337": 3966,
      "d5720": 3967,
      "dg9341": 3968,
      "cv": 3969,
      "famp": 3970,
      "d5184": 3971,
      "347": 3972,
      "d0380": 3973,
      "di081": 3974,
      "d72210": 3975,
      "d2713": 3976,
      "d51884": 3977,
      "quin": 3978,
      "cvl": 3979,
      "d1579": 3980,
      "tle": 3981,
      "dk651": 3982,
      "bot": 3983,
      "dk5730": 3984,
      "d4404": 3985,
      "d365": 3986,
      "d41189": 3987,
      "d25001": 3988,
      "d20510": 3989,
      "salic": 3990,
      "351": 3991,
      "dz6828": 3992,
      "d1978": 3993,
      "prog": 3994,
      "culin": 3995,
      "clozapine": 3996,
      "erculin": 3997,
      "stigmine": 3998,
      "tuberculin": 3999,
      "d1987": 4000,
      "de1043": 4001,
      "bottle": 4002,
      "%-": 4003,
      "rifamp": 4004,
      "rifampin": 4005,
      "d20200": 4006,
      "dj45901": 4007,
      "d72887": 4008,
      "de1143": 4009,
      "dm7989": 4010,
      "d78904": 4011,
      "356": 4012,
      "df411": 4013,
      "bismu": 4014,
      "bismuth": 4015,
      "gatran": 4016,
      "bigatran": 4017,
      "d42781": 4018,
      "dabigatran": 4019,
      "d42821": 4020,
      "ete": 4021,
      "xilate": 4022,
      "subsalic": 4023,
      "etexilate": 4024,
      "de041": 4025,
      "490": 4026,
      "dd6489": 4027,
      "dd57": 4028,
      "dz6829": 4029,
      "453": 4030,
      "nf": 4031,
      "afoate": 4032,
      "xinafoate": 4033,
      "d726": 4034,
      "df102": 4035,
      "dk7040": 4036,
      "isome": 4037,
      "ambisome": 4038,
      "di5": 4039,
      "1900": 4040,
      "dz170": 4041,
      "d93": 4042,
      "de869": 4043,
      "subsalicylate": 4044,
      "fibro": 4045,
      "ifos": 4046,
      "famide": 4047,
      "dc61": 4048,
      "di25110": 4049,
      "ifosfamide": 4050,
      "d56969": 4051,
      "d0539": 4052,
      "d262": 4053,
      "d29570": 4054,
      "667": 4055,
      "d359": 4056,
      "dz90710": 4057,
      "345": 4058,
      "452": 4059,
      "d30520": 4060,
      "dz6836": 4061,
      "db954": 4062,
      "d11284": 4063,
      "429": 4064,
      "d9092": 4065,
      "mopressin": 4066,
      "desmopressin": 4067,
      "d56723": 4068,
      "dr300": 4069,
      "d7078": 4070,
      "508": 4071,
      "anas": 4072,
      "dr451": 4073,
      "d99932": 4074,
      "dz8711": 4075,
      "d24": 4076,
      "dr161": 4077,
      "dv1351": 4078,
      "dj159": 4079,
      "611": 4080,
      "dr7989": 4081,
      "377": 4082,
      "di9589": 4083,
      "dv1642": 4084,
      "89xa": 4085,
      "gem": 4086,
      "357": 4087,
      "chol": 4088,
      "dv1261": 4089,
      "d5550": 4090,
      "dk660": 4091,
      "de10319": 4092,
      "359": 4093,
      "dj9602": 4094,
      "ug": 4095,
      "acel": 4096,
      "dj440": 4097,
      "dz8674": 4098,
      "anastrozole": 4099,
      "d2764": 4100,
      "dr5383": 4101,
      "fibrozil": 4102,
      "gemfibrozil": 4103,
      "d386": 4104,
      "fluorouracil": 4105,
      "d03849": 4106,
      "dv8542": 4107,
      "cen": 4108,
      "393": 4109,
      "dk318": 4110,
      "d79431": 4111,
      "355": 4112,
      "dn1330": 4113,
      "df410": 4114,
      "d2731": 4115,
      "tuck": 4116,
      "decitabine": 4117,
      "d78652": 4118,
      "620": 4119,
      "dg0": 4120,
      "syn": 4121,
      "tropin": 4122,
      "dv4577": 4123,
      "dc221": 4124,
      "tucks": 4125,
      "d514": 4126,
      "406": 4127,
      "cain": 4128,
      "dn200": 4129,
      "dc3490": 4130,
      "2211": 4131,
      "d78841": 4132,
      "inv": 4133,
      "emul": 4134,
      "emulsion": 4135,
      "d9961": 4136,
      "d362": 4137,
      "d20282": 4138,
      "cosyn": 4139,
      "cosyntropin": 4140,
      "sm": 4141,
      "421": 4142,
      "d5289": 4143,
      "calciton": 4144,
      "calcitonin": 4145,
      "dk649": 4146,
      "d27951": 4147,
      "salmon": 4148,
      "783": 4149,
      "viaf": 4150,
      "d44422": 4151,
      "d28521": 4152,
      "d55321": 4153,
      "d78093": 4154,
      "ive": 4155,
      "df10229": 4156,
      "dz6826": 4157,
      "d2778": 4158,
      "d7955": 4159,
      "625": 4160,
      "dz6838": 4161,
      "d570": 4162,
      "dz6833": 4163,
      "d53190": 4164,
      "d28959": 4165,
      "d3484": 4166,
      "ctu": 4167,
      "d4592": 4168,
      "feti": 4169,
      "dofeti": 4170,
      "dofetilide": 4171,
      "tinctu": 4172,
      "tincture": 4173,
      "chine": 4174,
      "ming": 4175,
      "machine": 4176,
      "priming": 4177,
      "d28731": 4178,
      "nide": 4179,
      "dg894": 4180,
      "dv167": 4181,
      "346": 4182,
      "de1121": 4183,
      "dk5790": 4184,
      "concen": 4185,
      "de790": 4186,
      "concentrate": 4187,
      "bumeta": 4188,
      "bumetanide": 4189,
      "concentrated": 4190,
      "locaine": 4191,
      "2700": 4192,
      "d4821": 4193,
      "dv113": 4194,
      "flecain": 4195,
      "dk5660": 4196,
      "flecainide": 4197,
      "dv452": 4198,
      "dz8543": 4199,
      "prilocaine": 4200,
      "dt40": 4201,
      "dd472": 4202,
      "d7881": 4203,
      "dg35": 4204,
      "dv1201": 4205,
      "di69": 4206,
      "dz8571": 4207,
      "dz9081": 4208,
      "ant": 4209,
      "roc": 4210,
      "dm190": 4211,
      "dz905": 4212,
      "d34290": 4213,
      "8220": 4214,
      "dt8131": 4215,
      "512": 4216,
      "d25051": 4217,
      "d053": 4218,
      "dt501": 4219,
      "natal": 4220,
      "di69398": 4221,
      "dv64": 4222,
      "dj948": 4223,
      "epipen": 4224,
      "dm845": 4225,
      "362": 4226,
      "de1152": 4227,
      "dw010": 4228,
      "d1963": 4229,
      "dz980": 4230,
      "dr7303": 4231,
      "dk648": 4232,
      "dena": 4233,
      "365": 4234,
      "sildena": 4235,
      "sildenafil": 4236,
      "sirolimus": 4237,
      "d99832": 4238,
      "antadine": 4239,
      "amantadine": 4240,
      "dz8542": 4241,
      "d78903": 4242,
      "nitrate": 4243,
      "d70707": 4244,
      "dt8131xa": 4245,
      "dh9190": 4246,
      "dz5309": 4247,
      "dl5": 4248,
      "glycerin": 4249,
      "d73730": 4250,
      "1mg": 4251,
      "dk269": 4252,
      "808": 4253,
      "d42842": 4254,
      "dz8042": 4255,
      "dk222": 4256,
      "d7318": 4257,
      "dz87442": 4258,
      "dq211": 4259,
      "di071": 4260,
      "aicin": 4261,
      "capsaicin": 4262,
      "d9986": 4263,
      "378": 4264,
      "db964": 4265,
      "dk750": 4266,
      "d170": 4267,
      "di69351": 4268,
      "470": 4269,
      "vag": 4270,
      "d2252": 4271,
      "dv4976": 4272,
      "d4370": 4273,
      "dr042": 4274,
      "ys": 4275,
      "d6489": 4276,
      "dz806": 4277,
      "dh3530": 4278,
      "d42843": 4279,
      "di330": 4280,
      "d4210": 4281,
      "d51883": 4282,
      "dc20": 4283,
      "ell": 4284,
      "d290": 4285,
      "d78194": 4286,
      "dc7889": 4287,
      "pyridostigmine": 4288,
      "d443": 4289,
      "alfa": 4290,
      "dk900": 4291,
      "d30300": 4292,
      "dv140": 4293,
      "dm353": 4294,
      "de8784": 4295,
      "tax": 4296,
      "dn30": 4297,
      "364": 4298,
      "d7048": 4299,
      "dw010xxa": 4300,
      "tem": 4301,
      "dv1003": 4302,
      "prenatal": 4303,
      "d5362": 4304,
      "supps": 4305,
      "3a": 4306,
      "d4871": 4307,
      "604": 4308,
      "dy92129": 4309,
      "dh548": 4310,
      "temazepam": 4311,
      "dz96643": 4312,
      "dg8194": 4313,
      "d5852": 4314,
      "d1972": 4315,
      "dl978": 4316,
      "8000": 4317,
      "de884": 4318,
      "leukin": 4319,
      "dr350": 4320,
      "di871": 4321,
      "dm17": 4322,
      "d379": 4323,
      "d73342": 4324,
      "dr159": 4325,
      "dk7010": 4326,
      "indi": 4327,
      "alas": 4328,
      "native": 4329,
      "indian": 4330,
      "alaska": 4331,
      "d78951": 4332,
      "d69589": 4333,
      "aldes": 4334,
      "aldesleukin": 4335,
      "di248": 4336,
      "dk259": 4337,
      "dm84": 4338,
      "d79551": 4339,
      "9789": 4340,
      "dz3a": 4341,
      "dr180": 4342,
      "d70721": 4343,
      "d5650": 4344,
      "opr": 4345,
      "1ml": 4346,
      "peni": 4347,
      "dz6839": 4348,
      "d566": 4349,
      "dj849": 4350,
      "dr630": 4351,
      "d2866": 4352,
      "dc8330": 4353,
      "normal": 4354,
      "x1a": 4355,
      "db3781": 4356,
      "neph": 4357,
      "phenazine": 4358,
      "d5552": 4359,
      "d25013": 4360,
      "rocaps": 4361,
      "d04186": 4362,
      "nephrocaps": 4363,
      "dd6832": 4364,
      "rinone": 4365,
      "d7866": 4366,
      "d4162": 4367,
      "dv5862": 4368,
      "d7098": 4369,
      "dwell": 4370,
      "di671": 4371,
      "399": 4372,
      "d5779": 4373,
      "d07071": 4374,
      "sugar": 4375,
      "d25082": 4376,
      "df1110": 4377,
      "d20302": 4378,
      "520": 4379,
      "zo": 4380,
      "dg8220": 4381,
      "d2920": 4382,
      "dr200": 4383,
      "dv1041": 4384,
      "dr570": 4385,
      "de118": 4386,
      "crys": 4387,
      "crystal": 4388,
      "gran": 4389,
      "dn39": 4390,
      "di4510": 4391,
      "d52809": 4392,
      "silver": 4393,
      "dr310": 4394,
      "d20401": 4395,
      "d78451": 4396,
      "milrinone": 4397,
      "dj9600": 4398,
      "dv6441": 4399,
      "dv1552": 4400,
      "389": 4401,
      "vy": 4402,
      "dk918": 4403,
      "dk652": 4404,
      "dv5864": 4405,
      "de9479": 4406,
      "ana": 4407,
      "2300": 4408,
      "seve": 4409,
      "conjug": 4410,
      "tox": 4411,
      "367": 4412,
      "d1625": 4413,
      "d70724": 4414,
      "x9": 4415,
      "los": 4416,
      "d1960": 4417,
      "sidone": 4418,
      "dj479": 4419,
      "large": 4420,
      "platelets": 4421,
      "lamer": 4422,
      "sevelamer": 4423,
      "d57451": 4424,
      "diazine": 4425,
      "sulfadiazine": 4426,
      "d53560": 4427,
      "ds065": 4428,
      "802": 4429,
      "d99662": 4430,
      "supposi": 4431,
      "d3379": 4432,
      "850": 4433,
      "7500": 4434,
      "d4264": 4435,
      "d3079": 4436,
      "d209": 4437,
      "dj0": 4438,
      "d429": 4439,
      "739": 4440,
      "dd89813": 4441,
      "d7885": 4442,
      "dm25561": 4443,
      "ural": 4444,
      "pramine": 4445,
      "tory": 4446,
      "dk5720": 4447,
      "suppository": 4448,
      "dm4806": 4449,
      "386": 4450,
      "d71535": 4451,
      "epid": 4452,
      "esomeprazole": 4453,
      "epidural": 4454,
      "de1169": 4455,
      "midone": 4456,
      "primidone": 4457,
      "da4189": 4458,
      "366": 4459,
      "d3371": 4460,
      "d78760": 4461,
      "penicillin": 4462,
      "cilos": 4463,
      "d2189": 4464,
      "ds7": 4465,
      "sprin": 4466,
      "benzo": 4467,
      "d10": 4468,
      "dj309": 4469,
      "d9975": 4470,
      "esmolol": 4471,
      "dt825": 4472,
      "d43811": 4473,
      "dm25551": 4474,
      "dk7011": 4475,
      "dc49": 4476,
      "rocuronium": 4477,
      "icu": 4478,
      "d20210": 4479,
      "dz8589": 4480,
      "dl89152": 4481,
      "de7849": 4482,
      "d3363": 4483,
      "df603": 4484,
      "dl309": 4485,
      "2190": 4486,
      "dz8541": 4487,
      "dv0254": 4488,
      "dl03311": 4489,
      "de9444": 4490,
      "quinapril": 4491,
      "dv667": 4492,
      "dv0259": 4493,
      "d7948": 4494,
      "dk754": 4495,
      "di442": 4496,
      "d2858": 4497,
      "454": 4498,
      "dn141": 4499,
      "crystals": 4500,
      "cilostazol": 4501,
      "dr590": 4502,
      "rex": 4503,
      "d72190": 4504,
      "dg8191": 4505,
      "sulfasal": 4506,
      "dd6851": 4507,
      "--": 4508,
      "load": 4509,
      "d5373": 4510,
      "d5305": 4511,
      "df1410": 4512,
      "sulfasalazine": 4513,
      "dm0": 4514,
      "di481": 4515,
      "dc8332": 4516,
      "efa": 4517,
      "viren": 4518,
      "d3682": 4519,
      "efaviren": 4520,
      "efavirenz": 4521,
      "d5695": 4522,
      "dz7401": 4523,
      "dg95": 4524,
      "ules": 4525,
      "granules": 4526,
      "476": 4527,
      "d5531": 4528,
      "kles": 4529,
      "acd": 4530,
      "sprinkles": 4531,
      "d25200": 4532,
      "d4588": 4533,
      "dc3412": 4534,
      "estr": 4535,
      "df1190": 4536,
      "hro": 4537,
      "dk838": 4538,
      "dk429": 4539,
      "dk0": 4540,
      "film": 4541,
      "d4660": 4542,
      "di864": 4543,
      "isotonic": 4544,
      "di5031": 4545,
      "dz79891": 4546,
      "d4142": 4547,
      "xxxd": 4548,
      "dj918": 4549,
      "de874": 4550,
      "dc3411": 4551,
      "db379": 4552,
      "d2384": 4553,
      "d2572": 4554,
      "di7300": 4555,
      "dg3184": 4556,
      "dj9622": 4557,
      "d59972": 4558,
      "d10w": 4559,
      "d5733": 4560,
      "d53290": 4561,
      "dv1279": 4562,
      "458": 4563,
      "ala": 4564,
      "di8500": 4565,
      "3200": 4566,
      "test": 4567,
      "rever": 4568,
      "12a": 4569,
      "d3439": 4570,
      "reversal": 4571,
      "396": 4572,
      "dipyri": 4573,
      "mole": 4574,
      "damole": 4575,
      "d3688": 4576,
      "dipyridamole": 4577,
      "2a": 4578,
      "dz450": 4579,
      "d2513": 4580,
      "carbo": 4581,
      "d5370": 4582,
      "di495": 4583,
      "388": 4584,
      "d70713": 4585,
      "d5856": 4586,
      "tretin": 4587,
      "dk30": 4588,
      "dc9100": 4589,
      "tretinoin": 4590,
      "df259": 4591,
      "dt424": 4592,
      "dc8599": 4593,
      "dh538": 4594,
      "dm170": 4595,
      "d78064": 4596,
      "dt451x5s": 4597,
      "tinib": 4598,
      "d2512": 4599,
      "dm4802": 4600,
      "385": 4601,
      "ke": 4602,
      "dr030": 4603,
      "dz1621": 4604,
      "dr066": 4605,
      "d462": 4606,
      "ataz": 4607,
      "di96": 4608,
      "clarit": 4609,
      "di82c": 4610,
      "404": 4611,
      "side": 4612,
      "nitropr": 4613,
      "usside": 4614,
      "dt508x5a": 4615,
      "dj8410": 4616,
      "nitroprusside": 4617,
      "d57450": 4618,
      "d34510": 4619,
      "d74": 4620,
      "473": 4621,
      "d3453": 4622,
      "dz833": 4623,
      "di712": 4624,
      "d5185": 4625,
      "d4140": 4626,
      "di25119": 4627,
      "de273": 4628,
      "dr609": 4629,
      "dd735": 4630,
      "605a": 4631,
      "83xa": 4632,
      "888": 4633,
      "anavir": 4634,
      "atazanavir": 4635,
      "b32": 4636,
      "neonat": 4637,
      "neonatal": 4638,
      "dk8309": 4639,
      "3400": 4640,
      "dj95851": 4641,
      "dt40605a": 4642,
      "k2": 4643,
      "dv554": 4644,
      "di341": 4645,
      "anti": 4646,
      "498": 4647,
      "d27788": 4648,
      "d3090": 4649,
      "d53540": 4650,
      "de441": 4651,
      "dr2681": 4652,
      "379": 4653,
      "d27803": 4654,
      "xs": 4655,
      "plant": 4656,
      "transplant": 4657,
      "program": 4658,
      "estrogen": 4659,
      "pse": 4660,
      "dm2": 4661,
      "d5307": 4662,
      "d1707": 4663,
      "dt45": 4664,
      "0625": 4665,
      "x0a": 4666,
      "po": 4667,
      "dv0382": 4668,
      "levo": 4669,
      "estrogens": 4670,
      "d57410": 4671,
      "433": 4672,
      "dl979": 4673,
      "hypertonic": 4674,
      "dv446": 4675,
      "dz89421": 4676,
      "d29040": 4677,
      "dk439": 4678,
      "iste": 4679,
      "dl024": 4680,
      "choline": 4681,
      "conjugated": 4682,
      "dv551": 4683,
      "d70712": 4684,
      "atide": 4685,
      "606": 4686,
      "d59080": 4687,
      "d7135": 4688,
      "dm7981": 4689,
      "felodipine": 4690,
      "dr0602": 4691,
      "d1122": 4692,
      "773": 4693,
      "dz95820": 4694,
      "de883": 4695,
      "511a": 4696,
      "d70709": 4697,
      "905": 4698,
      "500mg": 4699,
      "tifib": 4700,
      "dr578": 4701,
      "eptifib": 4702,
      "eptifibatide": 4703,
      "dia": 4704,
      "d2631": 4705,
      "b22": 4706,
      "hed": 4707,
      "d20040": 4708,
      "zipra": 4709,
      "d5799": 4710,
      "ziprasidone": 4711,
      "di5021": 4712,
      "d78902": 4713,
      "dt83511a": 4714,
      "11a": 4715,
      "862": 4716,
      "db258": 4717,
      "dm25512": 4718,
      "ephed": 4719,
      "dm16": 4720,
      "dz45018": 4721,
      "448": 4722,
      "dz91128": 4723,
      "95a": 4724,
      "ephedrine": 4725,
      "mira": 4726,
      "dc8333": 4727,
      "d1123": 4728,
      "3300": 4729,
      "dj984": 4730,
      "dt856": 4731,
      "dm2137": 4732,
      "d99679": 4733,
      "d7868": 4734,
      "dk863": 4735,
      "ylcholine": 4736,
      "dm25562": 4737,
      "udo": 4738,
      "succinylcholine": 4739,
      "aba": 4740,
      "pseudo": 4741,
      "pseudoephedrine": 4742,
      "covy": 4743,
      "pilo": 4744,
      "descovy": 4745,
      "d5178": 4746,
      "d70720": 4747,
      "virine": 4748,
      "dg44": 4749,
      "d84": 4750,
      "indo": 4751,
      "methacin": 4752,
      "95xa": 4753,
      "abacavir": 4754,
      "indomethacin": 4755,
      "397": 4756,
      "d4552": 4757,
      "d99989": 4758,
      "carpine": 4759,
      "d41072": 4760,
      "pilocarpine": 4761,
      "dk9423": 4762,
      "glyce": 4763,
      "atinib": 4764,
      "d7197": 4765,
      "549": 4766,
      "d34550": 4767,
      "dl02211": 4768,
      "8xa": 4769,
      "k4": 4770,
      "dd75": 4771,
      "d1121": 4772,
      "430": 4773,
      "dd25": 4774,
      "hydrochloride": 4775,
      "hromycin": 4776,
      "clarithromycin": 4777,
      "d2811": 4778,
      "dg309": 4779,
      "d78729": 4780,
      "dc8331": 4781,
      "baz": 4782,
      "clobaz": 4783,
      "clobazam": 4784,
      "4181": 4785,
      "dk635": 4786,
      "ketamine": 4787,
      "di160": 4788,
      "dv552": 4789,
      "d7873": 4790,
      "dz9641": 4791,
      "d71": 4792,
      "2252": 4793,
      "39xa": 4794,
      "dg935": 4795,
      "dt447": 4796,
      "d6959": 4797,
      "784": 4798,
      "d5571": 4799,
      "dv620": 4800,
      "d99669": 4801,
      "carboplatin": 4802,
      "d378": 4803,
      "d40391": 4804,
      "x5d": 4805,
      "dh0": 4806,
      "423": 4807,
      "d27739": 4808,
      "398": 4809,
      "d7863": 4810,
      "394": 4811,
      "d44022": 4812,
      "d28804": 4813,
      "dv150": 4814,
      "dv88": 4815,
      "863": 4816,
      "d34889": 4817,
      "d24290": 4818,
      "dk224": 4819,
      "dv1253": 4820,
      "d70723": 4821,
      "dg971": 4822,
      "499": 4823,
      "d73028": 4824,
      "dk50": 4825,
      "dm25511": 4826,
      "2900": 4827,
      "709": 4828,
      "d1974": 4829,
      "db3789": 4830,
      "d20281": 4831,
      "dl97419": 4832,
      "de1040": 4833,
      "prost": 4834,
      "dc784": 4835,
      "dk2980": 4836,
      "cardia": 4837,
      "906": 4838,
      "dk9413": 4839,
      "dj810": 4840,
      "dz8719": 4841,
      "dt458x5a": 4842,
      "d5651": 4843,
      "dr0781": 4844,
      "nac": 4845,
      "dy828": 4846,
      "sulfasalazine_": 4847,
      "pump": 4848,
      "dc773": 4849,
      "d4412": 4850,
      "dz936": 4851,
      "d70725": 4852,
      "dv148": 4853,
      "dg9389": 4854,
      "dm791": 4855,
      "di351": 4856,
      "dt3695xa": 4857,
      "d568": 4858,
      "d4846": 4859,
      "d04189": 4860,
      "symbi": 4861,
      "symbicort": 4862,
      "dd688": 4863,
      "de8779": 4864,
      "422": 4865,
      "dk7681": 4866,
      "d43330": 4867,
      "504": 4868,
      "d99883": 4869,
      "d41402": 4870,
      "847": 4871,
      "d99666": 4872,
      "cisplatin": 4873,
      "df1910": 4874,
      "439": 4875,
      "ido": 4876,
      "rib": 4877,
      "d11289": 4878,
      "di63": 4879,
      "d7851": 4880,
      "dk500": 4881,
      "d3003": 4882,
      "438": 4883,
      "d2769": 4884,
      "dv1004": 4885,
      "395": 4886,
      "dd46": 4887,
      "benzocaine": 4888,
      "413": 4889,
      "de9363": 4890,
      "d79319": 4891,
      "oxazole": 4892,
      "sulfamethoxazole": 4893,
      "de9310": 4894,
      "de92": 4895,
      "namen": 4896,
      "d73007": 4897,
      "namenda": 4898,
      "d27401": 4899,
      "dt8649": 4900,
      "d73027": 4901,
      "dm9": 4902,
      "tazone": 4903,
      "2239": 4904,
      "d20270": 4905,
      "d1713": 4906,
      "haz": 4907,
      "dk317": 4908,
      "witch": 4909,
      "hazel": 4910,
      "d2825": 4911,
      "d45620": 4912,
      "dm25552": 4913,
      "dz98890": 4914,
      "di498": 4915,
      "de662": 4916,
      "nacl": 4917,
      "3500": 4918,
      "dn12": 4919,
      "d1125": 4920,
      "dk644": 4921,
      "the": 4922,
      "d25052": 4923,
      "de9300": 4924,
      "d51882": 4925,
      "de8790": 4926,
      "dz856": 4927,
      "d03811": 4928,
      "alafen": 4929,
      "d27503": 4930,
      "d1975": 4931,
      "de9379": 4932,
      "dt82898a": 4933,
      "dj9611": 4934,
      "d7101": 4935,
      "gth": 4936,
      "ength": 4937,
      "dz7289": 4938,
      "strength": 4939,
      "d64893": 4940,
      "d6202": 4941,
      "d59651": 4942,
      "583": 4943,
      "418": 4944,
      "d5750": 4945,
      "dv8543": 4946,
      "d99702": 4947,
      "d73319": 4948,
      "dn99": 4949,
      "di634": 4950,
      "d29650": 4951,
      "dz888": 4952,
      "df17290": 4953,
      "di828": 4954,
      "d820": 4955,
      "dk859": 4956,
      "dr94": 4957,
      "cinonide": 4958,
      "fluocinonide": 4959,
      "3100": 4960,
      "d531": 4961,
      "dg5": 4962,
      "dh269": 4963,
      "hc": 4964,
      "perox": 4965,
      "de2749": 4966,
      "peroxide": 4967,
      "tial": 4968,
      "initial": 4969,
      "rescu": 4970,
      "rescue": 4971,
      "dl40": 4972,
      "de9293": 4973,
      "grel": 4974,
      "sugrel": 4975,
      "prasugrel": 4976,
      "d1911": 4977,
      "d45385": 4978,
      "d56489": 4979,
      "492": 4980,
      "de042": 4981,
      "d2839": 4982,
      "d34540": 4983,
      "dy844": 4984,
      "d36900": 4985,
      "iron": 4986,
      "dz982": 4987,
      "d51851": 4988,
      "de0500": 4989,
      "dt5099": 4990,
      "d4321": 4991,
      "d648": 4992,
      "d56949": 4993,
      "di278": 4994,
      "d2949": 4995,
      "200mg": 4996,
      "dk860": 4997,
      "d3962": 4998,
      "d78703": 4999,
      "dw1839xa": 5000,
      "otamine": 5001,
      "d20412": 5002,
      "9002": 5003,
      "da4181": 5004,
      "dl4050": 5005,
      "25mg": 5006,
      "di2582": 5007,
      "desi": 5008,
      "db349": 5009,
      "d56983": 5010,
      "d05319": 5011,
      "dz2239": 5012,
      "d317": 5013,
      "d1541": 5014,
      "dt501x5a": 5015,
      "dt447x5a": 5016,
      "de000": 5017,
      "dz4502": 5018,
      "dc782": 5019,
      "dc8519": 5020,
      "de8844": 5021,
      "dr11": 5022,
      "612": 5023,
      "dm479": 5024,
      "dl89150": 5025,
      "dm868": 5026,
      "dk31819": 5027,
      "di2782": 5028,
      "405": 5029,
      "d45340": 5030,
      "df429": 5031,
      "testos": 5032,
      "di808": 5033,
      "ambut": 5034,
      "d2564": 5035,
      "ds8": 5036,
      "d78551": 5037,
      "ethambut": 5038,
      "ethambutol": 5039,
      "rophosphate": 5040,
      "d72885": 5041,
      "glycerophosphate": 5042,
      "d374": 5043,
      "dr413": 5044,
      "dz85048": 5045,
      "fluda": 5046,
      "fludarabine": 5047,
      "perphenazine": 5048,
      "d40310": 5049,
      "tetan": 5050,
      "474": 5051,
      "dl271": 5052,
      "tetanus": 5053,
      "002": 5054,
      "dk8681": 5055,
      "de781": 5056,
      "dc8379": 5057,
      "ple": 5058,
      "2600": 5059,
      "d28983": 5060,
      "dt8089xa": 5061,
      "dc9002": 5062,
      "tt": 5063,
      "dv4576": 5064,
      "407": 5065,
      "testoster": 5066,
      "testosterone": 5067,
      "ene": 5068,
      "d5921": 5069,
      "de282": 5070,
      "d5168": 5071,
      "d57400": 5072,
      "463": 5073,
      "dr39": 5074,
      "db0": 5075,
      "ds2": 5076,
      "di824z": 5077,
      "dv1085": 5078,
      "mib": 5079,
      "dt424x5a": 5080,
      "431": 5081,
      "de9301": 5082,
      "diph": 5083,
      "caffeine": 5084,
      "d27906": 5085,
      "dz8501": 5086,
      "dk625": 5087,
      "d5724": 5088,
      "469": 5089,
      "d2555": 5090,
      "protamine": 5091,
      "dc801": 5092,
      "dd259": 5093,
      "d7229": 5094,
      "dc160": 5095,
      "416": 5096,
      "dj329": 5097,
      "osine": 5098,
      "3600": 5099,
      "d1510": 5100,
      "zomib": 5101,
      "d36960": 5102,
      "d2441": 5103,
      "d4233": 5104,
      "dt426": 5105,
      "de9348": 5106,
      "d45989": 5107,
      "d68110": 5108,
      "cele": 5109,
      "d4558": 5110,
      "de9317": 5111,
      "d5551": 5112,
      "di639": 5113,
      "24hr": 5114,
      "d99813": 5115,
      "dz1624": 5116,
      "d13": 5117,
      "dc50911": 5118,
      "d7200": 5119,
      "953": 5120,
      "dv1089": 5121,
      "414": 5122,
      "d3963": 5123,
      "dv8538": 5124,
      "d04102": 5125,
      "dd693": 5126,
      "dv8535": 5127,
      "tus": 5128,
      "di9789": 5129,
      "d72888": 5130,
      "434": 5131,
      "d85221": 5132,
      "460": 5133,
      "lum": 5134,
      "dk5289": 5135,
      "d99672": 5136,
      "d53642": 5137,
      "ramip": 5138,
      "dk743": 5139,
      "ramipril": 5140,
      "d29630": 5141,
      "426": 5142,
      "d420": 5143,
      "xi": 5144,
      "dm48061": 5145,
      "821": 5146,
      "d25041": 5147,
      "d5109": 5148,
      "df0150": 5149,
      "d920": 5150,
      "dn281": 5151,
      "d25083": 5152,
      "di82621": 5153,
      "d4275": 5154,
      "x9a": 5155,
      "dm868x": 5156,
      "dz9079": 5157,
      "de8785": 5158,
      "de8881": 5159,
      "d60784": 5160,
      "ogli": 5161,
      "dk210": 5162,
      "piogli": 5163,
      "pioglitazone": 5164,
      "d42820": 5165,
      "d78722": 5166,
      "415": 5167,
      "d35800": 5168,
      "d1578": 5169,
      "d1508": 5170,
      "hepa": 5171,
      "d4847": 5172,
      "mipramine": 5173,
      "d375": 5174,
      "d6988": 5175,
      "d30593": 5176,
      "d65": 5177,
      "d34680": 5178,
      "dv1021": 5179,
      "dr400": 5180,
      "dk550": 5181,
      "dz95828": 5182,
      "di083": 5183,
      "27xxa": 5184,
      "dt827xxa": 5185,
      "dk279": 5186,
      "d53510": 5187,
      "dr1110": 5188,
      "d4270": 5189,
      "dau": 5190,
      "d3594": 5191,
      "d72252": 5192,
      "dm329": 5193,
      "d95901": 5194,
      "424": 5195,
      "d7110": 5196,
      "d7517": 5197,
      "dm4856": 5198,
      "olazine": 5199,
      "ranolazine": 5200,
      "d054": 5201,
      "d45386": 5202,
      "417": 5203,
      "di513": 5204,
      "dauno": 5205,
      "dc569": 5206,
      "860": 5207,
      "841": 5208,
      "d48242": 5209,
      "d53140": 5210,
      "dm8458xa": 5211,
      "dm419": 5212,
      "d7244": 5213,
      "inavir": 5214,
      "d89": 5215,
      "df4320": 5216,
      "xxs": 5217,
      "dv4585": 5218,
      "dm628": 5219,
      "d72992": 5220,
      "dd320": 5221,
      "deral": 5222,
      "dt5090": 5223,
      "dk769": 5224,
      "ds72": 5225,
      "d5932": 5226,
      "penem": 5227,
      "d3000": 5228,
      "d7211": 5229,
      "dm869": 5230,
      "dz954": 5231,
      "dv1641": 5232,
      "dk6289": 5233,
      "488": 5234,
      "de96": 5235,
      "letrozole": 5236,
      "dz9483": 5237,
      "da4101": 5238,
      "d47819": 5239,
      "ang": 5240,
      "d72889": 5241,
      "dk509": 5242,
      "dn28": 5243,
      "dd703": 5244,
      "d72610": 5245,
      "425": 5246,
      "dk311": 5247,
      "d52100": 5248,
      "ds320": 5249,
      "pinavir": 5250,
      "lopinavir": 5251,
      "adderal": 5252,
      "dz902": 5253,
      "da4159": 5254,
      "dj95811": 5255,
      "gtt": 5256,
      "d29633": 5257,
      "adderall": 5258,
      "d2111": 5259,
      "dh04": 5260,
      "dc770": 5261,
      "di825": 5262,
      "daunorubicin": 5263,
      "db259": 5264,
      "ds220": 5265,
      "529": 5266,
      "881": 5267,
      "tach": 5268,
      "dz6844": 5269,
      "d36281": 5270,
      "d37515": 5271,
      "d25070": 5272,
      "estra": 5273,
      "ip": 5274,
      "dv1584": 5275,
      "d92": 5276,
      "ede": 5277,
      "aseptic": 5278,
      "phenaseptic": 5279,
      "etra": 5280,
      "etravirine": 5281,
      "orte": 5282,
      "cycline": 5283,
      "dv1541": 5284,
      "d33182": 5285,
      "ioede": 5286,
      "angioede": 5287,
      "angioedema": 5288,
      "d2411": 5289,
      "diol": 5290,
      "d753": 5291,
      "dr195": 5292,
      "dr5082": 5293,
      "dv8812": 5294,
      "lular": 5295,
      "d7230": 5296,
      "pertus": 5297,
      "acellular": 5298,
      "d37430": 5299,
      "diphtox": 5300,
      "pertuss": 5301,
      "d4553": 5302,
      "borte": 5303,
      "bortezomib": 5304,
      "inamide": 5305,
      "ds00": 5306,
      "estradiol": 5307,
      "ycardia": 5308,
      "dv090": 5309,
      "dk5732": 5310,
      "tachycardia": 5311,
      "trav": 5312,
      "ring": 5313,
      "d2280": 5314,
      "de854": 5315,
      "viaflex": 5316,
      "dk2210": 5317,
      "dj302": 5318,
      "dz8041": 5319,
      "dt50995a": 5320,
      "d372": 5321,
      "dk029": 5322,
      "admin": 5323,
      "istering": 5324,
      "administering": 5325,
      "d56989": 5326,
      "tapenem": 5327,
      "ertapenem": 5328,
      "di5043": 5329,
      "882": 5330,
      "d4259": 5331,
      "dv8532": 5332,
      "dk52": 5333,
      "d4260": 5334,
      "d5579": 5335,
      "dv642": 5336,
      "d2830": 5337,
      "de10649": 5338,
      "de109": 5339,
      "d57511": 5340,
      "de0590": 5341,
      "d1748": 5342,
      "d31400": 5343,
      "848": 5344,
      "d36846": 5345,
      "dm5416": 5346,
      "dm4854": 5347,
      "dn2889": 5348,
      "d5739": 5349,
      "792": 5350,
      "dk56609": 5351,
      "dk40": 5352,
      "dr502": 5353,
      "dc7982": 5354,
      "dr1031": 5355,
      "d4401": 5356,
      "d38611": 5357,
      "dg909": 5358,
      "d380": 5359,
      "hexol": 5360,
      "iohexol": 5361,
      "d53649": 5362,
      "d14": 5363,
      "mia": 5364,
      "dc9101": 5365,
      "dl030": 5366,
      "dk7689": 5367,
      "d7842": 5368,
      "d34580": 5369,
      "d71595": 5370,
      "dl98": 5371,
      "dd573": 5372,
      "428": 5373,
      "d7190": 5374,
      "dv4283": 5375,
      "dakin": 5376,
      "1809": 5377,
      "dakins": 5378,
      "dl739": 5379,
      "de8700": 5380,
      "dv860": 5381,
      "427": 5382,
      "3800": 5383,
      "461": 5384,
      "dv5883": 5385,
      "d25081": 5386,
      "dc785": 5387,
      "d6824": 5388,
      "di2": 5389,
      "dk208": 5390,
      "443": 5391,
      "oo": 5392,
      "de9426": 5393,
      "dm4856xa": 5394,
      "otic": 5395,
      "vox": 5396,
      "dd702": 5397,
      "dt375": 5398,
      "dm3500": 5399,
      "lumi": 5400,
      "carboxy": 5401,
      "d78839": 5402,
      "db372": 5403,
      "d70583": 5404,
      "dg4089": 5405,
      "topical": 5406,
      "dg7000": 5407,
      "dc778": 5408,
      "d56782": 5409,
      "dv169": 5410,
      "di493": 5411,
      "d59010": 5412,
      "dz53": 5413,
      "carboxyhemoglobin": 5414,
      "dt360": 5415,
      "dm79604": 5416,
      "dk5281": 5417,
      "apri": 5418,
      "dr251": 5419,
      "d4400": 5420,
      "d2535": 5421,
      "dv643": 5422,
      "dl89154": 5423,
      "dl7632": 5424,
      "d4373": 5425,
      "90a": 5426,
      "dk912": 5427,
      "tige": 5428,
      "tigecycline": 5429,
      "d541": 5430,
      "d24200": 5431,
      "3289": 5432,
      "12xa": 5433,
      "dz9111": 5434,
      "d99769": 5435,
      "444": 5436,
      "d03843": 5437,
      "d82": 5438,
      "dr011": 5439,
      "kale": 5440,
      "df339": 5441,
      "dn3289": 5442,
      "8881": 5443,
      "de9394": 5444,
      "hyperkale": 5445,
      "hyperkalemia": 5446,
      "dj029": 5447,
      "dc92z0": 5448,
      "casp": 5449,
      "d389": 5450,
      "ofungin": 5451,
      "caspofungin": 5452,
      "d3019": 5453,
      "d20208": 5454,
      "d25053": 5455,
      "432": 5456,
      "dc799": 5457,
      "de9309": 5458,
      "dt8579": 5459,
      "447": 5460,
      "vec": 5461,
      "lovastatin": 5462,
      "adacel": 5463,
      "captop": 5464,
      "d30002": 5465,
      "d299": 5466,
      "445": 5467,
      "dk602": 5468,
      "d2097": 5469,
      "dy924": 5470,
      "de9358": 5471,
      "mercaptop": 5472,
      "dt50905a": 5473,
      "d37230": 5474,
      "mercaptopurine": 5475,
      "carbamide": 5476,
      "d9992": 5477,
      "dz903": 5478,
      "glo": 5479,
      "dc541": 5480,
      "glob": 5481,
      "dv8537": 5482,
      "d8070": 5483,
      "dn939": 5484,
      "dj111": 5485,
      "d33183": 5486,
      "de1": 5487,
      "dt360x5a": 5488,
      "di743": 5489,
      "d136": 5490,
      "d99681": 5491,
      "de9290": 5492,
      "di82611": 5493,
      "2xa": 5494,
      "ophyl": 5495,
      "dd869": 5496,
      "dt8132": 5497,
      "tit": 5498,
      "dv1072": 5499,
      "hepatit": 5500,
      "hepatitis": 5501,
      "482": 5502,
      "dr252": 5503,
      "dg250": 5504,
      "pent": 5505,
      "d73": 5506,
      "d53783": 5507,
      "di82412": 5508,
      "ophylline": 5509,
      "6000": 5510,
      "dv580": 5511,
      "ds80": 5512,
      "dm96": 5513,
      "d44031": 5514,
      "methemoglobin": 5515,
      "dd61811": 5516,
      "dc3": 5517,
      "d4465": 5518,
      "d534": 5519,
      "d3540": 5520,
      "d30928": 5521,
      "d1820": 5522,
      "d430": 5523,
      "d79579": 5524,
      "d2774": 5525,
      "d6238": 5526,
      "dv071": 5527,
      "dv8534": 5528,
      "dv4575": 5529,
      "dy925": 5530,
      "dv8523": 5531,
      "212a": 5532,
      "d48241": 5533,
      "theophylline": 5534,
      "dt8579xa": 5535,
      "dh534": 5536,
      "8511": 5537,
      "dd6861": 5538,
      "dt502": 5539,
      "d7808": 5540,
      "dv1047": 5541,
      "dd6859": 5542,
      "ds065x0a": 5543,
      "630": 5544,
      "436": 5545,
      "imip": 5546,
      "di8511": 5547,
      "d27549": 5548,
      "d30521": 5549,
      "irbe": 5550,
      "ane": 5551,
      "d20402": 5552,
      "ulfate": 5553,
      "liq": 5554,
      "lastatin": 5555,
      "cilastatin": 5556,
      "bisulfate": 5557,
      "d30563": 5558,
      "d9072": 5559,
      "imipenem": 5560,
      "dz77": 5561,
      "dz96649": 5562,
      "d99667": 5563,
      "taxel": 5564,
      "d23877": 5565,
      "isti": 5566,
      "polisti": 5567,
      "polistirex": 5568,
      "fluvox": 5569,
      "dz51": 5570,
      "dy834": 5571,
      "dd519": 5572,
      "d44381": 5573,
      "fluvoxamine": 5574,
      "fenac": 5575,
      "multiple": 5576,
      "dz9011": 5577,
      "d8054": 5578,
      "d3490": 5579,
      "enalapri": 5580,
      "enalaprilat": 5581,
      "irbesartan": 5582,
      "dc159": 5583,
      "d43883": 5584,
      "d4379": 5585,
      "d7854": 5586,
      "dh532": 5587,
      "dz432": 5588,
      "dm5430": 5589,
      "d78630": 5590,
      "shamp": 5591,
      "dr68": 5592,
      "d42769": 5593,
      "dk315": 5594,
      "dr490": 5595,
      "renone": 5596,
      "shampoo": 5597,
      "518": 5598,
      "dm79605": 5599,
      "dk432": 5600,
      "d55090": 5601,
      "dy92018": 5602,
      "dl719": 5603,
      "d9972": 5604,
      "dd56": 5605,
      "dd563": 5606,
      "dg40109": 5607,
      "dl97429": 5608,
      "d3241": 5609,
      "dr61": 5610,
      "afine": 5611,
      "capro": 5612,
      "d25201": 5613,
      "d7080": 5614,
      "dk598": 5615,
      "di868": 5616,
      "viaflo": 5617,
      "d99739": 5618,
      "di82b": 5619,
      "dr2689": 5620,
      "de915": 5621,
      "dz880": 5622,
      "combi": 5623,
      "binafine": 5624,
      "d1984": 5625,
      "dd839": 5626,
      "terbinafine": 5627,
      "dk8050": 5628,
      "d36570": 5629,
      "dm4854xa": 5630,
      "d73309": 5631,
      "dv8536": 5632,
      "df5": 5633,
      "803": 5634,
      "di440": 5635,
      "de1022": 5636,
      "d3549": 5637,
      "aminocapro": 5638,
      "840": 5639,
      "d3229": 5640,
      "dv8533": 5641,
      "d2864": 5642,
      "720": 5643,
      "ifloxacin": 5644,
      "dz8611": 5645,
      "dr269": 5646,
      "d20070": 5647,
      "pheniramine": 5648,
      "d44489": 5649,
      "blu": 5650,
      "d727": 5651,
      "de912": 5652,
      "dn3090": 5653,
      "blue": 5654,
      "antin": 5655,
      "dn83": 5656,
      "d99642": 5657,
      "tane": 5658,
      "d5190": 5659,
      "dr34": 5660,
      "dj380": 5661,
      "dr296": 5662,
      "aminocaproic": 5663,
      "dt450": 5664,
      "dg9349": 5665,
      "d4359": 5666,
      "di6523": 5667,
      "d3099": 5668,
      "658": 5669,
      "dv8539": 5670,
      "d42989": 5671,
      "lerenone": 5672,
      "opht": 5673,
      "eplerenone": 5674,
      "de1042": 5675,
      "d27953": 5676,
      "de9393": 5677,
      "vecuronium": 5678,
      "dx": 5679,
      "d2810": 5680,
      "dv854": 5681,
      "di771": 5682,
      "d0090": 5683,
      "di82432": 5684,
      "435": 5685,
      "d41511": 5686,
      "d87342": 5687,
      "dt426x5a": 5688,
      "dn289": 5689,
      "d43813": 5690,
      "dm21372": 5691,
      "lip": 5692,
      "dk580": 5693,
      "dc50912": 5694,
      "db441": 5695,
      "d30553": 5696,
      "dl03113": 5697,
      "dk767": 5698,
      "etocla": 5699,
      "venetocla": 5700,
      "df4323": 5701,
      "d5934": 5702,
      "venetoclax": 5703,
      "fyl": 5704,
      "d34511": 5705,
      "oxifyl": 5706,
      "pentoxifyl": 5707,
      "pentoxifylline": 5708,
      "521": 5709,
      "moxifloxacin": 5710,
      "d368": 5711,
      "d30551": 5712,
      "d71106": 5713,
      "di25118": 5714,
      "di699": 5715,
      "d05410": 5716,
      "tas": 5717,
      "dj152": 5718,
      "dz8614": 5719,
      "intr": 5720,
      "892": 5721,
      "dk5669": 5722,
      "dc775": 5723,
      "dt502x5a": 5724,
      "437": 5725,
      "d7910": 5726,
      "dk869": 5727,
      "dr4781": 5728,
      "pami": 5729,
      "pamidronate": 5730,
      "tat": 5731,
      "d2409": 5732,
      "dn7": 5733,
      "dm8448": 5734,
      "d99831": 5735,
      "dt8132xa": 5736,
      "d712": 5737,
      "dg809": 5738,
      "946": 5739,
      "de1010": 5740,
      "dn186": 5741,
      "d34400": 5742,
      "dm6282": 5743,
      "dj3801": 5744,
      "dh8110": 5745,
      "tz": 5746,
      "dz87898": 5747,
      "d490": 5748,
      "df500": 5749,
      "dr591": 5750,
      "d99762": 5751,
      "azep": 5752,
      "d7962": 5753,
      "ds12": 5754,
      "dd72828": 5755,
      "dq231": 5756,
      "mic": 5757,
      "dk200": 5758,
      "dg83": 5759,
      "db9681": 5760,
      "d8052": 5761,
      "d1104": 5762,
      "d616": 5763,
      "dv8531": 5764,
      "dr002": 5765,
      "de10621": 5766,
      "rod": 5767,
      "d4010": 5768,
      "macrod": 5769,
      "macrodantin": 5770,
      "bo": 5771,
      "troban": 5772,
      "d7876": 5773,
      "exe": 5774,
      "dz89422": 5775,
      "de9359": 5776,
      "de83119": 5777,
      "d5959": 5778,
      "d5272": 5779,
      "dk68": 5780,
      "dr601": 5781,
      "456": 5782,
      "dv4611": 5783,
      "restas": 5784,
      "dc50919": 5785,
      "d71906": 5786,
      "restasis": 5787,
      "d524": 5788,
      "d5130": 5789,
      "991": 5790,
      "triene": 5791,
      "dt370": 5792,
      "dt85590": 5793,
      "calcipo": 5794,
      "dt85590a": 5795,
      "calcipotriene": 5796,
      "dc169": 5797,
      "di82a": 5798,
      "dn1339": 5799,
      "dk91840": 5800,
      "d82021": 5801,
      "hctz": 5802,
      "dt370x5a": 5803,
      "oetin": 5804,
      "epoetin": 5805,
      "d78559": 5806,
      "dd46z": 5807,
      "d1509": 5808,
      "df1121": 5809,
      "dt8641": 5810,
      "d9070": 5811,
      "446": 5812,
      "vap": 5813,
      "d2734": 5814,
      "d3510": 5815,
      "dr579": 5816,
      "ia": 5817,
      "dv6406": 5818,
      "dt450x5a": 5819,
      "dc7b": 5820,
      "lumigan": 5821,
      "dr202": 5822,
      "7281": 5823,
      "dr9431": 5824,
      "d78459": 5825,
      "de9288": 5826,
      "de9319": 5827,
      "di69392": 5828,
      "d8730": 5829,
      "d25012": 5830,
      "457": 5831,
      "dc92z2": 5832,
      "dv65": 5833,
      "d45384": 5834,
      "drone": 5835,
      "dy835": 5836,
      "df1123": 5837,
      "d71696": 5838,
      "d5566": 5839,
      "d53782": 5840,
      "gatroban": 5841,
      "almic": 5842,
      "argatroban": 5843,
      "ophthalmic": 5844,
      "dc679": 5845,
      "de213": 5846,
      "diclo": 5847,
      "carnit": 5848,
      "d7827": 5849,
      "d78606": 5850,
      "d29689": 5851,
      "globulin": 5852,
      "diclofenac": 5853,
      "24a": 5854,
      "di441": 5855,
      "d03812": 5856,
      "dc19": 5857,
      "db37": 5858,
      "dr4023": 5859,
      "iabp": 5860,
      "mucine": 5861,
      "1750": 5862,
      "ds066": 5863,
      "mucinex": 5864,
      "d4464": 5865,
      "d718": 5866,
      "d30750": 5867,
      "d1912": 5868,
      "pentam": 5869,
      "dc8589": 5870,
      "pentamidine": 5871,
      "df5000": 5872,
      "carnitine": 5873,
      "507": 5874,
      "d56941": 5875,
      "dc3431": 5876,
      "d8670": 5877,
      "796": 5878,
      "dt84": 5879,
      "xx0": 5880,
      "479": 5881,
      "de11622": 5882,
      "paste": 5883,
      "dv171": 5884,
      "607": 5885,
      "df15": 5886,
      "d4476": 5887,
      "dc50": 5888,
      "dm25": 5889,
      "dv4561": 5890,
      "nex": 5891,
      "toprol": 5892,
      "dy731": 5893,
      "dk31811": 5894,
      "dn39498": 5895,
      "var": 5896,
      "lubi": 5897,
      "d6820": 5898,
      "prostone": 5899,
      "lubiprostone": 5900,
      "842": 5901,
      "dr1032": 5902,
      "d88": 5903,
      "dk264": 5904,
      "ds9": 5905,
      "etomid": 5906,
      "d28989": 5907,
      "etomidate": 5908,
      "dz8679": 5909,
      "dh905": 5910,
      "di680": 5911,
      "d5300": 5912,
      "pacli": 5913,
      "dz89512": 5914,
      "paclitaxel": 5915,
      "608": 5916,
      "de804": 5917,
      "540": 5918,
      "de9323": 5919,
      "dz8507": 5920,
      "orab": 5921,
      "d78651": 5922,
      "orabase": 5923,
      "25a": 5924,
      "dm112": 5925,
      "di69320": 5926,
      "levocarnitine": 5927,
      "dn138": 5928,
      "dg40209": 5929,
      "atrial": 5930,
      "dm47892": 5931,
      "dn131": 5932,
      "dt87": 5933,
      "d03819": 5934,
      "dk810": 5935,
      "dd631": 5936,
      "df1490": 5937,
      "1289": 5938,
      "dk761": 5939,
      "dz5329": 5940,
      "de8799": 5941,
      "d49120": 5942,
      "da0471": 5943,
      "dj869": 5944,
      "38a": 5945,
      "db009": 5946,
      "dv011": 5947,
      "d344": 5948,
      "843": 5949,
      "d2532": 5950,
      "db951": 5951,
      "db373": 5952,
      "d25043": 5953,
      "dobu": 5954,
      "d28246": 5955,
      "d70704": 5956,
      "dobutamine": 5957,
      "moex": 5958,
      "d7852": 5959,
      "d1539": 5960,
      "dw06": 5961,
      "ipril": 5962,
      "moexipril": 5963,
      "air": 5964,
      "iplatin": 5965,
      "racepinephrine": 5966,
      "d99661": 5967,
      "dk631": 5968,
      "oxaliplatin": 5969,
      "d71947": 5970,
      "dg061": 5971,
      "loride": 5972,
      "dl982": 5973,
      "dv270": 5974,
      "last": 5975,
      "amiloride": 5976,
      "475": 5977,
      "886": 5978,
      "neo": 5979,
      "d4299": 5980,
      "dt383": 5981,
      "dz9481": 5982,
      "dm0600": 5983,
      "dz9689": 5984,
      "3700": 5985,
      "d6953": 5986,
      "med": 5987,
      "d7963": 5988,
      "umab": 5989,
      "dextran": 5990,
      "dn132": 5991,
      "dr945": 5992,
      "d56212": 5993,
      "d72293": 5994,
      "dt375x5a": 5995,
      "apleu": 5996,
      "dm459": 5997,
      "d00869": 5998,
      "di6529": 5999,
      "intrapleu": 6000,
      "intrapleural": 6001,
      "bit": 6002,
      "d4242": 6003,
      "d6262": 6004,
      "d79099": 6005,
      "d4423": 6006,
      "dm1711": 6007,
      "db3749": 6008,
      "gil": 6009,
      "998": 6010,
      "d4555": 6011,
      "d4619": 6012,
      "dt82524a": 6013,
      "689": 6014,
      "d49300": 6015,
      "por": 6016,
      "dm80": 6017,
      "663": 6018,
      "d28984": 6019,
      "a8": 6020,
      "methamine": 6021,
      "dz5112": 6022,
      "dm8448xa": 6023,
      "9010": 6024,
      "lactic": 6025,
      "d30781": 6026,
      "thy": 6027,
      "dm47": 6028,
      "dv151": 6029,
      "d28809": 6030,
      "dc8518": 6031,
      "mocy": 6032,
      "df200": 6033,
      "dn9": 6034,
      "rabbit": 6035,
      "thymocy": 6036,
      "thymocyte": 6037,
      "d6179": 6038,
      "ds224": 6039,
      "dr1084": 6040,
      "tl": 6041,
      "d193": 6042,
      "d4238": 6043,
      "dz823": 6044,
      "d5997": 6045,
      "467": 6046,
      "dw06xxxa": 6047,
      "dm1a": 6048,
      "dt80212a": 6049,
      "thyro": 6050,
      "thyroid": 6051,
      "d337": 6052,
      "d53530": 6053,
      "anol": 6054,
      "dv8530": 6055,
      "zido": 6056,
      "dr3": 6057,
      "de9429": 6058,
      "ethanol": 6059,
      "zidovudine": 6060,
      "avi": 6061,
      "all": 6062,
      "dr1012": 6063,
      "llat": 6064,
      "brillat": 6065,
      "fibrillat": 6066,
      "dm1a9": 6067,
      "fibrillation": 6068,
      "ds42": 6069,
      "d2910": 6070,
      "462": 6071,
      "tamox": 6072,
      "di5042": 6073,
      "tamoxifen": 6074,
      "retin": 6075,
      "d56942": 6076,
      "dv1649": 6077,
      "3xa": 6078,
      "don": 6079,
      "dw19xxxd": 6080,
      "atra": 6081,
      "imipramine": 6082,
      "oic": 6083,
      "rom": 6084,
      "alan": 6085,
      "phalan": 6086,
      "melphalan": 6087,
      "dz8049": 6088,
      "transretin": 6089,
      "transretinoic": 6090,
      "d377": 6091,
      "dj101": 6092,
      "dd122": 6093,
      "da09": 6094,
      "di83": 6095,
      "d1966": 6096,
      "d3481": 6097,
      "mirapex": 6098,
      "505": 6099,
      "938": 6100,
      "d99649": 6101,
      "dj383": 6102,
      "dc8318": 6103,
      "4500": 6104,
      "530": 6105,
      "dm5136": 6106,
      "di7101": 6107,
      "dt878": 6108,
      "d28262": 6109,
      "da411": 6110,
      "dh0240": 6111,
      "dz7722": 6112,
      "100000": 6113,
      "d56962": 6114,
      "d43882": 6115,
      "dl539": 6116,
      "de0008": 6117,
      "d5710": 6118,
      "3900": 6119,
      "d6821": 6120,
      "d80701": 6121,
      "d1505": 6122,
      "468": 6123,
      "df13": 6124,
      "4200": 6125,
      "4x5a": 6126,
      "d756": 6127,
      "dd65": 6128,
      "tricor": 6129,
      "dv8525": 6130,
      "d60886": 6131,
      "dx58xxxd": 6132,
      "d78863": 6133,
      "d99593": 6134,
      "dk862": 6135,
      "senic": 6136,
      "d523": 6137,
      "arsenic": 6138,
      "trioxide": 6139,
      "d45376": 6140,
      "dl97929": 6141,
      "dm62838": 6142,
      "mepi": 6143,
      "d1622": 6144,
      "glimepi": 6145,
      "dc9150": 6146,
      "glimepiride": 6147,
      "dz8052": 6148,
      "dg9529": 6149,
      "dm254": 6150,
      "d1889": 6151,
      "di976": 6152,
      "3281": 6153,
      "dd6862": 6154,
      "d45351": 6155,
      "d56731": 6156,
      "dl97819": 6157,
      "de9378": 6158,
      "d29980": 6159,
      "d99889": 6160,
      "dk5792": 6161,
      "de9330": 6162,
      "dd732": 6163,
      "dn3281": 6164,
      "da408": 6165,
      "de887": 6166,
      "d42611": 6167,
      "d64303": 6168,
      "dv4511": 6169,
      "d25092": 6170,
      "da4152": 6171,
      "taxol": 6172,
      "d42090": 6173,
      "466": 6174,
      "7x5a": 6175,
      "dz538": 6176,
      "aden": 6177,
      "trace": 6178,
      "dg911": 6179,
      "dm898": 6180,
      "db0229": 6181,
      "adenosine": 6182,
      "d501": 6183,
      "ron": 6184,
      "d5259": 6185,
      "d4387": 6186,
      "di161": 6187,
      "d25042": 6188,
      "dr414": 6189,
      "d73008": 6190,
      "d20972": 6191,
      "d72": 6192,
      "d7908": 6193,
      "di2721": 6194,
      "d48283": 6195,
      "d73710": 6196,
      "d7464": 6197,
      "d307": 6198,
      "d78550": 6199,
      "ie": 6200,
      "dj151": 6201,
      "6281": 6202,
      "minoc": 6203,
      "minocycline": 6204,
      "d1969": 6205,
      "dk581": 6206,
      "d20380": 6207,
      "d20310": 6208,
      "dr571": 6209,
      "dz811": 6210,
      "d323": 6211,
      "d4251": 6212,
      "d0542": 6213,
      "di82612": 6214,
      "qvar": 6215,
      "d7336": 6216,
      "d4408": 6217,
      "dk63": 6218,
      "dj4520": 6219,
      "dm868x7": 6220,
      "cam": 6221,
      "dz9012": 6222,
      "560": 6223,
      "df5001": 6224,
      "d425": 6225,
      "d61610": 6226,
      "dm1a9xx0": 6227,
      "d4160": 6228,
      "493": 6229,
      "dn10": 6230,
      "d29411": 6231,
      "d56729": 6232,
      "dj8489": 6233,
      "dl298": 6234,
      "dy92002": 6235,
      "nib": 6236,
      "di724": 6237,
      "dg939": 6238,
      "di319": 6239,
      "d2894": 6240,
      "tlcl": 6241,
      "mis": 6242,
      "de063": 6243,
      "d3577": 6244,
      "dz8051": 6245,
      "dq6": 6246,
      "desitin": 6247,
      "ds828": 6248,
      "ostat": 6249,
      "dc84": 6250,
      "d1971": 6251,
      "de099": 6252,
      "elb": 6253,
      "d53240": 6254,
      "483": 6255,
      "d2381": 6256,
      "dr402": 6257,
      "dd591": 6258,
      "dr5381": 6259,
      "dz91138": 6260,
      "5181": 6261,
      "d73349": 6262,
      "dc642": 6263,
      "d58881": 6264,
      "7090": 6265,
      "d1968": 6266,
      "dv0261": 6267,
      "d28412": 6268,
      "dg40409": 6269,
      "lan": 6270,
      "dc9230": 6271,
      "dg90": 6272,
      "di82442": 6273,
      "d71105": 6274,
      "dz83": 6275,
      "dz85818": 6276,
      "dc779": 6277,
      "di82622": 6278,
      "dw109": 6279,
      "d20051": 6280,
      "dq0": 6281,
      "dl89151": 6282,
      "d73017": 6283,
      "di6340": 6284,
      "df1411": 6285,
      "dm4626": 6286,
      "d56881": 6287,
      "d7835": 6288,
      "dv550": 6289,
      "di422": 6290,
      "dk661": 6291,
      "dr6510": 6292,
      "d04184": 6293,
      "dk566": 6294,
      "d23879": 6295,
      "dv0981": 6296,
      "biotic": 6297,
      "dm940": 6298,
      "dk6389": 6299,
      "dl03114": 6300,
      "d07989": 6301,
      "oprostol": 6302,
      "misoprostol": 6303,
      "465": 6304,
      "di5181": 6305,
      "dz77090": 6306,
      "dj84116": 6307,
      "dt8183xa": 6308,
      "dl988": 6309,
      "dv141": 6310,
      "nase": 6311,
      "de8794": 6312,
      "dc187": 6313,
      "dd352": 6314,
      "port": 6315,
      "dv8545": 6316,
      "dm1712": 6317,
      "di82c11": 6318,
      "d1363": 6319,
      "dm8088": 6320,
      "dl259": 6321,
      "dm87": 6322,
      "zumab": 6323,
      "antr": 6324,
      "28a": 6325,
      "dz910": 6326,
      "dk551": 6327,
      "dv8524": 6328,
      "dd5700": 6329,
      "dv6549": 6330,
      "dv8381": 6331,
      "nexium": 6332,
      "478": 6333,
      "22a": 6334,
      "d7099": 6335,
      "dk254": 6336,
      "dk8510": 6337,
      "d30403": 6338,
      "polysaccharides": 6339,
      "d45350": 6340,
      "dz89612": 6341,
      "dl7634": 6342,
      "com": 6343,
      "dk659": 6344,
      "lla": 6345,
      "d71949": 6346,
      "de9420": 6347,
      "df1111": 6348,
      "d37854": 6349,
      "ele": 6350,
      "imatinib": 6351,
      "dm50": 6352,
      "dr441": 6353,
      "dm1611": 6354,
      "d1519": 6355,
      "d1103": 6356,
      "d07951": 6357,
      "itabine": 6358,
      "d2750": 6359,
      "gemc": 6360,
      "dy95": 6361,
      "gemcitabine": 6362,
      "d4232": 6363,
      "d72939": 6364,
      "d9331": 6365,
      "dz434": 6366,
      "dk56600": 6367,
      "d611": 6368,
      "dv5332": 6369,
      "d8082": 6370,
      "dg44209": 6371,
      "d56889": 6372,
      "dr3129": 6373,
      "df22": 6374,
      "dm866": 6375,
      "dt451x5d": 6376,
      "dk611": 6377,
      "itinib": 6378,
      "xib": 6379,
      "atan": 6380,
      "coxib": 6381,
      "di120": 6382,
      "dc189": 6383,
      "celecoxib": 6384,
      "dk4090": 6385,
      "dv5331": 6386,
      "d011": 6387,
      "metholone": 6388,
      "dornase": 6389,
      "d59689": 6390,
      "foam": 6391,
      "fluorometholone": 6392,
      "dl97829": 6393,
      "d53490": 6394,
      "816": 6395,
      "d49122": 6396,
      "d550": 6397,
      "pul": 6398,
      "1334": 6399,
      "d5798": 6400,
      "dv1002": 6401,
      "fluocinolone": 6402,
      "dc7949": 6403,
      "dk50012": 6404,
      "4400": 6405,
      "pca": 6406,
      "d70710": 6407,
      "di6521": 6408,
      "dv142": 6409,
      "dc251": 6410,
      "d282": 6411,
      "d73382": 6412,
      "d2822": 6413,
      "dt462": 6414,
      "dk565": 6415,
      "dd508": 6416,
      "d34541": 6417,
      "d60490": 6418,
      "dm6281": 6419,
      "d3530": 6420,
      "dh40": 6421,
      "dz792": 6422,
      "dv4361": 6423,
      "d4941": 6424,
      "d4471": 6425,
      "dz87311": 6426,
      "dn136": 6427,
      "d34591": 6428,
      "dt840": 6429,
      "dk5000": 6430,
      "ments": 6431,
      "dn529": 6432,
      "elements": 6433,
      "486": 6434,
      "dv4984": 6435,
      "d56985": 6436,
      "dk9412": 6437,
      "crom": 6438,
      "olyn": 6439,
      "dz8521": 6440,
      "d1101": 6441,
      "cromolyn": 6442,
      "mexi": 6443,
      "ropivacaine": 6444,
      "letine": 6445,
      "d7234": 6446,
      "dg40802": 6447,
      "d9100": 6448,
      "mexiletine": 6449,
      "610": 6450,
      "de95": 6451,
      "d3332": 6452,
      "dy92039": 6453,
      "485": 6454,
      "dk226": 6455,
      "df845": 6456,
      "ribavi": 6457,
      "ribavirin": 6458,
      "d38": 6459,
      "dc946": 6460,
      "dr330": 6461,
      "003": 6462,
      "dv4971": 6463,
      "rone": 6464,
      "de291": 6465,
      "d20600": 6466,
      "adv": 6467,
      "x2a": 6468,
      "pla": 6469,
      "dk913": 6470,
      "razinamide": 6471,
      "pyrazinamide": 6472,
      "dq796": 6473,
      "ds0990": 6474,
      "dt501x6a": 6475,
      "d99689": 6476,
      "dm25569": 6477,
      "dt461": 6478,
      "de1021": 6479,
      "dc641": 6480,
      "capone": 6481,
      "dz90722": 6482,
      "d2884": 6483,
      "dg8250": 6484,
      "dg919": 6485,
      "dc240": 6486,
      "de11610": 6487,
      "rup": 6488,
      "df29": 6489,
      "sterone": 6490,
      "51xa": 6491,
      "d19882": 6492,
      "syrup": 6493,
      "506": 6494,
      "d42613": 6495,
      "ry": 6496,
      "d34600": 6497,
      "dm1612": 6498,
      "travatan": 6499,
      "late": 6500,
      "sulfan": 6501,
      "dm75": 6502,
      "busulfan": 6503,
      "dv0179": 6504,
      "d73015": 6505,
      "d5730": 6506,
      "db449": 6507,
      "db9789": 6508,
      "de8888": 6509,
      "di69391": 6510,
      "xxxs": 6511,
      "lastine": 6512,
      "di748": 6513,
      "hyron": 6514,
      "liot": 6515,
      "d3501": 6516,
      "df4322": 6517,
      "hyronine": 6518,
      "liothyronine": 6519,
      "d5282": 6520,
      "3489": 6521,
      "d30924": 6522,
      "lock": 6523,
      "dr809": 6524,
      "dc3432": 6525,
      "dt8351xa": 6526,
      "ds0990xa": 6527,
      "dv8522": 6528,
      "495": 6529,
      "119xa": 6530,
      "dt8119xa": 6531,
      "dibu": 6532,
      "dq27": 6533,
      "dm5412": 6534,
      "dibucaine": 6535,
      "esterone": 6536,
      "felb": 6537,
      "d2751": 6538,
      "dt830": 6539,
      "di82411": 6540,
      "progesterone": 6541,
      "dz5331": 6542,
      "di700": 6543,
      "d25072": 6544,
      "din": 6545,
      "dt8453": 6546,
      "dk627": 6547,
      "dv7281": 6548,
      "dz370": 6549,
      "497": 6550,
      "df79": 6551,
      "dd708": 6552,
      "dl89153": 6553,
      "dc561": 6554,
      "7z": 6555,
      "das": 6556,
      "di6203": 6557,
      "dd47z": 6558,
      "d83": 6559,
      "58a": 6560,
      "dt435": 6561,
      "522": 6562,
      "dv26": 6563,
      "dj156": 6564,
      "dj939": 6565,
      "d20511": 6566,
      "d5679": 6567,
      "d3568": 6568,
      "xxd": 6569,
      "d37272": 6570,
      "820": 6571,
      "dd619": 6572,
      "d3575": 6573,
      "d53551": 6574,
      "inf": 6575,
      "dj860": 6576,
      "dz90411": 6577,
      "dw109xxa": 6578,
      "d81": 6579,
      "xostat": 6580,
      "dr12": 6581,
      "lyrica": 6582,
      "buxostat": 6583,
      "d5699": 6584,
      "di728": 6585,
      "febuxostat": 6586,
      "dk7210": 6587,
      "d4730": 6588,
      "dm86172": 6589,
      "dm79662": 6590,
      "miralax": 6591,
      "dr3915": 6592,
      "524": 6593,
      "enta": 6594,
      "d2559": 6595,
      "d3315": 6596,
      "di618": 6597,
      "865": 6598,
      "dv066": 6599,
      "dt380x5s": 6600,
      "4100": 6601,
      "enol": 6602,
      "d075": 6603,
      "oprostenol": 6604,
      "epoprostenol": 6605,
      "dr1319": 6606,
      "dc539": 6607,
      "sta": 6608,
      "d325": 6609,
      "dt393": 6610,
      "df1210": 6611,
      "dl97919": 6612,
      "dt367x5a": 6613,
      "d4786": 6614,
      "ze": 6615,
      "d78096": 6616,
      "dz85830": 6617,
      "d29212": 6618,
      "d91": 6619,
      "rig": 6620,
      "de9447": 6621,
      "819": 6622,
      "d2448": 6623,
      "dv18": 6624,
      "d6256": 6625,
      "dm179": 6626,
      "d1981": 6627,
      "dj9690": 6628,
      "d924": 6629,
      "dm351": 6630,
      "zy": 6631,
      "496": 6632,
      "de210": 6633,
      "dr270": 6634,
      "4700": 6635,
      "dj9692": 6636,
      "dm5489": 6637,
      "de13": 6638,
      "di421": 6639,
      "d5568": 6640,
      "entacapone": 6641,
      "dm13": 6642,
      "d1980": 6643,
      "d0388": 6644,
      "latex": 6645,
      "dasatinib": 6646,
      "484": 6647,
      "599": 6648,
      "propa": 6649,
      "df609": 6650,
      "d20071": 6651,
      "d823": 6652,
      "de739": 6653,
      "dc92z1": 6654,
      "idomide": 6655,
      "ds32": 6656,
      "brex": 6657,
      "dc23": 6658,
      "dt473": 6659,
      "dz8547": 6660,
      "de9390": 6661,
      "de8495": 6662,
      "513": 6663,
      "580": 6664,
      "dt82858a": 6665,
      "antibiotic": 6666,
      "dd45": 6667,
      "548": 6668,
      "d1571": 6669,
      "irrig": 6670,
      "de279": 6671,
      "d56982": 6672,
      "dd86": 6673,
      "dz6845": 6674,
      "dj15211": 6675,
      "d2452": 6676,
      "d5206": 6677,
      "dg600": 6678,
      "order": 6679,
      "477": 6680,
      "ds82": 6681,
      "dv1091": 6682,
      "d1105": 6683,
      "dh53461": 6684,
      "di820": 6685,
      "df4321": 6686,
      "dd7589": 6687,
      "525": 6688,
      "dg56": 6689,
      "d5950": 6690,
      "d1965": 6691,
      "ds36": 6692,
      "di778": 6693,
      "d78607": 6694,
      "dl022": 6695,
      "cri": 6696,
      "md": 6697,
      "dv553": 6698,
      "d78821": 6699,
      "d9349": 6700,
      "487": 6701,
      "514": 6702,
      "bunolol": 6703,
      "dz8661": 6704,
      "di638": 6705,
      "levobunolol": 6706,
      "d38910": 6707,
      "660": 6708,
      "anate": 6709,
      "11xa": 6710,
      "di314": 6711,
      "clavulanate": 6712,
      "d4785": 6713,
      "dv5419": 6714,
      "d9951": 6715,
      "di611": 6716,
      "dw228": 6717,
      "dg4440": 6718,
      "dk6812": 6719,
      "hfa": 6720,
      "d398": 6721,
      "d7103": 6722,
      "dr140": 6723,
      "dc7a8": 6724,
      "dv1044": 6725,
      "d39890": 6726,
      "fenone": 6727,
      "propafenone": 6728,
      "d53089": 6729,
      "d7801": 6730,
      "d45184": 6731,
      "d28249": 6732,
      "di6522": 6733,
      "870": 6734,
      "d33828": 6735,
      "dh8": 6736,
      "dk868": 6737,
      "exemes": 6738,
      "978": 6739,
      "df250": 6740,
      "dn50": 6741,
      "dj40": 6742,
      "dz89611": 6743,
      "dm47816": 6744,
      "exemestane": 6745,
      "d2273": 6746,
      "d30502": 6747,
      "dz96659": 6748,
      "dj9610": 6749,
      "d25003": 6750,
      "advair": 6751,
      "de1051": 6752,
      "dt462x5a": 6753,
      "640": 6754,
      "dv0991": 6755,
      "d5379": 6756,
      "dk9419": 6757,
      "dm8088xa": 6758,
      "de271": 6759,
      "704": 6760,
      "d6918": 6761,
      "d3017": 6762,
      "de9413": 6763,
      "dl7622": 6764,
      "ds2241": 6765,
      "di361": 6766,
      "vidipine": 6767,
      "dy92199": 6768,
      "clevidipine": 6769,
      "tamide": 6770,
      "dv7": 6771,
      "de230": 6772,
      "d7384": 6773,
      "494": 6774,
      "852": 6775,
      "8389": 6776,
      "dz95811": 6777,
      "dl570": 6778,
      "dc37": 6779,
      "692": 6780,
      "d53020": 6781,
      "d99709": 6782,
      "d56039": 6783,
      "desipramine": 6784,
      "a0": 6785,
      "dz141": 6786,
      "dk08": 6787,
      "d3009": 6788,
      "d55221": 6789,
      "d1562": 6790,
      "d4820": 6791,
      "d52460": 6792,
      "tarol": 6793,
      "dz818": 6794,
      "ceftarol": 6795,
      "butin": 6796,
      "rifabutin": 6797,
      "ceftaroline": 6798,
      "515": 6799,
      "pf": 6800,
      "liximab": 6801,
      "d7020": 6802,
      "cyt": 6803,
      "di708": 6804,
      "d9999": 6805,
      "fluphenazine": 6806,
      "d2270": 6807,
      "d7533": 6808,
      "dl304": 6809,
      "d7104": 6810,
      "d35989": 6811,
      "d5128": 6812,
      "d7818": 6813,
      "d20028": 6814,
      "d29572": 6815,
      "dy840": 6816,
      "523": 6817,
      "tb": 6818,
      "thane": 6819,
      "bethane": 6820,
      "dk740": 6821,
      "dv8521": 6822,
      "d4919": 6823,
      "dz96612": 6824,
      "dk2960": 6825,
      "d37941": 6826,
      "ds0083xa": 6827,
      "bethanechol": 6828,
      "d2971": 6829,
      "d5285": 6830,
      "dr260": 6831,
      "d1560": 6832,
      "dj9819": 6833,
      "dz89511": 6834,
      "dk8051": 6835,
      "bella": 6836,
      "d56738": 6837,
      "d12": 6838,
      "dv170": 6839,
      "d20312": 6840,
      "dr09": 6841,
      "d36816": 6842,
      "d72982": 6843,
      "dm5126": 6844,
      "dt8189xa": 6845,
      "dl02415": 6846,
      "dg253": 6847,
      "141xa": 6848,
      "db029": 6849,
      "phene": 6850,
      "dj320": 6851,
      "dz09": 6852,
      "de9361": 6853,
      "d60889": 6854,
      "dh04123": 6855,
      "de221": 6856,
      "d9962": 6857,
      "dc562": 6858,
      "dm47896": 6859,
      "de782": 6860,
      "d20030": 6861,
      "812a": 6862,
      "dn3941": 6863,
      "d99851": 6864,
      "irrigation": 6865,
      "di978": 6866,
      "d5225": 6867,
      "df10231": 6868,
      "di69322": 6869,
      "infliximab": 6870,
      "dz809": 6871,
      "594": 6872,
      "thio": 6873,
      "dc8590": 6874,
      "acalc": 6875,
      "ali": 6876,
      "dr262": 6877,
      "cinacalc": 6878,
      "dm21371": 6879,
      "dk0889": 6880,
      "cinacalcet": 6881,
      "di77": 6882,
      "diazep": 6883,
      "mitox": 6884,
      "d40291": 6885,
      "dt783": 6886,
      "chlordiazep": 6887,
      "d20218": 6888,
      "dj310": 6889,
      "dm79661": 6890,
      "di824z2": 6891,
      "combivir": 6892,
      "antrone": 6893,
      "mitoxantrone": 6894,
      "chlordiazepoxide": 6895,
      "kacin": 6896,
      "1108": 6897,
      "amikacin": 6898,
      "dy839": 6899,
      "dt85520": 6900,
      "dt85628a": 6901,
      "dl98499": 6902,
      "d80703": 6903,
      "dt85520a": 6904,
      "730": 6905,
      "d7030": 6906,
      "d38600": 6907,
      "ptine": 6908,
      "tril": 6909,
      "d41041": 6910,
      "xol": 6911,
      "ruxol": 6912,
      "d29562": 6913,
      "di82890": 6914,
      "dt8453xa": 6915,
      "lavin": 6916,
      "21a": 6917,
      "d5758": 6918,
      "oflavin": 6919,
      "dr0689": 6920,
      "d29530": 6921,
      "dl03313": 6922,
      "d20929": 6923,
      "riboflavin": 6924,
      "539": 6925,
      "lostim": 6926,
      "romip": 6927,
      "mocri": 6928,
      "bromocri": 6929,
      "d30561": 6930,
      "romiplostim": 6931,
      "bromocriptine": 6932,
      "dc7972": 6933,
      "d8120": 6934,
      "dq2733": 6935,
      "858": 6936,
      "dq87": 6937,
      "d85201": 6938,
      "celebrex": 6939,
      "d78003": 6940,
      "dd17": 6941,
      "d3410": 6942,
      "dz961": 6943,
      "dk8080": 6944,
      "om": 6945,
      "ras": 6946,
      "d516": 6947,
      "d7503": 6948,
      "dc8510": 6949,
      "d20284": 6950,
      "db488": 6951,
      "roxy": 6952,
      "d813": 6953,
      "medroxy": 6954,
      "718": 6955,
      "brin": 6956,
      "d5374": 6957,
      "d649": 6958,
      "91a": 6959,
      "dc182": 6960,
      "dz8781": 6961,
      "medroxyprogesterone": 6962,
      "lon": 6963,
      "dd751": 6964,
      "d36514": 6965,
      "d6191": 6966,
      "d78799": 6967,
      "di7092": 6968,
      "dz1611": 6969,
      "dl732": 6970,
      "ruxolitinib": 6971,
      "1410": 6972,
      "d8208": 6973,
      "d01190": 6974,
      "dt783xxa": 6975,
      "dr97": 6976,
      "dj188": 6977,
      "d56721": 6978,
      "dk8000": 6979,
      "d7270": 6980,
      "968": 6981,
      "dm878": 6982,
      "d78639": 6983,
      "ds065x9a": 6984,
      "fluno": 6985,
      "d4255": 6986,
      "dk228": 6987,
      "dg43109": 6988,
      "dc7961": 6989,
      "d42983": 6990,
      "ds7200": 6991,
      "519": 6992,
      "papain": 6993,
      "db00": 6994,
      "dk610": 6995,
      "dg6289": 6996,
      "dz431": 6997,
      "dn8": 6998,
      "dh53": 6999,
      "d1533": 7000,
      "flunomide": 7001,
      "ubi": 7002,
      "de232": 7003,
      "df509": 7004,
      "sacubi": 7005,
      "d1888": 7006,
      "dm19011": 7007,
      "de0009": 7008,
      "sacubitril": 7009,
      "517": 7010,
      "55a": 7011,
      "de8708": 7012,
      "di70235": 7013,
      "dh547": 7014,
      "dv0950": 7015,
      "gla": 7016,
      "mec": 7017,
      "dn25": 7018,
      "dr0982": 7019,
      "donna": 7020,
      "ds2241xa": 7021,
      "vigil": 7022,
      "d643": 7023,
      "d45372": 7024,
      "dj942": 7025,
      "d6084": 7026,
      "dk8591": 7027,
      "len": 7028,
      "d7831": 7029,
      "893": 7030,
      "ds81": 7031,
      "de038": 7032,
      "di672": 7033,
      "d4870": 7034,
      "dm70": 7035,
      "dg932": 7036,
      "d22804": 7037,
      "30mg": 7038,
      "d714": 7039,
      "amate": 7040,
      "dr0682": 7041,
      "d59381": 7042,
      "dw228xxa": 7043,
      "belladonna": 7044,
      "d2733": 7045,
      "dm40": 7046,
      "dv1202": 7047,
      "dk319": 7048,
      "dm25519": 7049,
      "flex": 7050,
      "dl97229": 7051,
      "zolo": 7052,
      "d4532": 7053,
      "dt823": 7054,
      "dg7001": 7055,
      "dk047": 7056,
      "d38010": 7057,
      "2250": 7058,
      "dv1241": 7059,
      "fenib": 7060,
      "d6039": 7061,
      "tolvap": 7062,
      "dv2651": 7063,
      "tolvaptan": 7064,
      "xolol": 7065,
      "letri": 7066,
      "d7419": 7067,
      "dr419": 7068,
      "dn321": 7069,
      "betaxolol": 7070,
      "veletri": 7071,
      "dm792": 7072,
      "can": 7073,
      "dic": 7074,
      "dz223": 7075,
      "965": 7076,
      "iver": 7077,
      "ds325": 7078,
      "de9307": 7079,
      "felbamate": 7080,
      "mectin": 7081,
      "ivermectin": 7082,
      "579": 7083,
      "d7845": 7084,
      "d78831": 7085,
      "d6110": 7086,
      "chlorpheniramine": 7087,
      "654": 7088,
      "d3489": 7089,
      "dc9210": 7090,
      "dt43595a": 7091,
      "dt473x6a": 7092,
      "538": 7093,
      "ellip": 7094,
      "dz9889": 7095,
      "d64891": 7096,
      "ellipta": 7097,
      "evis": 7098,
      "ria": 7099,
      "leflunomide": 7100,
      "provigil": 7101,
      "d30392": 7102,
      "evista": 7103,
      "526": 7104,
      "di76": 7105,
      "dj841": 7106,
      "clomethasone": 7107,
      "d20780": 7108,
      "beclomethasone": 7109,
      "d5854": 7110,
      "dl989": 7111,
      "d33385": 7112,
      "dg3183": 7113,
      "dd8689": 7114,
      "obid": 7115,
      "di43": 7116,
      "d66": 7117,
      "d6259": 7118,
      "dj93": 7119,
      "lithobid": 7120,
      "d9341": 7121,
      "d69010": 7122,
      "dm609": 7123,
      "apa": 7124,
      "d646": 7125,
      "516": 7126,
      "de90": 7127,
      "d4293": 7128,
      "naph": 7129,
      "db97": 7130,
      "dv1081": 7131,
      "de561": 7132,
      "dy92038": 7133,
      "d9694": 7134,
      "dk50913": 7135,
      "dc82": 7136,
      "dy92003": 7137,
      "dd510": 7138,
      "dz89411": 7139,
      "dt85848": 7140,
      "dt85848a": 7141,
      "d118": 7142,
      "d5691": 7143,
      "azoline": 7144,
      "naphazoline": 7145,
      "dipropionate": 7146,
      "dv8389": 7147,
      "dg409": 7148,
      "d30421": 7149,
      "ok": 7150,
      "aru": 7151,
      "idaru": 7152,
      "d747": 7153,
      "d27501": 7154,
      "d4536": 7155,
      "dd47z1": 7156,
      "lg": 7157,
      "vol": 7158,
      "dg901": 7159,
      "dm43": 7160,
      "dt8619": 7161,
      "dm349": 7162,
      "dt461x5a": 7163,
      "idarubicin": 7164,
      "d20203": 7165,
      "d73314": 7166,
      "dt82855a": 7167,
      "di82891": 7168,
      "dl88": 7169,
      "temo": 7170,
      "d51289": 7171,
      "d339": 7172,
      "dj158": 7173,
      "dy92410": 7174,
      "d51909": 7175,
      "temozolo": 7176,
      "inal": 7177,
      "dr0609": 7178,
      "dz992": 7179,
      "d20010": 7180,
      "d5602": 7181,
      "dk2950": 7182,
      "vaginal": 7183,
      "2220": 7184,
      "d4578": 7185,
      "d5581": 7186,
      "d5964": 7187,
      "dd89810": 7188,
      "dm19012": 7189,
      "537": 7190,
      "949": 7191,
      "d94": 7192,
      "ote": 7193,
      "q10": 7194,
      "dr238": 7195,
      "dg510": 7196,
      "d9950": 7197,
      "dh9193": 7198,
      "d3829": 7199,
      "d6869": 7200,
      "d73399": 7201,
      "d68111": 7202,
      "d3804": 7203,
      "dy92538": 7204,
      "temozolomide": 7205,
      "dz171": 7206,
      "d464": 7207,
      "dm2550": 7208,
      "net": 7209,
      "carnet": 7210,
      "thin": 7211,
      "dz881": 7212,
      "foscarnet": 7213,
      "di452": 7214,
      "dz9911": 7215,
      "d9650": 7216,
      "di701": 7217,
      "di82c12": 7218,
      "omni": 7219,
      "593": 7220,
      "853": 7221,
      "dm000": 7222,
      "travoprost": 7223,
      "dt383x6a": 7224,
      "dt175": 7225,
      "d00863": 7226,
      "dt4275": 7227,
      "d74190": 7228,
      "dt17590a": 7229,
      "dt4275xa": 7230,
      "531": 7231,
      "tidine": 7232,
      "que": 7233,
      "d654": 7234,
      "dh109": 7235,
      "d7248": 7236,
      "dc774": 7237,
      "df0281": 7238,
      "di82431": 7239,
      "azopt": 7240,
      "941": 7241,
      "df459": 7242,
      "dn280": 7243,
      "dy849": 7244,
      "dd682": 7245,
      "d7292": 7246,
      "d51902": 7247,
      "561": 7248,
      "dm600": 7249,
      "d5690": 7250,
      "dc781": 7251,
      "dc792": 7252,
      "ds0101": 7253,
      "finamide": 7254,
      "d3369": 7255,
      "rufinamide": 7256,
      "dh6": 7257,
      "d1540": 7258,
      "d29624": 7259,
      "di70245": 7260,
      "d73016": 7261,
      "df1911": 7262,
      "d24901": 7263,
      "pack": 7264,
      "di25810": 7265,
      "norethin": 7266,
      "680": 7267,
      "x2": 7268,
      "paque": 7269,
      "dz205": 7270,
      "dm32": 7271,
      "dd136": 7272,
      "dd123": 7273,
      "dz516": 7274,
      "dy718": 7275,
      "dn920": 7276,
      "omnipaque": 7277,
      "mesartan": 7278,
      "de663": 7279,
      "olmesartan": 7280,
      "dr278": 7281,
      "dd6869": 7282,
      "dt465": 7283,
      "d6271": 7284,
      "triazolam": 7285,
      "dt17": 7286,
      "d1986": 7287,
      "dk559": 7288,
      "dj9503": 7289,
      "di8250": 7290,
      "dl97219": 7291,
      "d2115": 7292,
      "d2558": 7293,
      "d20285": 7294,
      "d7051": 7295,
      "d04110": 7296,
      "d30751": 7297,
      "norethindrone": 7298,
      "532": 7299,
      "viok": 7300,
      "d1536": 7301,
      "dk819": 7302,
      "dr7309": 7303,
      "d595": 7304,
      "dr93": 7305,
      "di119": 7306,
      "dv653": 7307,
      "dn0": 7308,
      "d5735": 7309,
      "dc181": 7310,
      "d47831": 7311,
      "d45352": 7312,
      "dd180": 7313,
      "d27787": 7314,
      "d388": 7315,
      "db001": 7316,
      "d1982": 7317,
      "544": 7318,
      "dl032": 7319,
      "dr680": 7320,
      "dy738": 7321,
      "glass": 7322,
      "d38830": 7323,
      "d7280": 7324,
      "d1913": 7325,
      "d71598": 7326,
      "dt8141xa": 7327,
      "d28982": 7328,
      "dm5410": 7329,
      "vel": 7330,
      "de81": 7331,
      "dk92": 7332,
      "d4549": 7333,
      "propoxy": 7334,
      "dc8190": 7335,
      "dm5116": 7336,
      "dk2971": 7337,
      "d7944": 7338,
      "dm316": 7339,
      "dk9281": 7340,
      "propoxyphene": 7341,
      "536": 7342,
      "d5401": 7343,
      "d3968": 7344,
      "dr208": 7345,
      "648": 7346,
      "d97": 7347,
      "d5194": 7348,
      "d4257": 7349,
      "tromethamine": 7350,
      "dg40901": 7351,
      "d5968": 7352,
      "dm47812": 7353,
      "614": 7354,
      "d7220": 7355,
      "exa": 7356,
      "dd704": 7357,
      "dr2970": 7358,
      "d6954": 7359,
      "dd7582": 7360,
      "535": 7361,
      "d449": 7362,
      "d20278": 7363,
      "dz87310": 7364,
      "dl03032": 7365,
      "flucyt": 7366,
      "4001": 7367,
      "1509": 7368,
      "dc865": 7369,
      "dz1629": 7370,
      "dj95821": 7371,
      "df1421": 7372,
      "ethac": 7373,
      "570": 7374,
      "ctal": 7375,
      "990a": 7376,
      "d43819": 7377,
      "dq453": 7378,
      "lamictal": 7379,
      "d33720": 7380,
      "dt17990a": 7381,
      "d4169": 7382,
      "dj42": 7383,
      "dt500": 7384,
      "de8801": 7385,
      "dd761": 7386,
      "d6180": 7387,
      "di2584": 7388,
      "dt45525a": 7389,
      "dk8580": 7390,
      "loxacillin": 7391,
      "d51852": 7392,
      "dv029": 7393,
      "dicloxacillin": 7394,
      "545": 7395,
      "d80702": 7396,
      "dk5731": 7397,
      "4300": 7398,
      "dr190": 7399,
      "dn938": 7400,
      "984": 7401,
      "flucytosine": 7402,
      "d7871": 7403,
      "de9347": 7404,
      "56a": 7405,
      "dq282": 7406,
      "d73018": 7407,
      "dm4804": 7408,
      "dk828": 7409,
      "avu": 7410,
      "log": 7411,
      "isavu": 7412,
      "lenal": 7413,
      "azonium": 7414,
      "gesty": 7415,
      "dm00": 7416,
      "conazonium": 7417,
      "d34292": 7418,
      "di619": 7419,
      "pangesty": 7420,
      "dh04129": 7421,
      "isavuconazonium": 7422,
      "lenalidomide": 7423,
      "stck": 7424,
      "d058": 7425,
      "dr710": 7426,
      "dg621": 7427,
      "d0796": 7428,
      "d74781": 7429,
      "df952": 7430,
      "d42741": 7431,
      "d20080": 7432,
      "d29532": 7433,
      "dz1619": 7434,
      "de1135": 7435,
      "533": 7436,
      "nap": 7437,
      "nabu": 7438,
      "metone": 7439,
      "d2599": 7440,
      "ds000": 7441,
      "dc7962": 7442,
      "dj9612": 7443,
      "dc7971": 7444,
      "d47874": 7445,
      "ds2242xa": 7446,
      "de1310": 7447,
      "apap": 7448,
      "nabumetone": 7449,
      "bl": 7450,
      "ranexa": 7451,
      "dk435": 7452,
      "dr4022": 7453,
      "di898": 7454,
      "proben": 7455,
      "d73315": 7456,
      "ecid": 7457,
      "dc719": 7458,
      "dd550": 7459,
      "probenecid": 7460,
      "a2": 7461,
      "buvir": 7462,
      "dv4962": 7463,
      "d85220": 7464,
      "dr5382": 7465,
      "d8910": 7466,
      "581": 7467,
      "d138": 7468,
      "d78442": 7469,
      "dk289": 7470,
      "d1919": 7471,
      "de030": 7472,
      "pangestyme": 7473,
      "sof": 7474,
      "d5409": 7475,
      "osbuvir": 7476,
      "dn318": 7477,
      "d30011": 7478,
      "dk759": 7479,
      "sofosbuvir": 7480,
      "543": 7481,
      "d78492": 7482,
      "dg459": 7483,
      "d36210": 7484,
      "534": 7485,
      "d71531": 7486,
      "dt8454": 7487,
      "dy92008": 7488,
      "dt82856a": 7489,
      "8089": 7490,
      "d9916": 7491,
      "dr1030": 7492,
      "di63412": 7493,
      "d42518": 7494,
      "dg40919": 7495,
      "dt391": 7496,
      "ds14": 7497,
      "555": 7498,
      "combo": 7499,
      "darone": 7500,
      "d20198": 7501,
      "d78065": 7502,
      "dd120": 7503,
      "d5183": 7504,
      "d6825": 7505,
      "d9221": 7506,
      "d20921": 7507,
      "di82b12": 7508,
      "dm800": 7509,
      "dr0603": 7510,
      "d27802": 7511,
      "d34551": 7512,
      "d4610": 7513,
      "dh3561": 7514,
      "d05379": 7515,
      "d64823": 7516,
      "dr17": 7517,
      "benicar": 7518,
      "dronedarone": 7519,
      "20a": 7520,
      "2290": 7521,
      "df332": 7522,
      "citra": 7523,
      "92a": 7524,
      "dv1259": 7525,
      "de611": 7526,
      "d53641": 7527,
      "dm25559": 7528,
      "d75169": 7529,
      "575": 7530,
      "598a": 7531,
      "fomycin": 7532,
      "dc170": 7533,
      "throm": 7534,
      "fosfomycin": 7535,
      "istex": 7536,
      "blistex": 7537,
      "d5224": 7538,
      "db2700": 7539,
      "dl97329": 7540,
      "ds066x9a": 7541,
      "d61172": 7542,
      "4600": 7543,
      "dl509": 7544,
      "81xa": 7545,
      "df31": 7546,
      "df09": 7547,
      "d6952": 7548,
      "dd803": 7549,
      "dj84112": 7550,
      "dm26": 7551,
      "d6089": 7552,
      "dk8520": 7553,
      "d5290": 7554,
      "dg609": 7555,
      "dm65": 7556,
      "d34500": 7557,
      "dw1809": 7558,
      "d0318": 7559,
      "dz85028": 7560,
      "di70222": 7561,
      "d1398": 7562,
      "di82a12": 7563,
      "dw1809xa": 7564,
      "527": 7565,
      "dv145": 7566,
      "di70262": 7567,
      "dd7581": 7568,
      "d38870": 7569,
      "dd680": 7570,
      "dv1062": 7571,
      "dv6142": 7572,
      "d99933": 7573,
      "dh5500": 7574,
      "dc7b8": 7575,
      "dy90": 7576,
      "d1588": 7577,
      "d1715": 7578,
      "pali": 7579,
      "micort": 7580,
      "de83111": 7581,
      "d7931": 7582,
      "dz89432": 7583,
      "pulmicort": 7584,
      "546": 7585,
      "556": 7586,
      "dt464": 7587,
      "dk621": 7588,
      "dv652": 7589,
      "df0391": 7590,
      "dt85698a": 7591,
      "viokase": 7592,
      "thrombin": 7593,
      "589": 7594,
      "554": 7595,
      "d0310": 7596,
      "dm941": 7597,
      "lutamide": 7598,
      "d2112": 7599,
      "d789": 7600,
      "dh93": 7601,
      "d3689": 7602,
      "da0811": 7603,
      "d55329": 7604,
      "dt8781": 7605,
      "aton": 7606,
      "30a": 7607,
      "melaton": 7608,
      "da4102": 7609,
      "d8200": 7610,
      "dm48062": 7611,
      "dt504x5a": 7612,
      "ds0101xa": 7613,
      "ds0003xa": 7614,
      "melatonin": 7615,
      "dm899": 7616,
      "dc711": 7617,
      "d3480": 7618,
      "dc8319": 7619,
      "dm79671": 7620,
      "dm4624": 7621,
      "d64813": 7622,
      "di82a11": 7623,
      "d481": 7624,
      "d30591": 7625,
      "d1119": 7626,
      "bica": 7627,
      "vira": 7628,
      "dk112": 7629,
      "dr54": 7630,
      "dv5831": 7631,
      "dc155": 7632,
      "dk633": 7633,
      "dk56690": 7634,
      "552": 7635,
      "dt403": 7636,
      "d99830": 7637,
      "dc712": 7638,
      "d41512": 7639,
      "d3180": 7640,
      "dj209": 7641,
      "dt79": 7642,
      "d53082": 7643,
      "d68100": 7644,
      "d81200": 7645,
      "d44481": 7646,
      "d7222": 7647,
      "dg252": 7648,
      "d53011": 7649,
      "141a": 7650,
      "d8080": 7651,
      "d825": 7652,
      "d42682": 7653,
      "dj9383": 7654,
      "40240": 7655,
      "d446": 7656,
      "df40240": 7657,
      "dc252": 7658,
      "d0419": 7659,
      "db348": 7660,
      "dz96611": 7661,
      "dr5084": 7662,
      "dk430": 7663,
      "dt8454xa": 7664,
      "d20700": 7665,
      "811a": 7666,
      "de0965": 7667,
      "d53541": 7668,
      "dq059": 7669,
      "619": 7670,
      "intub": 7671,
      "d3159": 7672,
      "759": 7673,
      "dy0": 7674,
      "di615": 7675,
      "dw07": 7676,
      "d5960": 7677,
      "dc8310": 7678,
      "dt464x5a": 7679,
      "d1108": 7680,
      "d4380": 7681,
      "dt801": 7682,
      "d30021": 7683,
      "dh47": 7684,
      "di2690": 7685,
      "dz430": 7686,
      "dc3491": 7687,
      "lote": 7688,
      "moterol": 7689,
      "dg251": 7690,
      "844": 7691,
      "dv8544": 7692,
      "d34291": 7693,
      "dz85841": 7694,
      "df064": 7695,
      "d5961": 7696,
      "d8024": 7697,
      "dt85598a": 7698,
      "518a": 7699,
      "d27903": 7700,
      "dv425": 7701,
      "formoterol": 7702,
      "dz628": 7703,
      "d3393": 7704,
      "d6828": 7705,
      "d80502": 7706,
      "d8248": 7707,
      "di972": 7708,
      "pag": 7709,
      "dl821": 7710,
      "dm160": 7711,
      "142a": 7712,
      "149xa": 7713,
      "dt8149xa": 7714,
      "dm62830": 7715,
      "dl52": 7716,
      "di491": 7717,
      "di352": 7718,
      "d283": 7719,
      "dj80": 7720,
      "d78905": 7721,
      "dr312": 7722,
      "dc8299": 7723,
      "d8056": 7724,
      "547": 7725,
      "d7212": 7726,
      "dr221": 7727,
      "5400": 7728,
      "d466": 7729,
      "dk220": 7730,
      "8001": 7731,
      "d1729": 7732,
      "dy92099": 7733,
      "571": 7734,
      "midex": 7735,
      "di4901": 7736,
      "d04182": 7737,
      "arimidex": 7738,
      "d71699": 7739,
      "dt8586": 7740,
      "dz1622": 7741,
      "de1069": 7742,
      "acam": 7743,
      "mopla": 7744,
      "d363": 7745,
      "prosate": 7746,
      "dc0": 7747,
      "clomipramine": 7748,
      "dermopla": 7749,
      "d71430": 7750,
      "d59582": 7751,
      "acamprosate": 7752,
      "dermoplast": 7753,
      "553": 7754,
      "880": 7755,
      "kali": 7756,
      "prolide": 7757,
      "d57490": 7758,
      "d35781": 7759,
      "dv4973": 7760,
      "d1534": 7761,
      "d68601": 7762,
      "dt826": 7763,
      "eskali": 7764,
      "leuprolide": 7765,
      "d71101": 7766,
      "eskalith": 7767,
      "avap": 7768,
      "dt373": 7769,
      "d99639": 7770,
      "dc8529": 7771,
      "d32381": 7772,
      "dt465x5a": 7773,
      "avapro": 7774,
      "aug": 7775,
      "red": 7776,
      "d5100": 7777,
      "d7226": 7778,
      "dc381": 7779,
      "ethyl": 7780,
      "de784": 7781,
      "rivastigmine": 7782,
      "de956": 7783,
      "dr0981": 7784,
      "augment": 7785,
      "dl308": 7786,
      "dk13": 7787,
      "d5306": 7788,
      "d71589": 7789,
      "dm5440": 7790,
      "di2109": 7791,
      "dh53462": 7792,
      "d36840": 7793,
      "d293": 7794,
      "dk37": 7795,
      "valerate": 7796,
      "d9953": 7797,
      "666": 7798,
      "d29640": 7799,
      "di5189": 7800,
      "de9351": 7801,
      "benazep": 7802,
      "dh5441": 7803,
      "dh5462": 7804,
      "dt8789": 7805,
      "benazepril": 7806,
      "4800": 7807,
      "d366": 7808,
      "d7224": 7809,
      "d78094": 7810,
      "ds37": 7811,
      "d4422": 7812,
      "d41091": 7813,
      "dm6284": 7814,
      "di82b11": 7815,
      "dw07xxxa": 7816,
      "dt801xxa": 7817,
      "567": 7818,
      "ae": 7819,
      "mato": 7820,
      "bimato": 7821,
      "d7149": 7822,
      "dr440": 7823,
      "dg470": 7824,
      "dc55": 7825,
      "ticaria": 7826,
      "urticaria": 7827,
      "d71943": 7828,
      "dj386": 7829,
      "dt85898": 7830,
      "dv1509": 7831,
      "bimatoprost": 7832,
      "dg4709": 7833,
      "dt85898a": 7834,
      "yphenid": 7835,
      "di213": 7836,
      "dk95": 7837,
      "trihex": 7838,
      "d7089": 7839,
      "d30029": 7840,
      "da6000": 7841,
      "dl089": 7842,
      "d70706": 7843,
      "dc7911": 7844,
      "dl930": 7845,
      "d28260": 7846,
      "yphenidyl": 7847,
      "trihexyphenidyl": 7848,
      "dr222": 7849,
      "dj471": 7850,
      "d33811": 7851,
      "dc8298": 7852,
      "dt432": 7853,
      "d92400": 7854,
      "d27502": 7855,
      "d30471": 7856,
      "dy92231": 7857,
      "d71940": 7858,
      "df1510": 7859,
      "d46619": 7860,
      "db377": 7861,
      "dz510": 7862,
      "dg43809": 7863,
      "d1809": 7864,
      "nevira": 7865,
      "d738": 7866,
      "d2710": 7867,
      "methy": 7868,
      "ced": 7869,
      "dc81": 7870,
      "d75310": 7871,
      "paliperidone": 7872,
      "nevirapine": 7873,
      "dz0": 7874,
      "31a": 7875,
      "dm79606": 7876,
      "dm25571": 7877,
      "de8810": 7878,
      "de11628": 7879,
      "dg912": 7880,
      "ered": 7881,
      "tec": 7882,
      "29a": 7883,
      "rutinib": 7884,
      "dg360": 7885,
      "dg442": 7886,
      "d57510": 7887,
      "ffered": 7888,
      "buffered": 7889,
      "linze": 7890,
      "de9299": 7891,
      "d3536": 7892,
      "de9315": 7893,
      "d2651": 7894,
      "d5989": 7895,
      "di82413": 7896,
      "dj0410": 7897,
      "di824z1": 7898,
      "dt826xxa": 7899,
      "dg44229": 7900,
      "linzess": 7901,
      "dk120": 7902,
      "d4590": 7903,
      "d3542": 7904,
      "d3543": 7905,
      "inib": 7906,
      "dh0100": 7907,
      "dn736": 7908,
      "d9160": 7909,
      "galan": 7910,
      "86xxa": 7911,
      "dt886xxa": 7912,
      "azelastine": 7913,
      "dk8030": 7914,
      "dz89412": 7915,
      "d20979": 7916,
      "d44629": 7917,
      "dz8612": 7918,
      "di259": 7919,
      "dk519": 7920,
      "dd135": 7921,
      "557": 7922,
      "d3699": 7923,
      "dk9171": 7924,
      "d20048": 7925,
      "pyrimethamine": 7926,
      "dt8743": 7927,
      "dh02401": 7928,
      "569": 7929,
      "hep": 7930,
      "d5848": 7931,
      "dm60": 7932,
      "linide": 7933,
      "d1572": 7934,
      "d1624": 7935,
      "d99590": 7936,
      "d37851": 7937,
      "combigan": 7938,
      "brinzolamide": 7939,
      "galantamine": 7940,
      "598": 7941,
      "629": 7942,
      "d58089": 7943,
      "df602": 7944,
      "dj208": 7945,
      "df323": 7946,
      "d73311": 7947,
      "644": 7948,
      "di70202": 7949,
      "dd571": 7950,
      "623": 7951,
      "d812": 7952,
      "dk658": 7953,
      "de8502": 7954,
      "d5521": 7955,
      "d43311": 7956,
      "dz1639": 7957,
      "rynic": 7958,
      "ethacrynic": 7959,
      "dk9589": 7960,
      "dl120": 7961,
      "agil": 7962,
      "dz86000": 7963,
      "dz8669": 7964,
      "d56984": 7965,
      "d42841": 7966,
      "d71591": 7967,
      "d72403": 7968,
      "rasagil": 7969,
      "559": 7970,
      "563": 7971,
      "de00": 7972,
      "prohep": 7973,
      "d5754": 7974,
      "944": 7975,
      "dz8544": 7976,
      "cyprohep": 7977,
      "tocin": 7978,
      "d6983": 7979,
      "d29284": 7980,
      "oxytocin": 7981,
      "dc8591": 7982,
      "di70261": 7983,
      "d61801": 7984,
      "cyproheptadine": 7985,
      "585": 7986,
      "ara": 7987,
      "dz832": 7988,
      "dt378": 7989,
      "4280": 7990,
      "4803": 7991,
      "dj0190": 7992,
      "dc4922": 7993,
      "dt378x5a": 7994,
      "566": 7995,
      "inter": 7996,
      "dl500": 7997,
      "dm818": 7998,
      "di427": 7999,
      "ds300": 8000,
      "dh4": 8001,
      "dh000": 8002,
      "d5935": 8003,
      "dk8301": 8004,
      "loading": 8005,
      "d33912": 8006,
      "568": 8007,
      "fu": 8008,
      "ralox": 8009,
      "d52": 8010,
      "d3129": 8011,
      "dv1252": 8012,
      "dr4702": 8013,
      "d2862": 8014,
      "raloxifene": 8015,
      "uda": 8016,
      "d78939": 8017,
      "3989": 8018,
      "latuda": 8019,
      "d48284": 8020,
      "dt85528": 8021,
      "d75982": 8022,
      "d9348": 8023,
      "dv1508": 8024,
      "dt85528a": 8025,
      "551": 8026,
      "565": 8027,
      "d27901": 8028,
      "d40290": 8029,
      "52a": 8030,
      "de9318": 8031,
      "dh540": 8032,
      "dk5010": 8033,
      "dn760": 8034,
      "558": 8035,
      "622": 8036,
      "d4474": 8037,
      "d2690": 8038,
      "dv1652": 8039,
      "dv1389": 8040,
      "dt500x5a": 8041,
      "639": 8042,
      "dk35": 8043,
      "d6111": 8044,
      "d78050": 8045,
      "d3570": 8046,
      "de1110": 8047,
      "dz9013": 8048,
      "di2729": 8049,
      "ibrutinib": 8050,
      "d34989": 8051,
      "dm898x9": 8052,
      "jan": 8053,
      "bisoprolol": 8054,
      "dz89431": 8055,
      "d37950": 8056,
      "carbazine": 8057,
      "dc90": 8058,
      "d0383": 8059,
      "d945": 8060,
      "dj679": 8061,
      "d47830": 8062,
      "dm86171": 8063,
      "dh02402": 8064,
      "dt373x5a": 8065,
      "rasagiline": 8066,
      "562": 8067,
      "df70": 8068,
      "dn3000": 8069,
      "dg97": 8070,
      "dj392": 8071,
      "d017": 8072,
      "dh438": 8073,
      "dk316": 8074,
      "vision": 8075,
      "dc3402": 8076,
      "stri": 8077,
      "repag": 8078,
      "dk851": 8079,
      "d2511": 8080,
      "d44101": 8081,
      "d6945": 8082,
      "d56971": 8083,
      "dz86011": 8084,
      "di517": 8085,
      "d71230": 8086,
      "repaglinide": 8087,
      "710": 8088,
      "fem": 8089,
      "dv602": 8090,
      "d4258": 8091,
      "752": 8092,
      "dh60": 8093,
      "d1548": 8094,
      "dw108": 8095,
      "dl89159": 8096,
      "dh5442": 8097,
      "d37300": 8098,
      "quinidine": 8099,
      "ds066x0a": 8100,
      "ethylsuccinate": 8101,
      "d2900": 8102,
      "dr4189": 8103,
      "d4378": 8104,
      "dk50014": 8105,
      "d52340": 8106,
      "dv892": 8107,
      "51a": 8108,
      "dc228": 8109,
      "ds24": 8110,
      "dz882": 8111,
      "volu": 8112,
      "dq8": 8113,
      "232xa": 8114,
      "dr402362": 8115,
      "d96509": 8116,
      "bitartrate": 8117,
      "bild": 8118,
      "dn838": 8119,
      "d6850": 8120,
      "d3482": 8121,
      "dt428": 8122,
      "dx58xxxs": 8123,
      "dm4646": 8124,
      "dr4021": 8125,
      "di824z3": 8126,
      "stribild": 8127,
      "731": 8128,
      "dv5489": 8129,
      "dc180": 8130,
      "db44": 8131,
      "dd599": 8132,
      "dk436": 8133,
      "dj15212": 8134,
      "dt39395a": 8135,
      "dz22322": 8136,
      "ds300xxa": 8137,
      "bul": 8138,
      "d6181": 8139,
      "dv1069": 8140,
      "dc9111": 8141,
      "dh539": 8142,
      "dm879": 8143,
      "d64313": 8144,
      "588": 8145,
      "do26": 8146,
      "d2777": 8147,
      "d30420": 8148,
      "d20158": 8149,
      "d56961": 8150,
      "dz906": 8151,
      "rilpi": 8152,
      "dt82897": 8153,
      "dc8373": 8154,
      "dg720": 8155,
      "ds72142a": 8156,
      "582": 8157,
      "572": 8158,
      "626": 8159,
      "d53989": 8160,
      "d53021": 8161,
      "d53084": 8162,
      "de9298": 8163,
      "db351": 8164,
      "d52109": 8165,
      "564": 8166,
      "d20800": 8167,
      "db369": 8168,
      "db356": 8169,
      "d34570": 8170,
      "di827": 8171,
      "dl03221": 8172,
      "dg9589": 8173,
      "dk50914": 8174,
      "d78930": 8175,
      "aerogen": 8176,
      "rilpivirine": 8177,
      "yramide": 8178,
      "opyramide": 8179,
      "d237": 8180,
      "dk420": 8181,
      "disopyramide": 8182,
      "dz9010": 8183,
      "dj9589": 8184,
      "dg546": 8185,
      "di2119": 8186,
      "dinium": 8187,
      "596": 8188,
      "804": 8189,
      "3481": 8190,
      "dd860": 8191,
      "d33821": 8192,
      "d2890": 8193,
      "d2682": 8194,
      "de1139": 8195,
      "d2849": 8196,
      "dk909": 8197,
      "d2798": 8198,
      "69xa": 8199,
      "dt178": 8200,
      "dk5100": 8201,
      "d1520": 8202,
      "dv072": 8203,
      "d69282": 8204,
      "d20023": 8205,
      "dt412": 8206,
      "d59960": 8207,
      "go": 8208,
      "d7131": 8209,
      "dr160": 8210,
      "dn181": 8211,
      "dj181": 8212,
      "dj3489": 8213,
      "dz7951": 8214,
      "de0781": 8215,
      "d28951": 8216,
      "dw011": 8217,
      "exelon": 8218,
      "dg500": 8219,
      "d79093": 8220,
      "d99652": 8221,
      "di635": 8222,
      "dr443": 8223,
      "d59969": 8224,
      "dc8513": 8225,
      "d75312": 8226,
      "577": 8227,
      "ilus": 8228,
      "d226": 8229,
      "ophilus": 8230,
      "preservision": 8231,
      "d34489": 8232,
      "d82009": 8233,
      "1789": 8234,
      "6400": 8235,
      "de9179": 8236,
      "d0479": 8237,
      "d99687": 8238,
      "di776": 8239,
      "d44029": 8240,
      "d923": 8241,
      "dt82897a": 8242,
      "dt41295a": 8243,
      "fam": 8244,
      "kep": 8245,
      "zen": 8246,
      "1211": 8247,
      "rafenib": 8248,
      "d2808": 8249,
      "d2732": 8250,
      "d57491": 8251,
      "d99809": 8252,
      "dg8928": 8253,
      "dj0100": 8254,
      "dl03031": 8255,
      "dc50111": 8256,
      "574": 8257,
      "dv136": 8258,
      "d3898": 8259,
      "dc93": 8260,
      "dc253": 8261,
      "d56200": 8262,
      "dm25572": 8263,
      "d1716": 8264,
      "dl97319": 8265,
      "di97638": 8266,
      "keppra": 8267,
      "5250": 8268,
      "18a": 8269,
      "32a": 8270,
      "d30423": 8271,
      "dv4574": 8272,
      "di82441": 8273,
      "d47829": 8274,
      "dj95812": 8275,
      "dr9720": 8276,
      "methylene": 8277,
      "573": 8278,
      "d5839": 8279,
      "di6782": 8280,
      "dk668": 8281,
      "dh5702": 8282,
      "dd46c": 8283,
      "576": 8284,
      "uvi": 8285,
      "dz1509": 8286,
      "d34700": 8287,
      "d746": 8288,
      "d99631": 8289,
      "d1569": 8290,
      "d30540": 8291,
      "dt380x5d": 8292,
      "dy733": 8293,
      "d75683": 8294,
      "atment": 8295,
      "gamox": 8296,
      "vigamox": 8297,
      "dc218": 8298,
      "nsr": 8299,
      "treatment": 8300,
      "d41011": 8301,
      "dm5417": 8302,
      "d3940": 8303,
      "d73819": 8304,
      "dr220": 8305,
      "d2518": 8306,
      "serum": 8307,
      "d70901": 8308,
      "d1518": 8309,
      "dk700": 8310,
      "dd1803": 8311,
      "591": 8312,
      "tetrac": 8313,
      "dj13": 8314,
      "dm750": 8315,
      "dt859": 8316,
      "d99881": 8317,
      "dw1789": 8318,
      "dv6409": 8319,
      "d5851": 8320,
      "d9130": 8321,
      "dk8010": 8322,
      "d9093": 8323,
      "dz8379": 8324,
      "dk56699": 8325,
      "dm5030": 8326,
      "dh8109": 8327,
      "augmented": 8328,
      "tetracycline": 8329,
      "dt859xxa": 8330,
      "19a": 8331,
      "lipos": 8332,
      "866": 8333,
      "d56789": 8334,
      "d25090": 8335,
      "di6789": 8336,
      "d8404": 8337,
      "d42511": 8338,
      "d05881": 8339,
      "dt403x5a": 8340,
      "df9": 8341,
      "novol": 8342,
      "dr760": 8343,
      "db9629": 8344,
      "dc7a1": 8345,
      "dj9509": 8346,
      "d33399": 8347,
      "d55092": 8348,
      "novolin": 8349,
      "578": 8350,
      "inj": 8351,
      "atol": 8352,
      "dm3489": 8353,
      "dr599": 8354,
      "d1726": 8355,
      "ingococcal": 8356,
      "d39891": 8357,
      "meningococcal": 8358,
      "de8842": 8359,
      "ds72141a": 8360,
      "dr402142": 8361,
      "d81342": 8362,
      "613": 8363,
      "d78491": 8364,
      "dc40": 8365,
      "dc241": 8366,
      "d20150": 8367,
      "d20192": 8368,
      "d3574": 8369,
      "feron": 8370,
      "dv1651": 8371,
      "dr530": 8372,
      "de8849": 8373,
      "d8020": 8374,
      "dm7122": 8375,
      "d79439": 8376,
      "dy712": 8377,
      "dm25461": 8378,
      "d92410": 8379,
      "d04101": 8380,
      "d2781": 8381,
      "d99678": 8382,
      "5700": 8383,
      "d2863": 8384,
      "d64843": 8385,
      "dg834": 8386,
      "dm86672": 8387,
      "681": 8388,
      "tiro": 8389,
      "d2740": 8390,
      "dv5882": 8391,
      "82xa": 8392,
      "dj150": 8393,
      "84xa": 8394,
      "d45189": 8395,
      "da630": 8396,
      "dz86018": 8397,
      "dr3911": 8398,
      "d36813": 8399,
      "dh4010": 8400,
      "740": 8401,
      "trand": 8402,
      "10000": 8403,
      "olapril": 8404,
      "dr102": 8405,
      "dc154": 8406,
      "d7530": 8407,
      "dr6881": 8408,
      "dn5089": 8409,
      "volumen": 8410,
      "bulk": 8411,
      "trandolapril": 8412,
      "de60": 8413,
      "d3240": 8414,
      "d3361": 8415,
      "d4279": 8416,
      "dc8336": 8417,
      "d48282": 8418,
      "de10620": 8419,
      "d22809": 8420,
      "dc9030": 8421,
      "mt": 8422,
      "004": 8423,
      "d5198": 8424,
      "d7822": 8425,
      "d0463": 8426,
      "de0299": 8427,
      "dh57": 8428,
      "de9424": 8429,
      "dj470": 8430,
      "d72271": 8431,
      "df458": 8432,
      "cyclopen": 8433,
      "dl0211": 8434,
      "tolate": 8435,
      "dg540": 8436,
      "bicalutamide": 8437,
      "cyclopentolate": 8438,
      "595": 8439,
      "633": 8440,
      "1810": 8441,
      "d1589": 8442,
      "di2722": 8443,
      "db958": 8444,
      "dh5347": 8445,
      "d51631": 8446,
      "d7265": 8447,
      "864": 8448,
      "pep": 8449,
      "143xa": 8450,
      "dk5650": 8451,
      "d07051": 8452,
      "dt8143xa": 8453,
      "dk623": 8454,
      "dk2920": 8455,
      "dz91041": 8456,
      "7000": 8457,
      "d5277": 8458,
      "d53013": 8459,
      "dk55021": 8460,
      "d72705": 8461,
      "d2114": 8462,
      "d370": 8463,
      "dk121": 8464,
      "dv5881": 8465,
      "di082": 8466,
      "d5941": 8467,
      "df1920": 8468,
      "dw108xxa": 8469,
      "lotinib": 8470,
      "16a": 8471,
      "ett": 8472,
      "d57512": 8473,
      "dacarbazine": 8474,
      "d33119": 8475,
      "dv8401": 8476,
      "dk469": 8477,
      "d37921": 8478,
      "dt82330a": 8479,
      "dy908": 8480,
      "use": 8481,
      "1011": 8482,
      "micr": 8483,
      "stin": 8484,
      "d2550": 8485,
      "dd1809": 8486,
      "dm726": 8487,
      "587": 8488,
      "dd27": 8489,
      "d7061": 8490,
      "d3668": 8491,
      "dz8509": 8492,
      "d53520": 8493,
      "df4312": 8494,
      "d41513": 8495,
      "d59389": 8496,
      "di519": 8497,
      "dc495": 8498,
      "flo": 8499,
      "d27949": 8500,
      "prena": 8501,
      "d53012": 8502,
      "dv1529": 8503,
      "dz91410": 8504,
      "dm79a": 8505,
      "dj9620": 8506,
      "d1769": 8507,
      "d1504": 8508,
      "d36510": 8509,
      "dt8744": 8510,
      "dt383x5a": 8511,
      "di97618": 8512,
      "d28240": 8513,
      "de0010": 8514,
      "dn809": 8515,
      "dn178": 8516,
      "d1973": 8517,
      "dv053": 8518,
      "di7103": 8519,
      "dm79601": 8520,
      "de9460": 8521,
      "ds0240": 8522,
      "dd89812": 8523,
      "dv1859": 8524,
      "df3181": 8525,
      "5500": 8526,
      "5800": 8527,
      "nu": 8528,
      "d659": 8529,
      "597": 8530,
      "dr062": 8531,
      "dk9130": 8532,
      "dm25532": 8533,
      "bleomycin": 8534,
      "fiban": 8535,
      "de10610": 8536,
      "benzoyl": 8537,
      "de113599": 8538,
      "tirofiban": 8539,
      "rudin": 8540,
      "dn63": 8541,
      "dt78": 8542,
      "d78721": 8543,
      "de9391": 8544,
      "dv0251": 8545,
      "dd471": 8546,
      "dd561": 8547,
      "fosam": 8548,
      "dh5461": 8549,
      "584": 8550,
      "d7836": 8551,
      "d7010": 8552,
      "d7515": 8553,
      "brady": 8554,
      "dl02416": 8555,
      "6300": 8556,
      "d5181": 8557,
      "d757": 8558,
      "dn990": 8559,
      "propyl": 8560,
      "d73316": 8561,
      "aspa": 8562,
      "d6923": 8563,
      "dl738": 8564,
      "dm4628": 8565,
      "di69954": 8566,
      "d1500": 8567,
      "d2271": 8568,
      "dr232": 8569,
      "d2538": 8570,
      "d20213": 8571,
      "di6201": 8572,
      "di82220": 8573,
      "d23874": 8574,
      "dq909": 8575,
      "dr297": 8576,
      "dt50z": 8577,
      "di63411": 8578,
      "dh4010x0": 8579,
      "prenavir": 8580,
      "fosamprenavir": 8581,
      "649": 8582,
      "ent": 8583,
      "bicitra": 8584,
      "dg14": 8585,
      "d1918": 8586,
      "d99527": 8587,
      "ds0181": 8588,
      "dk9429": 8589,
      "df1590": 8590,
      "dz62810": 8591,
      "db4481": 8592,
      "de278": 8593,
      "rev": 8594,
      "actra": 8595,
      "d5600": 8596,
      "dv198": 8597,
      "d27700": 8598,
      "d683": 8599,
      "d30410": 8600,
      "34a": 8601,
      "130xa": 8602,
      "d99686": 8603,
      "mara": 8604,
      "d3330": 8605,
      "dt8130xa": 8606,
      "dc8198": 8607,
      "de8532": 8608,
      "dt8182xa": 8609,
      "menactra": 8610,
      "dm4712": 8611,
      "bradycardia": 8612,
      "d78842": 8613,
      "dm24": 8614,
      "d3698": 8615,
      "dd3502": 8616,
      "942": 8617,
      "umecli": 8618,
      "heart": 8619,
      "656": 8620,
      "d7093": 8621,
      "dz85810": 8622,
      "dt82838a": 8623,
      "de7401": 8624,
      "d9654": 8625,
      "dt85638a": 8626,
      "umeclidinium": 8627,
      "1440": 8628,
      "viroc": 8629,
      "dr351": 8630,
      "dc481": 8631,
      "de8493": 8632,
      "dj986": 8633,
      "dz85819": 8634,
      "d5933": 8635,
      "dy92031": 8636,
      "d22802": 8637,
      "maraviroc": 8638,
      "d9181": 8639,
      "d173": 8640,
      "dl709": 8641,
      "d5110": 8642,
      "dc62": 8643,
      "dt8609": 8644,
      "dv6285": 8645,
      "pancrease": 8646,
      "dn2581": 8647,
      "blastine": 8648,
      "pas": 8649,
      "sed": 8650,
      "dc163": 8651,
      "dm85": 8652,
      "d2638": 8653,
      "d28481": 8654,
      "db1921": 8655,
      "vinblastine": 8656,
      "d43884": 8657,
      "dk5710": 8658,
      "dh9192": 8659,
      "dw050": 8660,
      "dg908": 8661,
      "5100": 8662,
      "odol": 8663,
      "50a": 8664,
      "d6260": 8665,
      "dd6941": 8666,
      "dt82": 8667,
      "d20301": 8668,
      "di426": 8669,
      "dm79602": 8670,
      "d99779": 8671,
      "d4386": 8672,
      "d60789": 8673,
      "d4612": 8674,
      "dc649": 8675,
      "dj020": 8676,
      "d72292": 8677,
      "dc3401": 8678,
      "otecan": 8679,
      "dm6008": 8680,
      "624": 8681,
      "675": 8682,
      "metidine": 8683,
      "de74": 8684,
      "de969": 8685,
      "ledi": 8686,
      "dk811": 8687,
      "cimetidine": 8688,
      "dc412": 8689,
      "ds3": 8690,
      "ds60": 8691,
      "de049": 8692,
      "d5538": 8693,
      "dm4807": 8694,
      "d52462": 8695,
      "pasvir": 8696,
      "ledipasvir": 8697,
      "6500": 8698,
      "haler": 8699,
      "dl209": 8700,
      "lura": 8701,
      "di609": 8702,
      "4900": 8703,
      "dm009": 8704,
      "219a": 8705,
      "di70221": 8706,
      "dk8031": 8707,
      "dx959": 8708,
      "lurasidone": 8709,
      "636": 8710,
      "dr829": 8711,
      "d73341": 8712,
      "dr4024": 8713,
      "ilu": 8714,
      "d72211": 8715,
      "dg96": 8716,
      "failu": 8717,
      "dj09": 8718,
      "db91": 8719,
      "valtrex": 8720,
      "dv0262": 8721,
      "dm461": 8722,
      "d37924": 8723,
      "d1272": 8724,
      "dm40209": 8725,
      "dr402112": 8726,
      "failure": 8727,
      "586": 8728,
      "960": 8729,
      "d2182": 8730,
      "d335": 8731,
      "dk603": 8732,
      "966": 8733,
      "8889": 8734,
      "d2537": 8735,
      "d3319": 8736,
      "dr402252": 8737,
      "di82c22": 8738,
      "ds0181xa": 8739,
      "690": 8740,
      "dv861": 8741,
      "dn184": 8742,
      "dc802": 8743,
      "d30470": 8744,
      "di5084": 8745,
      "dd128": 8746,
      "d1552": 8747,
      "d1129": 8748,
      "dt486": 8749,
      "atripla": 8750,
      "dg3109": 8751,
      "de8843": 8752,
      "dl03211": 8753,
      "dw1789xa": 8754,
      "do9": 8755,
      "dv1242": 8756,
      "dz85831": 8757,
      "ds5250": 8758,
      "dk51011": 8759,
      "d2823": 8760,
      "ds0081xa": 8761,
      "d64683": 8762,
      "dz01810": 8763,
      "zosin": 8764,
      "alfu": 8765,
      "14a": 8766,
      "dc9001": 8767,
      "d20530": 8768,
      "db440": 8769,
      "d4519": 8770,
      "dc8598": 8771,
      "dt45516a": 8772,
      "d8600": 8773,
      "dc4921": 8774,
      "dg904": 8775,
      "dc9310": 8776,
      "alfuzosin": 8777,
      "645": 8778,
      "760": 8779,
      "gam": 8780,
      "40xa": 8781,
      "d2396": 8782,
      "dv9": 8783,
      "d78469": 8784,
      "d6144": 8785,
      "dt66": 8786,
      "dj4551": 8787,
      "dc8335": 8788,
      "d30522": 8789,
      "quinine": 8790,
      "ds2232xa": 8791,
      "d75612": 8792,
      "dm75102": 8793,
      "dl02214": 8794,
      "dm3214": 8795,
      "famciclovir": 8796,
      "revli": 8797,
      "di998": 8798,
      "d78838": 8799,
      "d27702": 8800,
      "dn508": 8801,
      "d7015": 8802,
      "d1619": 8803,
      "d9054": 8804,
      "dm1710": 8805,
      "ds2231": 8806,
      "d65103": 8807,
      "d46410": 8808,
      "615": 8809,
      "641": 8810,
      "940": 8811,
      "irin": 8812,
      "chal": 8813,
      "d220": 8814,
      "dj45998": 8815,
      "graded": 8816,
      "d1725": 8817,
      "d8130": 8818,
      "di70213": 8819,
      "dc8370": 8820,
      "dk8500": 8821,
      "d44329": 8822,
      "d72751": 8823,
      "lenge": 8824,
      "dt428x5a": 8825,
      "dv9103": 8826,
      "revlimid": 8827,
      "irinotecan": 8828,
      "challenge": 8829,
      "2c": 8830,
      "omal": 8831,
      "26mg": 8832,
      "db950": 8833,
      "d4530": 8834,
      "dl97521": 8835,
      "dk9422": 8836,
      "d72633": 8837,
      "d36230": 8838,
      "liposomal": 8839,
      "617": 8840,
      "paced": 8841,
      "istin": 8842,
      "copa": 8843,
      "24mg": 8844,
      "dg959": 8845,
      "colistin": 8846,
      "d70219": 8847,
      "de9354": 8848,
      "d4460": 8849,
      "d1640": 8850,
      "dj988": 8851,
      "d9089": 8852,
      "d73025": 8853,
      "dg910": 8854,
      "d44389": 8855,
      "ds724": 8856,
      "femara": 8857,
      "dw050xxa": 8858,
      "dr8299": 8859,
      "coq10": 8860,
      "dr358": 8861,
      "794": 8862,
      "emophilus": 8863,
      "de9503": 8864,
      "d25071": 8865,
      "haemophilus": 8866,
      "de9443": 8867,
      "di499": 8868,
      "d1503": 8869,
      "d38612": 8870,
      "di82511": 8871,
      "di77810": 8872,
      "dt17890a": 8873,
      "isopr": 8874,
      "carisopr": 8875,
      "d7861": 8876,
      "salt": 8877,
      "d7092": 8878,
      "de8120": 8879,
      "d5523": 8880,
      "dg610": 8881,
      "conjugate": 8882,
      "d32382": 8883,
      "carisoprodol": 8884,
      "lera": 8885,
      "di158": 8886,
      "d4149": 8887,
      "dr58": 8888,
      "df54": 8889,
      "enzy": 8890,
      "dg63": 8891,
      "dm250": 8892,
      "d08881": 8893,
      "dz751": 8894,
      "balsal": 8895,
      "d4918": 8896,
      "tenofov": 8897,
      "d5081": 8898,
      "d29592": 8899,
      "d1175": 8900,
      "do9989": 8901,
      "d29041": 8902,
      "dm84454": 8903,
      "d29900": 8904,
      "aclo": 8905,
      "8281": 8906,
      "694": 8907,
      "dt471": 8908,
      "dk562": 8909,
      "d81000": 8910,
      "dk8521": 8911,
      "dm4622": 8912,
      "dg060": 8913,
      "6200": 8914,
      "d7227": 8915,
      "methazol": 8916,
      "dg57": 8917,
      "df3289": 8918,
      "d45387": 8919,
      "d23872": 8920,
      "emtricit": 8921,
      "de10622": 8922,
      "d2443": 8923,
      "df5104": 8924,
      "dm8008xa": 8925,
      "methazolamide": 8926,
      "618": 8927,
      "sele": 8928,
      "teri": 8929,
      "d4131": 8930,
      "d3239": 8931,
      "993": 8932,
      "dn329": 8933,
      "d99601": 8934,
      "de079": 8935,
      "dt8142": 8936,
      "d1369": 8937,
      "dr6884": 8938,
      "ds3210": 8939,
      "dr402212": 8940,
      "635": 8941,
      "sorbi": 8942,
      "d4801": 8943,
      "ds90": 8944,
      "ds069": 8945,
      "d2699": 8946,
      "dc710": 8947,
      "d59659": 8948,
      "402a": 8949,
      "dt82857": 8950,
      "d34931": 8951,
      "di70209": 8952,
      "di82401": 8953,
      "sorbitol": 8954,
      "$$": 8955,
      "irudin": 8956,
      "trim": 8957,
      "bival": 8958,
      "dn951": 8959,
      "dg312": 8960,
      "8489": 8961,
      "d99676": 8962,
      "dj4550": 8963,
      "d41092": 8964,
      "velban": 8965,
      "dt8586xa": 8966,
      "bivalirudin": 8967,
      "gum": 8968,
      "de891": 8969,
      "ogel": 8970,
      "ano": 8971,
      "39a": 8972,
      "d9998": 8973,
      "d20191": 8974,
      "d5528": 8975,
      "dk7110": 8976,
      "dd731": 8977,
      "dr1010": 8978,
      "d9239": 8979,
      "dm79651": 8980,
      "de9600": 8981,
      "giline": 8982,
      "selegiline": 8983,
      "dt8142xa": 8984,
      "are": 8985,
      "za": 8986,
      "andr": 8987,
      "d78199": 8988,
      "df840": 8989,
      "d40599": 8990,
      "leve": 8991,
      "d30082": 8992,
      "de089": 8993,
      "de032": 8994,
      "dv1061": 8995,
      "sorafenib": 8996,
      "di774": 8997,
      "d43821": 8998,
      "dc7970": 8999,
      "dq600": 9000,
      "dy92012": 9001,
      "dt486x5a": 9002,
      "balsalazide": 9003,
      "dt82857a": 9004,
      "areds": 9005,
      "androgel": 9006,
      "5600": 9007,
      "izumab": 9008,
      "d2355": 9009,
      "df819": 9010,
      "db353": 9011,
      "dc884": 9012,
      "bictegra": 9013,
      "d7932": 9014,
      "dm5432": 9015,
      "dk91850": 9016,
      "dk91870": 9017,
      "d36315": 9018,
      "enzyme": 9019,
      "bictegrav": 9020,
      "670": 9021,
      "parat": 9022,
      "dr2": 9023,
      "dr52": 9024,
      "d20411": 9025,
      "dz8579": 9026,
      "d0382": 9027,
      "d46400": 9028,
      "dk50013": 9029,
      "di825z": 9030,
      "ds8012xa": 9031,
      "dq871": 9032,
      "de509": 9033,
      "de161": 9034,
      "d78340": 9035,
      "d2700": 9036,
      "d30789": 9037,
      "d04100": 9038,
      "dd594": 9039,
      "d5080": 9040,
      "dm79652": 9041,
      "ds720": 9042,
      "dk50912": 9043,
      "dt391x5a": 9044,
      "lotemax": 9045,
      "dx959xxs": 9046,
      "levemir": 9047,
      "di780": 9048,
      "d525": 9049,
      "29xa": 9050,
      "657": 9051,
      "d6970": 9052,
      "di745": 9053,
      "d20021": 9054,
      "dc8528": 9055,
      "d72871": 9056,
      "dz433": 9057,
      "dm96840": 9058,
      "eve": 9059,
      "dk51": 9060,
      "d62210": 9061,
      "d64803": 9062,
      "dn492": 9063,
      "d3064": 9064,
      "dt179": 9065,
      "d78066": 9066,
      "de9270": 9067,
      "dh05": 9068,
      "d71580": 9069,
      "d53250": 9070,
      "d1706": 9071,
      "dm4316": 9072,
      "everolimus": 9073,
      "dd2": 9074,
      "1089": 9075,
      "do990": 9076,
      "d7109": 9077,
      "dr233": 9078,
      "992": 9079,
      "d6851": 9080,
      "dv5399": 9081,
      "pres": 9082,
      "665": 9083,
      "d7011": 9084,
      "dv1203": 9085,
      "dz9862": 9086,
      "d28866": 9087,
      "di633": 9088,
      "dz90410": 9089,
      "dk9161": 9090,
      "dj328": 9091,
      "dt8643": 9092,
      "d4732": 9093,
      "dl598": 9094,
      "dm868x8": 9095,
      "631": 9096,
      "008": 9097,
      "de211": 9098,
      "d2861": 9099,
      "d2375": 9100,
      "d759": 9101,
      "dk2211": 9102,
      "d4570": 9103,
      "ds301": 9104,
      "dk5520": 9105,
      "df068": 9106,
      "d7936": 9107,
      "d6019": 9108,
      "de1039": 9109,
      "dt8383xa": 9110,
      "616": 9111,
      "cole": 9112,
      "d2939": 9113,
      "do0": 9114,
      "d3373": 9115,
      "dn135": 9116,
      "dt503": 9117,
      "de9346": 9118,
      "dc713": 9119,
      "d1760": 9120,
      "dc8522": 9121,
      "de113299": 9122,
      "d7483": 9123,
      "dk50813": 9124,
      "dc8290": 9125,
      "df4001": 9126,
      "708": 9127,
      "d45377": 9128,
      "bactrim": 9129,
      "48a": 9130,
      "huma": 9131,
      "dj9801": 9132,
      "d30523": 9133,
      "de9445": 9134,
      "dg3189": 9135,
      "dv892xxs": 9136,
      "sedated": 9137,
      "ds301xxa": 9138,
      "cape": 9139,
      "100ml": 9140,
      "d2330": 9141,
      "dk508": 9142,
      "dv556": 9143,
      "dd611": 9144,
      "d30491": 9145,
      "dc9232": 9146,
      "dv8409": 9147,
      "d23876": 9148,
      "di9751": 9149,
      "dg713": 9150,
      "capecitabine": 9151,
      "dk50814": 9152,
      "10a": 9153,
      "d4230": 9154,
      "d78071": 9155,
      "d79021": 9156,
      "d5562": 9157,
      "de83110": 9158,
      "d99663": 9159,
      "dk5641": 9160,
      "dt404x5a": 9161,
      "pletal": 9162,
      "dk3580": 9163,
      "d37034": 9164,
      "humalog": 9165,
      "1d": 9166,
      "dz47": 9167,
      "d4959": 9168,
      "d78603": 9169,
      "d20311": 9170,
      "d7018": 9171,
      "dapa": 9172,
      "ds83": 9173,
      "d2967": 9174,
      "d29574": 9175,
      "dk7589": 9176,
      "d4720": 9177,
      "d7580": 9178,
      "3492": 9179,
      "dv1504": 9180,
      "d81209": 9181,
      "dn823": 9182,
      "mb": 9183,
      "de340": 9184,
      "ridex": 9185,
      "cop": 9186,
      "871": 9187,
      "peridex": 9188,
      "dj1289": 9189,
      "dm245": 9190,
      "d20201": 9191,
      "dk520": 9192,
      "de8846": 9193,
      "d3518": 9194,
      "dr635": 9195,
      "dm7910": 9196,
      "d99799": 9197,
      "ds015": 9198,
      "d43320": 9199,
      "dn99820": 9200,
      "dn8320": 9201,
      "dc7b02": 9202,
      "790": 9203,
      "indapa": 9204,
      "dj701": 9205,
      "dc227": 9206,
      "d30759": 9207,
      "dt371": 9208,
      "de8147": 9209,
      "df1099": 9210,
      "d33372": 9211,
      "dz4801": 9212,
      "indapamide": 9213,
      "dk90": 9214,
      "dj390": 9215,
      "dc94": 9216,
      "dc3492": 9217,
      "dm159": 9218,
      "72xa": 9219,
      "655": 9220,
      "6700": 9221,
      "d29623": 9222,
      "dk626": 9223,
      "d20043": 9224,
      "dr4789": 9225,
      "di97190": 9226,
      "d74602": 9227,
      "di69951": 9228,
      "5200": 9229,
      "634": 9230,
      "d130": 9231,
      "rtec": 9232,
      "tive": 9233,
      "dr938": 9234,
      "dn433": 9235,
      "dd125": 9236,
      "de9398": 9237,
      "dh1": 9238,
      "d72973": 9239,
      "d44284": 9240,
      "dl0231": 9241,
      "d71650": 9242,
      "dm720": 9243,
      "dz1623": 9244,
      "dg9519": 9245,
      "dv1507": 9246,
      "zyrtec": 9247,
      "dn2589": 9248,
      "intubated": 9249,
      "anoro": 9250,
      "628": 9251,
      "gen": 9252,
      "di309": 9253,
      "mometa": 9254,
      "d7833": 9255,
      "dc321": 9256,
      "buto": 9257,
      "dk5130": 9258,
      "di7102": 9259,
      "d1723": 9260,
      "d92401": 9261,
      "d72709": 9262,
      "dk51911": 9263,
      "mometasone": 9264,
      "ber": 9265,
      "dz46": 9266,
      "vilan": 9267,
      "958": 9268,
      "pionate": 9269,
      "dg04": 9270,
      "dm659": 9271,
      "da600": 9272,
      "d49381": 9273,
      "cypionate": 9274,
      "d2693": 9275,
      "dc7902": 9276,
      "dd3a8": 9277,
      "dm79672": 9278,
      "d42652": 9279,
      "dt8172xa": 9280,
      "povi": 9281,
      "d42099": 9282,
      "ds3689": 9283,
      "ds81812a": 9284,
      "zenpep": 9285,
      "vilanterol": 9286,
      "d4409": 9287,
      "d4178": 9288,
      "d7891": 9289,
      "d6146": 9290,
      "dc258": 9291,
      "dc342": 9292,
      "103s": 9293,
      "tou": 9294,
      "dr631": 9295,
      "d23873": 9296,
      "dh5440": 9297,
      "dz91120": 9298,
      "thiouracil": 9299,
      "propylthiouracil": 9300,
      "ds2231xa": 9301,
      "824": 9302,
      "d959": 9303,
      "d414": 9304,
      "proair": 9305,
      "cefto": 9306,
      "lozane": 9307,
      "dz8241": 9308,
      "d80709": 9309,
      "d43490": 9310,
      "povidone": 9311,
      "ceftolozane": 9312,
      "dl890": 9313,
      "only": 9314,
      "do7": 9315,
      "dn64": 9316,
      "dc257": 9317,
      "d2860": 9318,
      "dc7901": 9319,
      "dl026": 9320,
      "januvi": 9321,
      "januvia": 9322,
      "5300": 9323,
      "683": 9324,
      "632": 9325,
      "up": 9326,
      "dz8489": 9327,
      "dc966": 9328,
      "trition": 9329,
      "d33812": 9330,
      "dd7389": 9331,
      "d30570": 9332,
      "d53500": 9333,
      "dm25531": 9334,
      "d7945": 9335,
      "dl97514": 9336,
      "d99665": 9337,
      "dn3010": 9338,
      "d82020": 9339,
      "dn83202": 9340,
      "d52310": 9341,
      "dq613": 9342,
      "nutrition": 9343,
      "dn946": 9344,
      "dz9282": 9345,
      "dk5521": 9346,
      "dh30": 9347,
      "d1512": 9348,
      "dv1001": 9349,
      "d5969": 9350,
      "dz1630": 9351,
      "dk045": 9352,
      "d75317": 9353,
      "riz": 9354,
      "d5951": 9355,
      "d4809": 9356,
      "d656": 9357,
      "dn839": 9358,
      "111xa": 9359,
      "d4289": 9360,
      "dt8111xa": 9361,
      "d1744": 9362,
      "dt363": 9363,
      "dc8580": 9364,
      "de8581": 9365,
      "dg9520": 9366,
      "dk50113": 9367,
      "de9689": 9368,
      "di9788": 9369,
      "d29389": 9370,
      "661": 9371,
      "725": 9372,
      "dl249": 9373,
      "coenzyme": 9374,
      "biot": 9375,
      "dk117": 9376,
      "873": 9377,
      "dn312": 9378,
      "8882": 9379,
      "di501": 9380,
      "ds4200": 9381,
      "de02": 9382,
      "di723": 9383,
      "dz9489": 9384,
      "dt8112xa": 9385,
      "dr946": 9386,
      "dm1120": 9387,
      "de7439": 9388,
      "copper": 9389,
      "646": 9390,
      "d2181": 9391,
      "d2442": 9392,
      "d5118": 9393,
      "tromb": 9394,
      "d755": 9395,
      "d27400": 9396,
      "dc73": 9397,
      "db169": 9398,
[...]
