{
  "version": "1.0",
  "truncation": null,
  "padding": null,
  "added_tokens": [
    {
      "id": 0,
      "content": "<s>",
      "single_word": false,
      "lstrip": false,
      "rstrip": false,
      "normalized": false,
      "special": true
    },
    {
      "id": 1,
      "content": "</s>",
      "single_word": false,
      "lstrip": false,
      "rstrip": false,
      "normalized": false,
      "special": true
    },
    {
      "id": 2,
      "content": "PAD",
      "single_word": false,
      "lstrip": false,
      "rstrip": false,
      "normalized": false,
      "special": true
    },
    {
      "id": 3,
      "content": "UNK",
      "single_word": false,
      "lstrip": false,
      "rstrip": false,
      "normalized": false,
      "special": true
    },
    {
      "id": 4,
      "content": "$",
      "single_word": false,
      "lstrip": false,
      "rstrip": false,
      "normalized": false,
      "special": true
    }
  ],
  "normalizer": {
    "type": "Sequence",
    "normalizers": [
      {
        "type": "Lowercase"
      }
    ]
  },
  "pre_tokenizer": {
    "type": "Sequence",
    "pretokenizers": [
      {
        "type": "Whitespace"
      },
      {
        "type": "Punctuation",
        "behavior": "Isolated"
      }
    ]
  },
  "post_processor": {
    "type": "BertProcessing",
    "sep": [
      "</s>",
      1
    ],
    "cls": [
      "<s>",
      0
    ]
  },
  "decoder": null,
  "model": {
    "type": "BPE",
    "dropout": null,
    "unk_token": "UNK",
    "continuing_subword_prefix": null,
    "end_of_word_suffix": null,
    "fuse_unk": false,
    "vocab": {
      "<s>": 0,
      "</s>": 1,
      "PAD": 2,
      "UNK": 3,
      "$": 4,
      "#": 5,
      "%": 6,
      "(": 7,
      ")": 8,
      "-": 9,
      ".": 10,
      "/": 11,
      "0": 12,
      "1": 13,
      "2": 14,
      "3": 15,
      "4": 16,
      "5": 17,
      "6": 18,
      "7": 19,
      "8": 20,
      "9": 21,
      ";": 22,
      "_": 23,
      "a": 24,
      "b": 25,
      "c": 26,
      "d": 27,
      "e": 28,
      "f": 29,
      "g": 30,
      "h": 31,
      "i": 32,
      "j": 33,
      "k": 34,
      "l": 35,
      "m": 36,
      "n": 37,
      "o": 38,
      "p": 39,
      "q": 40,
      "r": 41,
      "s": 42,
      "t": 43,
      "u": 44,
      "v": 45,
      "w": 46,
      "x": 47,
      "y": 48,
      "z": 49,
      "{": 50,
      "}": 51,
      "°": 52,
      "22": 53,
      "l22": 54,
      "v22": 55,
      "v220": 56,
      "10": 57,
      "um": 58,
      "er": 59,
      "m22": 60,
      "l220": 61,
      "56": 62,
      "13": 63,
      "v2200": 64,
      "74": 65,
      "dl": 66,
      "12": 67,
      "al": 68,
      "ser": 69,
      "serum": 70,
      "me": 71,
      "in": 72,
      "50": 73,
      "18": 74,
      "mg": 75,
      "l2256": 76,
      "v22004": 77,
      "l2274": 78,
      "meq": 79,
      "re": 80,
      "14": 81,
      "l2206": 82,
      "15": 83,
      "bp": 84,
      "co": 85,
      "59": 86,
      "11": 87,
      "at": 88,
      "98": 89,
      "lo": 90,
      "mm": 91,
      "ium": 92,
      "65": 93,
      "17": 94,
      "60": 95,
      "hg": 96,
      "mmhg": 97,
      "on": 98,
      "se": 99,
      "42": 100,
      "v22018": 101,
      "o22": 102,
      "25": 103,
      "ph": 104,
      "37": 105,
      "61": 106,
      "ss": 107,
      "70": 108,
      "bpm": 109,
      "ar": 110,
      "45": 111,
      "16": 112,
      "hr": 113,
      "un": 114,
      "he": 115,
      "di": 116,
      "de": 117,
      "ti": 118,
      "40": 119,
      "gh": 120,
      "19": 121,
      "24": 122,
      "30": 123,
      "ure": 124,
      "igh": 125,
      "130": 126,
      "od": 127,
      "it": 128,
      "75": 129,
      "dv": 130,
      "20": 131,
      "an": 132,
      "78": 133,
      "179": 134,
      "35": 135,
      "120": 136,
      "73": 137,
      "28": 138,
      "ol": 139,
      "ul": 140,
      "ion": 141,
      "90": 142,
      "ot": 143,
      "l2205": 144,
      "v220045": 145,
      "v2237": 146,
      "pho": 147,
      "27": 148,
      "97": 149,
      "v223761": 150,
      "ight": 151,
      "43": 152,
      "bin": 153,
      "hem": 154,
      "23": 155,
      "21": 156,
      "67": 157,
      "99": 158,
      "v220047": 159,
      "100": 160,
      "v220046": 161,
      "pre": 162,
      "68": 163,
      "ssure": 164,
      "pressure": 165,
      "dz": 166,
      "66": 167,
      "gl": 168,
      "29": 169,
      "o2265": 170,
      "uco": 171,
      "gluco": 172,
      "glucose": 173,
      "v220179": 174,
      "v220180": 175,
      "v220181": 176,
      "ml": 177,
      "eri": 178,
      "64": 179,
      "en": 180,
      "cal": 181,
      "m2259": 182,
      "calc": 183,
      "art": 184,
      "83": 185,
      "57": 186,
      "blo": 187,
      "blood": 188,
      "46": 189,
      "51": 190,
      "ou": 191,
      "erial": 192,
      "arterial": 193,
      "26": 194,
      "ous": 195,
      "77": 196,
      "alar": 197,
      "alarm": 198,
      "ine": 199,
      "wh": 200,
      "58": 201,
      "sec": 202,
      "93": 203,
      "coun": 204,
      "count": 205,
      "m225": 206,
      "l22022": 207,
      "te": 208,
      "80": 209,
      "ed": 210,
      "iu": 211,
      "o226559": 212,
      "ri": 213,
      "nbp": 214,
      "ate": 215,
      "phos": 216,
      "iz": 217,
      "ioniz": 218,
      "calcium": 219,
      "ionized": 220,
      "ck": 221,
      "52": 222,
      "38": 223,
      "ne": 224,
      "32": 225,
      "ole": 226,
      "96": 227,
      "02": 228,
      "d4": 229,
      "mi": 230,
      "39": 231,
      "ass": 232,
      "pot": 233,
      "assium": 234,
      "potassium": 235,
      "o226": 236,
      "eight": 237,
      "weight": 238,
      "81": 239,
      "87": 240,
      "89": 241,
      "00": 242,
      "og": 243,
      "ch": 244,
      "33": 245,
      "cr": 246,
      "bmi": 247,
      "sod": 248,
      "sodium": 249,
      "ocr": 250,
      "atocr": 251,
      "hematocr": 252,
      "hematocrit": 253,
      "lori": 254,
      "chlori": 255,
      "chloride": 256,
      "et": 257,
      "62": 258,
      "ff": 259,
      "eren": 260,
      "diff": 261,
      "tial": 262,
      "erential": 263,
      "differential": 264,
      "atin": 265,
      "ga": 266,
      "ag": 267,
      "d42": 268,
      "44": 269,
      "pl": 270,
      "l227442": 271,
      "l220645": 272,
      "l220602": 273,
      "l220615": 274,
      "l225624": 275,
      "cre": 276,
      "atinine": 277,
      "creatinine": 278,
      "l227443": 279,
      "l2270": 280,
      "l227073": 281,
      "bun": 282,
      "hco": 283,
      "hco3": 284,
      "l220621": 285,
      "anion": 286,
      "gap": 287,
      "l220545": 288,
      "l220228": 289,
      "m223": 290,
      "82": 291,
      "lobin": 292,
      "hemog": 293,
      "hemoglobin": 294,
      "l227457": 295,
      "l220546": 296,
      "bc": 297,
      "wbc": 298,
      "l220635": 299,
      "let": 300,
      "atelet": 301,
      "platelet": 302,
      "mag": 303,
      "sium": 304,
      "nesium": 305,
      "magnesium": 306,
      "m2275": 307,
      "34": 308,
      "rous": 309,
      "phorous": 310,
      "phosphorous": 311,
      "l225677": 312,
      "non": 313,
      "l225625": 314,
      "36": 315,
      "85": 316,
      "91": 317,
      "height": 318,
      "ite": 319,
      "white": 320,
      "co2": 321,
      "86": 322,
      "72": 323,
      "110": 324,
      "140": 325,
      "ature": 326,
      "71": 327,
      "d5": 328,
      "d27": 329,
      "88": 330,
      "31": 331,
      "d78": 332,
      "mp": 333,
      "temp": 334,
      "os": 335,
      "41": 336,
      "sti": 337,
      "stick": 338,
      "55": 339,
      "63": 340,
      "ran": 341,
      "erature": 342,
      "temperature": 343,
      "om": 344,
      "pr": 345,
      "o22656": 346,
      "79": 347,
      "dk": 348,
      "as": 349,
      "dr": 350,
      "69": 351,
      "84": 352,
      "low": 353,
      "high": 354,
      "ing": 355,
      "49": 356,
      "prot": 357,
      "l225664": 358,
      "48": 359,
      "time": 360,
      "ac": 361,
      "hrom": 362,
      "hrombin": 363,
      "prothrombin": 364,
      "inr": 365,
      "tt": 366,
      "m221": 367,
      "ptt": 368,
      "fing": 369,
      "ge": 370,
      "range": 371,
      "finger": 372,
      "l227465": 373,
      "l227467": 374,
      "166": 375,
      "l227466": 376,
      "101": 377,
      "103": 378,
      "o226560": 379,
      "95": 380,
      "v220052": 381,
      "v220051": 382,
      "v220050": 383,
      "168": 384,
      "d2": 385,
      "92": 386,
      "id": 387,
      "d40": 388,
      "nbpm": 389,
      "102": 390,
      "nbps": 391,
      "nbpd": 392,
      "76": 393,
      "258": 394,
      "m2283": 395,
      "m22515": 396,
      "53": 397,
      "o2": 398,
      "mmol": 399,
      "m223258": 400,
      "unit": 401,
      "units": 402,
      "m22174": 403,
      "m225166": 404,
      "104": 405,
      "94": 406,
      "ven": 407,
      "54": 408,
      "dj": 409,
      "m2220": 410,
      "venous": 411,
      "abp": 412,
      "fole": 413,
      "foley": 414,
      "105": 415,
      "whole": 416,
      "df": 417,
      "106": 418,
      "d28": 419,
      "m225975": 420,
      "109": 421,
      "d4019": 422,
      "1794": 423,
      "m221794": 424,
      "dd": 425,
      "dg": 426,
      "107": 427,
      "dz8": 428,
      "m222": 429,
      "m222168": 430,
      "d3": 431,
      "108": 432,
      "138": 433,
      "47": 434,
      "139": 435,
      "111": 436,
      "190": 437,
      "135": 438,
      "l2202": 439,
      "sol": 440,
      "137": 441,
      "m222011": 442,
      "dv58": 443,
      "119": 444,
      "112": 445,
      "ab": 446,
      "ute": 447,
      "solute": 448,
      "absolute": 449,
      "150": 450,
      "d7": 451,
      "136": 452,
      "ast": 453,
      "141": 454,
      "dn": 455,
      "tco2": 456,
      "m2218": 457,
      "li": 458,
      "d30": 459,
      "ase": 460,
      "142": 461,
      "m221744": 462,
      "l2265": 463,
      "m225942": 464,
      "m225152": 465,
      "dv15": 466,
      "262": 467,
      "dy": 468,
      "m228315": 469,
      "m227522": 470,
      "m2214": 471,
      "ur": 472,
      "ru": 473,
      "113": 474,
      "1906": 475,
      "m221906": 476,
      "d2724": 477,
      "acti": 478,
      "134": 479,
      "ili": 480,
      "dc": 481,
      "bili": 482,
      "rubin": 483,
      "bilirubin": 484,
      "l2293": 485,
      "115": 486,
      "114": 487,
      "07": 488,
      "m223262": 489,
      "121": 490,
      "acid": 491,
      "tot": 492,
      "total": 493,
      "d250": 494,
      "01": 495,
      "143": 496,
      "m227523": 497,
      "118": 498,
      "lacti": 499,
      "lactic": 500,
      "116": 501,
      "de8": 502,
      "alt": 503,
      "l225668": 504,
      "kal": 505,
      "alkal": 506,
      "phate": 507,
      "phosphate": 508,
      "alkaline": 509,
      "145": 510,
      "dm": 511,
      "125": 512,
      "di10": 513,
      "d530": 514,
      "3830": 515,
      "l223830": 516,
      "129": 517,
      "133": 518,
      "dh": 519,
      "de78": 520,
      "l220644": 521,
      "l225690": 522,
      "l220587": 523,
      "117": 524,
      "m225910": 525,
      "abpm": 526,
      "abpd": 527,
      "abps": 528,
      "base": 529,
      "ce": 530,
      "ex": 531,
      "cess": 532,
      "excess": 533,
      "144": 534,
      "l225612": 535,
      "ic": 536,
      "132": 537,
      "l225667": 538,
      "m221456": 539,
      "4828": 540,
      "l220224": 541,
      "l220235": 542,
      "l224828": 543,
      "l225698": 544,
      "d58": 545,
      "122": 546,
      "ut": 547,
      "131": 548,
      "dz9": 549,
      "m221833": 550,
      "d0": 551,
      "d4273": 552,
      "ly": 553,
      "128": 554,
      "de785": 555,
      "neut": 556,
      "can": 557,
      "123": 558,
      "bas": 559,
      "eos": 560,
      "mon": 561,
      "mph": 562,
      "lymph": 563,
      "neuts": 564,
      "basos": 565,
      "monos": 566,
      "lymphs": 567,
      "126": 568,
      "dz7": 569,
      "dz878": 570,
      "dt": 571,
      "m225907": 572,
      "124": 573,
      "st": 574,
      "127": 575,
      "d57": 576,
      "dz87891": 577,
      "dv45": 578,
      "d42731": 579,
      "de87": 580,
      "d53081": 581,
      "09": 582,
      "oid": 583,
      "void": 584,
      "di4": 585,
      "m2216": 586,
      "dv4": 587,
      "400": 588,
      "160": 589,
      "390": 590,
      "146": 591,
      "dv1582": 592,
      "di25": 593,
      "300": 594,
      "o2266": 595,
      "dy9": 596,
      "l2260": 597,
      "ack": 598,
      "219": 599,
      "m221749": 600,
      "147": 601,
      "200": 602,
      "d25000": 603,
      "935": 604,
      "m2232": 605,
      "m221668": 606,
      "o226588": 607,
      "d4280": 608,
      "db": 609,
      "pe": 610,
      "148": 611,
      "ldh": 612,
      "sat": 613,
      "ng": 614,
      "419": 615,
      "o22659": 616,
      "420": 617,
      "149": 618,
      "l220632": 619,
      "l22935": 620,
      "dk219": 621,
      "dz790": 622,
      "o2275": 623,
      "189": 624,
      "dv10": 625,
      "m223260": 626,
      "m2213": 627,
      "dv12": 628,
      "l225642": 629,
      "l225640": 630,
      "l225643": 631,
      "l225639": 632,
      "l225641": 633,
      "d780": 634,
      "m229": 635,
      "d24": 636,
      "d59": 637,
      "500": 638,
      "000": 639,
      "d73": 640,
      "d99": 641,
      "8640": 642,
      "ra": 643,
      "v228640": 644,
      "d56": 645,
      "l220274": 646,
      "am": 647,
      "urine": 648,
      "m225154": 649,
      "ity": 650,
      "tr": 651,
      "o227510": 652,
      "v2253": 653,
      "dz68": 654,
      "d518": 655,
      "ug": 656,
      "bl": 657,
      "l227464": 658,
      "d4140": 659,
      "152": 660,
      "d41401": 661,
      "m225974": 662,
      "ub": 663,
      "151": 664,
      "bum": 665,
      "album": 666,
      "albumin": 667,
      "yc": 668,
      "600": 669,
      "155": 670,
      "l226537": 671,
      "172": 672,
      "153": 673,
      "l227456": 674,
      "di50": 675,
      "di2510": 676,
      "154": 677,
      "dv5861": 678,
      "d45": 679,
      "tub": 680,
      "tube": 681,
      "black": 682,
      "d3051": 683,
      "d311": 684,
      "170": 685,
      "156": 686,
      "df3": 687,
      "rican": 688,
      "ds": 689,
      "d5849": 690,
      "d2859": 691,
      "679": 692,
      "d2449": 693,
      "pstick": 694,
      "dipstick": 695,
      "734": 696,
      "fic": 697,
      "ific": 698,
      "xa": 699,
      "l220734": 700,
      "vity": 701,
      "cific": 702,
      "gra": 703,
      "spe": 704,
      "gravity": 705,
      "specific": 706,
      "2315": 707,
      "l227471": 708,
      "m221385": 709,
      "ation": 710,
      "uration": 711,
      "saturation": 712,
      "m222315": 713,
      "ian": 714,
      "m228340": 715,
      "df419": 716,
      "df329": 717,
      "03": 718,
      "dg4": 719,
      "di489": 720,
      "161": 721,
      "m22583": 722,
      "d493": 723,
      "04": 724,
      "159": 725,
      "af": 726,
      "african": 727,
      "l220227": 728,
      "erican": 729,
      "american": 730,
      "che": 731,
      "chest": 732,
      "myc": 733,
      "de93": 734,
      "mycin": 735,
      "157": 736,
      "158": 737,
      "dv46": 738,
      "d70": 739,
      "d29": 740,
      "309": 741,
      "181": 742,
      "dv43": 743,
      "198": 744,
      "dy922": 745,
      "dj9": 746,
      "de878": 747,
      "d20": 748,
      "br": 749,
      "van": 750,
      "comycin": 751,
      "vancomycin": 752,
      "2723": 753,
      "m2296": 754,
      "d278": 755,
      "d32723": 756,
      "3679": 757,
      "l223679": 758,
      "749": 759,
      "l226062": 760,
      "l226063": 761,
      "163": 762,
      "asian": 763,
      "m229420": 764,
      "o226599": 765,
      "700": 766,
      "d496": 767,
      "162": 768,
      "d04": 769,
      "dz7901": 770,
      "5a": 771,
      "d9": 772,
      "180": 773,
      "de0": 774,
      "d428": 775,
      "fi": 776,
      "inog": 777,
      "brinog": 778,
      "fibrinog": 779,
      "fibrinogen": 780,
      "986": 781,
      "d790": 782,
      "165": 783,
      "m221828": 784,
      "dv8": 785,
      "05": 786,
      "l227468": 787,
      "183": 788,
      "d72": 789,
      "800": 790,
      "dn179": 791,
      "dd6": 792,
      "x5a": 793,
      "06": 794,
      "de83": 795,
      "649": 796,
      "l229359": 797,
      "l229360": 798,
      "l229361": 799,
      "l229357": 800,
      "l229358": 801,
      "di4891": 802,
      "669": 803,
      "d19": 804,
      "dom": 805,
      "v223762": 806,
      "dv5866": 807,
      "d34": 808,
      "173": 809,
      "350": 810,
      "182": 811,
      "m228316": 812,
      "d2765": 813,
      "mb": 814,
      "250": 815,
      "167": 816,
      "l227429": 817,
      "733": 818,
      "or": 819,
      "dz79": 820,
      "d43": 821,
      "dv462": 822,
      "d4283": 823,
      "ual": 824,
      "d2720": 825,
      "650": 826,
      "her": 827,
      "other": 828,
      "d40390": 829,
      "450": 830,
      "d486": 831,
      "174": 832,
      "175": 833,
      "d5990": 834,
      "l226540": 835,
      "m2290": 836,
      "res": 837,
      "m222056": 838,
      "tf": 839,
      "idual": 840,
      "residual": 841,
      "pon": 842,
      "opon": 843,
      "ric": 844,
      "l226534": 845,
      "tropon": 846,
      "troponin": 847,
      "164": 848,
      "dt8": 849,
      "5309": 850,
      "de039": 851,
      "d73300": 852,
      "dz867": 853,
      "l225634": 854,
      "dj4": 855,
      "l227445": 856,
      "v225312": 857,
      "701": 858,
      "etco2": 859,
      "xed": 860,
      "dv103": 861,
      "mixed": 862,
      "d2761": 863,
      "d30000": 864,
      "v225309": 865,
      "v225310": 866,
      "dg4733": 867,
      "184": 868,
      "185": 869,
      "169": 870,
      "son": 871,
      "is": 872,
      "220": 873,
      "de119": 874,
      "dd649": 875,
      "d60": 876,
      "jack": 877,
      "att": 878,
      "pratt": 879,
      "jackson": 880,
      "601": 881,
      "de84": 882,
      "902": 883,
      "dk7": 884,
      "dv5867": 885,
      "dr0": 886,
      "dy83": 887,
      "cp": 888,
      "dv153": 889,
      "cpk": 890,
      "d2749": 891,
      "178": 892,
      "08": 893,
      "dz794": 894,
      "de871": 895,
      "171": 896,
      "dz7902": 897,
      "da": 898,
      "d787": 899,
      "900": 900,
      "1400": 901,
      "olic": 902,
      "m221986": 903,
      "d338": 904,
      "d49390": 905,
      "di6": 906,
      "789": 907,
      "d4241": 908,
      "d49": 909,
      "d070": 910,
      "d5859": 911,
      "d79": 912,
      "dy929": 913,
      "dj44": 914,
      "df172": 915,
      "d412": 916,
      "db9": 917,
      "m227525": 918,
      "1289": 919,
      "dn390": 920,
      "689": 921,
      "ough": 922,
      "trough": 923,
      "590": 924,
      "o226561": 925,
      "188": 926,
      "6329": 927,
      "eur": 928,
      "v226329": 929,
      "o226627": 930,
      "d998": 931,
      "df17210": 932,
      "l225638": 933,
      "dv4582": 934,
      "di9": 935,
      "m225834": 936,
      "176": 937,
      "de669": 938,
      "dz86": 939,
      "d440": 940,
      "781": 941,
      "5909": 942,
      "210": 943,
      "l226536": 944,
      "cy": 945,
      "gran": 946,
      "ulo": 947,
      "cyte": 948,
      "granulo": 949,
      "granulocyte": 950,
      "l225637": 951,
      "177": 952,
      "osm": 953,
      "d36": 954,
      "di7": 955,
      "l227455": 956,
      "981": 957,
      "d4168": 958,
      "ban": 959,
      "bands": 960,
      "m221289": 961,
      "d198": 962,
      "197": 963,
      "dv4581": 964,
      "his": 965,
      "latin": 966,
      "pan": 967,
      "5150": 968,
      "hispan": 969,
      "latino": 970,
      "hispanic": 971,
      "d715": 972,
      "550": 973,
      "m225150": 974,
      "201": 975,
      "m227536": 976,
      "d16": 977,
      "d27651": 978,
      "d35": 979,
      "de88": 980,
      "ps": 981,
      "yps": 982,
      "atyps": 983,
      "dc78": 984,
      "o226575": 985,
      "l229356": 986,
      "860": 987,
      "d33829": 988,
      "451": 989,
      "imm": 990,
      "d707": 991,
      "granulocytes": 992,
      "immature": 993,
      "d5119": 994,
      "280": 995,
      "931": 996,
      "221": 997,
      "dj96": 998,
      "dc7": 999,
      "501": 1000,
      "d60000": 1001,
      "509": 1002,
      "de11": 1003,
      "dj45909": 1004,
      "di8": 1005,
      "409": 1006,
      "d27800": 1007,
      "682": 1008,
      "dv1251": 1009,
      "186": 1010,
      "l225674": 1011,
      "df10": 1012,
      "di110": 1013,
      "194": 1014,
      "d44": 1015,
      "191": 1016,
      "dz5": 1017,
      "d51881": 1018,
      "dd62": 1019,
      "187": 1020,
      "m229630": 1021,
      "193": 1022,
      "pase": 1023,
      "lipase": 1024,
      "d2762": 1025,
      "d78791": 1026,
      "o22660": 1027,
      "de9331": 1028,
      "d41400": 1029,
      "d788": 1030,
      "de8339": 1031,
      "m225153": 1032,
      "195": 1033,
      "kn": 1034,
      "ow": 1035,
      "unkn": 1036,
      "own": 1037,
      "unknown": 1038,
      "d2851": 1039,
      "dz85": 1040,
      "m221468": 1041,
      "dv440": 1042,
      "dv85": 1043,
      "o226576": 1044,
      "dg89": 1045,
      "439": 1046,
      "dv4364": 1047,
      "249": 1048,
      "dy92239": 1049,
      "xxa": 1050,
      "random": 1051,
      "739": 1052,
      "569": 1053,
      "707": 1054,
      "989": 1055,
      "dg93": 1056,
      "dv5865": 1057,
      "m228339": 1058,
      "o226567": 1059,
      "dk3": 1060,
      "222": 1061,
      "d285": 1062,
      "dv0": 1063,
      "dj449": 1064,
      "dz5111": 1065,
      "d25": 1066,
      "dr4": 1067,
      "di3": 1068,
      "d42832": 1069,
      "d275": 1070,
      "de9": 1071,
      "dr3": 1072,
      "dm8": 1073,
      "d4240": 1074,
      "dv707": 1075,
      "dn400": 1076,
      "192": 1077,
      "de872": 1078,
      "dy92230": 1079,
      "dj9601": 1080,
      "m227526": 1081,
      "d2768": 1082,
      "dz8673": 1083,
      "321": 1084,
      "202": 1085,
      "1000": 1086,
      "211": 1087,
      "l225672": 1088,
      "lase": 1089,
      "ylase": 1090,
      "dv6": 1091,
      "amylase": 1092,
      "728": 1093,
      "d27801": 1094,
      "dk74": 1095,
      "m222042": 1096,
      "m225833": 1097,
      "214": 1098,
      "dv1046": 1099,
      "209": 1100,
      "272": 1101,
      "m227529": 1102,
      "dz86718": 1103,
      "441": 1104,
      "di252": 1105,
      "dk70": 1106,
      "dk766": 1107,
      "m2258": 1108,
      "8510": 1109,
      "m225835": 1110,
      "659": 1111,
      "cat": 1112,
      "cath": 1113,
      "370": 1114,
      "d33": 1115,
      "982": 1116,
      "out": 1117,
      "ope": 1118,
      "europe": 1119,
      "european": 1120,
      "741": 1121,
      "d28860": 1122,
      "380": 1123,
      "diast": 1124,
      "dg8929": 1125,
      "dd68": 1126,
      "l227454": 1127,
      "199": 1128,
      "d68": 1129,
      "de8798": 1130,
      "dv433": 1131,
      "dd728": 1132,
      "d42789": 1133,
      "740": 1134,
      "do": 1135,
      "d2875": 1136,
      "208": 1137,
      "238": 1138,
      "240": 1139,
      "d56400": 1140,
      "205": 1141,
      "d49121": 1142,
      "215": 1143,
      "dj189": 1144,
      "239": 1145,
      "1555": 1146,
      "230": 1147,
      "270": 1148,
      "dv1011": 1149,
      "d733": 1150,
      "225": 1151,
      "o226600": 1152,
      "959": 1153,
      "dm109": 1154,
      "dt451": 1155,
      "dv8741": 1156,
      "909": 1157,
      "dz858": 1158,
      "di480": 1159,
      "dk9": 1160,
      "m221347": 1161,
      "de10": 1162,
      "de870": 1163,
      "m225911": 1164,
      "o226589": 1165,
      "dv1254": 1166,
      "de8342": 1167,
      "dk59": 1168,
      "d79902": 1169,
      "212": 1170,
      "d9959": 1171,
      "dr13": 1172,
      "l220581": 1173,
      "dg8": 1174,
      "m221555": 1175,
      "d2767": 1176,
      "750": 1177,
      "310": 1178,
      "d5715": 1179,
      "850": 1180,
      "to": 1181,
      "196": 1182,
      "o226579": 1183,
      "284": 1184,
      "213": 1185,
      "dw": 1186,
      "231": 1187,
      "di129": 1188,
      "233": 1189,
      "203": 1190,
      "dv5811": 1191,
      "229": 1192,
      "dz781": 1193,
      "m221824": 1194,
      "d42822": 1195,
      "680": 1196,
      "dg6": 1197,
      "204": 1198,
      "d51889": 1199,
      "m225155": 1200,
      "971": 1201,
      "d26": 1202,
      "mean": 1203,
      "d15": 1204,
      "d4254": 1205,
      "tri": 1206,
      "glyc": 1207,
      "eride": 1208,
      "triglyc": 1209,
      "triglyceride": 1210,
      "ct": 1211,
      "sy": 1212,
      "stolic": 1213,
      "dg4700": 1214,
      "systolic": 1215,
      "559": 1216,
      "diastolic": 1217,
      "260": 1218,
      "cco": 1219,
      "295": 1220,
      "008": 1221,
      "rect": 1222,
      "de861": 1223,
      "d69": 1224,
      "dz9981": 1225,
      "dy838": 1226,
      "224": 1227,
      "dd72829": 1228,
      "o226626": 1229,
      "di8510": 1230,
      "dg92": 1231,
      "o226580": 1232,
      "d78650": 1233,
      "d78061": 1234,
      "m229072": 1235,
      "d42833": 1236,
      "de43": 1237,
      "320": 1238,
      "dk5900": 1239,
      "df0": 1240,
      "001": 1241,
      "d438": 1242,
      "dz86711": 1243,
      "dq": 1244,
      "206": 1245,
      "d78701": 1246,
      "de8497": 1247,
      "830": 1248,
      "d28529": 1249,
      "dv100": 1250,
      "dz7682": 1251,
      "l225693": 1252,
      "dm810": 1253,
      "d78959": 1254,
      "dz955": 1255,
      "235": 1256,
      "gast": 1257,
      "dt451x5a": 1258,
      "gastric": 1259,
      "d78659": 1260,
      "9999": 1261,
      "dn189": 1262,
      "207": 1263,
      "d038": 1264,
      "d78321": 1265,
      "dd696": 1266,
      "dz951": 1267,
      "829": 1268,
      "inese": 1269,
      "chinese": 1270,
      "dj98": 1271,
      "654": 1272,
      "l225684": 1273,
      "dr65": 1274,
      "242": 1275,
      "641": 1276,
      "216": 1277,
      "dy920": 1278,
      "dg40": 1279,
      "d4589": 1280,
      "289": 1281,
      "245": 1282,
      "m227": 1283,
      "275": 1284,
      "259": 1285,
      "950": 1286,
      "217": 1287,
      "398": 1288,
      "m223259": 1289,
      "kg": 1290,
      "mosm": 1291,
      "ality": 1292,
      "olality": 1293,
      "d27652": 1294,
      "osmolality": 1295,
      "d78052": 1296,
      "d7070": 1297,
      "401": 1298,
      "255": 1299,
      "241": 1300,
      "di42": 1301,
      "dv498": 1302,
      "o226582": 1303,
      "de1165": 1304,
      "1120": 1305,
      "dr000": 1306,
      "d5853": 1307,
      "dn183": 1308,
      "282": 1309,
      "690": 1310,
      "227": 1311,
      "d42823": 1312,
      "218": 1313,
      "246": 1314,
      "dz80": 1315,
      "de876": 1316,
      "de8889": 1317,
      "228": 1318,
      "di5022": 1319,
      "de8788": 1320,
      "d50": 1321,
      "d456": 1322,
      "dc34": 1323,
      "1100": 1324,
      "dd509": 1325,
      "619": 1326,
      "244": 1327,
      "dc83": 1328,
      "dm5": 1329,
      "db19": 1330,
      "243": 1331,
      "dk5": 1332,
      "de9320": 1333,
      "653": 1334,
      "234": 1335,
      "o226613": 1336,
      "d719": 1337,
      "351": 1338,
      "223": 1339,
      "de860": 1340,
      "d3572": 1341,
      "dv420": 1342,
      "d4011": 1343,
      "251": 1344,
      "dv4986": 1345,
      "dv1255": 1346,
      "d51": 1347,
      "dv1581": 1348,
      "d2639": 1349,
      "d55": 1350,
      "440": 1351,
      "d28800": 1352,
      "d6": 1353,
      "d4439": 1354,
      "d5723": 1355,
      "dv42": 1356,
      "d3659": 1357,
      "dz66": 1358,
      "291": 1359,
      "di4892": 1360,
      "nas": 1361,
      "ogast": 1362,
      "dk7469": 1363,
      "nasogast": 1364,
      "nasogastric": 1365,
      "direct": 1366,
      "d7802": 1367,
      "di272": 1368,
      "d78820": 1369,
      "237": 1370,
      "d2760": 1371,
      "502": 1372,
      "bag": 1373,
      "con": 1374,
      "226": 1375,
      "995": 1376,
      "di5032": 1377,
      "xxxa": 1378,
      "dz90": 1379,
      "dz85828": 1380,
      "d4271": 1381,
      "d5712": 1382,
      "de46": 1383,
      "281": 1384,
      "d42732": 1385,
      "dr740": 1386,
      "dr7": 1387,
      "dd618": 1388,
      "d5180": 1389,
      "dl0": 1390,
      "dv4501": 1391,
      "dz681": 1392,
      "o226571": 1393,
      "d34590": 1394,
      "dr0902": 1395,
      "254": 1396,
      "dr9": 1397,
      "d410": 1398,
      "290": 1399,
      "d9968": 1400,
      "condom": 1401,
      "589": 1402,
      "006": 1403,
      "694": 1404,
      "298": 1405,
      "dr1310": 1406,
      "1200": 1407,
      "325": 1408,
      "616": 1409,
      "285": 1410,
      "391": 1411,
      "dv850": 1412,
      "di693": 1413,
      "d07070": 1414,
      "db1920": 1415,
      "m225906": 1416,
      "l225651": 1417,
      "d1623": 1418,
      "330": 1419,
      "248": 1420,
      "265": 1421,
      "402": 1422,
      "d1983": 1423,
      "410": 1424,
      "232": 1425,
      "375": 1426,
      "d7907": 1427,
      "dv1272": 1428,
      "dz450": 1429,
      "di5033": 1430,
      "d535": 1431,
      "dv422": 1432,
      "1050": 1433,
      "d29420": 1434,
      "503": 1435,
      "dr51": 1436,
      "dv463": 1437,
      "da419": 1438,
      "m221653": 1439,
      "dk72": 1440,
      "o226606": 1441,
      "di0": 1442,
      "d7860": 1443,
      "d99592": 1444,
      "dz8249": 1445,
      "d7242": 1446,
      "o226633": 1447,
      "bra": 1448,
      "dv1083": 1449,
      "d71590": 1450,
      "247": 1451,
      "352": 1452,
      "dj398": 1453,
      "dj9621": 1454,
      "d2809": 1455,
      "m227694": 1456,
      "dz23": 1457,
      "d7823": 1458,
      "oral": 1459,
      "d70703": 1460,
      "dv160": 1461,
      "d49320": 1462,
      "dz98": 1463,
      "dv4983": 1464,
      "d20500": 1465,
      "dz931": 1466,
      "dm4": 1467,
      "1300": 1468,
      "dg936": 1469,
      "236": 1470,
      "de8782": 1471,
      "257": 1472,
      "018": 1473,
      "561": 1474,
      "dd69": 1475,
      "d07054": 1476,
      "560": 1477,
      "dd6959": 1478,
      "009": 1479,
      "d519": 1480,
      "d28419": 1481,
      "d7904": 1482,
      "dv851": 1483,
      "411": 1484,
      "269": 1485,
      "809": 1486,
      "sout": 1487,
      "south": 1488,
      "293": 1489,
      "268": 1490,
      "dl89": 1491,
      "d79092": 1492,
      "dr6521": 1493,
      "570": 1494,
      "east": 1495,
      "dv441": 1496,
      "pleur": 1497,
      "pleural": 1498,
      "d730": 1499,
      "1990": 1500,
      "848": 1501,
      "de8780": 1502,
      "271": 1503,
      "1500": 1504,
      "dv4589": 1505,
      "731": 1506,
      "df0390": 1507,
      "444": 1508,
      "d53": 1509,
      "m229616": 1510,
      "d1970": 1511,
      "di340": 1512,
      "dz958": 1513,
      "m229640": 1514,
      "575": 1515,
      "di959": 1516,
      "o226573": 1517,
      "ds0": 1518,
      "de559": 1519,
      "de8490": 1520,
      "d5770": 1521,
      "d6826": 1522,
      "dk7290": 1523,
      "dr197": 1524,
      "d78060": 1525,
      "0995": 1526,
      "m220995": 1527,
      "d25060": 1528,
      "299": 1529,
      "dr339": 1530,
      "d785": 1531,
      "dk8": 1532,
      "dj441": 1533,
      "d1629": 1534,
      "301": 1535,
      "308": 1536,
      "d45829": 1537,
      "dy848": 1538,
      "dz923": 1539,
      "m225913": 1540,
      "449": 1541,
      "dc7931": 1542,
      "dg40909": 1543,
      "de875": 1544,
      "252": 1545,
      "801": 1546,
      "278": 1547,
      "activ": 1548,
      "340": 1549,
      "xx": 1550,
      "288": 1551,
      "dm1990": 1552,
      "d5718": 1553,
      "m229624": 1554,
      "264": 1555,
      "dc79": 1556,
      "d7804": 1557,
      "d5070": 1558,
      "d008": 1559,
      "625": 1560,
      "7701": 1561,
      "dv120": 1562,
      "o227701": 1563,
      "dk3189": 1564,
      "506": 1565,
      "dz9221": 1566,
      "ein": 1567,
      "protein": 1568,
      "dv173": 1569,
      "dk75": 1570,
      "d7140": 1571,
      "dn170": 1572,
      "510": 1573,
      "d18": 1574,
      "de7800": 1575,
      "d5601": 1576,
      "di509": 1577,
      "d0389": 1578,
      "975": 1579,
      "253": 1580,
      "425": 1581,
      "525": 1582,
      "o227511": 1583,
      "279": 1584,
      "dd689": 1585,
      "d30500": 1586,
      "d00845": 1587,
      "562": 1588,
      "dr6": 1589,
      "d1985": 1590,
      "di428": 1591,
      "360": 1592,
      "274": 1593,
      "df05": 1594,
      "dz966": 1595,
      "m229654": 1596,
      "d51919": 1597,
      "1250": 1598,
      "dz91": 1599,
      "580": 1600,
      "d44020": 1601,
      "dr791": 1602,
      "d29680": 1603,
      "017": 1604,
      "dr001": 1605,
      "970": 1606,
      "dx": 1607,
      "put": 1608,
      "ated": 1609,
      "output": 1610,
      "dv130": 1611,
      "d20280": 1612,
      "d38": 1613,
      "d7821": 1614,
      "dg620": 1615,
      "d46": 1616,
      "379": 1617,
      "d459": 1618,
      "de6": 1619,
      "dm7": 1620,
      "dd638": 1621,
      "dk7031": 1622,
      "1150": 1623,
      "di5023": 1624,
      "267": 1625,
      "430": 1626,
      "l227462": 1627,
      "dh409": 1628,
      "014": 1629,
      "579": 1630,
      "dj90": 1631,
      "d73390": 1632,
      "pu": 1633,
      "erto": 1634,
      "738": 1635,
      "d3004": 1636,
      "d45621": 1637,
      "dd61818": 1638,
      "puerto": 1639,
      "dk6": 1640,
      "d345": 1641,
      "o226598": 1642,
      "vac": 1643,
      "305": 1644,
      "de8809": 1645,
      "303": 1646,
      "dv161": 1647,
      "662": 1648,
      "263": 1649,
      "d7245": 1650,
      "d51189": 1651,
      "ecal": 1652,
      "fecal": 1653,
      "ati": 1654,
      "and": 1655,
      "dk56": 1656,
      "dv4502": 1657,
      "dv6284": 1658,
      "d27669": 1659,
      "785": 1660,
      "m229070": 1661,
      "273": 1662,
      "po2": 1663,
      "m221662": 1664,
      "d99859": 1665,
      "256": 1666,
      "475": 1667,
      "ool": 1668,
      "dz99": 1669,
      "dh5": 1670,
      "stool": 1671,
      "d528": 1672,
      "d3320": 1673,
      "di255": 1674,
      "831": 1675,
      "d5845": 1676,
      "stra": 1677,
      "straight": 1678,
      "016": 1679,
      "d41071": 1680,
      "d238": 1681,
      "266": 1682,
      "d279": 1683,
      "dc77": 1684,
      "dz95810": 1685,
      "363": 1686,
      "302": 1687,
      "ican": 1688,
      "o226593": 1689,
      "d2930": 1690,
      "dg629": 1691,
      "312": 1692,
      "fk": 1693,
      "fk506": 1694,
      "012": 1695,
      "d8": 1696,
      "455": 1697,
      "276": 1698,
      "d5771": 1699,
      "999999": 1700,
      "d48": 1701,
      "341": 1702,
      "di27": 1703,
      "d7850": 1704,
      "d716": 1705,
      "d7295": 1706,
      "dz006": 1707,
      "dz850": 1708,
      "d3569": 1709,
      "dz9181": 1710,
      "dk7030": 1711,
      "319": 1712,
      "de1122": 1713,
      "013": 1714,
      "d74": 1715,
      "l227463": 1716,
      "d78039": 1717,
      "dc7951": 1718,
      "di739": 1719,
      "dr509": 1720,
      "dt380": 1721,
      "d23875": 1722,
      "5118": 1723,
      "385": 1724,
      "dz930": 1725,
      "d4928": 1726,
      "315": 1727,
      "953": 1728,
      "m221429": 1729,
      "d99685": 1730,
      "ebl": 1731,
      "l2275": 1732,
      "ost": 1733,
      "l227516": 1734,
      "011": 1735,
      "dd5": 1736,
      "972": 1737,
      "dz853": 1738,
      "702": 1739,
      "o226597": 1740,
      "ant": 1741,
      "447": 1742,
      "d30390": 1743,
      "dy92009": 1744,
      "inican": 1745,
      "dr112": 1746,
      "dominican": 1747,
      "dz4502": 1748,
      "ca": 1749,
      "432": 1750,
      "d2753": 1751,
      "283": 1752,
      "dj690": 1753,
      "d2880": 1754,
      "dz85118": 1755,
      "dv4365": 1756,
      "dk7581": 1757,
      "ver": 1758,
      "602": 1759,
      "dean": 1760,
      "287": 1761,
      "o226583": 1762,
      "0481": 1763,
      "cape": 1764,
      "verdean": 1765,
      "015": 1766,
      "de1": 1767,
      "dv5869": 1768,
      "di2720": 1769,
      "393": 1770,
      "dz9114": 1771,
      "469": 1772,
      "o226619": 1773,
      "dz6841": 1774,
      "o2274": 1775,
      "373": 1776,
      "di130": 1777,
      "de6601": 1778,
      "261": 1779,
      "dy832": 1780,
      "dc787": 1781,
      "d574": 1782,
      "d2752": 1783,
      "dv0481": 1784,
      "675": 1785,
      "d39": 1786,
      "d7862": 1787,
      "d5533": 1788,
      "019": 1789,
      "dk449": 1790,
      "o226612": 1791,
      "d99591": 1792,
      "495": 1793,
      "d25002": 1794,
      "dv412": 1795,
      "da4": 1796,
      "725": 1797,
      "rti": 1798,
      "corti": 1799,
      "df43": 1800,
      "db9561": 1801,
      "di714": 1802,
      "cortisol": 1803,
      "dr188": 1804,
      "di471": 1805,
      "d2536": 1806,
      "277": 1807,
      "dr569": 1808,
      "d99682": 1809,
      "d4580": 1810,
      "d34982": 1811,
      "021": 1812,
      "984": 1813,
      "d415": 1814,
      "954": 1815,
      "dg9": 1816,
      "d78552": 1817,
      "378": 1818,
      "dk3184": 1819,
      "d73313": 1820,
      "d53550": 1821,
      "1350": 1822,
      "962": 1823,
      "dv443": 1824,
      "342": 1825,
      "d135": 1826,
      "dy8": 1827,
      "d04149": 1828,
      "di330": 1829,
      "uric": 1830,
      "di45": 1831,
      "m225945": 1832,
      "382": 1833,
      "d2841": 1834,
      "dc3490": 1835,
      "dt380x5a": 1836,
      "620": 1837,
      "nati": 1838,
      "dk921": 1839,
      "dj9809": 1840,
      "d78900": 1841,
      "d346": 1842,
      "l227446": 1843,
      "292": 1844,
      "l225628": 1845,
      "phen": 1846,
      "d4414": 1847,
      "d34690": 1848,
      "825": 1849,
      "l225695": 1850,
      "286": 1851,
      "m225909": 1852,
      "7401": 1853,
      "047": 1854,
      "fr": 1855,
      "901": 1856,
      "dz8546": 1857,
      "ort": 1858,
      "421": 1859,
      "dg20": 1860,
      "action": 1861,
      "fraction": 1862,
      "d64": 1863,
      "d7840": 1864,
      "dj84": 1865,
      "d5939": 1866,
      "d1120": 1867,
      "ssian": 1868,
      "russian": 1869,
      "dc8": 1870,
      "m229071": 1871,
      "311": 1872,
      "dd64": 1873,
      "d04104": 1874,
      "875": 1875,
      "m222051": 1876,
      "1600": 1877,
      "d44021": 1878,
      "d36201": 1879,
      "345": 1880,
      "335": 1881,
      "408": 1882,
      "1450": 1883,
      "d73342": 1884,
      "de222": 1885,
      "780": 1886,
      "029": 1887,
      "775": 1888,
      "354": 1889,
      "dw19": 1890,
      "630": 1891,
      "m229233": 1892,
      "dj8": 1893,
      "dk7460": 1894,
      "dv4282": 1895,
      "d80": 1896,
      "d4139": 1897,
      "d78097": 1898,
      "de8792": 1899,
      "dw18": 1900,
      "oun": 1901,
      "woun": 1902,
      "wound": 1903,
      "jp": 1904,
      "di482": 1905,
      "o226610": 1906,
      "dv1003": 1907,
      "dj9811": 1908,
      "di214": 1909,
      "d7824": 1910,
      "go": 1911,
      "xin": 1912,
      "di350": 1913,
      "digo": 1914,
      "007": 1915,
      "d51884": 1916,
      "digoxin": 1917,
      "d5303": 1918,
      "d9971": 1919,
      "da047": 1920,
      "d71536": 1921,
      "d1890": 1922,
      "bn": 1923,
      "pg": 1924,
      "pti": 1925,
      "tic": 1926,
      "uretic": 1927,
      "m227535": 1928,
      "dk57": 1929,
      "pepti": 1930,
      "brain": 1931,
      "dx58": 1932,
      "natiuretic": 1933,
      "bnp": 1934,
      "peptide": 1935,
      "dv454": 1936,
      "de9342": 1937,
      "dd630": 1938,
      "dk922": 1939,
      "361": 1940,
      "460": 1941,
      "296": 1942,
      "d49322": 1943,
      "d34830": 1944,
      "dd684": 1945,
      "294": 1946,
      "de8499": 1947,
      "d5569": 1948,
      "d19889": 1949,
      "313": 1950,
      "ta": 1951,
      "d43310": 1952,
      "d71596": 1953,
      "d43811": 1954,
      "541": 1955,
      "di69": 1956,
      "d45981": 1957,
      "dx58xxxa": 1958,
      "297": 1959,
      "317": 1960,
      "di472": 1961,
      "dv1052": 1962,
      "d1961": 1963,
      "dr911": 1964,
      "dz993": 1965,
      "025": 1966,
      "329": 1967,
      "339": 1968,
      "di5": 1969,
      "304": 1970,
      "307": 1971,
      "d2689": 1972,
      "dj9622": 1973,
      "328": 1974,
      "464": 1975,
      "d2763": 1976,
      "de8770": 1977,
      "db182": 1978,
      "o226592": 1979,
      "d07032": 1980,
      "d71690": 1981,
      "d11": 1982,
      "306": 1983,
      "dv55": 1984,
      "d7820": 1985,
      "d728": 1986,
      "db9689": 1987,
      "d70715": 1988,
      "333": 1989,
      "de780": 1990,
      "d5722": 1991,
      "di951": 1992,
      "dv444": 1993,
      "o226631": 1994,
      "d51883": 1995,
      "d3899": 1996,
      "dd6481": 1997,
      "reactiv": 1998,
      "dv641": 1999,
      "crp": 2000,
      "d515": 2001,
      "reactive": 2002,
      "323": 2003,
      "1700": 2004,
      "dd75": 2005,
      "db96": 2006,
      "dr079": 2007,
      "365": 2008,
      "l227444": 2009,
      "394": 2010,
      "d53010": 2011,
      "de8859": 2012,
      "df10239": 2013,
      "dg893": 2014,
      "316": 2015,
      "383": 2016,
      "710": 2017,
      "651": 2018,
      "652": 2019,
      "1712": 2020,
      "355": 2021,
      "o226590": 2022,
      "d90": 2023,
      "d78720": 2024,
      "dz9861": 2025,
      "d4111": 2026,
      "dr10": 2027,
      "dr338": 2028,
      "d52801": 2029,
      "d185": 2030,
      "dz800": 2031,
      "dv1271": 2032,
      "dc8338": 2033,
      "d78605": 2034,
      "925": 2035,
      "d28749": 2036,
      "d59654": 2037,
      "d59970": 2038,
      "df1010": 2039,
      "dk567": 2040,
      "470": 2041,
      "1025": 2042,
      "de85": 2043,
      "dr40": 2044,
      "stand": 2045,
      "d5609": 2046,
      "df319": 2047,
      "standing": 2048,
      "528": 2049,
      "d5121": 2050,
      "d368": 2051,
      "d737": 2052,
      "de8352": 2053,
      "d24900": 2054,
      "dr410": 2055,
      "di080": 2056,
      "520": 2057,
      "5090": 2058,
      "2000": 2059,
      "023": 2060,
      "318": 2061,
      "720": 2062,
      "eme": 2063,
      "sis": 2064,
      "l220603": 2065,
      "o226601": 2066,
      "d5363": 2067,
      "dv151": 2068,
      "dv1051": 2069,
      "d4659": 2070,
      "emesis": 2071,
      "yto": 2072,
      "431": 2073,
      "dz953": 2074,
      "dt828": 2075,
      "dd539": 2076,
      "d41519": 2077,
      "phenyto": 2078,
      "phenytoin": 2079,
      "ldl": 2080,
      "dj9600": 2081,
      "db961": 2082,
      "d43889": 2083,
      "dm545": 2084,
      "dr110": 2085,
      "d5856": 2086,
      "d42842": 2087,
      "il": 2088,
      "d3970": 2089,
      "743": 2090,
      "349": 2091,
      "erol": 2092,
      "de440": 2093,
      "olest": 2094,
      "cholest": 2095,
      "dn401": 2096,
      "dm79": 2097,
      "d25541": 2098,
      "cholesterol": 2099,
      "671": 2100,
      "dv5863": 2101,
      "d73399": 2102,
      "480": 2103,
      "980": 2104,
      "dz96": 2105,
      "d4829": 2106,
      "omy": 2107,
      "d53019": 2108,
      "db370": 2109,
      "o226604": 2110,
      "ostomy": 2111,
      "4112": 2112,
      "d56409": 2113,
      "dl9": 2114,
      "507": 2115,
      "lant": 2116,
      "dial": 2117,
      "dilant": 2118,
      "d4232": 2119,
      "d537": 2120,
      "dj910": 2121,
      "dilantin": 2122,
      "hdl": 2123,
      "1800": 2124,
      "l227461": 2125,
      "dz93": 2126,
      "di826": 2127,
      "db9620": 2128,
      "540": 2129,
      "l220624": 2130,
      "dv163": 2131,
      "d0416": 2132,
      "024": 2133,
      "d4412": 2134,
      "3a": 2135,
      "686": 2136,
      "939": 2137,
      "df1120": 2138,
      "dz7982": 2139,
      "d29181": 2140,
      "di712": 2141,
      "dv554": 2142,
      "ain": 2143,
      "429": 2144,
      "dv270": 2145,
      "drain": 2146,
      "dh9": 2147,
      "dj958": 2148,
      "d1977": 2149,
      "d60001": 2150,
      "7881": 2151,
      "d7837": 2152,
      "o226563": 2153,
      "dr7881": 2154,
      "d362": 2155,
      "di952": 2156,
      "dv1204": 2157,
      "1075": 2158,
      "dr42": 2159,
      "dv1588": 2160,
      "022": 2161,
      "df11": 2162,
      "1125": 2163,
      "d30503": 2164,
      "dz7984": 2165,
      "dv4579": 2166,
      "d3485": 2167,
      "m221712": 2168,
      "di26": 2169,
      "581": 2170,
      "d7812": 2171,
      "d722": 2172,
      "dv4576": 2173,
      "dz7952": 2174,
      "610": 2175,
      "331": 2176,
      "d5370": 2177,
      "de8351": 2178,
      "d78829": 2179,
      "d27952": 2180,
      "368": 2181,
      "l227440": 2182,
      "dr55": 2183,
      "dv1552": 2184,
      "d73679": 2185,
      "dv1302": 2186,
      "car": 2187,
      "de115": 2188,
      "dg971": 2189,
      "dc220": 2190,
      "d04112": 2191,
      "dj811": 2192,
      "314": 2193,
      "dl409": 2194,
      "1550": 2195,
      "405": 2196,
      "dk831": 2197,
      "d20400": 2198,
      "381": 2199,
      "dd500": 2200,
      "d30183": 2201,
      "di429": 2202,
      "069": 2203,
      "ulated": 2204,
      "calculated": 2205,
      "db954": 2206,
      "d452": 2207,
      "dz8674": 2208,
      "dd4": 2209,
      "l225671": 2210,
      "7690": 2211,
      "dk7200": 2212,
      "de1065": 2213,
      "d28803": 2214,
      "dw19xxxa": 2215,
      "m227690": 2216,
      "dr739": 2217,
      "dz952": 2218,
      "d0417": 2219,
      "338": 2220,
      "344": 2221,
      "cen": 2222,
      "dy830": 2223,
      "d56210": 2224,
      "tral": 2225,
      "dj9602": 2226,
      "dv029": 2227,
      "d27541": 2228,
      "central": 2229,
      "371": 2230,
      "d478": 2231,
      "395": 2232,
      "de1043": 2233,
      "dm549": 2234,
      "406": 2235,
      "d340": 2236,
      "d30393": 2237,
      "d996": 2238,
      "d99812": 2239,
      "di70": 2240,
      "d5762": 2241,
      "d99749": 2242,
      "dg8194": 2243,
      "m225147": 2244,
      "d4148": 2245,
      "334": 2246,
      "dz720": 2247,
      "de8786": 2248,
      "7686": 2249,
      "d23": 2250,
      "l227686": 2251,
      "1330": 2252,
      "d49392": 2253,
      "de8781": 2254,
      "490": 2255,
      "530": 2256,
      "660": 2257,
      "d78702": 2258,
      "dr64": 2259,
      "322": 2260,
      "485": 2261,
      "735": 2262,
      "di420": 2263,
      "dg43": 2264,
      "dz950": 2265,
      "dv8801": 2266,
      "d9982": 2267,
      "dc772": 2268,
      "d5761": 2269,
      "dv4586": 2270,
      "d71941": 2271,
      "d2738": 2272,
      "d40391": 2273,
      "d756": 2274,
      "d30391": 2275,
      "d150": 2276,
      "15a": 2277,
      "709": 2278,
      "458": 2279,
      "1650": 2280,
      "1121": 2281,
      "d042": 2282,
      "dy831": 2283,
      "640": 2284,
      "d00": 2285,
      "505": 2286,
      "de116": 2287,
      "d0413": 2288,
      "d33818": 2289,
      "dc786": 2290,
      "dg9340": 2291,
      "di4581": 2292,
      "324": 2293,
      "dr5": 2294,
      "di2699": 2295,
      "599": 2296,
      "di87": 2297,
      "681": 2298,
      "d793": 2299,
      "d53085": 2300,
      "dz6837": 2301,
      "dz85528": 2302,
      "di63": 2303,
      "839": 2304,
      "392": 2305,
      "326": 2306,
      "488": 2307,
      "d17": 2308,
      "585": 2309,
      "dn12": 2310,
      "dd6851": 2311,
      "1175": 2312,
      "dj111": 2313,
      "dr0789": 2314,
      "de1010": 2315,
      "d53789": 2316,
      "ad": 2317,
      "748": 2318,
      "ssion": 2319,
      "672": 2320,
      "386": 2321,
      "mission": 2322,
      "age": 2323,
      "dr570": 2324,
      "1225": 2325,
      "drainage": 2326,
      "admission": 2327,
      "026": 2328,
      "327": 2329,
      "770": 2330,
      "d93": 2331,
      "sit": 2332,
      "ting": 2333,
      "372": 2334,
      "347": 2335,
      "d342": 2336,
      "d5772": 2337,
      "d6929": 2338,
      "d78609": 2339,
      "sitting": 2340,
      "027": 2341,
      "d5768": 2342,
      "d20501": 2343,
      "426": 2344,
      "dz87": 2345,
      "dj9691": 2346,
      "di824": 2347,
      "346": 2348,
      "d72989": 2349,
      "ese": 2350,
      "port": 2351,
      "uese": 2352,
      "dl8": 2353,
      "dz896": 2354,
      "d30981": 2355,
      "uguese": 2356,
      "dr4701": 2357,
      "dr634": 2358,
      "portuguese": 2359,
      "332": 2360,
      "1750": 2361,
      "di671": 2362,
      "de2": 2363,
      "1900": 2364,
      "dv4572": 2365,
      "d1550": 2366,
      "356": 2367,
      "dr1312": 2368,
      "670": 2369,
      "d7890": 2370,
      "dk29": 2371,
      "d5920": 2372,
      "d51181": 2373,
      "dv5": 2374,
      "rectal": 2375,
      "dq282": 2376,
      "343": 2377,
      "d37": 2378,
      "d21": 2379,
      "571": 2380,
      "6a": 2381,
      "423": 2382,
      "d42781": 2383,
      "d583": 2384,
      "dd320": 2385,
      "d25080": 2386,
      "dm25": 2387,
      "m229069": 2388,
      "clo": 2389,
      "x6a": 2390,
      "d5178": 2391,
      "tting": 2392,
      "dv1082": 2393,
      "d70723": 2394,
      "o226603": 2395,
      "activated": 2396,
      "d58381": 2397,
      "clotting": 2398,
      "d200": 2399,
      "dk22": 2400,
      "d25042": 2401,
      "d25040": 2402,
      "dv1005": 2403,
      "min": 2404,
      "1275": 2405,
      "d7830": 2406,
      "dr50": 2407,
      "d3441": 2408,
      "d560": 2409,
      "d0414": 2410,
      "di878": 2411,
      "de662": 2412,
      "de1121": 2413,
      "dm6": 2414,
      "dm9": 2415,
      "d07030": 2416,
      "dr627": 2417,
      "dg43909": 2418,
      "x5": 2419,
      "508": 2420,
      "l220650": 2421,
      "11a": 2422,
      "dz590": 2423,
      "dm255": 2424,
      "dt455": 2425,
      "db181": 2426,
      "di5021": 2427,
      "dg8191": 2428,
      "dt45515a": 2429,
      "465": 2430,
      "435": 2431,
      "dv08": 2432,
      "357": 2433,
      "dk5909": 2434,
      "dr471": 2435,
      "dr6520": 2436,
      "dz801": 2437,
      "d71946": 2438,
      "dz9049": 2439,
      "960": 2440,
      "1370": 2441,
      "d4263": 2442,
      "df17": 2443,
      "dl031": 2444,
      "dz45018": 2445,
      "dv1301": 2446,
      "890": 2447,
      "pac": 2448,
      "x0": 2449,
      "l220507": 2450,
      "d7847": 2451,
      "m225832": 2452,
      "d6961": 2453,
      "dc3411": 2454,
      "df17200": 2455,
      "dz87820": 2456,
      "dj9503": 2457,
      "d7905": 2458,
      "d28522": 2459,
      "930": 2460,
      "555": 2461,
      "d53089": 2462,
      "dc7801": 2463,
      "d5081": 2464,
      "905": 2465,
      "d2441": 2466,
      "df1021": 2467,
      "dv427": 2468,
      "337": 2469,
      "481": 2470,
      "515": 2471,
      "358": 2472,
      "df14": 2473,
      "d2869": 2474,
      "m227689": 2475,
      "d53190": 2476,
      "de1151": 2477,
      "dz7401": 2478,
      "dr748": 2479,
      "d20190": 2480,
      "m229632": 2481,
      "gu": 2482,
      "4359": 2483,
      "dd469": 2484,
      "412": 2485,
      "di82": 2486,
      "403": 2487,
      "dy92": 2488,
      "d44023": 2489,
      "d70722": 2490,
      "dw1830": 2491,
      "418": 2492,
      "d22": 2493,
      "376": 2494,
      "dk80": 2495,
      "d2731": 2496,
      "d2867": 2497,
      "d99931": 2498,
      "dz6834": 2499,
      "d4404": 2500,
      "o227489": 2501,
      "o227488": 2502,
      "572": 2503,
      "dm480": 2504,
      "dm797": 2505,
      "dw1830xa": 2506,
      "dl97": 2507,
      "605": 2508,
      "dd8": 2509,
      "dz8619": 2510,
      "dr319": 2511,
      "d1519": 2512,
      "dh534": 2513,
      "820": 2514,
      "gta": 2515,
      "igta": 2516,
      "pigta": 2517,
      "dv49": 2518,
      "d2662": 2519,
      "dg935": 2520,
      "dm54": 2521,
      "dt8641": 2522,
      "d7464": 2523,
      "pigtail": 2524,
      "1325": 2525,
      "de106": 2526,
      "d04111": 2527,
      "d43411": 2528,
      "d4940": 2529,
      "442": 2530,
      "535": 2531,
      "cer": 2532,
      "ebr": 2533,
      "eral": 2534,
      "1850": 2535,
      "di447": 2536,
      "dz3a": 2537,
      "384": 2538,
      "d42843": 2539,
      "cerebr": 2540,
      "cerebral": 2541,
      "869": 2542,
      "dm419": 2543,
      "d45341": 2544,
      "dy92234": 2545,
      "dj849": 2546,
      "359": 2547,
      "dc85": 2548,
      "d7906": 2549,
      "dj95851": 2550,
      "v224359": 2551,
      "dv53": 2552,
      "695": 2553,
      "d72400": 2554,
      "dc7989": 2555,
      "d2113": 2556,
      "1230": 2557,
      "lying": 2558,
      "dt501": 2559,
      "dh53461": 2560,
      "760": 2561,
      "840": 2562,
      "d725": 2563,
      "dg9389": 2564,
      "de1142": 2565,
      "pacu": 2566,
      "lat": 2567,
      "424": 2568,
      "d7873": 2569,
      "dv1261": 2570,
      "d72402": 2571,
      "dl89152": 2572,
      "lateral": 2573,
      "399": 2574,
      "1425": 2575,
      "685": 2576,
      "dz982": 2577,
      "d4142": 2578,
      "dj439": 2579,
      "dc8510": 2580,
      "d79001": 2581,
      "dl03115": 2582,
      "a1": 2583,
      "m221319": 2584,
      "d36250": 2585,
      "595": 2586,
      "dr600": 2587,
      "d28246": 2588,
      "d1963": 2589,
      "dj459": 2590,
      "d78841": 2591,
      "dz85038": 2592,
      "dd751": 2593,
      "730": 2594,
      "d2800": 2595,
      "d7291": 2596,
      "d30501": 2597,
      "d30560": 2598,
      "ds065": 2599,
      "445": 2600,
      "491": 2601,
      "d759": 2602,
      "d567": 2603,
      "d56089": 2604,
      "990": 2605,
      "dl408": 2606,
      "1110": 2607,
      "d4739": 2608,
      "d5789": 2609,
      "dr298": 2610,
      "d2853": 2611,
      "di442": 2612,
      "d42821": 2613,
      "dr4182": 2614,
      "dv1209": 2615,
      "dr29810": 2616,
      "545": 2617,
      "615": 2618,
      "mediast": 2619,
      "inal": 2620,
      "1440": 2621,
      "68a": 2622,
      "d51289": 2623,
      "dj939": 2624,
      "dz874": 2625,
      "d9966": 2626,
      "d27803": 2627,
      "dv8521": 2628,
      "dk861": 2629,
      "dz96641": 2630,
      "dt82868a": 2631,
      "mediastinal": 2632,
      "880": 2633,
      "1290": 2634,
      "353": 2635,
      "d04119": 2636,
      "dk760": 2637,
      "dk521": 2638,
      "415": 2639,
      "603": 2640,
      "d4233": 2641,
      "348": 2642,
      "dv5812": 2643,
      "dv0382": 2644,
      "dk5190": 2645,
      "374": 2646,
      "940": 2647,
      "cub": 2648,
      "di495": 2649,
      "d0380": 2650,
      "d99889": 2651,
      "dc7802": 2652,
      "cuban": 2653,
      "795": 2654,
      "dn182": 2655,
      "dc641": 2656,
      "dz940": 2657,
      "d1962": 2658,
      "d99811": 2659,
      "de2740": 2660,
      "367": 2661,
      "715": 2662,
      "xd": 2663,
      "705": 2664,
      "de873": 2665,
      "o226620": 2666,
      "df1020": 2667,
      "de9378": 2668,
      "dv620": 2669,
      "dz803": 2670,
      "de1140": 2671,
      "d75689": 2672,
      "635": 2673,
      "565": 2674,
      "1675": 2675,
      "de935": 2676,
      "d5559": 2677,
      "d2825": 2678,
      "d726": 2679,
      "de890": 2680,
      "dv4972": 2681,
      "dj479": 2682,
      "d7910": 2683,
      "dz9884": 2684,
      "di872": 2685,
      "2100": 2686,
      "d75": 2687,
      "dn319": 2688,
      "d04185": 2689,
      "di9581": 2690,
      "di7101": 2691,
      "dt451x5": 2692,
      "d34510": 2693,
      "d99674": 2694,
      "d96": 2695,
      "609": 2696,
      "dz09": 2697,
      "805": 2698,
      "dc91": 2699,
      "dz6827": 2700,
      "dt8579": 2701,
      "d43820": 2702,
      "d71945": 2703,
      "d648": 2704,
      "dd473": 2705,
      "dt8579xa": 2706,
      "645": 2707,
      "dz018": 2708,
      "779": 2709,
      "d4253": 2710,
      "dv442": 2711,
      "dj440": 2712,
      "d3383": 2713,
      "dr918": 2714,
      "dm941": 2715,
      "dz01810": 2716,
      "665": 2717,
      "920": 2718,
      "1020": 2719,
      "1475": 2720,
      "336": 2721,
      "d42830": 2722,
      "db965": 2723,
      "dm8580": 2724,
      "xxs": 2725,
      "df4310": 2726,
      "985": 2727,
      "1950": 2728,
      "389": 2729,
      "dt80": 2730,
      "d2440": 2731,
      "ds00": 2732,
      "d3484": 2733,
      "dv8542": 2734,
      "d78551": 2735,
      "de874": 2736,
      "d78079": 2737,
      "d591": 2738,
      "ds22": 2739,
      "dc7889": 2740,
      "di69320": 2741,
      "1a": 2742,
      "404": 2743,
      "26xxa": 2744,
      "d4400": 2745,
      "d365": 2746,
      "d5711": 2747,
      "d590": 2748,
      "d7318": 2749,
      "dz6830": 2750,
      "dt826xxa": 2751,
      "de8842": 2752,
      "dv4987": 2753,
      "1375": 2754,
      "dl975": 2755,
      "1210": 2756,
      "di2": 2757,
      "dv1072": 2758,
      "dz6843": 2759,
      "d3694": 2760,
      "d78830": 2761,
      "df0280": 2762,
      "2200": 2763,
      "dv550": 2764,
      "di493": 2765,
      "d1960": 2766,
      "d4386": 2767,
      "di723": 2768,
      "v22464": 2769,
      "di76": 2770,
      "dz902": 2771,
      "d4160": 2772,
      "m227531": 2773,
      "dd709": 2774,
      "d25050": 2775,
      "d29590": 2776,
      "df10229": 2777,
      "dk318": 2778,
      "bar": 2779,
      "m227520": 2780,
      "dg35": 2781,
      "dz6831": 2782,
      "d431": 2783,
      "dc7800": 2784,
      "dv1006": 2785,
      "dc8339": 2786,
      "dv5332": 2787,
      "835": 2788,
      "910": 2789,
      "1060": 2790,
      "dz22": 2791,
      "dk589": 2792,
      "d27401": 2793,
      "d7210": 2794,
      "d70719": 2795,
      "d28521": 2796,
      "dy92019": 2797,
      "1525": 2798,
      "377": 2799,
      "dv140": 2800,
      "387": 2801,
      "d553": 2802,
      "dz6838": 2803,
      "dv8541": 2804,
      "dz89612": 2805,
      "810": 2806,
      "di77": 2807,
      "d30401": 2808,
      "de8796": 2809,
      "dg9341": 2810,
      "d73730": 2811,
      "di21": 2812,
      "784": 2813,
      "648": 2814,
      "448": 2815,
      "dy834": 2816,
      "de11649": 2817,
      "dy846": 2818,
      "di21a1": 2819,
      "028": 2820,
      "d112": 2821,
      "land": 2822,
      "969": 2823,
      "dt402": 2824,
      "d79029": 2825,
      "island": 2826,
      "d3559": 2827,
      "d53510": 2828,
      "d4821": 2829,
      "031": 2830,
      "ado": 2831,
      "gc": 2832,
      "tgc": 2833,
      "563": 2834,
      "medial": 2835,
      "dz16": 2836,
      "d5750": 2837,
      "do99": 2838,
      "dt451x5s": 2839,
      "2150": 2840,
      "895": 2841,
      "d7231": 2842,
      "1180": 2843,
      "1189": 2844,
      "dt361": 2845,
      "dv4511": 2846,
      "d959": 2847,
      "d6989": 2848,
      "d28804": 2849,
      "dt361x5a": 2850,
      "870": 2851,
      "tric": 2852,
      "ular": 2853,
      "999": 2854,
      "m225973": 2855,
      "ventric": 2856,
      "db952": 2857,
      "d1570": 2858,
      "de11621": 2859,
      "ventricular": 2860,
      "865": 2861,
      "zili": 2862,
      "655": 2863,
      "de113": 2864,
      "d4785": 2865,
      "d78559": 2866,
      "dr68": 2867,
      "d2989": 2868,
      "dn1330": 2869,
      "dj918": 2870,
      "d34839": 2871,
      "d44024": 2872,
      "d70724": 2873,
      "brazili": 2874,
      "brazilian": 2875,
      "885": 2876,
      "591": 2877,
      "1625": 2878,
      "8242": 2879,
      "855": 2880,
      "d575": 2881,
      "d2721": 2882,
      "dd801": 2883,
      "d25063": 2884,
      "d73743": 2885,
      "de9363": 2886,
      "dr0600": 2887,
      "dc771": 2888,
      "dl896": 2889,
      "de10620": 2890,
      "815": 2891,
      "845": 2892,
      "1010": 2893,
      "1080": 2894,
      "d41189": 2895,
      "d48242": 2896,
      "dj385": 2897,
      "dz8572": 2898,
      "d0785": 2899,
      "dz6824": 2900,
      "d2948": 2901,
      "di9789": 2902,
      "dk529": 2903,
      "1749": 2904,
      "d07": 2905,
      "1320": 2906,
      "658": 2907,
      "dv180": 2908,
      "907": 2909,
      "438": 2910,
      "d99672": 2911,
      "d70701": 2912,
      "d20410": 2913,
      "d1976": 2914,
      "d71535": 2915,
      "di5189": 2916,
      "d72887": 2917,
      "dh9190": 2918,
      "dv4975": 2919,
      "d78009": 2920,
      "dj309": 2921,
      "d99731": 2922,
      "d3558": 2923,
      "d99688": 2924,
      "di69354": 2925,
      "d79311": 2926,
      "dt402x5a": 2927,
      "396": 2928,
      "611": 2929,
      "9a": 2930,
      "1040": 2931,
      "m225912": 2932,
      "d2766": 2933,
      "d05": 2934,
      "dv4571": 2935,
      "d78062": 2936,
      "0472": 2937,
      "d7078": 2938,
      "d60784": 2939,
      "da0472": 2940,
      "d2252": 2941,
      "dk31819": 2942,
      "790": 2943,
      "1410": 2944,
      "755": 2945,
      "dr458": 2946,
      "dz6825": 2947,
      "dv8543": 2948,
      "dr45851": 2949,
      "965": 2950,
      "m225148": 2951,
      "d444": 2952,
      "df39": 2953,
      "d28249": 2954,
      "dz6828": 2955,
      "dr310": 2956,
      "dd61811": 2957,
      "d99664": 2958,
      "de11319": 2959,
      "551": 2960,
      "v2246": 2961,
      "d414": 2962,
      "dr32": 2963,
      "dy92238": 2964,
      "d997": 2965,
      "di678": 2966,
      "d7955": 2967,
      "d44101": 2968,
      "d52800": 2969,
      "dr1013": 2970,
      "dr5081": 2971,
      "dj45901": 2972,
      "1130": 2973,
      "613": 2974,
      "d85": 2975,
      "1575": 2976,
      "1190": 2977,
      "1725": 2978,
      "dr05": 2979,
      "d40310": 2980,
      "d5778": 2981,
      "dt835": 2982,
      "di864": 2983,
      "de9308": 2984,
      "dv6406": 2985,
      "dz85820": 2986,
      "di69398": 2987,
      "bb": 2988,
      "d262": 2989,
      "ean": 2990,
      "ibb": 2991,
      "745": 2992,
      "90a": 2993,
      "6812": 2994,
      "d532": 2995,
      "d7876": 2996,
      "dj069": 2997,
      "dv4573": 2998,
      "dc8599": 2999,
      "d1179": 3000,
      "caribb": 3001,
      "dc8513": 3002,
      "caribbean": 3003,
      "2500": 3004,
      "1070": 3005,
      "1005": 3006,
      "d5589": 3007,
      "d7856": 3008,
      "dk224": 3009,
      "dr109": 3010,
      "dg0": 3011,
      "dg63": 3012,
      "dn907": 3013,
      "d5852": 3014,
      "d5641": 3015,
      "dz6820": 3016,
      "de9394": 3017,
      "d04109": 3018,
      "dc8335": 3019,
      "dc8336": 3020,
      "dk610": 3021,
      "dy92129": 3022,
      "dt83511a": 3023,
      "765": 3024,
      "d52": 3025,
      "gant": 3026,
      "host": 3027,
      "ir": 3028,
      "peri": 3029,
      "vol": 3030,
      "1035": 3031,
      "ume": 3032,
      "atic": 3033,
      "427": 3034,
      "994": 3035,
      "rigant": 3036,
      "dv1087": 3037,
      "orthost": 3038,
      "de854": 3039,
      "cardial": 3040,
      "irrigant": 3041,
      "pericardial": 3042,
      "volume": 3043,
      "orthostatic": 3044,
      "366": 3045,
      "1090": 3046,
      "l225692": 3047,
      "1170": 3048,
      "dz981": 3049,
      "1105": 3050,
      "d3962": 3051,
      "1220": 3052,
      "de041": 3053,
      "de0590": 3054,
      "d70714": 3055,
      "de9444": 3056,
      "dl024": 3057,
      "d07999": 3058,
      "538": 3059,
      "1310": 3060,
      "di680": 3061,
      "dk648": 3062,
      "d28850": 3063,
      "dc90": 3064,
      "d78057": 3065,
      "dy833": 3066,
      "di313": 3067,
      "d6960": 3068,
      "di071": 3069,
      "2681": 3070,
      "397": 3071,
      "889": 3072,
      "d118": 3073,
      "x9a": 3074,
      "di65": 3075,
      "369": 3076,
      "d27650": 3077,
      "dm069": 3078,
      "tobra": 3079,
      "dm542": 3080,
      "d57420": 3081,
      "tobramycin": 3082,
      "dl76": 3083,
      "di81": 3084,
      "004": 3085,
      "dz6823": 3086,
      "d4430": 3087,
      "o226608": 3088,
      "d78906": 3089,
      "2300": 3090,
      "ovac": 3091,
      "2050": 3092,
      "hemovac": 3093,
      "d78194": 3094,
      "dk6812": 3095,
      "dg409": 3096,
      "dm190": 3097,
      "dt4": 3098,
      "dt8131": 3099,
      "dl97519": 3100,
      "dg40919": 3101,
      "915": 3102,
      "su": 3103,
      "1030": 3104,
      "454": 3105,
      "dv13": 3106,
      "434": 3107,
      "388": 3108,
      "d78909": 3109,
      "d7994": 3110,
      "d57142": 3111,
      "de8784": 3112,
      "d79579": 3113,
      "959xxs": 3114,
      "di69318": 3115,
      "di69359": 3116,
      "dx959xxs": 3117,
      "dt8131xa": 3118,
      "d66": 3119,
      "1270": 3120,
      "o226584": 3121,
      "d4239": 3122,
      "dr8": 3123,
      "dr2681": 3124,
      "dg70": 3125,
      "d309": 3126,
      "d7806": 3127,
      "m229234": 3128,
      "d1625": 3129,
      "364": 3130,
      "955": 3131,
      "1055": 3132,
      "1260": 3133,
      "indi": 3134,
      "703": 3135,
      "dc258": 3136,
      "dt5090": 3137,
      "db964": 3138,
      "d1628": 3139,
      "dr7989": 3140,
      "dk5790": 3141,
      "de9352": 3142,
      "indian": 3143,
      "dt50905a": 3144,
      "362": 3145,
      "d379": 3146,
      "mer": 3147,
      "1065": 3148,
      "dimer": 3149,
      "407": 3150,
      "732": 3151,
      "992": 3152,
      "005": 3153,
      "df259": 3154,
      "d25061": 3155,
      "d566": 3156,
      "di9589": 3157,
      "di724": 3158,
      "d27951": 3159,
      "d7455": 3160,
      "df1111": 3161,
      "dr531": 3162,
      "dm25562": 3163,
      "dr8271": 3164,
      "amm": 3165,
      "ia": 3166,
      "umol": 3167,
      "onia": 3168,
      "d319": 3169,
      "d59971": 3170,
      "d4359": 3171,
      "d33394": 3172,
      "dz96651": 3173,
      "di82622": 3174,
      "ammonia": 3175,
      "945": 3176,
      "1045": 3177,
      "1240": 3178,
      "3000": 3179,
      "dv600": 3180,
      "d7863": 3181,
      "dg309": 3182,
      "d25051": 3183,
      "dh9193": 3184,
      "476": 3185,
      "769": 3186,
      "1480": 3187,
      "932": 3188,
      "d514": 3189,
      "dk830": 3190,
      "d56211": 3191,
      "dz6822": 3192,
      "dz6842": 3193,
      "df10129": 3194,
      "d5368": 3195,
      "456": 3196,
      "sal": 3197,
      "vado": 3198,
      "x1a": 3199,
      "d296": 3200,
      "d35781": 3201,
      "di890": 3202,
      "dd688": 3203,
      "dz8051": 3204,
      "d0088": 3205,
      "dz87440": 3206,
      "dg7000": 3207,
      "salvado": 3208,
      "salvadoran": 3209,
      "lum": 3210,
      "2250": 3211,
      "1280": 3212,
      "dv113": 3213,
      "d78451": 3214,
      "dz6826": 3215,
      "dq211": 3216,
      "d73012": 3217,
      "dz96653": 3218,
      "d2384": 3219,
      "511": 3220,
      "863": 3221,
      "d2189": 3222,
      "9299": 3223,
      "dn200": 3224,
      "d30550": 3225,
      "d45342": 3226,
      "dt814": 3227,
      "dz515": 3228,
      "dk5730": 3229,
      "di2109": 3230,
      "d659": 3231,
      "1775": 3232,
      "453": 3233,
      "de94": 3234,
      "dv64": 3235,
      "l220580": 3236,
      "dk222": 3237,
      "dr200": 3238,
      "dz6829": 3239,
      "d29690": 3240,
      "d75982": 3241,
      "414": 3242,
      "443": 3243,
      "1085": 3244,
      "12a": 3245,
      "dk429": 3246,
      "d359": 3247,
      "di481": 3248,
      "o226625": 3249,
      "db379": 3250,
      "d5650": 3251,
      "d5680": 3252,
      "dv071": 3253,
      "d2572": 3254,
      "df0150": 3255,
      "d5531": 3256,
      "dv6441": 3257,
      "417": 3258,
      "1825": 3259,
      "l225636": 3260,
      "dz481": 3261,
      "d5305": 3262,
      "dz798": 3263,
      "db488": 3264,
      "d20510": 3265,
      "dt823": 3266,
      "dd72819": 3267,
      "da4101": 3268,
      "x0a": 3269,
      "d53290": 3270,
      "1840": 3271,
      "dz370": 3272,
      "582": 3273,
      "806": 3274,
      "d7851": 3275,
      "dr451": 3276,
      "dj14": 3277,
      "df209": 3278,
      "dh93": 3279,
      "dh54": 3280,
      "d43491": 3281,
      "de8498": 3282,
      "dk317": 3283,
      "d03849": 3284,
      "dt501x5a": 3285,
      "d55321": 3286,
      "d41402": 3287,
      "di351": 3288,
      "dk264": 3289,
      "dr590": 3290,
      "492": 3291,
      "d2890": 3292,
      "dt368": 3293,
      "dv452": 3294,
      "d56962": 3295,
      "dz6836": 3296,
      "d43330": 3297,
      "d4561": 3298,
      "dm478": 3299,
      "dm7989": 3300,
      "di4510": 3301,
      "d36846": 3302,
      "d72210": 3303,
      "2400": 3304,
      "d14": 3305,
      "1335": 3306,
      "dl982": 3307,
      "1470": 3308,
      "bps": 3309,
      "428": 3310,
      "1660": 3311,
      "3530": 3312,
      "d7885": 3313,
      "d30301": 3314,
      "dc9": 3315,
      "di5043": 3316,
      "d1972": 3317,
      "df1011": 3318,
      "d27542": 3319,
      "dd6859": 3320,
      "dz2239": 3321,
      "dt368x5a": 3322,
      "983": 3323,
      "991": 3324,
      "d5781": 3325,
      "dz8701": 3326,
      "d3439": 3327,
      "o226632": 3328,
      "dd6832": 3329,
      "413": 3330,
      "818": 3331,
      "1420": 3332,
      "de103": 3333,
      "1911": 3334,
      "dv168": 3335,
      "dz94": 3336,
      "39xa": 3337,
      "d42769": 3338,
      "d7892": 3339,
      "7611": 3340,
      "d7244": 3341,
      "d56969": 3342,
      "dz6845": 3343,
      "di5020": 3344,
      "m229068": 3345,
      "di825": 3346,
      "dv8535": 3347,
      "dv643": 3348,
      "dk7010": 3349,
      "db1910": 3350,
      "dj8410": 3351,
      "dr578": 3352,
      "1140": 3353,
      "564": 3354,
      "1360": 3355,
      "1380": 3356,
      "1115": 3357,
      "1160": 3358,
      "1205": 3359,
      "2350": 3360,
      "d4162": 3361,
      "dr21": 3362,
      "dr29": 3363,
      "m221623": 3364,
      "1560": 3365,
      "di639": 3366,
      "d45620": 3367,
      "dv4281": 3368,
      "dk754": 3369,
      "dw1839xa": 3370,
      "dt814xxa": 3371,
      "do2": 3372,
      "1510": 3373,
      "dj383": 3374,
      "dz8679": 3375,
      "1155": 3376,
      "dt447": 3377,
      "db59": 3378,
      "d72992": 3379,
      "d33819": 3380,
      "d2631": 3381,
      "dl978": 3382,
      "dk2210": 3383,
      "d30928": 3384,
      "459": 3385,
      "639": 3386,
      "1245": 3387,
      "871": 3388,
      "d570": 3389,
      "dh3530": 3390,
      "dv1041": 3391,
      "dk9423": 3392,
      "d873": 3393,
      "d6489": 3394,
      "dc9110": 3395,
      "8109": 3396,
      "1295": 3397,
      "d491": 3398,
      "d7881": 3399,
      "d78652": 3400,
      "dr269": 3401,
      "dh8109": 3402,
      "db258": 3403,
      "dv1079": 3404,
      "d7211": 3405,
      "df17290": 3406,
      "di8500": 3407,
      "d2630": 3408,
      "d49122": 3409,
      "533": 3410,
      "d7109": 3411,
      "d7108": 3412,
      "dv1551": 3413,
      "132xa": 3414,
      "dv4577": 3415,
      "di25119": 3416,
      "d9975": 3417,
      "d99659": 3418,
      "d5184": 3419,
      "dt8132xa": 3420,
      "di7102": 3421,
      "dz8551": 3422,
      "d69589": 3423,
      "d53140": 3424,
      "dy842": 3425,
      "dk2950": 3426,
      "dm6282": 3427,
      "d1370": 3428,
      "par": 3429,
      "l227460": 3430,
      "597": 3431,
      "606": 3432,
      "dr350": 3433,
      "d25013": 3434,
      "dm48": 3435,
      "di25118": 3436,
      "d45381": 3437,
      "d20300": 3438,
      "d20288": 3439,
      "d99883": 3440,
      "d4401": 3441,
      "dv8523": 3442,
      "dv667": 3443,
      "dh538": 3444,
      "dy828": 3445,
      "d59010": 3446,
      "422": 3447,
      "m229299": 3448,
      "1255": 3449,
      "ent": 3450,
      "d42613": 3451,
      "d5289": 3452,
      "d5738": 3453,
      "d34831": 3454,
      "dq8": 3455,
      "dl022": 3456,
      "dl89154": 3457,
      "d1122": 3458,
      "dk2270": 3459,
      "dm4856": 3460,
      "1535": 3461,
      "604": 3462,
      "452": 3463,
      "1610": 3464,
      "de92": 3465,
      "dv148": 3466,
      "d2823": 3467,
      "d25083": 3468,
      "d25062": 3469,
      "d53084": 3470,
      "o226628": 3471,
      "d59972": 3472,
      "d73309": 3473,
      "d99932": 3474,
      "d7265": 3475,
      "dz8542": 3476,
      "dv0254": 3477,
      "d6959": 3478,
      "dr4022": 3479,
      "dl97229": 3480,
      "dm4856xa": 3481,
      "482": 3482,
      "529": 3483,
      "d65": 3484,
      "l227451": 3485,
      "di97": 3486,
      "802": 3487,
      "o226564": 3488,
      "dk5090": 3489,
      "dj45": 3490,
      "dz860": 3491,
      "dn141": 3492,
      "dt85": 3493,
      "di25110": 3494,
      "d99739": 3495,
      "d70713": 3496,
      "d70705": 3497,
      "dz9079": 3498,
      "d34550": 3499,
      "dz933": 3500,
      "d56723": 3501,
      "2600": 3502,
      "446": 3503,
      "v22419": 3504,
      "de806": 3505,
      "1925": 3506,
      "2450": 3507,
      "d5579": 3508,
      "dr7611": 3509,
      "d7135": 3510,
      "o226629": 3511,
      "d99702": 3512,
      "d45184": 3513,
      "1740": 3514,
      "di728": 3515,
      "d6823": 3516,
      "dz9081": 3517,
      "dz85048": 3518,
      "dc9000": 3519,
      "v224192": 3520,
      "ap": 3521,
      "504": 3522,
      "1305": 3523,
      "588": 3524,
      "d27739": 3525,
      "d7843": 3526,
      "prap": 3527,
      "dz823": 3528,
      "dc61": 3529,
      "dc801": 3530,
      "de8700": 3531,
      "di440": 3532,
      "dz6835": 3533,
      "ubic": 3534,
      "dr040": 3535,
      "dd6861": 3536,
      "dw06": 3537,
      "dc3412": 3538,
      "df4320": 3539,
      "suprap": 3540,
      "suprapubic": 3541,
      "516": 3542,
      "man": 3543,
      "1445": 3544,
      "988": 3545,
      "d729": 3546,
      "dn184": 3547,
      "dc250": 3548,
      "dz9641": 3549,
      "dt464": 3550,
      "d4550": 3551,
      "di698": 3552,
      "d4422": 3553,
      "d6822": 3554,
      "d3688": 3555,
      "d34290": 3556,
      "dm6284": 3557,
      "manual": 3558,
      "cl": 3559,
      "pati": 3560,
      "sw": 3561,
      "dl03": 3562,
      "decl": 3563,
      "answ": 3564,
      "ined": 3565,
      "d4373": 3566,
      "888": 3567,
      "dk121": 3568,
      "dk652": 3569,
      "dr432": 3570,
      "df1911": 3571,
      "d3562": 3572,
      "d5854": 3573,
      "dz9119": 3574,
      "dz6832": 3575,
      "dv4611": 3576,
      "de1021": 3577,
      "dq231": 3578,
      "dq442": 3579,
      "d73027": 3580,
      "dz9911": 3581,
      "dz87738": 3582,
      "ds065x0a": 3583,
      "v224646": 3584,
      "d57510": 3585,
      "d37941": 3586,
      "dz79899": 3587,
      "patient": 3588,
      "declined": 3589,
      "answer": 3590,
      "1015": 3591,
      "dl500": 3592,
      "1875": 3593,
      "1490": 3594,
      "1975": 3595,
      "dv145": 3596,
      "d55090": 3597,
      "dk257": 3598,
      "95a": 3599,
      "d2733": 3600,
      "dj159": 3601,
      "d7197": 3602,
      "1145": 3603,
      "dh02": 3604,
      "d5793": 3605,
      "d6827": 3606,
      "d1510": 3607,
      "d6930": 3608,
      "da4102": 3609,
      "dw19xx": 3610,
      "df1110": 3611,
      "dd861": 3612,
      "468": 3613,
      "di441": 3614,
      "462": 3615,
      "d5780": 3616,
      "d7813": 3617,
      "dt426": 3618,
      "d2411": 3619,
      "d51852": 3620,
      "d4553": 3621,
      "di868": 3622,
      "dv0991": 3623,
      "d3331": 3624,
      "dk9189": 3625,
      "dk551": 3626,
      "dm4800": 3627,
      "df4321": 3628,
      "de8532": 3629,
      "d1505": 3630,
      "3500": 3631,
      "497": 3632,
      "466": 3633,
      "544": 3634,
      "qt": 3635,
      "de162": 3636,
      "2075": 3637,
      "d78901": 3638,
      "1185": 3639,
      "dh440": 3640,
      "db20": 3641,
      "db376": 3642,
      "o226595": 3643,
      "di716": 3644,
      "dv0980": 3645,
      "d2537": 3646,
      "d5570": 3647,
      "d55221": 3648,
      "dl89151": 3649,
      "dz8505": 3650,
      "lumbar": 3651,
      "dt426x5a": 3652,
      "qtc": 3653,
      "2125": 3654,
      "416": 3655,
      "472": 3656,
      "521": 3657,
      "1235": 3658,
      "1720": 3659,
      "de7": 3660,
      "v223766": 3661,
      "dz21": 3662,
      "3390": 3663,
      "dm351": 3664,
      "dz915": 3665,
      "d56212": 3666,
      "di611": 3667,
      "d2532": 3668,
      "dz90710": 3669,
      "di081": 3670,
      "d36230": 3671,
      "489": 3672,
      "642": 3673,
      "d62": 3674,
      "1365": 3675,
      "1385": 3676,
      "1395": 3677,
      "1460": 3678,
      "903": 3679,
      "dz954": 3680,
      "d3689": 3681,
      "dn281": 3682,
      "dc3": 3683,
      "m229597": 3684,
      "d4571": 3685,
      "de8785": 3686,
      "d1991": 3687,
      "d70720": 3688,
      "dv8533": 3689,
      "dr4781": 3690,
      "d9349": 3691,
      "dk8051": 3692,
      "d96509": 3693,
      "1135": 3694,
      "du": 3695,
      "d174": 3696,
      "d1500": 3697,
      "1285": 3698,
      "5000": 3699,
      "di278": 3700,
      "4060": 3701,
      "30a": 3702,
      "dv150": 3703,
      "854": 3704,
      "d261": 3705,
      "dj302": 3706,
      "d2883": 3707,
      "d3373": 3708,
      "d30750": 3709,
      "de8790": 3710,
      "d70909": 3711,
      "d29620": 3712,
      "dy836": 3713,
      "dc711": 3714,
      "d2521": 3715,
      "dz905": 3716,
      "d41072": 3717,
      "dm7981": 3718,
      "d95912": 3719,
      "d44422": 3720,
      "di2782": 3721,
      "dl299": 3722,
      "1810": 3723,
      "1520": 3724,
      "1195": 3725,
      "1710": 3726,
      "di60": 3727,
      "di85": 3728,
      "v223765": 3729,
      "433": 3730,
      "963": 3731,
      "dj152": 3732,
      "dj151": 3733,
      "df1290": 3734,
      "de859": 3735,
      "de8779": 3736,
      "dt508": 3737,
      "dy9200": 3738,
      "dt825": 3739,
      "di6203": 3740,
      "d99813": 3741,
      "de8881": 3742,
      "dg8220": 3743,
      "dl89150": 3744,
      "d4592": 3745,
      "dz8711": 3746,
      "dt82330a": 3747,
      "dz9484": 3748,
      "di8511": 3749,
      "dt508x5a": 3750,
      "d1749": 3751,
      "1340": 3752,
      "1165": 3753,
      "o2294": 3754,
      "di96": 3755,
      "dj04": 3756,
      "dg25": 3757,
      "dn134": 3758,
      "dv453": 3759,
      "db029": 3760,
      "dv1042": 3761,
      "dv1043": 3762,
      "dz6839": 3763,
      "d51851": 3764,
      "dg4739": 3765,
      "d2920": 3766,
      "di615": 3767,
      "db9562": 3768,
      "211a": 3769,
      "d73007": 3770,
      "di82412": 3771,
      "df1411": 3772,
      "dr6884": 3773,
      "d64891": 3774,
      "dw06xxxa": 3775,
      "dj0410": 3776,
      "032": 3777,
      "3749": 3778,
      "437": 3779,
      "bit": 3780,
      "d87": 3781,
      "obar": 3782,
      "v2260": 3783,
      "1860": 3784,
      "1590": 3785,
      "de869": 3786,
      "436": 3787,
      "d53390": 3788,
      "d28240": 3789,
      "dz8501": 3790,
      "d3079": 3791,
      "dc439": 3792,
      "db3749": 3793,
      "ds12": 3794,
      "de042": 3795,
      "dz96642": 3796,
      "d38611": 3797,
      "phenobar": 3798,
      "di70202": 3799,
      "dt80211a": 3800,
      "d36570": 3801,
      "v224645": 3802,
      "dl02416": 3803,
      "dz86010": 3804,
      "dl03116": 3805,
      "dh44001": 3806,
      "bital": 3807,
      "v226092": 3808,
      "phenobarbital": 3809,
      "d13": 3810,
      "1820": 3811,
      "1455": 3812,
      "1530": 3813,
      "1630": 3814,
      "1680": 3815,
      "751": 3816,
      "dd352": 3817,
      "dd3a": 3818,
      "dg95": 3819,
      "d3669": 3820,
      "de782": 3821,
      "dv4585": 3822,
      "m229615": 3823,
      "di634": 3824,
      "d7919": 3825,
      "d79431": 3826,
      "dg8918": 3827,
      "dq2": 3828,
      "d99681": 3829,
      "dz89611": 3830,
      "dr5082": 3831,
      "mal": 3832,
      "dl298": 3833,
      "12xa": 3834,
      "593": 3835,
      "1620": 3836,
      "atemal": 3837,
      "494": 3838,
      "dj40": 3839,
      "dd350": 3840,
      "dn421": 3841,
      "dh4": 3842,
      "dt4060": 3843,
      "d99989": 3844,
      "dt856": 3845,
      "di7300": 3846,
      "dj9610": 3847,
      "de9289": 3848,
      "de9293": 3849,
      "dl89159": 3850,
      "dh532": 3851,
      "dj810": 3852,
      "d9348": 3853,
      "guatemal": 3854,
      "v224647": 3855,
      "di6783": 3856,
      "d1481": 3857,
      "dq8789": 3858,
      "dd3a8": 3859,
      "dq2733": 3860,
      "dt40605a": 3861,
      "guatemalan": 3862,
      "473": 3863,
      "471": 3864,
      "d110": 3865,
      "de273": 3866,
      "d4210": 3867,
      "dr12": 3868,
      "dj679": 3869,
      "d71230": 3870,
      "d0419": 3871,
      "dv4574": 3872,
      "dj9589": 3873,
      "di613": 3874,
      "dd61810": 3875,
      "d34540": 3876,
      "d23871": 3877,
      "dm4806": 3878,
      "d72939": 3879,
      "567": 3880,
      "1570": 3881,
      "1580": 3882,
      "1760": 3883,
      "2025": 3884,
      "v223764": 3885,
      "463": 3886,
      "d78639": 3887,
      "dj386": 3888,
      "dn62": 3889,
      "dm46": 3890,
      "de063": 3891,
      "d7213": 3892,
      "dd693": 3893,
      "d3510": 3894,
      "d3576": 3895,
      "dc719": 3896,
      "dv0179": 3897,
      "dv066": 3898,
      "dv642": 3899,
      "dk7011": 3900,
      "d48241": 3901,
      "dg911": 3902,
      "d9092": 3903,
      "di871": 3904,
      "dk2970": 3905,
      "dm25512": 3906,
      "dz1624": 3907,
      "dv1351": 3908,
      "de9290": 3909,
      "478": 3910,
      "467": 3911,
      "557": 3912,
      "711": 3913,
      "d616": 3914,
      "1345": 3915,
      "1430": 3916,
      "de213": 3917,
      "dv65": 3918,
      "dv167": 3919,
      "dz488": 3920,
      "d4779": 3921,
      "dk581": 3922,
      "dg7": 3923,
      "de8783": 3924,
      "d42820": 3925,
      "d42831": 3926,
      "dc710": 3927,
      "432a": 3928,
      "di69351": 3929,
      "d9070": 3930,
      "d36816": 3931,
      "dl974": 3932,
      "d72293": 3933,
      "dm25561": 3934,
      "dm4802": 3935,
      "ds00432a": 3936,
      "di7771": 3937,
      "d61610": 3938,
      "474": 3939,
      "498": 3940,
      "546": 3941,
      "539": 3942,
      "7243": 3943,
      "v227243": 3944,
      "1089": 3945,
      "1515": 3946,
      "dz89": 3947,
      "d443": 3948,
      "81xa": 3949,
      "d78630": 3950,
      "d78703": 3951,
      "dk651": 3952,
      "m222062": 3953,
      "d7103": 3954,
      "dh53": 3955,
      "d5790": 3956,
      "db942": 3957,
      "d4464": 3958,
      "dv0251": 3959,
      "dk5903": 3960,
      "401a": 3961,
      "dk7210": 3962,
      "dk661": 3963,
      "ds0081xa": 3964,
      "d59080": 3965,
      "ds12401a": 3966,
      "dv6549": 3967,
      "479": 3968,
      "1215": 3969,
      "4050": 3970,
      "dv1749": 3971,
      "anti": 3972,
      "2800": 3973,
      "7242": 3974,
      "49xa": 3975,
      "dc159": 3976,
      "dc569": 3977,
      "d2448": 3978,
      "d24901": 3979,
      "d4556": 3980,
      "1565": 3981,
      "d20502": 3982,
      "dr042": 3983,
      "d79551": 3984,
      "di7103": 3985,
      "de9420": 3986,
      "d4568": 3987,
      "d656": 3988,
      "ds0101": 3989,
      "d820": 3990,
      "dz934": 3991,
      "di63449": 3992,
      "de10319": 3993,
      "dt464x5a": 3994,
      "dv1509": 3995,
      "483": 3996,
      "d86": 3997,
      "xs": 3998,
      "v227242": 3999,
      "1390": 4000,
      "1435": 4001,
      "di119": 4002,
      "di158": 4003,
      "de538": 4004,
      "d5285": 4005,
      "d5571": 4006,
      "dk209": 4007,
      "dn312": 4008,
      "di2541": 4009,
      "dv1279": 4010,
      "d99669": 4011,
      "d4552": 4012,
      "de099": 4013,
      "d72972": 4014,
      "d4387": 4015,
      "dr0603": 4016,
      "dj9620": 4017,
      "d27549": 4018,
      "de9426": 4019,
      "dk920": 4020,
      "d03842": 4021,
      "dd573": 4022,
      "d57450": 4023,
      "d37739": 4024,
      "df1420": 4025,
      "dh9313": 4026,
      "dy92003": 4027,
      "dg2581": 4028,
      "035": 4029,
      "2180": 4030,
      "4167": 4031,
      "ore": 4032,
      "v224167": 4033,
      "5099": 4034,
      "l227470": 4035,
      "1495": 4036,
      "704": 4037,
      "dv02": 4038,
      "dz5309": 4039,
      "2650": 4040,
      "803": 4041,
      "d2409": 4042,
      "df410": 4043,
      "dd65": 4044,
      "dg3": 4045,
      "d7100": 4046,
      "dz9111": 4047,
      "dt5099": 4048,
      "d2410": 4049,
      "di5030": 4050,
      "de912": 4051,
      "dz85850": 4052,
      "dk8681": 4053,
      "dv1201": 4054,
      "d1830": 4055,
      "dk660": 4056,
      "dz932": 4057,
      "d34291": 4058,
      "dz87442": 4059,
      "d9694": 4060,
      "dr6883": 4061,
      "dv0259": 4062,
      "dt50995a": 4063,
      "514": 4064,
      "661": 4065,
      "722": 4066,
      "881": 4067,
      "ern": 4068,
      "dl270": 4069,
      "1265": 4070,
      "1415": 4071,
      "98a": 4072,
      "29d": 4073,
      "d42989": 4074,
      "dk860": 4075,
      "dk259": 4076,
      "547": 4077,
      "d30300": 4078,
      "dc163": 4079,
      "dt412": 4080,
      "d78096": 4081,
      "d56889": 4082,
      "di699": 4083,
      "dc785": 4084,
      "d70725": 4085,
      "d4413": 4086,
      "dr414": 4087,
      "dk743": 4088,
      "de8704": 4089,
      "212a": 4090,
      "dy92002": 4091,
      "dl033": 4092,
      "d41041": 4093,
      "eastern": 4094,
      "dz96659": 4095,
      "dc8281": 4096,
      "dv552": 4097,
      "dg3184": 4098,
      "dt41295a": 4099,
      "461": 4100,
      "518": 4101,
      "628": 4102,
      "ro": 4103,
      "1595": 4104,
      "bpd": 4105,
      "27xxa": 4106,
      "d4370": 4107,
      "d420": 4108,
      "884": 4109,
      "d259": 4110,
      "5412xa": 4111,
      "dj339": 4112,
      "dg56": 4113,
      "d30590": 4114,
      "db441": 4115,
      "d5693": 4116,
      "d45182": 4117,
      "ds5412xa": 4118,
      "d7098": 4119,
      "d79099": 4120,
      "d34931": 4121,
      "dt827xxa": 4122,
      "da411": 4123,
      "db9681": 4124,
      "590a": 4125,
      "d6824": 4126,
      "dw0": 4127,
      "dv1009": 4128,
      "dz807": 4129,
      "dl089": 4130,
      "d73025": 4131,
      "dk8590": 4132,
      "dg919": 4133,
      "d72888": 4134,
      "di82611": 4135,
      "df1190": 4136,
      "mins": 4137,
      "dm25511": 4138,
      "dt501x6a": 4139,
      "d56722": 4140,
      "d0549": 4141,
      "v224643": 4142,
      "de71440": 4143,
      "045": 4144,
      "uf": 4145,
      "1095": 4146,
      "1315": 4147,
      "1585": 4148,
      "59xa": 4149,
      "hepar": 4150,
      "di469": 4151,
      "d490": 4152,
      "1405": 4153,
      "d7842": 4154,
      "d78651": 4155,
      "dr571": 4156,
      "8459xa": 4157,
      "d274": 4158,
      "d2564": 4159,
      "dj392": 4160,
      "d28262": 4161,
      "d3682": 4162,
      "dc509": 4163,
      "de8502": 4164,
      "dt8459xa": 4165,
      "d9950": 4166,
      "d29410": 4167,
      "d72981": 4168,
      "d1911": 4169,
      "m229057": 4170,
      "d44022": 4171,
      "dc7982": 4172,
      "d03810": 4173,
      "tap": 4174,
      "d73710": 4175,
      "d1713": 4176,
      "d11284": 4177,
      "d3594": 4178,
      "heparin": 4179,
      "046": 4180,
      "526": 4181,
      "614": 4182,
      "634": 4183,
      "d61": 4184,
      "d156": 4185,
      "1730": 4186,
      "1645": 4187,
      "1640": 4188,
      "di248": 4189,
      "di953": 4190,
      "2889": 4191,
      "2325": 4192,
      "833": 4193,
      "003": 4194,
      "8250": 4195,
      "d5733": 4196,
      "d7868": 4197,
      "m222021": 4198,
      "dg8250": 4199,
      "dz8571": 4200,
      "dn3": 4201,
      "dn2889": 4202,
      "dv1584": 4203,
      "dh168": 4204,
      "dh1089": 4205,
      "o226591": 4206,
      "d78094": 4207,
      "1980": 4208,
      "dj470": 4209,
      "di314": 4210,
      "d3363": 4211,
      "dd6862": 4212,
      "d68110": 4213,
      "dj984": 4214,
      "dz98890": 4215,
      "d51902": 4216,
      "dz96649": 4217,
      "d34511": 4218,
      "d57410": 4219,
      "d8054": 4220,
      "ds2249xa": 4221,
      "d1123": 4222,
      "dl89611": 4223,
      "dl89621": 4224,
      "dm19011": 4225,
      "d42090": 4226,
      "484": 4227,
      "532": 4228,
      "cin": 4229,
      "gen": 4230,
      "kore": 4231,
      "x2": 4232,
      "z0": 4233,
      "22a": 4234,
      "1485": 4235,
      "1540": 4236,
      "1785": 4237,
      "6080": 4238,
      "1685": 4239,
      "de441": 4240,
      "micin": 4241,
      "dr579": 4242,
      "dg90": 4243,
      "dg510": 4244,
      "dm6080": 4245,
      "d4588": 4246,
      "d20240": 4247,
      "d1974": 4248,
      "dt8743": 4249,
      "d78723": 4250,
      "di6201": 4251,
      "dg8921": 4252,
      "di361": 4253,
      "dz8052": 4254,
      "d8220": 4255,
      "tamicin": 4256,
      "di514": 4257,
      "dr4021": 4258,
      "de1152": 4259,
      "di824z": 4260,
      "dl893": 4261,
      "di82b": 4262,
      "dc91z0": 4263,
      "d87342": 4264,
      "dh4902": 4265,
      "gentamicin": 4266,
      "korean": 4267,
      "522": 4268,
      "523": 4269,
      "536": 4270,
      "a0": 4271,
      "2275": 4272,
      "5010": 4273,
      "1755": 4274,
      "phil": 4275,
      "457": 4276,
      "de90": 4277,
      "2310": 4278,
      "892": 4279,
      "d4299": 4280,
      "d78831": 4281,
      "d28731": 4282,
      "dd701": 4283,
      "dm32": 4284,
      "neutro": 4285,
      "d5716": 4286,
      "1745": 4287,
      "d7921": 4288,
      "d4478": 4289,
      "dk7040": 4290,
      "do0": 4291,
      "d6111": 4292,
      "dk8309": 4293,
      "xx0": 4294,
      "dk632": 4295,
      "dc865": 4296,
      "d1173": 4297,
      "di6340": 4298,
      "dl7634": 4299,
      "de9478": 4300,
      "do240": 4301,
      "dd3502": 4302,
      "di69954": 4303,
      "d27400": 4304,
      "neutrophil": 4305,
      "002": 4306,
      "x7": 4307,
      "2232": 4308,
      "568": 4309,
      "l227452": 4310,
      "1465": 4311,
      "1770": 4312,
      "1780": 4313,
      "1615": 4314,
      "1635": 4315,
      "dv16": 4316,
      "dz430": 4317,
      "d430": 4318,
      "8299": 4319,
      "dk94": 4320,
      "84a0": 4321,
      "dj155": 4322,
      "d28981": 4323,
      "d28411": 4324,
      "dd619": 4325,
      "dz820": 4326,
      "d30520": 4327,
      "dc84a0": 4328,
      "dm47": 4329,
      "dt500": 4330,
      "d78050": 4331,
      "ds400": 4332,
      "d92232": 4333,
      "dd631": 4334,
      "di638": 4335,
      "dj9611": 4336,
      "d25200": 4337,
      "dd680": 4338,
      "de1022": 4339,
      "ds066": 4340,
      "dg930": 4341,
      "d8052": 4342,
      "dl930": 4343,
      "de2749": 4344,
      "dv551": 4345,
      "dl979": 4346,
      "034": 4347,
      "1830": 4348,
      "1715": 4349,
      "di743": 4350,
      "1910": 4351,
      "2080": 4352,
      "m223257": 4353,
      "d7827": 4354,
      "d7854": 4355,
      "dk550": 4356,
      "d40291": 4357,
      "dj384": 4358,
      "dd735": 4359,
      "d3379": 4360,
      "dn30": 4361,
      "dc8299": 4362,
      "d25070": 4363,
      "dm329": 4364,
      "d5300": 4365,
      "db356": 4366,
      "d9961": 4367,
      "d45385": 4368,
      "d2910": 4369,
      "d29562": 4370,
      "m229618": 4371,
      "de83111": 4372,
      "db957": 4373,
      "d6825": 4374,
      "da4189": 4375,
      "da4152": 4376,
      "d72889": 4377,
      "dd7581": 4378,
      "dm79a": 4379,
      "d1508": 4380,
      "d20040": 4381,
      "dl7632": 4382,
      "d6268": 4383,
      "d8730": 4384,
      "di824z2": 4385,
      "ds40022a": 4386,
      "2175": 4387,
      "3100": 4388,
      "487": 4389,
      "d91": 4390,
      "1690": 4391,
      "dv166": 4392,
      "m227528": 4393,
      "d523": 4394,
      "d2764": 4395,
      "m222037": 4396,
      "df411": 4397,
      "dh570": 4398,
      "de7849": 4399,
      "dz87898": 4400,
      "dt179": 4401,
      "d9974": 4402,
      "d45384": 4403,
      "dk763": 4404,
      "d99809": 4405,
      "d36900": 4406,
      "de8844": 4407,
      "dv011": 4408,
      "dz8589": 4409,
      "2425": 4410,
      "dm479": 4411,
      "dz96612": 4412,
      "dz91120": 4413,
      "d462": 4414,
      "d41511": 4415,
      "di513": 4416,
      "dr4023": 4417,
      "dz96652": 4418,
      "de11628": 4419,
      "dv5331": 4420,
      "ds065x9a": 4421,
      "d29633": 4422,
      "dt447x6a": 4423,
      "dc3432": 4424,
      "dg9511": 4425,
      "dt500x6a": 4426,
      "dm79a3": 4427,
      "dh5702": 4428,
      "573": 4429,
      "998": 4430,
      "dd259": 4431,
      "566": 4432,
      "1890": 4433,
      "6000": 4434,
      "2410": 4435,
      "dv165": 4436,
      "dv171": 4437,
      "904": 4438,
      "dz84": 4439,
      "663": 4440,
      "771": 4441,
      "d27903": 4442,
      "d78492": 4443,
      "dk40": 4444,
      "dn186": 4445,
      "dc20": 4446,
      "d25082": 4447,
      "dm000": 4448,
      "dm008": 4449,
      "3005": 4450,
      "db349": 4451,
      "d56983": 4452,
      "d4578": 4453,
      "d78722": 4454,
      "d43883": 4455,
      "dv1004": 4456,
      "d03819": 4457,
      "dy92018": 4458,
      "dz90722": 4459,
      "d73017": 4460,
      "dz95820": 4461,
      "dg912": 4462,
      "di82612": 4463,
      "dm5489": 4464,
      "d75312": 4465,
      "dl02214": 4466,
      "di69851": 4467,
      "dw19xxxd": 4468,
      "dt17990a": 4469,
      "dz8489": 4470,
      "dm00012": 4471,
      "dm00812": 4472,
      "2700": 4473,
      "2900": 4474,
      "2290": 4475,
      "1545": 4476,
      "592": 4477,
      "di213": 4478,
      "de230": 4479,
      "1970": 4480,
      "dv7": 4481,
      "20a": 4482,
      "788": 4483,
      "1790": 4484,
      "2110": 4485,
      "647": 4486,
      "d4421": 4487,
      "d27950": 4488,
      "dz811": 4489,
      "d30400": 4490,
      "dc160": 4491,
      "dc679": 4492,
      "d25041": 4493,
      "1605": 4494,
      "d56731": 4495,
      "d4530": 4496,
      "d4549": 4497,
      "1705": 4498,
      "ds8": 4499,
      "dj948": 4500,
      "d0479": 4501,
      "de0500": 4502,
      "d4321": 4503,
      "d99881": 4504,
      "de1169": 4505,
      "dv854": 4506,
      "dz8042": 4507,
      "d74781": 4508,
      "de8543": 4509,
      "dz8774": 4510,
      "dy92199": 4511,
      "d75989": 4512,
      "dz22321": 4513,
      "477": 4514,
      "517": 4515,
      "rate": 4516,
      "1880": 4517,
      "sed": 4518,
      "7081": 4519,
      "di120": 4520,
      "di83": 4521,
      "di160": 4522,
      "1795": 4523,
      "dz833": 4524,
      "dk029": 4525,
      "dr61": 4526,
      "dr202": 4527,
      "dr1110": 4528,
      "d290": 4529,
      "dj438": 4530,
      "d28809": 4531,
      "dy95": 4532,
      "dc259": 4533,
      "dm0": 4534,
      "dv1085": 4535,
      "dz6833": 4536,
      "d45382": 4537,
      "ds818": 4538,
      "d97081": 4539,
      "1655": 4540,
      "1741": 4541,
      "d78729": 4542,
      "dv090": 4543,
      "dm8448": 4544,
      "d73013": 4545,
      "dk5660": 4546,
      "dc779": 4547,
      "d9072": 4548,
      "dz936": 4549,
      "d4786": 4550,
      "d47830": 4551,
      "d1509": 4552,
      "d00863": 4553,
      "df1410": 4554,
      "d66411": 4555,
      "dw010": 4556,
      "dm8448xa": 4557,
      "033": 4558,
      "724": 4559,
      "dur": 4560,
      "sub": 4561,
      "1815": 4562,
      "2550": 4563,
      "2525": 4564,
      "1930": 4565,
      "2020": 4566,
      "2750": 4567,
      "dz223": 4568,
      "587": 4569,
      "38a": 4570,
      "d5239": 4571,
      "d27503": 4572,
      "dr159": 4573,
      "d2874": 4574,
      "dg728": 4575,
      "d3159": 4576,
      "1505": 4577,
      "d25053": 4578,
      "d25001": 4579,
      "dh40": 4580,
      "db372": 4581,
      "149xa": 4582,
      "dv1242": 4583,
      "d5185": 4584,
      "ds220": 4585,
      "ds320": 4586,
      "d29281": 4587,
      "dt8149xa": 4588,
      "de8493": 4589,
      "di6200": 4590,
      "d49300": 4591,
      "d1640": 4592,
      "dv8544": 4593,
      "dv8531": 4594,
      "dk311": 4595,
      "dr4189": 4596,
      "d33183": 4597,
      "dm4854": 4598,
      "dk635": 4599,
      "d0090": 4600,
      "dc8518": 4601,
      "d72633": 4602,
      "di7772": 4603,
      "d65961": 4604,
      "dt447x5a": 4605,
      "dw010xxa": 4606,
      "dural": 4607,
      "subdural": 4608,
      "dz22322": 4609,
      "493": 4610,
      "496": 4611,
      "513": 4612,
      "519": 4613,
      "583": 4614,
      "531": 4615,
      "612": 4616,
      "d82": 4617,
      "2240": 4618,
      "10x0": 4619,
      "dl309": 4620,
      "dl4050": 4621,
      "596": 4622,
      "de109": 4623,
      "de278": 4624,
      "dv54": 4625,
      "2825": 4626,
      "dz888": 4627,
      "d5109": 4628,
      "dd869": 4629,
      "d30563": 4630,
      "dc642": 4631,
      "d53020": 4632,
      "de781": 4633,
      "dt174": 4634,
      "d5730": 4635,
      "d5959": 4636,
      "d4538": 4637,
      "d20201": 4638,
      "d04184": 4639,
      "dz8612": 4640,
      "dz8611": 4641,
      "d4408": 4642,
      "d44031": 4643,
      "dc782": 4644,
      "dj9690": 4645,
      "dc774": 4646,
      "dr1314": 4647,
      "d53560": 4648,
      "dr630": 4649,
      "d71695": 4650,
      "dr1032": 4651,
      "d73719": 4652,
      "di82621": 4653,
      "d79319": 4654,
      "dz48815": 4655,
      "dk4030": 4656,
      "dh4010x0": 4657,
      "dt17490a": 4658,
      "039": 4659,
      "2190": 4660,
      "886": 4661,
      "1735": 4662,
      "1670": 4663,
      "de95": 4664,
      "dz751": 4665,
      "838": 4666,
      "dk0": 4667,
      "dk208": 4668,
      "dg248": 4669,
      "d317": 4670,
      "dv5864": 4671,
      "d7280": 4672,
      "141xa": 4673,
      "dt178": 4674,
      "di2582": 4675,
      "dv1089": 4676,
      "dz6844": 4677,
      "d4519": 4678,
      "1805": 4679,
      "d72971": 4680,
      "dt8141xa": 4681,
      "di618": 4682,
      "di635": 4683,
      "d1984": 4684,
      "dc770": 4685,
      "dg894": 4686,
      "d2531": 4687,
      "di319": 4688,
      "dm868": 4689,
      "dv626": 4690,
      "de10649": 4691,
      "dr6510": 4692,
      "dz808": 4693,
      "d53540": 4694,
      "xxd": 4695,
      "d4599": 4696,
      "dz992": 4697,
      "dm79601": 4698,
      "d47831": 4699,
      "di82c": 4700,
      "dm5430": 4701,
      "de10622": 4702,
      "dz3a38": 4703,
      "d72691": 4704,
      "d55320": 4705,
      "d85221": 4706,
      "di6523": 4707,
      "dj15211": 4708,
      "dg7241": 4709,
      "d82021": 4710,
      "dr402112": 4711,
      "813": 4712,
      "d89": 4713,
      "747": 4714,
      "dl739": 4715,
      "1895": 4716,
      "4000": 4717,
      "1935": 4718,
      "2775": 4719,
      "808": 4720,
      "d558": 4721,
      "o226565": 4722,
      "m225151": 4723,
      "dj80": 4724,
      "df09": 4725,
      "dd860": 4726,
      "dg2": 4727,
      "dg47": 4728,
      "dg250": 4729,
      "d3371": 4730,
      "d3089": 4731,
      "d3009": 4732,
      "d25052": 4733,
      "dm170": 4734,
      "d5679": 4735,
      "dk7681": 4736,
      "d35800": 4737,
      "dc7901": 4738,
      "dv8545": 4739,
      "de9305": 4740,
      "de1040": 4741,
      "d6988": 4742,
      "dz980": 4743,
      "dd5700": 4744,
      "dj84116": 4745,
      "dr1031": 4746,
      "d72252": 4747,
      "dk2960": 4748,
      "dt80212a": 4749,
      "d44489": 4750,
      "dh02401": 4751,
      "dt82538a": 4752,
      "do095": 4753,
      "486": 4754,
      "537": 4755,
      "643": 4756,
      "721": 4757,
      "hon": 4758,
      "2260": 4759,
      "2220": 4760,
      "dl88": 4761,
      "1282": 4762,
      "1885": 4763,
      "1111a": 4764,
      "4275": 4765,
      "1940": 4766,
      "24a": 4767,
      "dv1741": 4768,
      "2035": 4769,
      "9761": 4770,
      "2160": 4771,
      "d5199": 4772,
      "dk220": 4773,
      "dr935": 4774,
      "dr161": 4775,
      "dr971": 4776,
      "d2102": 4777,
      "df603": 4778,
      "d344": 4779,
      "d3129": 4780,
      "d7963": 4781,
      "dn839": 4782,
      "d3003": 4783,
      "dc92": 4784,
      "dc181": 4785,
      "dm1a": 4786,
      "di4901": 4787,
      "db001": 4788,
      "l229355": 4789,
      "m221393": 4790,
      "d569": 4791,
      "d04102": 4792,
      "d1978": 4793,
      "dk7689": 4794,
      "0811": 4795,
      "da430": 4796,
      "da0811": 4797,
      "d78760": 4798,
      "d36960": 4799,
      "d70721": 4800,
      "dc7962": 4801,
      "de9288": 4802,
      "dv6107": 4803,
      "dv6142": 4804,
      "dr1313": 4805,
      "dv1007": 4806,
      "dr978": 4807,
      "ds01111a": 4808,
      "dc7961": 4809,
      "dk56600": 4810,
      "d4846": 4811,
      "d57400": 4812,
      "dd6489": 4813,
      "d72885": 4814,
      "dm79606": 4815,
      "d9341": 4816,
      "d78907": 4817,
      "dd8689": 4818,
      "di67848": 4819,
      "dt461": 4820,
      "duran": 4821,
      "dv1642": 4822,
      "dn3090": 4823,
      "de9539": 4824,
      "di63512": 4825,
      "dm868x7": 4826,
      "honduran": 4827,
      "dm1a9": 4828,
      "2130": 4829,
      "2680": 4830,
      "556": 4831,
      "574": 4832,
      "542": 4833,
      "629": 4834,
      "796": 4835,
      "9375": 4836,
      "ve": 4837,
      "l229375": 4838,
      "m221282": 4839,
      "dl984": 4840,
      "594": 4841,
      "65171": 4842,
      "di258": 4843,
      "de969": 4844,
      "1945": 4845,
      "3050": 4846,
      "2060": 4847,
      "2040": 4848,
      "100xa": 4849,
      "2950": 4850,
      "d4260": 4851,
      "d2769": 4852,
      "553": 4853,
      "dj188": 4854,
      "d2819": 4855,
      "dn485": 4856,
      "dc884": 4857,
      "de883": 4858,
      "dm65171": 4859,
      "dh5010": 4860,
      "d5821": 4861,
      "d079": 4862,
      "dt462": 4863,
      "d9992": 4864,
      "d56881": 4865,
      "d3668": 4866,
      "dv8532": 4867,
      "de915": 4868,
      "de9429": 4869,
      "dk740": 4870,
      "do770": 4871,
      "d1541": 4872,
      "dq0": 4873,
      "d70709": 4874,
      "dk5289": 4875,
      "ds0100xa": 4876,
      "dz8507": 4877,
      "native": 4878,
      "dm79604": 4879,
      "dl958": 4880,
      "d1717": 4881,
      "d20030": 4882,
      "dm5412": 4883,
      "dt80818": 4884,
      "d9596": 4885,
      "dl02411": 4886,
      "di6521": 4887,
      "di6012": 4888,
      "dl97412": 4889,
      "d1561": 4890,
      "di8390": 4891,
      "dt461x5a": 4892,
      "di25810": 4893,
      "dt80818a": 4894,
      "036": 4895,
      "9103": 4896,
      "13a": 4897,
      "1355": 4898,
      "dl732": 4899,
      "1765": 4900,
      "de210": 4901,
      "dv9103": 4902,
      "2015": 4903,
      "o226574": 4904,
      "577": 4905,
      "2625": 4906,
      "938": 4907,
      "dk2": 4908,
      "dk649": 4909,
      "dk580": 4910,
      "dj869": 4911,
      "d28959": 4912,
      "dg975": 4913,
      "d398": 4914,
      "d3432": 4915,
      "dv5862": 4916,
      "d053": 4917,
      "dt360": 4918,
      "dy9289": 4919,
      "db259": 4920,
      "ds308": 4921,
      "d20780": 4922,
      "dz7951": 4923,
      "dr030": 4924,
      "da630": 4925,
      "d7942": 4926,
      "d3530": 4927,
      "di889": 4928,
      "o226602": 4929,
      "dy92039": 4930,
      "dv4283": 4931,
      "dk859": 4932,
      "d1889": 4933,
      "dk621": 4934,
      "d57451": 4935,
      "dk5792": 4936,
      "dr40235": 4937,
      "d57511": 4938,
      "d52100": 4939,
      "dh9319": 4940,
      "d1744": 4941,
      "dl97919": 4942,
      "di82c11": 4943,
      "dt462x5a": 4944,
      "dg9751": 4945,
      "ds30813a": 4946,
      "512": 4947,
      "534": 4948,
      "778": 4949,
      "2210": 4950,
      "2225": 4951,
      "598": 4952,
      "1920": 4953,
      "1955": 4954,
      "d4419": 4955,
      "d4275": 4956,
      "d27900": 4957,
      "55a": 4958,
      "dk027": 4959,
      "dk863": 4960,
      "dr680": 4961,
      "dj156": 4962,
      "df418": 4963,
      "dd599": 4964,
      "dd563": 4965,
      "d73005": 4966,
      "d054": 4967,
      "dt4275": 4968,
      "dv4971": 4969,
      "d99679": 4970,
      "d70707": 4971,
      "de8496": 4972,
      "dk713": 4973,
      "dk761": 4974,
      "dr0602": 4975,
      "di830": 4976,
      "dg939": 4977,
      "d1578": 4978,
      "d1533": 4979,
      "dc3492": 4980,
      "2375": 4981,
      "da4151": 4982,
      "dt82855a": 4983,
      "d47819": 4984,
      "dv4973": 4985,
      "ds065x1a": 4986,
      "do99344": 4987,
      "d0539": 4988,
      "d99799": 4989,
      "dh5460": 4990,
      "dh5461": 4991,
      "dr402212": 4992,
      "dh02402": 4993,
      "o229413": 4994,
      "d44381": 4995,
      "d29040": 4996,
      "dr402352": 4997,
      "dt4275xa": 4998,
      "2105": 4999
    },
    "merges": [
      "2 2",
      "l 22",
      "v 22",
      "v22 0",
      "1 0",
      "u m",
      "e r",
      "m 22",
      "l22 0",
      "5 6",
      "1 3",
      "v220 0",
      "7 4",
      "d l",
      "1 2",
      "a l",
      "s er",
      "ser um",
      "m e",
      "i n",
      "5 0",
      "1 8",
      "m g",
      "l22 56",
      "v2200 4",
      "l22 74",
      "me q",
      "r e",
      "1 4",
      "l220 6",
      "1 5",
      "b p",
      "c o",
      "5 9",
      "1 1",
      "a t",
      "9 8",
      "l o",
      "m m",
      "i um",
      "6 5",
      "1 7",
      "6 0",
      "h g",
      "mm hg",
      "o n",
      "s e",
      "4 2",
      "v220 18",
      "o 22",
      "2 5",
      "p h",
      "3 7",
      "6 1",
      "s s",
      "7 0",
      "bp m",
      "a r",
      "4 5",
      "1 6",
      "h r",
      "u n",
      "h e",
      "d i",
      "d e",
      "t i",
      "4 0",
      "g h",
      "1 9",
      "2 4",
      "3 0",
      "u re",
      "i gh",
      "13 0",
      "o d",
      "i t",
      "7 5",
      "d v",
      "2 0",
      "a n",
      "7 8",
      "17 9",
      "3 5",
      "12 0",
      "7 3",
      "2 8",
      "o l",
      "u l",
      "i on",
      "9 0",
      "o t",
      "l220 5",
      "v22004 5",
      "v22 37",
      "ph o",
      "2 7",
      "9 7",
      "v2237 61",
      "igh t",
      "4 3",
      "b in",
      "he m",
      "2 3",
      "2 1",
      "6 7",
      "9 9",
      "v22004 7",
      "10 0",
      "v22004 6",
      "p re",
      "6 8",
      "ss ure",
      "pre ssure",
      "d z",
      "6 6",
      "g l",
      "2 9",
      "o22 65",
      "u co",
      "gl uco",
      "gluco se",
      "v220 179",
      "v22018 0",
      "v22018 1",
      "m l",
      "er i",
      "6 4",
      "e n",
      "c al",
      "m22 59",
      "cal c",
      "ar t",
      "8 3",
      "5 7",
      "b lo",
      "blo od",
      "4 6",
      "5 1",
      "o u",
      "eri al",
      "art erial",
      "2 6",
      "ou s",
      "7 7",
      "al ar",
      "alar m",
      "in e",
      "w h",
      "5 8",
      "se c",
      "9 3",
      "co un",
      "coun t",
      "m22 5",
      "l220 22",
      "t e",
      "8 0",
      "e d",
      "i u",
      "o2265 59",
      "r i",
      "n bp",
      "at e",
      "pho s",
      "i z",
      "ion iz",
      "calc ium",
      "ioniz ed",
      "c k",
      "5 2",
      "3 8",
      "n e",
      "3 2",
      "ol e",
      "9 6",
      "0 2",
      "d 4",
      "m i",
      "3 9",
      "a ss",
      "p ot",
      "ass ium",
      "pot assium",
      "o22 6",
      "e ight",
      "w eight",
      "8 1",
      "8 7",
      "8 9",
      "0 0",
      "o g",
      "c h",
      "3 3",
      "c r",
      "b mi",
      "s od",
      "sod ium",
      "o cr",
      "at ocr",
      "hem atocr",
      "hematocr it",
      "lo ri",
      "ch lori",
      "chlori de",
      "e t",
      "6 2",
      "f f",
      "er en",
      "di ff",
      "ti al",
      "eren tial",
      "diff erential",
      "at in",
      "g a",
      "a g",
      "d 42",
      "4 4",
      "p l",
      "l2274 42",
      "l2206 45",
      "l2206 02",
      "l2206 15",
      "l2256 24",
      "c re",
      "atin ine",
      "cre atinine",
      "l2274 43",
      "l22 70",
      "l2270 73",
      "b un",
      "h co",
      "hco 3",
      "l2206 21",
      "an ion",
      "ga p",
      "l2205 45",
      "l22022 8",
      "m22 3",
      "8 2",
      "lo bin",
      "hem og",
      "hemog lobin",
      "l2274 57",
      "l2205 46",
      "b c",
      "w bc",
      "l2206 35",
      "l et",
      "ate let",
      "pl atelet",
      "m ag",
      "s ium",
      "ne sium",
      "mag nesium",
      "m22 75",
      "3 4",
      "r ous",
      "pho rous",
      "phos phorous",
      "l2256 77",
      "n on",
      "l2256 25",
      "3 6",
      "8 5",
      "9 1",
      "he ight",
      "it e",
      "wh ite",
      "co 2",
      "8 6",
      "7 2",
      "1 10",
      "14 0",
      "at ure",
      "7 1",
      "d 5",
      "d 27",
      "8 8",
      "3 1",
      "d 78",
      "m p",
      "te mp",
      "o s",
      "4 1",
      "s ti",
      "sti ck",
      "5 5",
      "6 3",
      "r an",
      "er ature",
      "temp erature",
      "o m",
      "p r",
      "o226 56",
      "7 9",
      "d k",
      "a s",
      "d r",
      "6 9",
      "8 4",
      "lo w",
      "h igh",
      "in g",
      "4 9",
      "pr ot",
      "l2256 64",
      "4 8",
      "ti me",
      "a c",
      "hr om",
      "hrom bin",
      "prot hrombin",
      "in r",
      "t t",
      "m22 1",
      "p tt",
      "f ing",
      "g e",
      "ran ge",
      "fing er",
      "l2274 65",
      "l2274 67",
      "16 6",
      "l2274 66",
      "10 1",
      "10 3",
      "o22656 0",
      "9 5",
      "v2200 52",
      "v2200 51",
      "v2200 50",
      "16 8",
      "d 2",
      "9 2",
      "i d",
      "d 40",
      "n bpm",
      "10 2",
      "nbp s",
      "nbp d",
      "7 6",
      "25 8",
      "m22 83",
      "m225 15",
      "5 3",
      "o 2",
      "mm ol",
      "m223 258",
      "un it",
      "unit s",
      "m221 74",
      "m225 166",
      "10 4",
      "9 4",
      "v en",
      "5 4",
      "d j",
      "m22 20",
      "ven ous",
      "a bp",
      "f ole",
      "fole y",
      "10 5",
      "wh ole",
      "d f",
      "10 6",
      "d 28",
      "m2259 75",
      "10 9",
      "d40 19",
      "179 4",
      "m22 1794",
      "d d",
      "d g",
      "10 7",
      "dz 8",
      "m22 2",
      "m222 168",
      "d 3",
      "10 8",
      "13 8",
      "4 7",
      "13 9",
      "11 1",
      "19 0",
      "13 5",
      "l220 2",
      "s ol",
      "13 7",
      "m2220 11",
      "dv 58",
      "11 9",
      "1 12",
      "a b",
      "u te",
      "sol ute",
      "ab solute",
      "1 50",
      "d 7",
      "13 6",
      "as t",
      "14 1",
      "d n",
      "t co2",
      "m22 18",
      "l i",
      "d 30",
      "a se",
      "14 2",
      "m22174 4",
      "l22 65",
      "m2259 42",
      "m22515 2",
      "dv 15",
      "26 2",
      "d y",
      "m2283 15",
      "m2275 22",
      "m22 14",
      "u r",
      "r u",
      "1 13",
      "190 6",
      "m22 1906",
      "d27 24",
      "ac ti",
      "13 4",
      "i li",
      "d c",
      "b ili",
      "ru bin",
      "bili rubin",
      "l22 93",
      "1 15",
      "1 14",
      "0 7",
      "m223 262",
      "12 1",
      "ac id",
      "t ot",
      "tot al",
      "d2 50",
      "0 1",
      "14 3",
      "m2275 23",
      "1 18",
      "l acti",
      "lacti c",
      "11 6",
      "de 8",
      "al t",
      "l2256 68",
      "k al",
      "al kal",
      "ph ate",
      "phos phate",
      "alkal ine",
      "14 5",
      "d m",
      "12 5",
      "di 10",
      "d5 30",
      "38 30",
      "l22 3830",
      "12 9",
      "13 3",
      "d h",
      "de 78",
      "l2206 44",
      "l2256 90",
      "l2205 87",
      "11 7",
      "m2259 10",
      "a bpm",
      "abp d",
      "abp s",
      "b ase",
      "c e",
      "e x",
      "ce ss",
      "ex cess",
      "14 4",
      "l2256 12",
      "i c",
      "13 2",
      "l2256 67",
      "m2214 56",
      "48 28",
      "l22022 4",
      "l2202 35",
      "l22 4828",
      "l2256 98",
      "d 58",
      "1 22",
      "u t",
      "13 1",
      "dz 9",
      "m2218 33",
      "d 0",
      "d42 73",
      "l y",
      "12 8",
      "de78 5",
      "ne ut",
      "c an",
      "12 3",
      "b as",
      "e os",
      "m on",
      "m ph",
      "ly mph",
      "neut s",
      "bas os",
      "mon os",
      "lymph s",
      "12 6",
      "dz 7",
      "dz8 78",
      "d t",
      "m2259 07",
      "12 4",
      "s t",
      "12 7",
      "d 57",
      "dz878 91",
      "dv 45",
      "d4273 1",
      "de 87",
      "d530 81",
      "0 9",
      "o id",
      "v oid",
      "di 4",
      "m22 16",
      "dv 4",
      "40 0",
      "1 60",
      "3 90",
      "14 6",
      "dv15 82",
      "di 25",
      "30 0",
      "o22 66",
      "dy 9",
      "l22 60",
      "a ck",
      "2 19",
      "m22174 9",
      "14 7",
      "20 0",
      "d250 00",
      "9 35",
      "m22 32",
      "m2216 68",
      "o2265 88",
      "d42 80",
      "d b",
      "p e",
      "14 8",
      "l dh",
      "s at",
      "n g",
      "4 19",
      "o226 59",
      "42 0",
      "14 9",
      "l2206 32",
      "l22 935",
      "dk 219",
      "dz7 90",
      "o22 75",
      "18 9",
      "dv 10",
      "m2232 60",
      "m22 13",
      "dv 12",
      "l2256 42",
      "l2256 40",
      "l2256 43",
      "l2256 39",
      "l2256 41",
      "d78 0",
      "m22 9",
      "d 24",
      "d 59",
      "50 0",
      "00 0",
      "d 73",
      "d 99",
      "86 40",
      "r a",
      "v22 8640",
      "d 56",
      "l2202 74",
      "a m",
      "ur ine",
      "m22515 4",
      "it y",
      "t r",
      "o2275 10",
      "v22 53",
      "dz 68",
      "d5 18",
      "u g",
      "b l",
      "l2274 64",
      "d4 140",
      "15 2",
      "d4140 1",
      "m2259 74",
      "u b",
      "15 1",
      "b um",
      "al bum",
      "album in",
      "y c",
      "60 0",
      "15 5",
      "l2265 37",
      "17 2",
      "15 3",
      "l2274 56",
      "di 50",
      "di25 10",
      "15 4",
      "dv58 61",
      "d 45",
      "t ub",
      "tub e",
      "bl ack",
      "d30 51",
      "d3 11",
      "17 0",
      "1 56",
      "df 3",
      "ri can",
      "d s",
      "d58 49",
      "d28 59",
      "67 9",
      "d24 49",
      "p stick",
      "di pstick",
      "73 4",
      "f ic",
      "i fic",
      "x a",
      "l220 734",
      "v ity",
      "c ific",
      "g ra",
      "s pe",
      "gra vity",
      "spe cific",
      "23 15",
      "l2274 71",
      "m2213 85",
      "at ion",
      "ur ation",
      "sat uration",
      "m22 2315",
      "i an",
      "m2283 40",
      "df 419",
      "df3 29",
      "0 3",
      "dg 4",
      "di4 89",
      "1 61",
      "m225 83",
      "d4 93",
      "0 4",
      "15 9",
      "a f",
      "af rican",
      "l22022 7",
      "eri can",
      "am erican",
      "c he",
      "che st",
      "m yc",
      "de 93",
      "myc in",
      "15 7",
      "15 8",
      "dv 46",
      "d 70",
      "d 29",
      "30 9",
      "18 1",
      "dv 43",
      "1 98",
      "dy9 22",
      "dj 9",
      "de8 78",
      "d 20",
      "b r",
      "v an",
      "co mycin",
      "van comycin",
      "27 23",
      "m22 96",
      "d2 78",
      "d3 2723",
      "3 679",
      "l22 3679",
      "74 9",
      "l2260 62",
      "l2260 63",
      "16 3",
      "as ian",
      "m229 420",
      "o22659 9",
      "70 0",
      "d4 96",
      "16 2",
      "d0 4",
      "dz790 1",
      "5 a",
      "d 9",
      "18 0",
      "de 0",
      "d42 8",
      "f i",
      "in og",
      "br inog",
      "fi brinog",
      "fibrinog en",
      "98 6",
      "d7 90",
      "1 65",
      "m2218 28",
      "dv 8",
      "0 5",
      "l2274 68",
      "18 3",
      "d 72",
      "80 0",
      "dn 179",
      "dd 6",
      "x 5a",
      "0 6",
      "de 83",
      "64 9",
      "l2293 59",
      "l2293 60",
      "l2293 61",
      "l22935 7",
      "l22935 8",
      "di489 1",
      "66 9",
      "d 19",
      "d om",
      "v2237 62",
      "dv58 66",
      "d 34",
      "17 3",
      "3 50",
      "18 2",
      "m2283 16",
      "d27 65",
      "m b",
      "2 50",
      "16 7",
      "l2274 29",
      "73 3",
      "o r",
      "dz 79",
      "d 43",
      "dv46 2",
      "d42 83",
      "u al",
      "d27 20",
      "6 50",
      "h er",
      "ot her",
      "d40 390",
      "4 50",
      "d4 86",
      "1 74",
      "17 5",
      "d59 90",
      "l2265 40",
      "m22 90",
      "re s",
      "m2220 56",
      "t f",
      "id ual",
      "res idual",
      "p on",
      "o pon",
      "ri c",
      "l2265 34",
      "tr opon",
      "tropon in",
      "16 4",
      "dt 8",
      "5 309",
      "de0 39",
      "d73 300",
      "dz8 67",
      "l2256 34",
      "dj 4",
      "l2274 45",
      "v2253 12",
      "70 1",
      "et co2",
      "x ed",
      "dv 103",
      "mi xed",
      "d27 61",
      "d30 000",
      "v22 5309",
      "v2253 10",
      "dg4 733",
      "18 4",
      "18 5",
      "16 9",
      "s on",
      "i s",
      "22 0",
      "de 119",
      "dd 649",
      "d 60",
      "j ack",
      "at t",
      "pr att",
      "jack son",
      "60 1",
      "de 84",
      "90 2",
      "dk 7",
      "dv58 67",
      "dr 0",
      "dy 83",
      "c p",
      "dv15 3",
      "cp k",
      "d2 749",
      "17 8",
      "0 8",
      "dz79 4",
      "de87 1",
      "17 1",
      "dz790 2",
      "d a",
      "d78 7",
      "90 0",
      "14 00",
      "ol ic",
      "m221 986",
      "d3 38",
      "d493 90",
      "di 6",
      "78 9",
      "d42 41",
      "d4 9",
      "d0 70",
      "d58 59",
      "d 79",
      "dy9 29",
      "dj 44",
      "df 172",
      "d4 12",
      "db 9",
      "m2275 25",
      "12 89",
      "dn 390",
      "68 9",
      "ou gh",
      "tr ough",
      "59 0",
      "o22656 1",
      "18 8",
      "63 29",
      "e ur",
      "v22 6329",
      "o2266 27",
      "d9 98",
      "df172 10",
      "l2256 38",
      "dv45 82",
      "di 9",
      "m22583 4",
      "17 6",
      "de 669",
      "dz 86",
      "d4 40",
      "78 1",
      "59 09",
      "2 10",
      "l2265 36",
      "c y",
      "g ran",
      "u lo",
      "cy te",
      "gran ulo",
      "granulo cyte",
      "l2256 37",
      "17 7",
      "os m",
      "d 36",
      "di 7",
      "l2274 55",
      "98 1",
      "d4 168",
      "b an",
      "ban ds",
      "m22 1289",
      "d 198",
      "19 7",
      "dv45 81",
      "h is",
      "l atin",
      "p an",
      "51 50",
      "his pan",
      "latin o",
      "hispan ic",
      "d7 15",
      "5 50",
      "m22 5150",
      "20 1",
      "m2275 36",
      "d 16",
      "d2765 1",
      "d 35",
      "de 88",
      "p s",
      "y ps",
      "at yps",
      "dc 78",
      "o2265 75",
      "l2293 56",
      "8 60",
      "d338 29",
      "45 1",
      "i mm",
      "d70 7",
      "granulocyte s",
      "imm ature",
      "d5 119",
      "28 0",
      "93 1",
      "22 1",
      "dj 96",
      "dc 7",
      "50 1",
      "d60 000",
      "50 9",
      "de 11",
      "dj4 5909",
      "di 8",
      "40 9",
      "d278 00",
      "68 2",
      "dv12 51",
      "18 6",
      "l2256 74",
      "df 10",
      "di 110",
      "19 4",
      "d4 4",
      "19 1",
      "dz 5",
      "d518 81",
      "dd 62",
      "18 7",
      "m2296 30",
      "19 3",
      "p ase",
      "li pase",
      "d27 62",
      "d787 91",
      "o226 60",
      "de93 31",
      "d4 1400",
      "d78 8",
      "de83 39",
      "m22515 3",
      "19 5",
      "k n",
      "o w",
      "un kn",
      "ow n",
      "unkn own",
      "d28 51",
      "dz 85",
      "m2214 68",
      "dv4 40",
      "dv 85",
      "o2265 76",
      "dg 89",
      "43 9",
      "dv43 64",
      "24 9",
      "dy922 39",
      "x xa",
      "ran dom",
      "73 9",
      "56 9",
      "70 7",
      "98 9",
      "dg 93",
      "dv58 65",
      "m2283 39",
      "o22656 7",
      "dk 3",
      "22 2",
      "d28 5",
      "dv 0",
      "dj44 9",
      "dz5 111",
      "d 25",
      "dr 4",
      "di 3",
      "d4283 2",
      "d2 75",
      "de 9",
      "dr 3",
      "dm 8",
      "d42 40",
      "dv 707",
      "dn 400",
      "19 2",
      "de87 2",
      "dy922 30",
      "dj9 601",
      "m2275 26",
      "d27 68",
      "dz86 73",
      "3 21",
      "20 2",
      "100 0",
      "2 11",
      "l2256 72",
      "l ase",
      "y lase",
      "dv 6",
      "am ylase",
      "7 28",
      "d278 01",
      "dk 74",
      "m2220 42",
      "m22583 3",
      "2 14",
      "dv10 46",
      "20 9",
      "27 2",
      "m2275 29",
      "dz867 18",
      "44 1",
      "di25 2",
      "dk 70",
      "dk7 66",
      "m22 58",
      "85 10",
      "m2258 35",
      "6 59",
      "c at",
      "cat h",
      "37 0",
      "d 33",
      "98 2",
      "ou t",
      "o pe",
      "eur ope",
      "europe an",
      "74 1",
      "d28 860",
      "3 80",
      "di ast",
      "dg89 29",
      "dd 68",
      "l2274 54",
      "19 9",
      "d 68",
      "de87 98",
      "dv43 3",
      "dd 728",
      "d42 789",
      "74 0",
      "d o",
      "d28 75",
      "20 8",
      "23 8",
      "2 40",
      "d56 400",
      "20 5",
      "d49 121",
      "2 15",
      "dj 189",
      "23 9",
      "15 55",
      "2 30",
      "2 70",
      "dv10 11",
      "d73 3",
      "22 5",
      "o226 600",
      "9 59",
      "dm 109",
      "dt 451",
      "dv8 741",
      "90 9",
      "dz8 58",
      "di4 80",
      "dk 9",
      "m2213 47",
      "de 10",
      "de8 70",
      "m2259 11",
      "o2265 89",
      "dv12 54",
      "de83 42",
      "dk 59",
      "d79 902",
      "2 12",
      "d99 59",
      "dr 13",
      "l2205 81",
      "dg 8",
      "m22 1555",
      "d27 67",
      "7 50",
      "3 10",
      "d57 15",
      "8 50",
      "t o",
      "19 6",
      "o2265 79",
      "28 4",
      "2 13",
      "d w",
      "23 1",
      "di 129",
      "23 3",
      "20 3",
      "dv58 11",
      "22 9",
      "dz 781",
      "m2218 24",
      "d428 22",
      "68 0",
      "dg 6",
      "20 4",
      "d518 89",
      "m22515 5",
      "97 1",
      "d 26",
      "me an",
      "d 15",
      "d42 54",
      "t ri",
      "gl yc",
      "eri de",
      "tri glyc",
      "triglyc eride",
      "c t",
      "s y",
      "st olic",
      "dg4 700",
      "sy stolic",
      "5 59",
      "diast olic",
      "2 60",
      "c co",
      "29 5",
      "00 8",
      "re ct",
      "de8 61",
      "d 69",
      "dz9 981",
      "dy83 8",
      "22 4",
      "dd728 29",
      "o2266 26",
      "di 8510",
      "dg 92",
      "o2265 80",
      "d78 650",
      "d780 61",
      "m2290 72",
      "d4283 3",
      "de 43",
      "3 20",
      "dk59 00",
      "df 0",
      "00 1",
      "d43 8",
      "dz867 11",
      "d q",
      "20 6",
      "d78 701",
      "de84 97",
      "8 30",
      "d285 29",
      "dv 100",
      "dz7 682",
      "l2256 93",
      "dm8 10",
      "d78 959",
      "dz9 55",
      "2 35",
      "ga st",
      "dt451 x5a",
      "gast ric",
      "d78 659",
      "99 99",
      "dn 189",
      "20 7",
      "d0 38",
      "d78 321",
      "dd6 96",
      "dz9 51",
      "8 29",
      "ine se",
      "ch inese",
      "dj 98",
      "65 4",
      "l2256 84",
      "dr 65",
      "2 42",
      "64 1",
      "2 16",
      "dy9 20",
      "dg 40",
      "d45 89",
      "28 9",
      "2 45",
      "m22 7",
      "2 75",
      "2 59",
      "9 50",
      "2 17",
      "3 98",
      "m2232 59",
      "k g",
      "m osm",
      "al ity",
      "ol ality",
      "d2765 2",
      "osm olality",
      "d780 52",
      "d70 70",
      "40 1",
      "25 5",
      "24 1",
      "di 42",
      "dv4 98",
      "o2265 82",
      "de11 65",
      "1 120",
      "dr 000",
      "d58 53",
      "dn 183",
      "28 2",
      "6 90",
      "22 7",
      "d428 23",
      "2 18",
      "24 6",
      "dz 80",
      "de87 6",
      "de88 89",
      "22 8",
      "di50 22",
      "de878 8",
      "d 50",
      "d4 56",
      "dc 34",
      "1 100",
      "dd 509",
      "61 9",
      "24 4",
      "dc 83",
      "dm 5",
      "db 19",
      "24 3",
      "dk 5",
      "de93 20",
      "65 3",
      "23 4",
      "o2266 13",
      "d7 19",
      "35 1",
      "22 3",
      "de8 60",
      "d35 72",
      "dv 420",
      "d40 11",
      "25 1",
      "dv4 986",
      "dv12 55",
      "d 51",
      "dv15 81",
      "d26 39",
      "d5 5",
      "4 40",
      "d28 800",
      "d 6",
      "d4 439",
      "d57 23",
      "dv 42",
      "d36 59",
      "dz 66",
      "29 1",
      "di489 2",
      "n as",
      "og ast",
      "dk74 69",
      "nas ogast",
      "nasogast ric",
      "di rect",
      "d78 02",
      "di 272",
      "d788 20",
      "2 37",
      "d27 60",
      "50 2",
      "b ag",
      "co n",
      "22 6",
      "99 5",
      "di50 32",
      "x xxa",
      "dz 90",
      "dz858 28",
      "d42 71",
      "d57 12",
      "de 46",
      "28 1",
      "d4273 2",
      "dr 740",
      "dr 7",
      "dd6 18",
      "d518 0",
      "dl 0",
      "dv4 501",
      "dz68 1",
      "o2265 71",
      "d34 590",
      "dr0 902",
      "25 4",
      "dr 9",
      "d4 10",
      "2 90",
      "d99 68",
      "con dom",
      "58 9",
      "00 6",
      "69 4",
      "2 98",
      "dr13 10",
      "120 0",
      "3 25",
      "61 6",
      "28 5",
      "39 1",
      "dv8 50",
      "di6 93",
      "d070 70",
      "db19 20",
      "m2259 06",
      "l2256 51",
      "d16 23",
      "3 30",
      "24 8",
      "2 65",
      "40 2",
      "d198 3",
      "4 10",
      "23 2",
      "37 5",
      "d790 7",
      "dv12 72",
      "dz 450",
      "di50 33",
      "d5 35",
      "dv4 22",
      "10 50",
      "d29 420",
      "50 3",
      "dr 51",
      "dv46 3",
      "da 419",
      "m221 653",
      "dk 72",
      "o22660 6",
      "di 0",
      "d78 60",
      "d9959 2",
      "dz8 249",
      "d72 42",
      "o2266 33",
      "b ra",
      "dv10 83",
      "d715 90",
      "24 7",
      "35 2",
      "dj 398",
      "dj96 21",
      "d28 09",
      "m227 694",
      "dz 23",
      "d78 23",
      "or al",
      "d7070 3",
      "dv 160",
      "d493 20",
      "dz 98",
      "dv498 3",
      "d20 500",
      "dz 931",
      "dm 4",
      "130 0",
      "dg93 6",
      "23 6",
      "de878 2",
      "25 7",
      "0 18",
      "56 1",
      "dd 69",
      "d070 54",
      "56 0",
      "dd69 59",
      "00 9",
      "d5 19",
      "d28 419",
      "d790 4",
      "dv8 51",
      "4 11",
      "26 9",
      "80 9",
      "s out",
      "sout h",
      "29 3",
      "2 68",
      "dl 89",
      "d790 92",
      "dr65 21",
      "5 70",
      "e ast",
      "dv 441",
      "pl eur",
      "pleur al",
      "d7 30",
      "19 90",
      "84 8",
      "de878 0",
      "27 1",
      "150 0",
      "dv45 89",
      "73 1",
      "df0 390",
      "44 4",
      "d5 3",
      "m229 616",
      "d19 70",
      "di3 40",
      "dz9 58",
      "m2296 40",
      "5 75",
      "di9 59",
      "o2265 73",
      "ds 0",
      "de 559",
      "de84 90",
      "d57 70",
      "d68 26",
      "dk72 90",
      "dr 197",
      "d780 60",
      "0 995",
      "m22 0995",
      "d250 60",
      "2 99",
      "dr3 39",
      "d78 5",
      "dk 8",
      "dj44 1",
      "d16 29",
      "30 1",
      "30 8",
      "d45 829",
      "dy 848",
      "dz9 23",
      "m2259 13",
      "44 9",
      "dc7 931",
      "dg40 909",
      "de8 75",
      "25 2",
      "80 1",
      "2 78",
      "acti v",
      "3 40",
      "x x",
      "28 8",
      "dm 1990",
      "d57 18",
      "m2296 24",
      "2 64",
      "dc 79",
      "d780 4",
      "d50 70",
      "d 008",
      "6 25",
      "7 701",
      "dv 120",
      "o22 7701",
      "dk3 189",
      "50 6",
      "dz9 221",
      "e in",
      "prot ein",
      "dv 173",
      "dk 75",
      "d7 140",
      "dn 170",
      "5 10",
      "d 18",
      "de78 00",
      "d56 01",
      "di50 9",
      "d038 9",
      "9 75",
      "25 3",
      "42 5",
      "5 25",
      "o2275 11",
      "27 9",
      "dd 689",
      "d30 500",
      "d008 45",
      "56 2",
      "dr 6",
      "d198 5",
      "di42 8",
      "3 60",
      "2 74",
      "df 05",
      "dz9 66",
      "m229 654",
      "d519 19",
      "12 50",
      "dz 91",
      "58 0",
      "d440 20",
      "dr7 91",
      "d29 680",
      "0 17",
      "dr 001",
      "9 70",
      "d x",
      "p ut",
      "at ed",
      "out put",
      "dv 130",
      "d20 280",
      "d 38",
      "d78 21",
      "dg6 20",
      "d 46",
      "37 9",
      "d4 59",
      "de 6",
      "dm 7",
      "dd6 38",
      "dk70 31",
      "11 50",
      "di50 23",
      "2 67",
      "4 30",
      "l2274 62",
      "dh 409",
      "0 14",
      "57 9",
      "dj 90",
      "d73 390",
      "p u",
      "er to",
      "73 8",
      "d30 04",
      "d456 21",
      "dd618 18",
      "pu erto",
      "dk 6",
      "d3 45",
      "o22659 8",
      "v ac",
      "30 5",
      "de8 809",
      "30 3",
      "dv 161",
      "66 2",
      "26 3",
      "d72 45",
      "d51 189",
      "e cal",
      "f ecal",
      "at i",
      "an d",
      "dk 56",
      "dv4 502",
      "dv6 284",
      "d27 669",
      "78 5",
      "m2290 70",
      "2 73",
      "p o2",
      "m2216 62",
      "d998 59",
      "2 56",
      "4 75",
      "o ol",
      "dz 99",
      "dh 5",
      "st ool",
      "d5 28",
      "d33 20",
      "di25 5",
      "83 1",
      "d58 45",
      "st ra",
      "stra ight",
      "0 16",
      "d410 71",
      "d 238",
      "2 66",
      "d27 9",
      "dc 77",
      "dz958 10",
      "36 3",
      "30 2",
      "ic an",
      "o22659 3",
      "d29 30",
      "dg6 29",
      "3 12",
      "f k",
      "fk 506",
      "0 12",
      "d 8",
      "45 5",
      "27 6",
      "d57 71",
      "9999 99",
      "d4 8",
      "34 1",
      "di 27",
      "d78 50",
      "d7 16",
      "d7 295",
      "dz 006",
      "dz8 50",
      "d3 569",
      "dz9 181",
      "dk70 30",
      "3 19",
      "de11 22",
      "0 13",
      "d 74",
      "l2274 63",
      "d780 39",
      "dc79 51",
      "di 739",
      "dr 509",
      "dt 380",
      "d238 75",
      "51 18",
      "38 5",
      "dz9 30",
      "d49 28",
      "3 15",
      "95 3",
      "m2214 29",
      "d9968 5",
      "e bl",
      "l22 75",
      "os t",
      "l2275 16",
      "0 11",
      "d d5",
      "97 2",
      "dz85 3",
      "70 2",
      "o22659 7",
      "an t",
      "44 7",
      "d30 390",
      "dy920 09",
      "in ican",
      "dr 112",
      "dom inican",
      "dz450 2",
      "c a",
      "43 2",
      "d275 3",
      "28 3",
      "dj 690",
      "d28 80",
      "dz8 5118",
      "dv43 65",
      "dk75 81",
      "v er",
      "60 2",
      "de an",
      "28 7",
      "o2265 83",
      "04 81",
      "ca pe",
      "ver dean",
      "0 15",
      "de 1",
      "dv58 69",
      "di27 20",
      "3 93",
      "dz91 14",
      "46 9",
      "o226 619",
      "dz68 41",
      "o22 74",
      "37 3",
      "di 130",
      "de6 601",
      "2 61",
      "dy83 2",
      "dc78 7",
      "d5 74",
      "d275 2",
      "dv 0481",
      "6 75",
      "d 39",
      "d78 62",
      "d55 33",
      "0 19",
      "dk 449",
      "o2266 12",
      "d9959 1",
      "49 5",
      "d250 02",
      "dv4 12",
      "da 4",
      "7 25",
      "r ti",
      "co rti",
      "df 43",
      "db9 561",
      "di7 14",
      "corti sol",
      "dr 188",
      "di4 71",
      "d25 36",
      "27 7",
      "dr 569",
      "d99 682",
      "d45 80",
      "d34 982",
      "0 21",
      "98 4",
      "d4 15",
      "95 4",
      "dg 9",
      "d785 52",
      "37 8",
      "dk3 184",
      "d733 13",
      "d535 50",
      "13 50",
      "96 2",
      "dv4 43",
      "3 42",
      "d 135",
      "dy 8",
      "d04 149",
      "di3 30",
      "u ric",
      "di 45",
      "m2259 45",
      "38 2",
      "d28 41",
      "dc34 90",
      "dt380 x5a",
      "6 20",
      "n ati",
      "dk9 21",
      "dj98 09",
      "d78 900",
      "d3 46",
      "l2274 46",
      "29 2",
      "l2256 28",
      "ph en",
      "d44 14",
      "d346 90",
      "8 25",
      "l2256 95",
      "28 6",
      "m2259 09",
      "74 01",
      "0 47",
      "f r",
      "90 1",
      "dz85 46",
      "or t",
      "42 1",
      "dg 20",
      "acti on",
      "fr action",
      "d 64",
      "d78 40",
      "dj 84",
      "d59 39",
      "d 1120",
      "ss ian",
      "ru ssian",
      "dc 8",
      "m2290 71",
      "3 11",
      "dd 64",
      "d04 104",
      "8 75",
      "m2220 51",
      "160 0",
      "d440 21",
      "d36 201",
      "3 45",
      "3 35",
      "40 8",
      "14 50",
      "d733 42",
      "de 222",
      "78 0",
      "0 29",
      "7 75",
      "35 4",
      "dw 19",
      "6 30",
      "m229 233",
      "dj 8",
      "dk74 60",
      "dv42 82",
      "d 80",
      "d4 139",
      "d780 97",
      "de87 92",
      "dw 18",
      "o un",
      "w oun",
      "woun d",
      "j p",
      "di4 82",
      "o2266 10",
      "dv100 3",
      "dj98 11",
      "di 214",
      "d78 24",
      "g o",
      "x in",
      "di 350",
      "di go",
      "00 7",
      "d518 84",
      "digo xin",
      "d530 3",
      "d9 971",
      "da 047",
      "d715 36",
      "d18 90",
      "b n",
      "p g",
      "p ti",
      "ti c",
      "ure tic",
      "m2275 35",
      "dk 57",
      "pe pti",
      "bra in",
      "dx 58",
      "nati uretic",
      "bn p",
      "pepti de",
      "dv45 4",
      "de93 42",
      "dd6 30",
      "dk9 22",
      "3 61",
      "4 60",
      "29 6",
      "d493 22",
      "d34 830",
      "dd68 4",
      "29 4",
      "de84 99",
      "d5 569",
      "d198 89",
      "3 13",
      "t a",
      "d43 310",
      "d715 96",
      "d438 11",
      "5 41",
      "di 69",
      "d459 81",
      "dx58 xxxa",
      "2 97",
      "3 17",
      "di4 72",
      "dv10 52",
      "d19 61",
      "dr9 11",
      "dz99 3",
      "0 25",
      "3 29",
      "3 39",
      "di 5",
      "30 4",
      "30 7",
      "d2 689",
      "dj96 22",
      "3 28",
      "4 64",
      "d27 63",
      "de87 70",
      "db 182",
      "o22659 2",
      "d070 32",
      "d716 90",
      "d 11",
      "30 6",
      "dv 55",
      "d78 20",
      "d7 28",
      "db9 689",
      "d707 15",
      "33 3",
      "de78 0",
      "d57 22",
      "di9 51",
      "dv 444",
      "o2266 31",
      "d518 83",
      "d38 99",
      "dd64 81",
      "re activ",
      "dv 641",
      "cr p",
      "d5 15",
      "reactiv e",
      "3 23",
      "17 00",
      "dd 75",
      "db 96",
      "dr0 79",
      "3 65",
      "l2274 44",
      "39 4",
      "d530 10",
      "de88 59",
      "df10 239",
      "dg8 93",
      "3 16",
      "3 83",
      "7 10",
      "65 1",
      "65 2",
      "17 12",
      "35 5",
      "o22659 0",
      "d 90",
      "d787 20",
      "dz98 61",
      "d4 111",
      "dr 10",
      "dr3 38",
      "d528 01",
      "d 185",
      "dz 800",
      "dv12 71",
      "dc83 38",
      "d7860 5",
      "9 25",
      "d28 749",
      "d59 654",
      "d59 970",
      "df10 10",
      "dk56 7",
      "4 70",
      "10 25",
      "de 85",
      "dr 40",
      "st and",
      "d56 09",
      "df3 19",
      "stand ing",
      "5 28",
      "d5 121",
      "d3 68",
      "d7 37",
      "de8 352",
      "d24 900",
      "dr4 10",
      "di0 80",
      "5 20",
      "50 90",
      "20 00",
      "0 23",
      "3 18",
      "7 20",
      "e me",
      "s is",
      "l2206 03",
      "o226 601",
      "d5 363",
      "dv15 1",
      "dv10 51",
      "d46 59",
      "eme sis",
      "y to",
      "43 1",
      "dz 953",
      "dt8 28",
      "dd5 39",
      "d415 19",
      "phen yto",
      "phenyto in",
      "l dl",
      "dj9 600",
      "db9 61",
      "d438 89",
      "dm5 45",
      "dr 110",
      "d58 56",
      "d428 42",
      "i l",
      "d39 70",
      "74 3",
      "34 9",
      "er ol",
      "de 440",
      "ole st",
      "ch olest",
      "dn 401",
      "dm 79",
      "d25 541",
      "cholest erol",
      "67 1",
      "dv58 63",
      "d733 99",
      "4 80",
      "98 0",
      "dz 96",
      "d4 829",
      "om y",
      "d530 19",
      "db 370",
      "o22660 4",
      "ost omy",
      "41 12",
      "d56 409",
      "dl 9",
      "50 7",
      "l ant",
      "di al",
      "di lant",
      "d42 32",
      "d5 37",
      "dj9 10",
      "dilant in",
      "h dl",
      "18 00",
      "l2274 61",
      "dz 93",
      "di8 26",
      "db96 20",
      "5 40",
      "l2206 24",
      "dv 163",
      "d04 16",
      "0 24",
      "d44 12",
      "3 a",
      "68 6",
      "93 9",
      "df 1120",
      "dz7 982",
      "d29 181",
      "di7 12",
      "dv55 4",
      "a in",
      "42 9",
      "dv 270",
      "dr ain",
      "dh 9",
      "dj9 58",
      "d19 77",
      "d60 001",
      "78 81",
      "d78 37",
      "o22656 3",
      "dr 7881",
      "d3 62",
      "di9 52",
      "dv120 4",
      "10 75",
      "dr 42",
      "dv15 88",
      "0 22",
      "df 11",
      "112 5",
      "d30 503",
      "dz7 984",
      "dv45 79",
      "d34 85",
      "m22 1712",
      "di 26",
      "58 1",
      "d78 12",
      "d7 22",
      "dv45 76",
      "dz79 52",
      "6 10",
      "33 1",
      "d5 370",
      "de8 351",
      "d788 29",
      "d279 52",
      "3 68",
      "l2274 40",
      "dr 55",
      "dv15 52",
      "d73 679",
      "dv130 2",
      "c ar",
      "de 115",
      "dg 971",
      "dc 220",
      "d0 4112",
      "dj8 11",
      "3 14",
      "dl 409",
      "15 50",
      "40 5",
      "dk 831",
      "d20 400",
      "38 1",
      "dd 500",
      "d30 183",
      "di42 9",
      "0 69",
      "ul ated",
      "calc ulated",
      "db 954",
      "d45 2",
      "dz86 74",
      "d d4",
      "l2256 71",
      "76 90",
      "dk7 200",
      "de10 65",
      "d2880 3",
      "dw19 xxxa",
      "m22 7690",
      "dr 739",
      "dz9 52",
      "d04 17",
      "3 38",
      "3 44",
      "c en",
      "dy 830",
      "d56 210",
      "tr al",
      "dj9 602",
      "dv0 29",
      "d275 41",
      "cen tral",
      "37 1",
      "d4 78",
      "39 5",
      "de10 43",
      "dm5 49",
      "40 6",
      "d3 40",
      "d30 393",
      "d99 6",
      "d998 12",
      "di 70",
      "d57 62",
      "d99 749",
      "dg8 194",
      "m225 147",
      "d4 148",
      "33 4",
      "dz7 20",
      "de878 6",
      "7 686",
      "d 23",
      "l22 7686",
      "13 30",
      "d493 92",
      "de878 1",
      "4 90",
      "5 30",
      "6 60",
      "d78 702",
      "dr 64",
      "3 22",
      "4 85",
      "7 35",
      "di 420",
      "dg 43",
      "dz9 50",
      "dv8 801",
      "d998 2",
      "dc77 2",
      "d57 61",
      "dv45 86",
      "d719 41",
      "d2 738",
      "d40 391",
      "d7 56",
      "d30 391",
      "d 150",
      "15 a",
      "70 9",
      "45 8",
      "16 50",
      "112 1",
      "d0 42",
      "dy83 1",
      "6 40",
      "d 00",
      "50 5",
      "de 116",
      "d04 13",
      "d338 18",
      "dc78 6",
      "dg93 40",
      "di45 81",
      "3 24",
      "dr 5",
      "di26 99",
      "59 9",
      "di 87",
      "68 1",
      "d7 93",
      "d530 85",
      "dz68 37",
      "dz85 528",
      "di 63",
      "83 9",
      "39 2",
      "3 26",
      "4 88",
      "d 17",
      "58 5",
      "dn 12",
      "dd68 51",
      "11 75",
      "dj 111",
      "dr0 789",
      "de10 10",
      "d537 89",
      "a d",
      "74 8",
      "ss ion",
      "67 2",
      "38 6",
      "mi ssion",
      "ag e",
      "dr 570",
      "122 5",
      "drain age",
      "ad mission",
      "0 26",
      "3 27",
      "7 70",
      "d 93",
      "s it",
      "t ing",
      "37 2",
      "34 7",
      "d3 42",
      "d57 72",
      "d69 29",
      "d7860 9",
      "sit ting",
      "0 27",
      "d57 68",
      "d20 501",
      "42 6",
      "dz 87",
      "dj96 91",
      "di8 24",
      "3 46",
      "d72 989",
      "e se",
      "p ort",
      "u ese",
      "dl 8",
      "dz8 96",
      "d30 981",
      "ug uese",
      "dr4 701",
      "dr6 34",
      "port uguese",
      "3 32",
      "17 50",
      "di 671",
      "de 2",
      "19 00",
      "dv45 72",
      "d15 50",
      "3 56",
      "dr13 12",
      "6 70",
      "d78 90",
      "dk 29",
      "d59 20",
      "d51 181",
      "dv 5",
      "rect al",
      "dq 282",
      "3 43",
      "d 37",
      "d 21",
      "57 1",
      "6 a",
      "42 3",
      "d42 781",
      "d5 83",
      "dd 320",
      "d250 80",
      "dm 25",
      "m2290 69",
      "c lo",
      "x 6a",
      "d5 178",
      "tt ing",
      "dv10 82",
      "d707 23",
      "o22660 3",
      "activ ated",
      "d583 81",
      "clo tting",
      "d 200",
      "dk 22",
      "d250 42",
      "d250 40",
      "dv100 5",
      "m in",
      "12 75",
      "d78 30",
      "dr 50",
      "d3 441",
      "d56 0",
      "d04 14",
      "di8 78",
      "de 662",
      "de 1121",
      "dm 6",
      "dm 9",
      "d070 30",
      "dr6 27",
      "dg43 909",
      "x 5",
      "50 8",
      "l2206 50",
      "11 a",
      "dz 590",
      "dm 255",
      "dt 455",
      "db 181",
      "di50 21",
      "dg8 191",
      "dt455 15a",
      "4 65",
      "4 35",
      "dv 08",
      "35 7",
      "dk 5909",
      "dr4 71",
      "dr65 20",
      "dz80 1",
      "d719 46",
      "dz90 49",
      "9 60",
      "13 70",
      "d42 63",
      "df 17",
      "dl0 31",
      "dz450 18",
      "dv130 1",
      "8 90",
      "p ac",
      "x 0",
      "l220 507",
      "d78 47",
      "m22583 2",
      "d69 61",
      "dc34 11",
      "df17 200",
      "dz878 20",
      "dj9 503",
      "d790 5",
      "d285 22",
      "9 30",
      "55 5",
      "d530 89",
      "dc78 01",
      "d50 81",
      "90 5",
      "d24 41",
      "df10 21",
      "dv42 7",
      "3 37",
      "4 81",
      "5 15",
      "35 8",
      "df 14",
      "d28 69",
      "m227 689",
      "d53 190",
      "de115 1",
      "dz 7401",
      "dr 748",
      "d20 190",
      "m2296 32",
      "g u",
      "43 59",
      "dd 469",
      "4 12",
      "di 82",
      "40 3",
      "dy 92",
      "d440 23",
      "d707 22",
      "dw18 30",
      "4 18",
      "d 22",
      "37 6",
      "dk 80",
      "d2 731",
      "d28 67",
      "d99 931",
      "dz68 34",
      "d440 4",
      "o2274 89",
      "o2274 88",
      "57 2",
      "dm4 80",
      "dm7 97",
      "dw1830 xa",
      "dl 97",
      "60 5",
      "dd 8",
      "dz8 619",
      "dr3 19",
      "d15 19",
      "dh5 34",
      "8 20",
      "g ta",
      "i gta",
      "p igta",
      "dv 49",
      "d2 662",
      "dg 935",
      "dm 54",
      "dt8 641",
      "d74 64",
      "pigta il",
      "13 25",
      "de 106",
      "d04 111",
      "d43 411",
      "d49 40",
      "4 42",
      "5 35",
      "c er",
      "e br",
      "er al",
      "18 50",
      "di 447",
      "dz 3a",
      "38 4",
      "d428 43",
      "cer ebr",
      "cerebr al",
      "86 9",
      "dm 419",
      "d45 341",
      "dy922 34",
      "dj84 9",
      "3 59",
      "dc 85",
      "d790 6",
      "dj958 51",
      "v22 4359",
      "dv 53",
      "69 5",
      "d72 400",
      "dc7 989",
      "d21 13",
      "12 30",
      "ly ing",
      "dt 501",
      "dh534 61",
      "7 60",
      "8 40",
      "d7 25",
      "dg93 89",
      "de1 142",
      "pac u",
      "l at",
      "42 4",
      "d78 73",
      "dv12 61",
      "d72 402",
      "dl89 152",
      "lat eral",
      "3 99",
      "14 25",
      "68 5",
      "dz 982",
      "d4 142",
      "dj 439",
      "dc 8510",
      "d790 01",
      "dl031 15",
      "a 1",
      "m2213 19",
      "d362 50",
      "59 5",
      "dr 600",
      "d28 246",
      "d19 63",
      "dj4 59",
      "d788 41",
      "dz850 38",
      "dd75 1",
      "7 30",
      "d28 00",
      "d7 291",
      "d30 501",
      "d30 560",
      "ds0 65",
      "4 45",
      "4 91",
      "d7 59",
      "d56 7",
      "d560 89",
      "9 90",
      "dl 408",
      "11 10",
      "d4 739",
      "d5 789",
      "dr 298",
      "d28 53",
      "di4 42",
      "d428 21",
      "dr4 182",
      "dv120 9",
      "dr298 10",
      "5 45",
      "6 15",
      "me diast",
      "in al",
      "14 40",
      "68 a",
      "d5 1289",
      "dj 939",
      "dz8 74",
      "d99 66",
      "d278 03",
      "dv85 21",
      "dk8 61",
      "dz966 41",
      "dt828 68a",
      "mediast inal",
      "8 80",
      "12 90",
      "35 3",
      "d04 119",
      "dk7 60",
      "dk5 21",
      "4 15",
      "60 3",
      "d42 33",
      "34 8",
      "dv58 12",
      "dv0 382",
      "dk5 190",
      "3 74",
      "9 40",
      "c ub",
      "di 495",
      "d0 380",
      "d998 89",
      "dc78 02",
      "cub an",
      "79 5",
      "dn 182",
      "dc 641",
      "dz9 40",
      "d19 62",
      "d998 11",
      "de2 740",
      "3 67",
      "7 15",
      "x d",
      "70 5",
      "de8 73",
      "o2266 20",
      "df10 20",
      "de9 378",
      "dv6 20",
      "dz80 3",
      "de1 140",
      "d756 89",
      "6 35",
      "56 5",
      "16 75",
      "de 935",
      "d5 559",
      "d28 25",
      "d7 26",
      "de8 90",
      "dv4 972",
      "dj4 79",
      "d79 10",
      "dz98 84",
      "di87 2",
      "2 100",
      "d 75",
      "dn 319",
      "d04 185",
      "di9 581",
      "di7 101",
      "dt451 x5",
      "d345 10",
      "d996 74",
      "d 96",
      "60 9",
      "dz 09",
      "80 5",
      "dc 91",
      "dz68 27",
      "dt8 579",
      "d438 20",
      "d719 45",
      "d64 8",
      "dd4 73",
      "dt8579 xa",
      "6 45",
      "dz 018",
      "77 9",
      "d42 53",
      "dv4 42",
      "dj4 40",
      "d33 83",
      "dr9 18",
      "dm9 41",
      "dz018 10",
      "6 65",
      "9 20",
      "10 20",
      "14 75",
      "33 6",
      "d428 30",
      "db9 65",
      "dm8 580",
      "xx s",
      "df43 10",
      "98 5",
      "19 50",
      "38 9",
      "dt 80",
      "d24 40",
      "ds 00",
      "d34 84",
      "dv85 42",
      "d785 51",
      "de8 74",
      "d780 79",
      "d59 1",
      "ds 22",
      "dc78 89",
      "di693 20",
      "1 a",
      "40 4",
      "26 xxa",
      "d4 400",
      "d3 65",
      "d57 11",
      "d59 0",
      "d73 18",
      "dz68 30",
      "dt8 26xxa",
      "de88 42",
      "dv498 7",
      "13 75",
      "dl 975",
      "12 10",
      "di 2",
      "dv10 72",
      "dz68 43",
      "d36 94",
      "d788 30",
      "df0 280",
      "22 00",
      "dv 550",
      "di4 93",
      "d19 60",
      "d43 86",
      "di7 23",
      "v22 464",
      "di 76",
      "dz 902",
      "d4 160",
      "m2275 31",
      "dd 709",
      "d250 50",
      "d29 590",
      "df10 229",
      "dk3 18",
      "b ar",
      "m2275 20",
      "dg 35",
      "dz68 31",
      "d43 1",
      "dc78 00",
      "dv100 6",
      "dc83 39",
      "dv53 32",
      "8 35",
      "9 10",
      "10 60",
      "dz 22",
      "dk 589",
      "d2 7401",
      "d72 10",
      "d707 19",
      "d285 21",
      "dy920 19",
      "15 25",
      "37 7",
      "dv 140",
      "38 7",
      "d5 53",
      "dz68 38",
      "dv85 41",
      "dz896 12",
      "8 10",
      "di 77",
      "d30 401",
      "de87 96",
      "dg93 41",
      "d737 30",
      "di 21",
      "78 4",
      "64 8",
      "44 8",
      "dy83 4",
      "de11 649",
      "dy8 46",
      "di21 a1",
      "0 28",
      "d 112",
      "l and",
      "96 9",
      "dt 402",
      "d790 29",
      "is land",
      "d35 59",
      "d535 10",
      "d48 21",
      "0 31",
      "a do",
      "g c",
      "t gc",
      "56 3",
      "me dial",
      "dz 16",
      "d57 50",
      "do 99",
      "dt451x5 s",
      "21 50",
      "89 5",
      "d7 231",
      "118 0",
      "118 9",
      "dt 361",
      "dv45 11",
      "d9 59",
      "d6 989",
      "d2880 4",
      "dt361 x5a",
      "8 70",
      "t ric",
      "ul ar",
      "99 9",
      "m2259 73",
      "ven tric",
      "db9 52",
      "d15 70",
      "de116 21",
      "ventric ular",
      "8 65",
      "z ili",
      "65 5",
      "de 113",
      "d4 785",
      "d78 559",
      "dr 68",
      "d2 989",
      "dn 1330",
      "dj9 18",
      "d34 839",
      "d440 24",
      "d707 24",
      "bra zili",
      "brazili an",
      "8 85",
      "59 1",
      "16 25",
      "82 42",
      "85 5",
      "d5 75",
      "d27 21",
      "dd 801",
      "d250 63",
      "d73 743",
      "de93 63",
      "dr0 600",
      "dc77 1",
      "dl8 96",
      "de106 20",
      "8 15",
      "8 45",
      "10 10",
      "10 80",
      "d4 1189",
      "d4 8242",
      "dj 385",
      "dz8 572",
      "d0 785",
      "dz68 24",
      "d29 48",
      "di9 789",
      "dk5 29",
      "1 749",
      "d 07",
      "13 20",
      "65 8",
      "dv 180",
      "90 7",
      "43 8",
      "d99 672",
      "d70 701",
      "d20 410",
      "d19 76",
      "d715 35",
      "di5 189",
      "d728 87",
      "dh9 190",
      "dv49 75",
      "d78 009",
      "dj 309",
      "d99 731",
      "d35 58",
      "d9968 8",
      "di69 354",
      "d793 11",
      "dt402 x5a",
      "3 96",
      "6 11",
      "9 a",
      "10 40",
      "m2259 12",
      "d27 66",
      "d0 5",
      "dv45 71",
      "d780 62",
      "04 72",
      "d70 78",
      "d60 784",
      "da 0472",
      "d22 52",
      "dk318 19",
      "7 90",
      "14 10",
      "75 5",
      "dr 458",
      "dz68 25",
      "dv85 43",
      "dr458 51",
      "9 65",
      "m225 148",
      "d4 44",
      "df 39",
      "d28 249",
      "dz68 28",
      "dr3 10",
      "dd618 11",
      "d9966 4",
      "de113 19",
      "5 51",
      "v22 46",
      "d4 14",
      "dr 32",
      "dy922 38",
      "d9 97",
      "di6 78",
      "d79 55",
      "d44 101",
      "d528 00",
      "dr10 13",
      "dr50 81",
      "dj459 01",
      "1 130",
      "6 13",
      "d 85",
      "15 75",
      "11 90",
      "17 25",
      "dr 05",
      "d40 310",
      "d57 78",
      "dt8 35",
      "di8 64",
      "de9 308",
      "dv6 406",
      "dz858 20",
      "di693 98",
      "b b",
      "d 262",
      "e an",
      "i bb",
      "74 5",
      "90 a",
      "68 12",
      "d5 32",
      "d78 76",
      "dj 069",
      "dv45 73",
      "dc8 599",
      "d11 79",
      "car ibb",
      "dc85 13",
      "caribb ean",
      "2 500",
      "10 70",
      "100 5",
      "d5 589",
      "d78 56",
      "dk 224",
      "dr 109",
      "dg 0",
      "dg 63",
      "dn 907",
      "d58 52",
      "d56 41",
      "dz68 20",
      "de93 94",
      "d04 109",
      "dc83 35",
      "dc83 36",
      "dk6 10",
      "dy92 129",
      "dt835 11a",
      "7 65",
      "d 52",
      "g ant",
      "h ost",
      "i r",
      "p eri",
      "v ol",
      "10 35",
      "um e",
      "at ic",
      "42 7",
      "99 4",
      "ri gant",
      "dv10 87",
      "ort host",
      "de85 4",
      "car dial",
      "ir rigant",
      "peri cardial",
      "vol ume",
      "orthost atic",
      "3 66",
      "10 90",
      "l2256 92",
      "11 70",
      "dz 981",
      "110 5",
      "d3 962",
      "122 0",
      "de0 41",
      "de0 590",
      "d707 14",
      "de9 444",
      "dl0 24",
      "d07 999",
      "5 38",
      "13 10",
      "di 680",
      "dk 648",
      "d28 850",
      "dc 90",
      "d780 57",
      "dy83 3",
      "di3 13",
      "d69 60",
      "di0 71",
      "268 1",
      "3 97",
      "8 89",
      "d 118",
      "x 9a",
      "di 65",
      "36 9",
      "d27 650",
      "dm 069",
      "to bra",
      "dm5 42",
      "d574 20",
      "tobra mycin",
      "dl 76",
      "di 81",
      "00 4",
      "dz68 23",
      "d44 30",
      "o22660 8",
      "d7890 6",
      "2 300",
      "o vac",
      "20 50",
      "hem ovac",
      "d78 194",
      "dk 6812",
      "dg 409",
      "dm 190",
      "dt 4",
      "dt8 131",
      "dl975 19",
      "dg409 19",
      "9 15",
      "s u",
      "10 30",
      "45 4",
      "dv 13",
      "43 4",
      "38 8",
      "d78 909",
      "d7 994",
      "d57 142",
      "de878 4",
      "d79 579",
      "959 xxs",
      "di693 18",
      "di693 59",
      "dx 959xxs",
      "dt8131 xa",
      "d 66",
      "12 70",
      "o2265 84",
      "d42 39",
      "dr 8",
      "dr 2681",
      "dg 70",
      "d30 9",
      "d780 6",
      "m229 234",
      "d16 25",
      "3 64",
      "9 55",
      "10 55",
      "12 60",
      "in di",
      "70 3",
      "dc 258",
      "dt 5090",
      "db9 64",
      "d16 28",
      "dr7 989",
      "dk57 90",
      "de935 2",
      "indi an",
      "dt5090 5a",
      "3 62",
      "d 379",
      "m er",
      "10 65",
      "di mer",
      "40 7",
      "73 2",
      "99 2",
      "00 5",
      "df 259",
      "d250 61",
      "d56 6",
      "di9 589",
      "di7 24",
      "d279 51",
      "d74 55",
      "df11 11",
      "dr5 31",
      "dm25 562",
      "dr8 271",
      "a mm",
      "i a",
      "um ol",
      "on ia",
      "d3 19",
      "d59 971",
      "d43 59",
      "d33 394",
      "dz96 651",
      "di826 22",
      "amm onia",
      "9 45",
      "10 45",
      "12 40",
      "30 00",
      "dv 600",
      "d78 63",
      "dg 309",
      "d250 51",
      "dh9 193",
      "4 76",
      "7 69",
      "14 80",
      "93 2",
      "d5 14",
      "dk 830",
      "d56 211",
      "dz68 22",
      "dz68 42",
      "df10 129",
      "d53 68",
      "4 56",
      "s al",
      "v ado",
      "x 1a",
      "d29 6",
      "d35 781",
      "di8 90",
      "dd68 8",
      "dz80 51",
      "d00 88",
      "dz874 40",
      "dg70 00",
      "sal vado",
      "salvado ran",
      "l um",
      "22 50",
      "12 80",
      "dv 113",
      "d78 451",
      "dz68 26",
      "dq 211",
      "d730 12",
      "dz96 653",
      "d23 84",
      "5 11",
      "86 3",
      "d2 189",
      "92 99",
      "dn 200",
      "d30 550",
      "d45 342",
      "dt8 14",
      "dz5 15",
      "dk57 30",
      "di2 109",
      "d 659",
      "17 75",
      "45 3",
      "de 94",
      "dv 64",
      "l2205 80",
      "dk 222",
      "dr 200",
      "dz68 29",
      "d29 690",
      "d759 82",
      "4 14",
      "4 43",
      "10 85",
      "12 a",
      "dk 429",
      "d3 59",
      "di4 81",
      "o2266 25",
      "db 379",
      "d56 50",
      "d56 80",
      "dv0 71",
      "d25 72",
      "df0 150",
      "d55 31",
      "dv64 41",
      "4 17",
      "18 25",
      "l2256 36",
      "dz 481",
      "d530 5",
      "dz7 98",
      "db 488",
      "d20 510",
      "dt8 23",
      "dd728 19",
      "da4 101",
      "x0 a",
      "d532 90",
      "18 40",
      "dz 370",
      "58 2",
      "80 6",
      "d78 51",
      "dr 451",
      "dj 14",
      "df 209",
      "dh 93",
      "dh 54",
      "d43 491",
      "de84 98",
      "dk3 17",
      "d038 49",
      "dt501 x5a",
      "d553 21",
      "d414 02",
      "di 351",
      "dk 264",
      "dr 590",
      "49 2",
      "d28 90",
      "dt 368",
      "dv45 2",
      "d56 962",
      "dz68 36",
      "d43 330",
      "d456 1",
      "dm4 78",
      "dm7 989",
      "di45 10",
      "d368 46",
      "d722 10",
      "2 400",
      "d 14",
      "13 35",
      "dl 982",
      "14 70",
      "bp s",
      "42 8",
      "16 60",
      "35 30",
      "d78 85",
      "d30 301",
      "dc 9",
      "di50 43",
      "d19 72",
      "df10 11",
      "d275 42",
      "dd68 59",
      "dz22 39",
      "dt368 x5a",
      "98 3",
      "99 1",
      "d5 781",
      "dz8 701",
      "d3 439",
      "o2266 32",
      "dd68 32",
      "4 13",
      "8 18",
      "14 20",
      "de 103",
      "19 11",
      "dv 168",
      "dz 94",
      "39 xa",
      "d42 769",
      "d78 92",
      "76 11",
      "d7 244",
      "d56 969",
      "dz68 45",
      "di50 20",
      "m2290 68",
      "di8 25",
      "dv85 35",
      "dv6 43",
      "dk70 10",
      "db19 10",
      "dj84 10",
      "dr5 78",
      "1 140",
      "56 4",
      "13 60",
      "13 80",
      "11 15",
      "11 60",
      "120 5",
      "23 50",
      "d4 162",
      "dr 21",
      "dr 29",
      "m2216 23",
      "156 0",
      "di6 39",
      "d456 20",
      "dv42 81",
      "dk75 4",
      "dw18 39xa",
      "dt814 xxa",
      "d o2",
      "15 10",
      "dj 383",
      "dz8 679",
      "115 5",
      "dt 447",
      "db 59",
      "d72 992",
      "d338 19",
      "d26 31",
      "dl9 78",
      "dk22 10",
      "d309 28",
      "4 59",
      "6 39",
      "12 45",
      "87 1",
      "d5 70",
      "dh 3530",
      "dv10 41",
      "dk9 423",
      "d8 73",
      "d64 89",
      "dc91 10",
      "8 109",
      "12 95",
      "d4 91",
      "d78 81",
      "d78 652",
      "dr 269",
      "dh 8109",
      "db 258",
      "dv10 79",
      "d72 11",
      "df172 90",
      "di8 500",
      "d26 30",
      "d491 22",
      "5 33",
      "d7 109",
      "d7 108",
      "dv15 51",
      "132 xa",
      "dv45 77",
      "di25 119",
      "d99 75",
      "d99 659",
      "d518 4",
      "dt8 132xa",
      "di7 102",
      "dz85 51",
      "d69 589",
      "d53 140",
      "dy8 42",
      "dk29 50",
      "dm6 282",
      "d 1370",
      "p ar",
      "l2274 60",
      "59 7",
      "60 6",
      "dr 350",
      "d250 13",
      "dm 48",
      "di25 118",
      "d45 381",
      "d20 300",
      "d20 288",
      "d998 83",
      "d440 1",
      "dv85 23",
      "dv6 67",
      "dh5 38",
      "dy8 28",
      "d590 10",
      "4 22",
      "m22 9299",
      "12 55",
      "en t",
      "d42 613",
      "d5 289",
      "d5 738",
      "d34 831",
      "dq 8",
      "dl0 22",
      "dl89 154",
      "d11 22",
      "dk22 70",
      "dm48 56",
      "15 35",
      "60 4",
      "45 2",
      "16 10",
      "de 92",
      "dv 148",
      "d28 23",
      "d250 83",
      "d250 62",
      "d530 84",
      "o2266 28",
      "d59 972",
      "d73 309",
      "d99 932",
      "d72 65",
      "dz85 42",
      "dv0 254",
      "d69 59",
      "dr40 22",
      "dl97 229",
      "dm4856 xa",
      "4 82",
      "5 29",
      "d 65",
      "l2274 51",
      "di 97",
      "80 2",
      "o22656 4",
      "dk 5090",
      "dj 45",
      "dz8 60",
      "dn 141",
      "dt 85",
      "di25 110",
      "d99 739",
      "d707 13",
      "d7070 5",
      "dz90 79",
      "d345 50",
      "dz93 3",
      "d567 23",
      "2 600",
      "4 46",
      "v22 419",
      "de 806",
      "19 25",
      "24 50",
      "d5 579",
      "dr 7611",
      "d7 135",
      "o2266 29",
      "d99 702",
      "d45 184",
      "174 0",
      "di7 28",
      "d68 23",
      "dz90 81",
      "dz850 48",
      "dc90 00",
      "v22419 2",
      "a p",
      "50 4",
      "130 5",
      "58 8",
      "d27 739",
      "d78 43",
      "pr ap",
      "dz8 23",
      "dc 61",
      "dc 801",
      "de8 700",
      "di4 40",
      "dz68 35",
      "ub ic",
      "dr0 40",
      "dd68 61",
      "dw 06",
      "dc34 12",
      "df43 20",
      "su prap",
      "suprap ubic",
      "5 16",
      "m an",
      "14 45",
      "98 8",
      "d7 29",
      "dn 184",
      "dc 250",
      "dz9 641",
      "dt 464",
      "d45 50",
      "di6 98",
      "d44 22",
      "d68 22",
      "d368 8",
      "d342 90",
      "dm6 284",
      "man ual",
      "c l",
      "p ati",
      "s w",
      "dl 03",
      "de cl",
      "an sw",
      "ine d",
      "d4 373",
      "88 8",
      "dk 121",
      "dk 652",
      "dr 432",
      "df 1911",
      "d3 562",
      "d58 54",
      "dz9 119",
      "dz68 32",
      "dv46 11",
      "de10 21",
      "dq 231",
      "dq 442",
      "d730 27",
      "dz99 11",
      "dz87 738",
      "ds065 x0a",
      "v22464 6",
      "d575 10",
      "d379 41",
      "dz798 99",
      "pati ent",
      "decl ined",
      "answ er",
      "10 15",
      "dl 500",
      "18 75",
      "14 90",
      "19 75",
      "dv 145",
      "d5 5090",
      "dk 257",
      "95 a",
      "d2 733",
      "dj 159",
      "d7 197",
      "114 5",
      "dh 02",
      "d57 93",
      "d68 27",
      "d15 10",
      "d69 30",
      "da4 102",
      "dw19 xx",
      "df11 10",
      "dd8 61",
      "4 68",
      "di 441",
      "46 2",
      "d5 780",
      "d78 13",
      "dt 426",
      "d24 11",
      "d518 52",
      "d45 53",
      "di8 68",
      "dv0 991",
      "d33 31",
      "dk9 189",
      "dk5 51",
      "dm4 800",
      "df43 21",
      "de85 32",
      "d150 5",
      "3 500",
      "4 97",
      "4 66",
      "5 44",
      "q t",
      "de 162",
      "20 75",
      "d78 901",
      "118 5",
      "dh 440",
      "db 20",
      "db 376",
      "o22659 5",
      "di7 16",
      "dv0 980",
      "d25 37",
      "d55 70",
      "d55 221",
      "dl89 151",
      "dz850 5",
      "lum bar",
      "dt426 x5a",
      "qt c",
      "2 125",
      "4 16",
      "4 72",
      "5 21",
      "12 35",
      "17 20",
      "de 7",
      "v2237 66",
      "dz 21",
      "33 90",
      "dm 351",
      "dz9 15",
      "d56 212",
      "di6 11",
      "d25 32",
      "dz90 710",
      "di0 81",
      "d362 30",
      "4 89",
      "6 42",
      "d 62",
      "13 65",
      "13 85",
      "13 95",
      "14 60",
      "90 3",
      "dz 954",
      "d3 689",
      "dn 281",
      "dc 3",
      "m229 597",
      "d45 71",
      "de878 5",
      "d19 91",
      "d707 20",
      "dv85 33",
      "dr4 781",
      "d93 49",
      "dk80 51",
      "d96 509",
      "1 135",
      "d u",
      "d 174",
      "d 1500",
      "12 85",
      "50 00",
      "di 278",
      "40 60",
      "30 a",
      "dv 150",
      "85 4",
      "d2 61",
      "dj 302",
      "d28 83",
      "d3 373",
      "d30 750",
      "de87 90",
      "d70 909",
      "d29 620",
      "dy83 6",
      "dc7 11",
      "d25 21",
      "dz90 5",
      "d410 72",
      "dm7 981",
      "d959 12",
      "d444 22",
      "di278 2",
      "dl 299",
      "18 10",
      "15 20",
      "11 95",
      "17 10",
      "di 60",
      "di 85",
      "v2237 65",
      "43 3",
      "96 3",
      "dj 152",
      "dj 151",
      "df 1290",
      "de8 59",
      "de8 779",
      "dt 508",
      "dy9 200",
      "dt8 25",
      "di6 203",
      "d998 13",
      "de88 81",
      "dg8 220",
      "dl89 150",
      "d459 2",
      "dz87 11",
      "dt823 30a",
      "dz94 84",
      "di85 11",
      "dt508 x5a",
      "d 1749",
      "13 40",
      "11 65",
      "o22 94",
      "di 96",
      "dj 04",
      "dg 25",
      "dn 134",
      "dv45 3",
      "db 029",
      "dv10 42",
      "dv10 43",
      "dz68 39",
      "d518 51",
      "dg4 739",
      "d29 20",
      "di6 15",
      "db9 562",
      "211 a",
      "d730 07",
      "di824 12",
      "df14 11",
      "dr68 84",
      "d6489 1",
      "dw06 xxxa",
      "dj04 10",
      "0 32",
      "3 749",
      "4 37",
      "b it",
      "d 87",
      "o bar",
      "v22 60",
      "18 60",
      "15 90",
      "de 869",
      "43 6",
      "d5 3390",
      "d28 240",
      "dz8 501",
      "d30 79",
      "dc 439",
      "db 3749",
      "ds 12",
      "de0 42",
      "dz966 42",
      "d38 611",
      "phen obar",
      "di70 202",
      "dt80 211a",
      "d365 70",
      "v2246 45",
      "dl024 16",
      "dz860 10",
      "dl03 116",
      "dh440 01",
      "bit al",
      "v2260 92",
      "phenobar bital",
      "d 13",
      "18 20",
      "14 55",
      "15 30",
      "16 30",
      "16 80",
      "75 1",
      "dd 352",
      "dd 3a",
      "dg 95",
      "d3 669",
      "de78 2",
      "dv45 85",
      "m2296 15",
      "di6 34",
      "d79 19",
      "d79 431",
      "dg89 18",
      "dq 2",
      "d9968 1",
      "dz896 11",
      "dr50 82",
      "m al",
      "dl 298",
      "12 xa",
      "59 3",
      "16 20",
      "ate mal",
      "49 4",
      "dj 40",
      "dd 350",
      "dn 421",
      "dh 4",
      "dt 4060",
      "d99 989",
      "dt8 56",
      "di7 300",
      "dj96 10",
      "de9 289",
      "de9 293",
      "dl89 159",
      "dh5 32",
      "dj8 10",
      "d93 48",
      "gu atemal",
      "v22464 7",
      "di678 3",
      "d14 81",
      "dq8 789",
      "dd3a 8",
      "dq2 733",
      "dt4060 5a",
      "guatemal an",
      "4 73",
      "4 71",
      "d 110",
      "de 273",
      "d42 10",
      "dr 12",
      "dj 679",
      "d7 1230",
      "d0 419",
      "dv45 74",
      "dj9 589",
      "di6 13",
      "dd618 10",
      "d345 40",
      "d23 871",
      "dm480 6",
      "d729 39",
      "56 7",
      "15 70",
      "15 80",
      "17 60",
      "20 25",
      "v2237 64",
      "46 3",
      "d78 639",
      "dj 386",
      "dn 62",
      "dm 46",
      "de0 63",
      "d72 13",
      "dd6 93",
      "d35 10",
      "d35 76",
      "dc7 19",
      "dv0 179",
      "dv0 66",
      "dv6 42",
      "dk70 11",
      "d48 241",
      "dg9 11",
      "d90 92",
      "di87 1",
      "dk29 70",
      "dm255 12",
      "dz16 24",
      "dv13 51",
      "de92 90",
      "4 78",
      "4 67",
      "5 57",
      "7 11",
      "d 616",
      "13 45",
      "14 30",
      "de 213",
      "dv 65",
      "dv 167",
      "dz 488",
      "d4 779",
      "dk 581",
      "dg 7",
      "de878 3",
      "d428 20",
      "d4283 1",
      "dc7 10",
      "432 a",
      "di69 351",
      "d90 70",
      "d368 16",
      "dl9 74",
      "d722 93",
      "dm25 561",
      "dm480 2",
      "ds00 432a",
      "di77 71",
      "d616 10",
      "4 74",
      "4 98",
      "5 46",
      "5 39",
      "7 243",
      "v22 7243",
      "10 89",
      "15 15",
      "dz 89",
      "d4 43",
      "81 xa",
      "d78 630",
      "d78 703",
      "dk 651",
      "m2220 62",
      "d7 103",
      "dh 53",
      "d57 90",
      "db9 42",
      "d44 64",
      "dv0 251",
      "dk59 03",
      "401 a",
      "dk72 10",
      "dk6 61",
      "ds00 81xa",
      "d590 80",
      "ds12 401a",
      "dv65 49",
      "4 79",
      "12 15",
      "40 50",
      "dv 1749",
      "an ti",
      "28 00",
      "72 42",
      "49 xa",
      "dc 159",
      "dc 569",
      "d24 48",
      "d24 901",
      "d45 56",
      "156 5",
      "d20 502",
      "dr0 42",
      "d79 551",
      "di7 103",
      "de9 420",
      "d456 8",
      "d6 56",
      "ds0 101",
      "d8 20",
      "dz93 4",
      "di63 449",
      "de103 19",
      "dt464 x5a",
      "dv150 9",
      "4 83",
      "d 86",
      "x s",
      "v22 7242",
      "13 90",
      "14 35",
      "di 119",
      "di 158",
      "de 538",
      "d5 285",
      "d5 571",
      "dk 209",
      "dn 312",
      "di25 41",
      "dv12 79",
      "d99 669",
      "d45 52",
      "de0 99",
      "d72 972",
      "d43 87",
      "dr0 603",
      "dj96 20",
      "d275 49",
      "de9 426",
      "dk9 20",
      "d038 42",
      "dd5 73",
      "d574 50",
      "d37 739",
      "df14 20",
      "dh93 13",
      "dy9200 3",
      "dg25 81",
      "0 35",
      "2 180",
      "4 167",
      "o re",
      "v22 4167",
      "50 99",
      "l2274 70",
      "14 95",
      "70 4",
      "dv 02",
      "dz 5309",
      "26 50",
      "80 3",
      "d2 409",
      "df 410",
      "dd 65",
      "dg 3",
      "d7 100",
      "dz9 111",
      "dt 5099",
      "d24 10",
      "di50 30",
      "de9 12",
      "dz858 50",
      "dk8 681",
      "dv120 1",
      "d18 30",
      "dk6 60",
      "dz93 2",
      "d342 91",
      "dz874 42",
      "d96 94",
      "dr68 83",
      "dv02 59",
      "dt5099 5a",
      "5 14",
      "6 61",
      "7 22",
      "8 81",
      "er n",
      "dl 270",
      "12 65",
      "14 15",
      "98 a",
      "29 d",
      "d42 989",
      "dk 860",
      "dk 259",
      "54 7",
      "d30 300",
      "dc 163",
      "dt 412",
      "d780 96",
      "d56 889",
      "di6 99",
      "dc78 5",
      "d707 25",
      "d44 13",
      "dr4 14",
      "dk74 3",
      "de870 4",
      "212 a",
      "dy920 02",
      "dl0 33",
      "d410 41",
      "east ern",
      "dz966 59",
      "dc8 281",
      "dv5 52",
      "dg3 184",
      "dt412 95a",
      "4 61",
      "5 18",
      "6 28",
      "r o",
      "15 95",
      "bp d",
      "27 xxa",
      "d4 370",
      "d42 0",
      "88 4",
      "d2 59",
      "54 12xa",
      "dj 339",
      "dg 56",
      "d30 590",
      "db 441",
      "d56 93",
      "d45 182",
      "ds 5412xa",
      "d70 98",
      "d790 99",
      "d34 931",
      "dt8 27xxa",
      "da 411",
      "db9 681",
      "590 a",
      "d68 24",
      "dw 0",
      "dv100 9",
      "dz80 7",
      "dl0 89",
      "d730 25",
      "dk8 590",
      "dg9 19",
      "d728 88",
      "di826 11",
      "df11 90",
      "min s",
      "dm255 11",
      "dt501 x6a",
      "d567 22",
      "d05 49",
      "v2246 43",
      "de7 1440",
      "0 45",
      "u f",
      "10 95",
      "13 15",
      "15 85",
      "59 xa",
      "he par",
      "di 469",
      "d4 90",
      "140 5",
      "d78 42",
      "d78 651",
      "dr 571",
      "84 59xa",
      "d2 74",
      "d2 564",
      "dj 392",
      "d28 262",
      "d3 682",
      "dc 509",
      "de8 502",
      "dt 8459xa",
      "d99 50",
      "d29 410",
      "d72 981",
      "d19 11",
      "m2290 57",
      "d440 22",
      "dc7 982",
      "d038 10",
      "ta p",
      "d737 10",
      "d17 13",
      "d112 84",
      "d359 4",
      "hepar in",
      "0 46",
      "5 26",
      "6 14",
      "6 34",
      "d 61",
      "d 156",
      "17 30",
      "16 45",
      "16 40",
      "di 248",
      "di 953",
      "28 89",
      "23 25",
      "83 3",
      "00 3",
      "82 50",
      "d5 733",
      "d78 68",
      "m2220 21",
      "dg 8250",
      "dz8 571",
      "dn 3",
      "dn 2889",
      "dv15 84",
      "dh 168",
      "dh 1089",
      "o22659 1",
      "d780 94",
      "198 0",
      "dj4 70",
      "di3 14",
      "d33 63",
      "dd68 62",
      "d68 110",
      "dj98 4",
      "dz98 890",
      "d519 02",
      "dz966 49",
      "d345 11",
      "d574 10",
      "d80 54",
      "ds22 49xa",
      "d112 3",
      "dl896 11",
      "dl896 21",
      "dm190 11",
      "d420 90",
      "4 84",
      "5 32",
      "c in",
      "g en",
      "k ore",
      "x 2",
      "z 0",
      "22 a",
      "14 85",
      "15 40",
      "17 85",
      "60 80",
      "16 85",
      "de 441",
      "mi cin",
      "dr 579",
      "dg 90",
      "dg 510",
      "dm 6080",
      "d45 88",
      "d20 240",
      "d19 74",
      "dt8 743",
      "d787 23",
      "di6 201",
      "dg89 21",
      "di3 61",
      "dz80 52",
      "d8 220",
      "ta micin",
      "di5 14",
      "dr40 21",
      "de115 2",
      "di824 z",
      "dl8 93",
      "di82 b",
      "dc91 z0",
      "d873 42",
      "dh4 902",
      "gen tamicin",
      "kore an",
      "5 22",
      "5 23",
      "5 36",
      "a 0",
      "22 75",
      "50 10",
      "17 55",
      "ph il",
      "45 7",
      "de 90",
      "23 10",
      "89 2",
      "d42 99",
      "d78 831",
      "d28 731",
      "dd 701",
      "dm 32",
      "neut ro",
      "d57 16",
      "174 5",
      "d79 21",
      "d44 78",
      "dk70 40",
      "do 0",
      "d6 111",
      "dk8 309",
      "xx 0",
      "dk6 32",
      "dc8 65",
      "d11 73",
      "di63 40",
      "dl76 34",
      "de94 78",
      "do2 40",
      "dd350 2",
      "di699 54",
      "d274 00",
      "neutro phil",
      "0 02",
      "x 7",
      "22 32",
      "56 8",
      "l2274 52",
      "14 65",
      "17 70",
      "17 80",
      "16 15",
      "16 35",
      "dv 16",
      "dz 430",
      "d4 30",
      "82 99",
      "dk 94",
      "84 a0",
      "dj 155",
      "d28 981",
      "d28 411",
      "dd 619",
      "dz8 20",
      "d30 520",
      "dc 84a0",
      "dm 47",
      "dt 500",
      "d780 50",
      "ds 400",
      "d9 2232",
      "dd6 31",
      "di6 38",
      "dj96 11",
      "d25 200",
      "dd68 0",
      "de10 22",
      "ds0 66",
      "dg9 30",
      "d80 52",
      "dl9 30",
      "de2 749",
      "dv5 51",
      "dl97 9",
      "0 34",
      "18 30",
      "17 15",
      "di 743",
      "19 10",
      "20 80",
      "m223 257",
      "d78 27",
      "d78 54",
      "dk 550",
      "d40 291",
      "dj 384",
      "dd 735",
      "d3 379",
      "dn 30",
      "dc 8299",
      "d250 70",
      "dm 329",
      "d530 0",
      "db 356",
      "d99 61",
      "d45 385",
      "d29 10",
      "d29 562",
      "m2296 18",
      "de83 111",
      "db9 57",
      "d68 25",
      "da4 189",
      "da4 152",
      "d728 89",
      "dd75 81",
      "dm79 a",
      "d150 8",
      "d200 40",
      "dl76 32",
      "d62 68",
      "d87 30",
      "di824z 2",
      "ds400 22a",
      "2 175",
      "3 100",
      "4 87",
      "d 91",
      "16 90",
      "dv 166",
      "m2275 28",
      "d5 23",
      "d27 64",
      "m2220 37",
      "df 411",
      "dh 570",
      "de78 49",
      "dz878 98",
      "dt 179",
      "d99 74",
      "d45 384",
      "dk7 63",
      "d998 09",
      "d36 900",
      "de88 44",
      "dv0 11",
      "dz858 9",
      "242 5",
      "dm4 79",
      "dz966 12",
      "dz91 120",
      "d46 2",
      "d415 11",
      "di5 13",
      "dr40 23",
      "dz96 652",
      "de116 28",
      "dv5 331",
      "ds065 x9a",
      "d296 33",
      "dt447 x6a",
      "dc3 432",
      "dg95 11",
      "dt500 x6a",
      "dm79a 3",
      "dh570 2",
      "5 73",
      "9 98",
      "d d259",
      "56 6",
      "18 90",
      "60 00",
      "24 10",
      "dv 165",
      "dv 171",
      "90 4",
      "dz 84",
      "66 3",
      "77 1",
      "d27 903",
      "d78 492",
      "dk 40",
      "dn 186",
      "dc 20",
      "d250 82",
      "dm 000",
      "dm 008",
      "300 5",
      "db 349",
      "d56 983",
      "d45 78",
      "d787 22",
      "d438 83",
      "dv100 4",
      "d038 19",
      "dy920 18",
      "dz90 722",
      "d730 17",
      "dz958 20",
      "dg9 12",
      "di826 12",
      "dm54 89",
      "d75 312",
      "dl022 14",
      "di698 51",
      "dw19xx xd",
      "dt179 90a",
      "dz84 89",
      "dm000 12",
      "dm008 12",
      "2 700",
      "2 900",
      "22 90",
      "15 45",
      "59 2",
      "di 213",
      "de 230",
      "19 70",
      "dv 7",
      "20 a",
      "78 8",
      "179 0",
      "21 10",
      "64 7",
      "d4 421",
      "d27 950",
      "dz8 11",
      "d30 400",
      "dc 160",
      "dc 679",
      "d250 41",
      "160 5",
      "d56 731",
      "d45 30",
      "d45 49",
      "170 5",
      "ds 8",
      "dj9 48",
      "d04 79",
      "de0 500",
      "d43 21",
      "d998 81",
      "de11 69",
      "dv85 4",
      "dz80 42",
      "d74 781",
      "de85 43",
      "dz87 74",
      "dy92 199",
      "d759 89",
      "dz22 321",
      "4 77",
      "5 17",
      "r ate",
      "18 80",
      "se d",
      "70 81",
      "di 120",
      "di 83",
      "di 160",
      "179 5",
      "dz 833",
      "dk 029",
      "dr 61",
      "dr 202",
      "dr 1110",
      "d2 90",
      "dj 438",
      "d28 809",
      "dy 95",
      "dc 259",
      "dm 0",
      "dv10 85",
      "dz68 33",
      "d45 382",
      "ds 818",
      "d9 7081",
      "165 5",
      "174 1",
      "d787 29",
      "dv0 90",
      "dm8 448",
      "d730 13",
      "dk56 60",
      "dc77 9",
      "d90 72",
      "dz93 6",
      "d478 6",
      "d478 30",
      "d150 9",
      "d00 863",
      "df14 10",
      "d66 411",
      "dw0 10",
      "dm8448 xa",
      "0 33",
      "7 24",
      "d ur",
      "s ub",
      "18 15",
      "25 50",
      "25 25",
      "19 30",
      "20 20",
      "27 50",
      "dz 223",
      "58 7",
      "38 a",
      "d5 239",
      "d27 503",
      "dr 159",
      "d28 74",
      "dg 728",
      "d3 159",
      "150 5",
      "d250 53",
      "d250 01",
      "dh 40",
      "db 372",
      "149 xa",
      "dv12 42",
      "d518 5",
      "ds 220",
      "ds 320",
      "d29 281",
      "dt8 149xa",
      "de84 93",
      "di6 200",
      "d49 300",
      "d16 40",
      "dv85 44",
      "dv85 31",
      "dk3 11",
      "dr4 189",
      "d33 183",
      "dm4 854",
      "dk6 35",
      "d00 90",
      "dc85 18",
      "d726 33",
      "di77 72",
      "d659 61",
      "dt447 x5a",
      "dw010 xxa",
      "dur al",
      "sub dural",
      "dz223 22",
      "4 93",
      "4 96",
      "5 13",
      "5 19",
      "5 83",
      "5 31",
      "6 12",
      "d 82",
      "22 40",
      "10 x0",
      "dl 309",
      "dl 4050",
      "59 6",
      "de 109",
      "de 278",
      "dv 54",
      "28 25",
      "dz 888",
      "d5 109",
      "dd 869",
      "d30 563",
      "dc 642",
      "d530 20",
      "de78 1",
      "dt 174",
      "d57 30",
      "d59 59",
      "d45 38",
      "d20 201",
      "d04 184",
      "dz86 12",
      "dz86 11",
      "d440 8",
      "d440 31",
      "dc78 2",
      "dj96 90",
      "dc7 74",
      "dr13 14",
      "d53 560",
      "dr6 30",
      "d716 95",
      "dr10 32",
      "d737 19",
      "di826 21",
      "d793 19",
      "dz488 15",
      "dk40 30",
      "dh40 10x0",
      "dt174 90a",
      "0 39",
      "2 190",
      "8 86",
      "17 35",
      "16 70",
      "de 95",
      "dz 751",
      "83 8",
      "dk 0",
      "dk 208",
      "dg 248",
      "d3 17",
      "dv58 64",
      "d7 280",
      "141 xa",
      "dt 178",
      "di25 82",
      "dv10 89",
      "dz68 44",
      "d45 19",
      "180 5",
      "d72 971",
      "dt8 141xa",
      "di6 18",
      "di6 35",
      "d198 4",
      "dc7 70",
      "dg89 4",
      "d25 31",
      "di3 19",
      "dm8 68",
      "dv6 26",
      "de10 649",
      "dr65 10",
      "dz80 8",
      "d535 40",
      "xx d",
      "d459 9",
      "dz99 2",
      "dm79 601",
      "d478 31",
      "di82 c",
      "dm54 30",
      "de106 22",
      "dz3a 38",
      "d726 91",
      "d553 20",
      "d85 221",
      "di65 23",
      "dj152 11",
      "dg7 241",
      "d820 21",
      "dr4021 12",
      "8 13",
      "d 89",
      "74 7",
      "dl 739",
      "18 95",
      "40 00",
      "19 35",
      "27 75",
      "80 8",
      "d5 58",
      "o22656 5",
      "m22515 1",
      "dj 80",
      "df 09",
      "dd 860",
      "dg 2",
      "dg 47",
      "dg 250",
      "d3 371",
      "d30 89",
      "d30 09",
      "d250 52",
      "dm 170",
      "d56 79",
      "dk7 681",
      "d35 800",
      "dc7 901",
      "dv85 45",
      "de9 305",
      "de10 40",
      "d6 988",
      "dz98 0",
      "dd5 700",
      "dj84 116",
      "dr10 31",
      "d722 52",
      "dk29 60",
      "dt80 212a",
      "d444 89",
      "dh02 401",
      "dt825 38a",
      "do0 95",
      "4 86",
      "5 37",
      "6 43",
      "7 21",
      "h on",
      "22 60",
      "22 20",
      "dl 88",
      "12 82",
      "18 85",
      "11 11a",
      "42 75",
      "19 40",
      "24 a",
      "dv 1741",
      "20 35",
      "97 61",
      "21 60",
      "d5 199",
      "dk 220",
      "dr 935",
      "dr 161",
      "dr 971",
      "d2 102",
      "df 603",
      "d3 44",
      "d3 129",
      "d7 963",
      "dn 839",
      "d30 03",
      "dc 92",
      "dc 181",
      "dm 1a",
      "di4 901",
      "db 001",
      "l22935 5",
      "m2213 93",
      "d56 9",
      "d04 102",
      "d19 78",
      "dk7 689",
      "08 11",
      "da 430",
      "da 0811",
      "d787 60",
      "d36 960",
      "d707 21",
      "dc7 962",
      "de9 288",
      "dv6 107",
      "dv6 142",
      "dr13 13",
      "dv100 7",
      "dr9 78",
      "ds0 1111a",
      "dc79 61",
      "dk56 600",
      "d48 46",
      "d574 00",
      "dd64 89",
      "d728 85",
      "dm79 606",
      "d93 41",
      "d7890 7",
      "dd8 689",
      "di678 48",
      "dt4 61",
      "du ran",
      "dv16 42",
      "dn30 90",
      "de95 39",
      "di635 12",
      "dm868 x7",
      "hon duran",
      "dm1a 9",
      "2 130",
      "2 680",
      "5 56",
      "5 74",
      "5 42",
      "6 29",
      "7 96",
      "9 375",
      "v e",
      "l22 9375",
      "m22 1282",
      "dl 984",
      "59 4",
      "65 171",
      "di 258",
      "de 969",
      "19 45",
      "30 50",
      "20 60",
      "20 40",
      "100 xa",
      "29 50",
      "d42 60",
      "d27 69",
      "55 3",
      "dj 188",
      "d28 19",
      "dn 485",
      "dc 884",
      "de8 83",
      "dm 65171",
      "dh 5010",
      "d58 21",
      "d0 79",
      "dt 462",
      "d99 92",
      "d56 881",
      "d36 68",
      "dv85 32",
      "de9 15",
      "de9 429",
      "dk74 0",
      "do 770",
      "d15 41",
      "dq 0",
      "d7070 9",
      "dk5 289",
      "ds0 100xa",
      "dz850 7",
      "nati ve",
      "dm79 604",
      "dl9 58",
      "d17 17",
      "d200 30",
      "dm54 12",
      "dt80 818",
      "d959 6",
      "dl024 11",
      "di65 21",
      "di60 12",
      "dl974 12",
      "d156 1",
      "di83 90",
      "dt461 x5a",
      "di258 10",
      "dt80818 a",
      "0 36",
      "9 103",
      "13 a",
      "13 55",
      "dl 732",
      "17 65",
      "de 210",
      "dv 9103",
      "20 15",
      "o2265 74",
      "57 7",
      "26 25",
      "93 8",
      "dk 2",
      "dk 649",
      "dk 580",
      "dj 869",
      "d28 959",
      "dg 975",
      "d3 98",
      "d3 432",
      "dv58 62",
      "d0 53",
      "dt 360",
      "dy9 289",
      "db 259",
      "ds 308",
      "d20 780",
      "dz79 51",
      "dr0 30",
      "da 630",
      "d79 42",
      "d35 30",
      "di8 89",
      "o22660 2",
      "dy920 39",
      "dv42 83",
      "dk8 59",
      "d18 89",
      "dk6 21",
      "d574 51",
      "dk57 92",
      "dr40 235",
      "d575 11",
      "d52 100",
      "dh93 19",
      "d174 4",
      "dl979 19",
      "di82c 11",
      "dt462 x5a",
      "dg975 1",
      "ds308 13a",
      "5 12",
      "5 34",
      "7 78",
      "22 10",
      "22 25",
      "59 8",
      "19 20",
      "19 55",
      "d4 419",
      "d42 75",
      "d27 900",
      "55 a",
      "dk 027",
      "dk 863",
      "dr 680",
      "dj 156",
      "df 418",
      "dd 599",
      "dd 563",
      "d7 3005",
      "d0 54",
      "dt 4275",
      "dv4 971",
      "d99 679",
      "d70 707",
      "de84 96",
      "dk7 13",
      "dk7 61",
      "dr0 602",
      "di8 30",
      "dg93 9",
      "d15 78",
      "d15 33",
      "dc34 92",
      "237 5",
      "da4 151",
      "dt828 55a",
      "d478 19",
      "dv49 73",
      "ds065 x1a",
      "do99 344",
      "d05 39",
      "d997 99",
      "dh54 60",
      "dh54 61",
      "dr4022 12",
      "dh02 402",
      "o2294 13",
      "d443 81",
      "d290 40",
      "dr40235 2",
      "dt4275 xa",
      "2 105"
    ]
  }
}