{
  "version": "1.0",
  "truncation": null,
  "padding": null,
  "added_tokens": [
    {
      "id": 0,
      "content": "[PAD]",
      "single_word": false,
      "lstrip": false,
      "rstrip": false,
      "normalized": false,
      "special": true
    },
    {
      "id": 1,
      "content": "[UNK]",
      "single_word": false,
      "lstrip": false,
      "rstrip": false,
      "normalized": false,
      "special": true
    }
  ],
  "normalizer": null,
  "pre_tokenizer": {
    "type": "Sequence",
    "pretokenizers": [
      {
        "type": "Whitespace"
      },
      {
        "type": "Digits",
        "individual_digits": false
      },
      {
        "type": "Punctuation",
        "behavior": "Removed"
      }
    ]
  },
  "post_processor": null,
  "decoder": null,
  "model": {
    "type": "BPE",
    "dropout": null,
    "unk_token": "[UNK]",
    "continuing_subword_prefix": null,
    "end_of_word_suffix": null,
    "fuse_unk": false,
    "vocab": {
      "[PAD]": 0,
      "[UNK]": 1,
      "0": 2,
      "1": 3,
      "2": 4,
      "3": 5,
      "4": 6,
      "5": 7,
      "6": 8,
      "7": 9,
      "8": 10,
      "9": 11,
      "A": 12,
      "B": 13,
      "C": 14,
      "D": 15,
      "E": 16,
      "F": 17,
      "G": 18,
      "H": 19,
      "I": 20,
      "J": 21,
      "K": 22,
      "L": 23,
      "M": 24,
      "N": 25,
      "O": 26,
      "P": 27,
      "Q": 28,
      "R": 29,
      "S": 30,
      "T": 31,
      "U": 32,
      "V": 33,
      "W": 34,
      "X": 35,
      "Y": 36,
      "Z": 37,
      "a": 38,
      "b": 39,
      "c": 40,
      "d": 41,
      "e": 42,
      "f": 43,
      "g": 44,
      "h": 45,
      "i": 46,
      "j": 47,
      "k": 48,
      "l": 49,
      "m": 50,
      "n": 51,
      "o": 52,
      "p": 53,
      "q": 54,
      "r": 55,
      "s": 56,
      "t": 57,
      "u": 58,
      "v": 59,
      "w": 60,
      "x": 61,
      "y": 62,
      "z": 63,
      "°": 64,
      "µ": 65,
      "Â": 66,
      "AD": 67,
      "PAD": 68,
      "lo": 69,
      "od": 70,
      "em": 71,
      "lood": 72,
      "Blood": 73,
      "tr": 74,
      "mg": 75,
      "at": 76,
      "Ch": 77,
      "in": 78,
      "is": 79,
      "Chem": 80,
      "try": 81,
      "istry": 82,
      "Chemistry": 83,
      "um": 84,
      "ium": 85,
      "00": 86,
      "Eq": 87,
      "mEq": 88,
      "dL": 89,
      "ate": 90,
      "ri": 91,
      "ato": 92,
      "emato": 93,
      "ta": 94,
      "on": 95,
      "gy": 96,
      "logy": 97,
      "de": 98,
      "Hemato": 99,
      "Hematology": 100,
      "en": 101,
      "mL": 102,
      "ine": 103,
      "lu": 104,
      "odium": 105,
      "co": 106,
      "ride": 107,
      "10": 108,
      "loride": 109,
      "ota": 110,
      "se": 111,
      "ar": 112,
      "an": 113,
      "al": 114,
      "re": 115,
      "sium": 116,
      "og": 117,
      "Sodium": 118,
      "le": 119,
      "50": 120,
      "100": 121,
      "Chloride": 122,
      "otas": 123,
      "otassium": 124,
      "ic": 125,
      "ro": 126,
      "IT": 127,
      "pl": 128,
      "12": 129,
      "onate": 130,
      "bin": 131,
      "ac": 132,
      "alc": 133,
      "40": 134,
      "op": 135,
      "luco": 136,
      "atin": 137,
      "alcium": 138,
      "lucose": 139,
      "ch": 140,
      "ap": 141,
      "ni": 142,
      "20": 143,
      "ul": 144,
      "25": 145,
      "ion": 146,
      "13": 147,
      "ogen": 148,
      "ol": 149,
      "glucose": 150,
      "rit": 151,
      "Flu": 152,
      "as": 153,
      "tota": 154,
      "total": 155,
      "potassium": 156,
      "arb": 157,
      "ep": 158,
      "arbonate": 159,
      "sodium": 160,
      "ag": 161,
      "chloride": 162,
      "15": 163,
      "rea": 164,
      "let": 165,
      "crit": 166,
      "hemato": 167,
      "hematocrit": 168,
      "cre": 169,
      "atinine": 170,
      "creatinine": 171,
      "atelet": 172,
      "platelet": 173,
      "bic": 174,
      "urea": 175,
      "trogen": 176,
      "nitrogen": 177,
      "et": 178,
      "hem": 179,
      "lobin": 180,
      "oglobin": 181,
      "hemoglobin": 182,
      "11": 183,
      "sh": 184,
      "Flush": 185,
      "bicarbonate": 186,
      "calcium": 187,
      "gap": 188,
      "anion": 189,
      "un": 190,
      "ra": 191,
      "tam": 192,
      "uL": 193,
      "coun": 194,
      "count": 195,
      "UN": 196,
      "id": 197,
      "30": 198,
      "ir": 199,
      "DV": 200,
      "UNIT": 201,
      "500": 202,
      "tamin": 203,
      "78": 204,
      "il": 205,
      "Ac": 206,
      "19": 207,
      "DE": 208,
      "nan": 209,
      "1000": 210,
      "arin": 211,
      "ex": 212,
      "gm": 213,
      "DZ": 214,
      "14": 215,
      "27": 216,
      "28": 217,
      "NE": 218,
      "am": 219,
      "hy": 220,
      "hen": 221,
      "us": 222,
      "one": 223,
      "Gas": 224,
      "Potassium": 225,
      "Dex": 226,
      "tro": 227,
      "DR": 228,
      "Sul": 229,
      "Hep": 230,
      "Heparin": 231,
      "Sulf": 232,
      "Dextro": 233,
      "90": 234,
      "oc": 235,
      "DI": 236,
      "In": 237,
      "ole": 238,
      "or": 239,
      "Dextrose": 240,
      "HIT": 241,
      "WHIT": 242,
      "WHITE": 243,
      "Ace": 244,
      "ne": 245,
      "Sulfate": 246,
      "ph": 247,
      "taminop": 248,
      "taminophen": 249,
      "Acetaminophen": 250,
      "mm": 251,
      "te": 252,
      "29": 253,
      "ent": 254,
      "81": 255,
      "rine": 256,
      "24": 257,
      "raz": 258,
      "On": 259,
      "Glu": 260,
      "Gluc": 261,
      "60": 262,
      "pt": 263,
      "17": 264,
      "agne": 265,
      "Magne": 266,
      "Re": 267,
      "80": 268,
      "inr": 269,
      "ide": 270,
      "act": 271,
      "49": 272,
      "trate": 273,
      "Magnesium": 274,
      "ase": 275,
      "58": 276,
      "na": 277,
      "ot": 278,
      "bil": 279,
      "iru": 280,
      "23": 281,
      "biliru": 282,
      "bilirubin": 283,
      "TA": 284,
      "33": 285,
      "TAB": 286,
      "18": 287,
      "yc": 288,
      "sp": 289,
      "actate": 290,
      "ocus": 291,
      "Docus": 292,
      "Docusate": 293,
      "DK": 294,
      "mmol": 295,
      "artrate": 296,
      "59": 297,
      "Met": 298,
      "200": 299,
      "16": 300,
      "az": 301,
      "ONE": 302,
      "Sen": 303,
      "Senna": 304,
      "5000": 305,
      "Al": 306,
      "AG": 307,
      "BAG": 308,
      "Calcium": 309,
      "70": 310,
      "Urine": 311,
      "Bag": 312,
      "orph": 313,
      "IC": 314,
      "250": 315,
      "ulin": 316,
      "Ox": 317,
      "650": 318,
      "sulin": 319,
      "Insulin": 320,
      "lactate": 321,
      "Om": 322,
      "bp": 323,
      "26": 324,
      "rol": 325,
      "er": 326,
      "lol": 327,
      "tron": 328,
      "dan": 329,
      "Ondan": 330,
      "Ondanse": 331,
      "Ondansetron": 332,
      "razole": 333,
      "di": 334,
      "dr": 335,
      "th": 336,
      "99": 337,
      "51": 338,
      "ti": 339,
      "22": 340,
      "yl": 341,
      "sm": 342,
      "yco": 343,
      "83": 344,
      "os": 345,
      "79": 346,
      "itamin": 347,
      "Ne": 348,
      "Gluconate": 349,
      "AN": 350,
      "tatin": 351,
      "400": 352,
      "57": 353,
      "bu": 354,
      "DF": 355,
      "el": 356,
      "89": 357,
      "DD": 358,
      "DONE": 359,
      "cg": 360,
      "mcg": 361,
      "31": 362,
      "Ap": 363,
      "eth": 364,
      "69": 365,
      "opro": 366,
      "oly": 367,
      "45": 368,
      "lease": 369,
      "21": 370,
      "im": 371,
      "Release": 372,
      "300": 373,
      "epam": 374,
      "hydr": 375,
      "agon": 376,
      "Glucagon": 377,
      "Appl": 378,
      "pra": 379,
      "umin": 380,
      "Is": 381,
      "astatin": 382,
      "61": 383,
      "vastatin": 384,
      "ip": 385,
      "terol": 386,
      "irin": 387,
      "buterol": 388,
      "Asp": 389,
      "Aspirin": 390,
      "oprolol": 391,
      "Metoprolol": 392,
      "41": 393,
      "nit": 394,
      "Albuterol": 395,
      "ml": 396,
      "150": 397,
      "Pro": 398,
      "nits": 399,
      "4019": 400,
      "units": 401,
      "Vac": 402,
      "Dil": 403,
      "edi": 404,
      "Hy": 405,
      "75": 406,
      "39": 407,
      "otic": 408,
      "ral": 409,
      "cine": 410,
      "Iso": 411,
      "Osm": 412,
      "Osmotic": 413,
      "idine": 414,
      "ab": 415,
      "enz": 416,
      "Tartrate": 417,
      "325": 418,
      "Le": 419,
      "val": 420,
      "AL": 421,
      "DG": 422,
      "Poly": 423,
      "Neb": 424,
      "Onco": 425,
      "and": 426,
      "Imm": 427,
      "ediate": 428,
      "Immediate": 429,
      "NEB": 430,
      "HY": 431,
      "HYDR": 432,
      "orphone": 433,
      "HYDROm": 434,
      "HYDROmorphone": 435,
      "68": 436,
      "Gel": 437,
      "valent": 438,
      "ement": 439,
      "Repl": 440,
      "acement": 441,
      "Oncology": 442,
      "Replacement": 443,
      "ene": 444,
      "rile": 445,
      "aine": 446,
      "98": 447,
      "bumin": 448,
      "Ste": 449,
      "Sterile": 450,
      "ater": 451,
      "Water": 452,
      "ud": 453,
      "DJ": 454,
      "wh": 455,
      "blood": 456,
      "whole": 457,
      "Bis": 458,
      "hos": 459,
      "ycin": 460,
      "RIC": 461,
      "RICAN": 462,
      "acod": 463,
      "acodyl": 464,
      "Bisacodyl": 465,
      "AM": 466,
      "67": 467,
      "oprazole": 468,
      "aud": 469,
      "Dilaud": 470,
      "Dilaudid": 471,
      "ocaine": 472,
      "34": 473,
      "idocaine": 474,
      "Lidocaine": 475,
      "hyl": 476,
      "DC": 477,
      "of": 478,
      "mycin": 479,
      "32": 480,
      "ox": 481,
      "Gl": 482,
      "cc": 483,
      "NS": 484,
      "IU": 485,
      "hydrogen": 486,
      "ld": 487,
      "dehydrogen": 488,
      "dehydrogenase": 489,
      "ad": 490,
      "thm": 491,
      "hythm": 492,
      "Glucose": 493,
      "rate": 494,
      "87": 495,
      "he": 496,
      "ain": 497,
      "Sol": 498,
      "Soln": 499,
      "rox": 500,
      "Inf": 501,
      "emp": 502,
      "resp": 503,
      "pain": 504,
      "rhythm": 505,
      "dbp": 506,
      "sat": 507,
      "sbp": 508,
      "temp": 509,
      "heartrate": 510,
      "resprate": 511,
      "Vaccine": 512,
      "ant": 513,
      "ulti": 514,
      "enza": 515,
      "Influ": 516,
      "Influenza": 517,
      "Lev": 518,
      "Multi": 519,
      "789": 520,
      "vitamin": 521,
      "Multivitamin": 522,
      "At": 523,
      "36": 524,
      "mide": 525,
      "Multivitamins": 526,
      "Phos": 527,
      "DN": 528,
      "Lo": 529,
      "DY": 530,
      "IN": 531,
      "albumin": 532,
      "antoprazole": 533,
      "Pantoprazole": 534,
      "000": 535,
      "trop": 536,
      "82": 537,
      "ial": 538,
      "OP": 539,
      "Glyco": 540,
      "ree": 541,
      "DM": 542,
      "Sim": 543,
      "85": 544,
      "62": 545,
      "42": 546,
      "Oral": 547,
      "asone": 548,
      "DT": 549,
      "35": 550,
      "Car": 551,
      "orphine": 552,
      "hylene": 553,
      "ZO": 554,
      "ethylene": 555,
      "Polyethylene": 556,
      "Glycol": 557,
      "Ce": 558,
      "PR": 559,
      "lox": 560,
      "opri": 561,
      "Morphine": 562,
      "free": 563,
      "tropium": 564,
      "103": 565,
      "104": 566,
      "ear": 567,
      "sem": 568,
      "semide": 569,
      "Hyd": 570,
      "LA": 571,
      "eprazole": 572,
      "140": 573,
      "razepam": 574,
      "Lorazepam": 575,
      "Omeprazole": 576,
      "97": 577,
      "96": 578,
      "139": 579,
      "Prop": 580,
      "SW": 581,
      "530": 582,
      "Oxyco": 583,
      "OxycoDONE": 584,
      "428": 585,
      "Care": 586,
      "Cef": 587,
      "PU": 588,
      "FF": 589,
      "PUFF": 590,
      "uro": 591,
      "Furo": 592,
      "Furosemide": 593,
      "780": 594,
      "138": 595,
      "anco": 596,
      "ancomycin": 597,
      "isin": 598,
      "Vancomycin": 599,
      "ical": 600,
      "Pat": 601,
      "Patch": 602,
      "600": 603,
      "Acid": 604,
      "Crit": 605,
      "Critical": 606,
      "47": 607,
      "38": 608,
      "oL": 609,
      "Vitamin": 610,
      "orvastatin": 611,
      "Atorvastatin": 612,
      "qu": 613,
      "lor": 614,
      "102": 615,
      "790": 616,
      "ing": 617,
      "125": 618,
      "95": 619,
      "pratropium": 620,
      "Ipratropium": 621,
      "INE": 622,
      "65": 623,
      "101": 624,
      "2724": 625,
      "137": 626,
      "Phosph": 627,
      "Qu": 628,
      "CO": 629,
      "Sus": 630,
      "acin": 631,
      "785": 632,
      "105": 633,
      "37": 634,
      "Pre": 635,
      "110": 636,
      "Ni": 637,
      "141": 638,
      "Su": 639,
      "pen": 640,
      "Oxy": 641,
      "53081": 642,
      "Tra": 643,
      "tan": 644,
      "sin": 645,
      "Am": 646,
      "othy": 647,
      "romide": 648,
      "DROP": 649,
      "Clo": 650,
      "othyrox": 651,
      "othyroxine": 652,
      "Levothyroxine": 653,
      "083": 654,
      "48": 655,
      "tic": 656,
      "vir": 657,
      "OR": 658,
      "390": 659,
      "ticasone": 660,
      "Fluticasone": 661,
      "92": 662,
      "adri": 663,
      "Dip": 664,
      "Quadri": 665,
      "Quadrivalent": 666,
      "66": 667,
      "VI": 668,
      "136": 669,
      "VIAL": 670,
      "Vial": 671,
      "rof": 672,
      "Carbonate": 673,
      "Li": 674,
      "DA": 675,
      "opril": 676,
      "Bromide": 677,
      "loxacin": 678,
      "Ci": 679,
      "OxyCO": 680,
      "Diphen": 681,
      "azepam": 682,
      "LE": 683,
      "OxyCODONE": 684,
      "AF": 685,
      "entin": 686,
      "apentin": 687,
      "abapentin": 688,
      "106": 689,
      "Gabapentin": 690,
      "apine": 691,
      "azole": 692,
      "lopra": 693,
      "43": 694,
      "quid": 695,
      "Liquid": 696,
      "AME": 697,
      "AMERICAN": 698,
      "8789": 699,
      "87891": 700,
      "sion": 701,
      "Th": 702,
      "CK": 703,
      "BLA": 704,
      "IV": 705,
      "219": 706,
      "AFRICAN": 707,
      "BLACK": 708,
      "pe": 709,
      "pension": 710,
      "Suspension": 711,
      "FoL": 712,
      "FoLIC": 713,
      "ccal": 714,
      "coccal": 715,
      "142": 716,
      "311": 717,
      "56": 718,
      "DB": 719,
      "SPR": 720,
      "SPRY": 721,
      "isinopril": 722,
      "Lisinopril": 723,
      "ulo": 724,
      "112": 725,
      "ia": 726,
      "Phosphate": 727,
      "PH": 728,
      "urine": 729,
      "135": 730,
      "107": 731,
      "En": 732,
      "ameth": 733,
      "icone": 734,
      "ethicone": 735,
      "Succ": 736,
      "Simethicone": 737,
      "smear": 738,
      "88": 739,
      "yclo": 740,
      "419": 741,
      "hal": 742,
      "427": 743,
      "Hydro": 744,
      "119": 745,
      "Pred": 746,
      "93": 747,
      "25000": 748,
      "109": 749,
      "84": 750,
      "55": 751,
      "72": 752,
      "111": 753,
      "44": 754,
      "ini": 755,
      "tra": 756,
      "401": 757,
      "arf": 758,
      "arfarin": 759,
      "Warfarin": 760,
      "lin": 761,
      "amine": 762,
      "meth": 763,
      "Inhal": 764,
      "band": 765,
      "bands": 766,
      "458": 767,
      "800": 768,
      "onazole": 769,
      "71": 770,
      "SONE": 771,
      "niSONE": 772,
      "PredniSONE": 773,
      "NI": 774,
      "1582": 775,
      "94": 776,
      "mine": 777,
      "CA": 778,
      "CH": 779,
      "PT": 780,
      "PTCH": 781,
      "Hydr": 782,
      "52": 783,
      "329": 784,
      "86": 785,
      "bc": 786,
      "wbc": 787,
      "IS": 788,
      "lus": 789,
      "ER": 790,
      "Az": 791,
      "04": 792,
      "Plus": 793,
      "Mini": 794,
      "pid": 795,
      "Inhaler": 796,
      "it": 797,
      "Fen": 798,
      "pf": 799,
      "iprof": 800,
      "iprofloxacin": 801,
      "Ciprofloxacin": 802,
      "hpf": 803,
      "if": 804,
      "53": 805,
      "DL": 806,
      "AMINE": 807,
      "ionate": 808,
      "hydrAMINE": 809,
      "DiphenhydrAMINE": 810,
      "Fam": 811,
      "otidine": 812,
      "Famotidine": 813,
      "Simvastatin": 814,
      "867": 815,
      "yr": 816,
      "tanyl": 817,
      "Fentanyl": 818,
      "Propionate": 819,
      "AS": 820,
      "108": 821,
      "rt": 822,
      "LOR": 823,
      "Tri": 824,
      "Vir": 825,
      "Virus": 826,
      "134": 827,
      "Me": 828,
      "143": 829,
      "91": 830,
      "int": 831,
      "42731": 832,
      "Oint": 833,
      "LORazepam": 834,
      "illin": 835,
      "ys": 836,
      "Di": 837,
      "64": 838,
      "NIDA": 839,
      "TIN": 840,
      "ua": 841,
      "Cl": 842,
      "Chlor": 843,
      "aparin": 844,
      "razine": 845,
      "chlor": 846,
      "Prochlor": 847,
      "perazine": 848,
      "Prochlorperazine": 849,
      "Rin": 850,
      "Rinse": 851,
      "Gua": 852,
      "pine": 853,
      "der": 854,
      "rid": 855,
      "eP": 856,
      "63": 857,
      "Po": 858,
      "Oxyc": 859,
      "erin": 860,
      "Pow": 861,
      "Powder": 862,
      "4280": 863,
      "Enox": 864,
      "Enoxaparin": 865,
      "Ran": 866,
      "ers": 867,
      "ZOLE": 868,
      "MO": 869,
      "ated": 870,
      "HydrAL": 871,
      "yclovir": 872,
      "itidine": 873,
      "Acyclovir": 874,
      "Ranitidine": 875,
      "74": 876,
      "NIDAZOLE": 877,
      "olol": 878,
      "Lactate": 879,
      "Ring": 880,
      "Lactated": 881,
      "Ringers": 882,
      "Mil": 883,
      "CAP": 884,
      "hex": 885,
      "Thi": 886,
      "2449": 887,
      "Citrate": 888,
      "Thiamine": 889,
      "41401": 890,
      "calc": 891,
      "Mid": 892,
      "ulated": 893,
      "calculated": 894,
      "Oph": 895,
      "ofol": 896,
      "Propofol": 897,
      "La": 898,
      "Chlorhex": 899,
      "Chlorhexidine": 900,
      "Hydrox": 901,
      "Ophth": 902,
      "Ar": 903,
      "2859": 904,
      "Syr": 905,
      "909": 906,
      "Done": 907,
      "ZODone": 908,
      "TraZODone": 909,
      "inge": 910,
      "Syringe": 911,
      "46": 912,
      "sia": 913,
      "Milk": 914,
      "Magnesia": 915,
      "Tear": 916,
      "XL": 917,
      "tif": 918,
      "icial": 919,
      "tificial": 920,
      "Artificial": 921,
      "ment": 922,
      "TraM": 923,
      "TraMAD": 924,
      "Ointment": 925,
      "af": 926,
      "280": 927,
      "54": 928,
      "tal": 929,
      "PK": 930,
      "PKT": 931,
      "Zol": 932,
      "talopra": 933,
      "talopram": 934,
      "133": 935,
      "XA": 936,
      "ax": 937,
      "Acet": 938,
      "ycerin": 939,
      "Succin": 940,
      "733": 941,
      "ogl": 942,
      "to": 943,
      "HCl": 944,
      "etine": 945,
      "5849": 946,
      "dipine": 947,
      "Succinate": 948,
      "3051": 949,
      "trogl": 950,
      "troglycerin": 951,
      "Nitroglycerin": 952,
      "RO": 953,
      "30000": 954,
      "Sal": 955,
      "vac": 956,
      "OL": 957,
      "130": 958,
      "INH": 959,
      "Lact": 960,
      "5861": 961,
      "tine": 962,
      "189": 963,
      "338": 964,
      "Bu": 965,
      "ulose": 966,
      "Lactulose": 967,
      "120": 968,
      "gr": 969,
      "Polyvalent": 970,
      "750": 971,
      "uminum": 972,
      "Aluminum": 973,
      "ET": 974,
      "Salm": 975,
      "Neu": 976,
      "Neutra": 977,
      "144": 978,
      "DS": 979,
      "5811": 980,
      "179": 981,
      "Dis": 982,
      "Nys": 983,
      "Nystatin": 984,
      "amide": 985,
      "erol": 986,
      "331": 987,
      "2510": 988,
      "eterol": 989,
      "Salmeterol": 990,
      "SR": 991,
      "odone": 992,
      "umo": 993,
      "Pne": 994,
      "umococcal": 995,
      "Pneumococcal": 996,
      "ur": 997,
      "77": 998,
      "NO": 999,
      "IM": 1000,
      "132": 1001,
      "NEU": 1002,
      "PNEU": 1003,
      "PNEUMO": 1004,
      "PNEUMOcoccal": 1005,
      "PHE": 1006,
      "1500": 1007,
      "Trimeth": 1008,
      "oprim": 1009,
      "Mic": 1010,
      "Trimethoprim": 1011,
      "Sulfameth": 1012,
      "76": 1013,
      "ream": 1014,
      "Cream": 1015,
      "Disk": 1016,
      "Diskus": 1017,
      "bac": 1018,
      "5990": 1019,
      "878": 1020,
      "sac": 1021,
      "sacch": 1022,
      "aride": 1023,
      "saccharide": 1024,
      "129": 1025,
      "vaccine": 1026,
      "poly": 1027,
      "IME": 1028,
      "CefeP": 1029,
      "CefePIME": 1030,
      "polysaccharide": 1031,
      "Phen": 1032,
      "Metoc": 1033,
      "lopramide": 1034,
      "Metoclopramide": 1035,
      "bactam": 1036,
      "Lot": 1037,
      "oxetine": 1038,
      "Chl": 1039,
      "070": 1040,
      "Lotion": 1041,
      "9331": 1042,
      "mineral": 1043,
      "minerals": 1044,
      "ifene": 1045,
      "Tam": 1046,
      "Sar": 1047,
      "Nico": 1048,
      "Nicotine": 1049,
      "Sarna": 1050,
      "Guaifene": 1051,
      "Guaifenesin": 1052,
      "Dexameth": 1053,
      "Tears": 1054,
      "Dexamethasone": 1055,
      "sulo": 1056,
      "sulosin": 1057,
      "Tamsulosin": 1058,
      "1251": 1059,
      "TH": 1060,
      "7800": 1061,
      "Tab": 1062,
      "IR": 1063,
      "eta": 1064,
      "7901": 1065,
      "Citalopram": 1066,
      "rel": 1067,
      "49390": 1068,
      "649": 1069,
      "Fer": 1070,
      "OTH": 1071,
      "OTHER": 1072,
      "2720": 1073,
      "PAN": 1074,
      "HIS": 1075,
      "LATIN": 1076,
      "PANIC": 1077,
      "HISPANIC": 1078,
      "LATINO": 1079,
      "EC": 1080,
      "Cep": 1081,
      "zapine": 1082,
      "etam": 1083,
      "PHrine": 1084,
      "131": 1085,
      "Oxycodone": 1086,
      "172": 1087,
      "line": 1088,
      "LO": 1089,
      "ogrel": 1090,
      "pidogrel": 1091,
      "Clopidogrel": 1092,
      "cort": 1093,
      "276": 1094,
      "794": 1095,
      "73": 1096,
      "145": 1097,
      "Ami": 1098,
      "039": 1099,
      "tegr": 1100,
      "ating": 1101,
      "Disin": 1102,
      "tegrating": 1103,
      "Disintegrating": 1104,
      "707": 1105,
      "WN": 1106,
      "KNO": 1107,
      "UNKNO": 1108,
      "UNKNOWN": 1109,
      "RI": 1110,
      "MetRO": 1111,
      "MetRONIDAZOLE": 1112,
      "FLa": 1113,
      "gyl": 1114,
      "FLagyl": 1115,
      "rous": 1116,
      "Ferrous": 1117,
      "929": 1118,
      "isone": 1119,
      "cortisone": 1120,
      "ct": 1121,
      "Azine": 1122,
      "Cy": 1123,
      "Miconazole": 1124,
      "phrine": 1125,
      "Cap": 1126,
      "2761": 1127,
      "5867": 1128,
      "860": 1129,
      "iol": 1130,
      "olo": 1131,
      "791": 1132,
      "alox": 1133,
      "romycin": 1134,
      "Thro": 1135,
      "327": 1136,
      "lop": 1137,
      "urin": 1138,
      "olone": 1139,
      "HydrALAzine": 1140,
      "871": 1141,
      "Allop": 1142,
      "urinol": 1143,
      "Allopurinol": 1144,
      "Throat": 1145,
      "451": 1146,
      "900": 1147,
      "tral": 1148,
      "umar": 1149,
      "umarate": 1150,
      "Ser": 1151,
      "traline": 1152,
      "Sertraline": 1153,
      "tiaz": 1154,
      "ded": 1155,
      "Diltiaz": 1156,
      "Diltiazem": 1157,
      "Mon": 1158,
      "artan": 1159,
      "Fumarate": 1160,
      "ended": 1161,
      "rect": 1162,
      "direct": 1163,
      "thromycin": 1164,
      "Ti": 1165,
      "05": 1166,
      "NAS": 1167,
      "NASAL": 1168,
      "113": 1169,
      "lodipine": 1170,
      "849": 1171,
      "DH": 1172,
      "922": 1173,
      "Ur": 1174,
      "489": 1175,
      "114": 1176,
      "sod": 1177,
      "sodiol": 1178,
      "NY": 1179,
      "Ursodiol": 1180,
      "PHENY": 1181,
      "PHENYLE": 1182,
      "PHENYLEPHrine": 1183,
      "32723": 1184,
      "Amlodipine": 1185,
      "2000": 1186,
      "Ket": 1187,
      "col": 1188,
      "7870": 1189,
      "509": 1190,
      "239": 1191,
      "LOZ": 1192,
      "Nas": 1193,
      "449": 1194,
      "724": 1195,
      "Nasal": 1196,
      "loro": 1197,
      "Ram": 1198,
      "45909": 1199,
      "440": 1200,
      "bal": 1201,
      "conazole": 1202,
      "Methyl": 1203,
      "bup": 1204,
      "121": 1205,
      "tended": 1206,
      "Ibup": 1207,
      "rofen": 1208,
      "Ibuprofen": 1209,
      "ano": 1210,
      "amin": 1211,
      "cobal": 1212,
      "cobalamin": 1213,
      "anocobalamin": 1214,
      "496": 1215,
      "Cyanocobalamin": 1216,
      "33829": 1217,
      "Ex": 1218,
      "icillin": 1219,
      "TRI": 1220,
      "Acetate": 1221,
      "Pheny": 1222,
      "teon": 1223,
      "elteon": 1224,
      "Ramelteon": 1225,
      "115": 1226,
      "chloro": 1227,
      "naz": 1228,
      "Clonaz": 1229,
      "Pip": 1230,
      "Hydrocortisone": 1231,
      "Diazepam": 1232,
      "601": 1233,
      "518": 1234,
      "pidem": 1235,
      "Zolpidem": 1236,
      "153": 1237,
      "IAN": 1238,
      "ASIAN": 1239,
      "Extended": 1240,
      "879": 1241,
      "PIC": 1242,
      "PICC": 1243,
      "acetam": 1244,
      "st": 1245,
      "orol": 1246,
      "orolac": 1247,
      "ge": 1248,
      "Ketorolac": 1249,
      "iracetam": 1250,
      "dra": 1251,
      "Albumin": 1252,
      "ofloxacin": 1253,
      "epe": 1254,
      "86718": 1255,
      "4733": 1256,
      "Levofloxacin": 1257,
      "116": 1258,
      "VET": 1259,
      "LeVET": 1260,
      "LeVETiracetam": 1261,
      "Sp": 1262,
      "78791": 1263,
      "Benz": 1264,
      "iaz": 1265,
      "118": 1266,
      "Mir": 1267,
      "339": 1268,
      "5111": 1269,
      "486": 1270,
      "160": 1271,
      "For": 1272,
      "412": 1273,
      "17210": 1274,
      "FE": 1275,
      "tram": 1276,
      "Ul": 1277,
      "Midline": 1278,
      "Ultram": 1279,
      "TraMADOL": 1280,
      "27651": 1281,
      "sert": 1282,
      "ions": 1283,
      "Insert": 1284,
      "Insertions": 1285,
      "480": 1286,
      "2875": 1287,
      "perid": 1288,
      "Oxide": 1289,
      "orus": 1290,
      "Phosphorus": 1291,
      "acillin": 1292,
      "azo": 1293,
      "Tazo": 1294,
      "Tazobactam": 1295,
      "tazapine": 1296,
      "Mirtazapine": 1297,
      "iron": 1298,
      "actone": 1299,
      "572": 1300,
      "olactone": 1301,
      "ironolactone": 1302,
      "73300": 1303,
      "Spironolactone": 1304,
      "4582": 1305,
      "eracillin": 1306,
      "Piperacillin": 1307,
      "ZODONE": 1308,
      "traZODONE": 1309,
      "550": 1310,
      "XONE": 1311,
      "tria": 1312,
      "Ceftria": 1313,
      "CeftriaXONE": 1314,
      "56400": 1315,
      "AX": 1316,
      "729": 1317,
      "285": 1318,
      "Azi": 1319,
      "Azithromycin": 1320,
      "450": 1321,
      "thiaz": 1322,
      "arone": 1323,
      "thiazide": 1324,
      "ly": 1325,
      "ast": 1326,
      "NEG": 1327,
      "146": 1328,
      "Ma": 1329,
      "Maalox": 1330,
      "902": 1331,
      "Lab": 1332,
      "etalol": 1333,
      "Labetalol": 1334,
      "Meth": 1335,
      "odarone": 1336,
      "Amiodarone": 1337,
      "252": 1338,
      "onat": 1339,
      "TraMADol": 1340,
      "Cat": 1341,
      "AZ": 1342,
      "669": 1343,
      "7902": 1344,
      "AZINE": 1345,
      "chlorothiazide": 1346,
      "168": 1347,
      "Hydrochlorothiazide": 1348,
      "128": 1349,
      "enolol": 1350,
      "Atenolol": 1351,
      "pi": 1352,
      "pro": 1353,
      "Reg": 1354,
      "Val": 1355,
      "ular": 1356,
      "788": 1357,
      "acol": 1358,
      "Cepacol": 1359,
      "4891": 1360,
      "Regular": 1361,
      "728": 1362,
      "zine": 1363,
      "hosol": 1364,
      "Caphosol": 1365,
      "8929": 1366,
      "ODI": 1367,
      "Pine": 1368,
      "amL": 1369,
      "ODIPine": 1370,
      "amLODIPine": 1371,
      "Hum": 1372,
      "onatate": 1373,
      "Benzonatate": 1374,
      "Diphenhy": 1375,
      "dramine": 1376,
      "Diphenhydramine": 1377,
      "QU": 1378,
      "Eti": 1379,
      "QUEti": 1380,
      "QUEtiapine": 1381,
      "epine": 1382,
      "oLIN": 1383,
      "Cyclo": 1384,
      "Fluconazole": 1385,
      "345": 1386,
      "Human": 1387,
      "CefTRI": 1388,
      "AXone": 1389,
      "CefTRIAXone": 1390,
      "ans": 1391,
      "Cefaz": 1392,
      "CefazoLIN": 1393,
      "Pra": 1394,
      "do": 1395,
      "715": 1396,
      "4589": 1397,
      "So": 1398,
      "850": 1399,
      "27800": 1400,
      "296": 1401,
      "436": 1402,
      "enge": 1403,
      "HydrALAZINE": 1404,
      "149": 1405,
      "cin": 1406,
      "zenge": 1407,
      "Lozenge": 1408,
      "5900": 1409,
      "ridine": 1410,
      "olam": 1411,
      "Spra": 1412,
      "Spray": 1413,
      "SS": 1414,
      "148": 1415,
      "951": 1416,
      "otropium": 1417,
      "Tiotropium": 1418,
      "Rif": 1419,
      "OX": 1420,
      "409": 1421,
      "AZol": 1422,
      "127": 1423,
      "5715": 1424,
      "Jel": 1425,
      "Jelly": 1426,
      "toin": 1427,
      "ansoprazole": 1428,
      "Bic": 1429,
      "8798": 1430,
      "Lansoprazole": 1431,
      "126": 1432,
      "2768": 1433,
      "alo": 1434,
      "255": 1435,
      "117": 1436,
      "PRE": 1437,
      "MethylPRE": 1438,
      "DNIS": 1439,
      "MethylPREDNIS": 1440,
      "MethylPREDNISolone": 1441,
      "peridol": 1442,
      "ov": 1443,
      "122": 1444,
      "Halo": 1445,
      "Haloperidol": 1446,
      "Los": 1447,
      "Losartan": 1448,
      "Bicarbonate": 1449,
      "289": 1450,
      "998": 1451,
      "Pravastatin": 1452,
      "onTIN": 1453,
      "OxyconTIN": 1454,
      "BuPR": 1455,
      "569": 1456,
      "BuPROP": 1457,
      "4581": 1458,
      "BuPROPion": 1459,
      "XXA": 1460,
      "troNIDAZOLE": 1461,
      "MetroNIDAZOLE": 1462,
      "690": 1463,
      "1400": 1464,
      "MDI": 1465,
      "4700": 1466,
      "ptic": 1467,
      "147": 1468,
      "2809": 1469,
      "875": 1470,
      "5866": 1471,
      "9200": 1472,
      "92230": 1473,
      "axim": 1474,
      "OLAN": 1475,
      "696": 1476,
      "OLANZ": 1477,
      "OLANZapine": 1478,
      "8741": 1479,
      "aximin": 1480,
      "Rifaximin": 1481,
      "LR": 1482,
      "78061": 1483,
      "781": 1484,
      "197": 1485,
      "oprost": 1486,
      "tri": 1487,
      "190": 1488,
      "iFE": 1489,
      "Nesin": 1490,
      "iFENesin": 1491,
      "GuaiFENesin": 1492,
      "ital": 1493,
      "858": 1494,
      "Mepe": 1495,
      "Meperidine": 1496,
      "319": 1497,
      "lora": 1498,
      "180": 1499,
      "Chlora": 1500,
      "adine": 1501,
      "septic": 1502,
      "Chloraseptic": 1503,
      "309": 1504,
      "182": 1505,
      "Bac": 1506,
      "786": 1507,
      "872": 1508,
      "123": 1509,
      "787": 1510,
      "005": 1511,
      "8497": 1512,
      "atan": 1513,
      "20280": 1514,
      "92239": 1515,
      "42789": 1516,
      "9959": 1517,
      "Phenytoin": 1518,
      "Amp": 1519,
      "Ampicillin": 1520,
      "LOP": 1521,
      "ERamide": 1522,
      "LOPERamide": 1523,
      "Top": 1524,
      "201": 1525,
      "cor": 1526,
      "fate": 1527,
      "azine": 1528,
      "azolam": 1529,
      "imazole": 1530,
      "ema": 1531,
      "124": 1532,
      "atanoprost": 1533,
      "Latanoprost": 1534,
      "28800": 1535,
      "Midazolam": 1536,
      "Suc": 1537,
      "aban": 1538,
      "78701": 1539,
      "1254": 1540,
      "Con": 1541,
      "410": 1542,
      "XR": 1543,
      "20500": 1544,
      "220": 1545,
      "320": 1546,
      "As": 1547,
      "zol": 1548,
      "opa": 1549,
      "Acetam": 1550,
      "LevET": 1551,
      "LevETIR": 1552,
      "LevETIRAcetam": 1553,
      "kast": 1554,
      "lukast": 1555,
      "60000": 1556,
      "78959": 1557,
      "Ascor": 1558,
      "Ascorbic": 1559,
      "telukast": 1560,
      "1250": 1561,
      "Montelukast": 1562,
      "eti": 1563,
      "241": 1564,
      "683": 1565,
      "orb": 1566,
      "5771": 1567,
      "40390": 1568,
      "590": 1569,
      "170": 1570,
      "SL": 1571,
      "Ven": 1572,
      "sc": 1573,
      "861": 1574,
      "Enema": 1575,
      "osorb": 1576,
      "ePAM": 1577,
      "Isosorb": 1578,
      "penem": 1579,
      "tin": 1580,
      "ClonazePAM": 1581,
      "Isosorbide": 1582,
      "etil": 1583,
      "8673": 1584,
      "ale": 1585,
      "ralfate": 1586,
      "876": 1587,
      "Sucralfate": 1588,
      "onide": 1589,
      "03": 1590,
      "818": 1591,
      "ton": 1592,
      "edilol": 1593,
      "86711": 1594,
      "2762": 1595,
      "Na": 1596,
      "laf": 1597,
      "lafax": 1598,
      "lafaxine": 1599,
      "181": 1600,
      "Venlafaxine": 1601,
      "5865": 1602,
      "oni": 1603,
      "CR": 1604,
      "oxin": 1605,
      "goxin": 1606,
      "652": 1607,
      "Digoxin": 1608,
      "Tablet": 1609,
      "phen": 1610,
      "aqu": 1611,
      "952": 1612,
      "ODT": 1613,
      "07054": 1614,
      "5712": 1615,
      "ropenem": 1616,
      "Meropenem": 1617,
      "183": 1618,
      "254": 1619,
      "ce": 1620,
      "trimazole": 1621,
      "gine": 1622,
      "Clotrimazole": 1623,
      "420": 1624,
      "Ros": 1625,
      "1200": 1626,
      "1120": 1627,
      "aquone": 1628,
      "Atov": 1629,
      "Atovaquone": 1630,
      "ib": 1631,
      "uvastatin": 1632,
      "Rosuvastatin": 1633,
      "184": 1634,
      "adone": 1635,
      "indirect": 1636,
      "810": 1637,
      "Methadone": 1638,
      "188": 1639,
      "8339": 1640,
      "Phy": 1641,
      "Phyton": 1642,
      "560": 1643,
      "Phytonad": 1644,
      "ione": 1645,
      "Phytonadione": 1646,
      "740": 1647,
      "41400": 1648,
      "453": 1649,
      "151": 1650,
      "955": 1651,
      "imus": 1652,
      "5859": 1653,
      "5770": 1654,
      "441": 1655,
      "803": 1656,
      "161": 1657,
      "3004": 1658,
      "562": 1659,
      "rolimus": 1660,
      "hol": 1661,
      "Fluo": 1662,
      "epinephrine": 1663,
      "me": 1664,
      "dose": 1665,
      "2500": 1666,
      "766": 1667,
      "2749": 1668,
      "801": 1669,
      "ita": 1670,
      "tropine": 1671,
      "ptyl": 1672,
      "triptyl": 1673,
      "triptyline": 1674,
      "2851": 1675,
      "syl": 1676,
      "5723": 1677,
      "7904": 1678,
      "159": 1679,
      "3572": 1680,
      "09": 1681,
      "ix": 1682,
      "aste": 1683,
      "Contin": 1684,
      "MS": 1685,
      "845": 1686,
      "5119": 1687,
      "202": 1688,
      "NOR": 1689,
      "Alte": 1690,
      "284": 1691,
      "NORepinephrine": 1692,
      "ru": 1693,
      "plase": 1694,
      "163": 1695,
      "Alteplase": 1696,
      "152": 1697,
      "Tac": 1698,
      "vedilol": 1699,
      "Carvedilol": 1700,
      "34590": 1701,
      "DW": 1702,
      "Tim": 1703,
      "7801": 1704,
      "34690": 1705,
      "bine": 1706,
      "Prometh": 1707,
      "Promethazine": 1708,
      "321": 1709,
      "259": 1710,
      "6959": 1711,
      "71590": 1712,
      "Timolol": 1713,
      "831": 1714,
      "838": 1715,
      "inaste": 1716,
      "inasteride": 1717,
      "Finasteride": 1718,
      "alate": 1719,
      "7907": 1720,
      "9968": 1721,
      "Sulbactam": 1722,
      "28860": 1723,
      "209": 1724,
      "719": 1725,
      "7890": 1726,
      "CAR": 1727,
      "270": 1728,
      "162": 1729,
      "78052": 1730,
      "893": 1731,
      "240": 1732,
      "459": 1733,
      "adi": 1734,
      "Mu": 1735,
      "aleate": 1736,
      "Tacrolimus": 1737,
      "959": 1738,
      "Hydroc": 1739,
      "FOR": 1740,
      "phag": 1741,
      "830": 1742,
      "Maleate": 1743,
      "orphan": 1744,
      "185": 1745,
      "536": 1746,
      "Gluco": 1747,
      "MIN": 1748,
      "FORMIN": 1749,
      "MetFORMIN": 1750,
      "methorphan": 1751,
      "phage": 1752,
      "Glucophage": 1753,
      "Dextromethorphan": 1754,
      "501": 1755,
      "ofetil": 1756,
      "alin": 1757,
      "Preg": 1758,
      "Dox": 1759,
      "abalin": 1760,
      "FAZol": 1761,
      "Pregabalin": 1762,
      "FAZolin": 1763,
      "CeFAZolin": 1764,
      "42832": 1765,
      "Sore": 1766,
      "438": 1767,
      "739": 1768,
      "457": 1769,
      "olate": 1770,
      "4168": 1771,
      "hr": 1772,
      "Den": 1773,
      "Dental": 1774,
      "Fluoride": 1775,
      "00845": 1776,
      "YR": 1777,
      "piro": 1778,
      "pirocin": 1779,
      "ycophen": 1780,
      "ycophenolate": 1781,
      "Mupirocin": 1782,
      "Mycophenolate": 1783,
      "Mononi": 1784,
      "Mononitrate": 1785,
      "SYR": 1786,
      "Cle": 1787,
      "08": 1788,
      "ga": 1789,
      "Yzine": 1790,
      "OXYzine": 1791,
      "TRO": 1792,
      "TROC": 1793,
      "HydrOXYzine": 1794,
      "ance": 1795,
      "Atropine": 1796,
      "ed": 1797,
      "Uro": 1798,
      "italopram": 1799,
      "jet": 1800,
      "Urojet": 1801,
      "Esc": 1802,
      "Fluoxetine": 1803,
      "Oxalate": 1804,
      "Escitalopram": 1805,
      "arium": 1806,
      "Barium": 1807,
      "arance": 1808,
      "Hydroxide": 1809,
      "4986": 1810,
      "198": 1811,
      "72829": 1812,
      "173": 1813,
      "222": 1814,
      "eter": 1815,
      "Cath": 1816,
      "433": 1817,
      "Catheter": 1818,
      "Clearance": 1819,
      "Readi": 1820,
      "589": 1821,
      "Carb": 1822,
      "fen": 1823,
      "tom": 1824,
      "402": 1825,
      "78060": 1826,
      "aff": 1827,
      "5762": 1828,
      "Caff": 1829,
      "535": 1830,
      "709": 1831,
      "7245": 1832,
      "07070": 1833,
      "1255": 1834,
      "Clonazepam": 1835,
      "8788": 1836,
      "342": 1837,
      "79902": 1838,
      "681": 1839,
      "380": 1840,
      "275": 1841,
      "154": 1842,
      "benz": 1843,
      "sartan": 1844,
      "Mofetil": 1845,
      "3039": 1846,
      "1165": 1847,
      "1985": 1848,
      "78702": 1849,
      "Free": 1850,
      "5081": 1851,
      "ation": 1852,
      "Dexme": 1853,
      "Dexmede": 1854,
      "tomidine": 1855,
      "Dexmedetomidine": 1856,
      "taine": 1857,
      "talb": 1858,
      "talbital": 1859,
      "456": 1860,
      "aprine": 1861,
      "benzaprine": 1862,
      "Cyclobenzaprine": 1863,
      "Sustaine": 1864,
      "Sustained": 1865,
      "350": 1866,
      "Butalbital": 1867,
      "824": 1868,
      "92009": 1869,
      "25060": 1870,
      "6826": 1871,
      "ixaban": 1872,
      "Apixaban": 1873,
      "9320": 1874,
      "2639": 1875,
      "Lop": 1876,
      "78820": 1877,
      "30500": 1878,
      "5032": 1879,
      "567": 1880,
      "281": 1881,
      "78659": 1882,
      "lofen": 1883,
      "4365": 1884,
      "930": 1885,
      "rim": 1886,
      "Triam": 1887,
      "175": 1888,
      "TE": 1889,
      "itr": 1890,
      "1581": 1891,
      "61818": 1892,
      "966": 1893,
      "Vis": 1894,
      "27801": 1895,
      "cl": 1896,
      "630": 1897,
      "avir": 1898,
      "9601": 1899,
      "osin": 1900,
      "287": 1901,
      "7840": 1902,
      "42822": 1903,
      "Phenyle": 1904,
      "Phenylephrine": 1905,
      "ramide": 1906,
      "tim": 1907,
      "ylc": 1908,
      "51881": 1909,
      "7070": 1910,
      "yste": 1911,
      "om": 1912,
      "ylcyste": 1913,
      "ylcysteine": 1914,
      "Ment": 1915,
      "Menthol": 1916,
      "155": 1917,
      "340": 1918,
      "cous": 1919,
      "Viscous": 1920,
      "Acetylcysteine": 1921,
      "629": 1922,
      "701": 1923,
      "3659": 1924,
      "1920": 1925,
      "4241": 1926,
      "Valsartan": 1927,
      "Fil": 1928,
      "7242": 1929,
      "2767": 1930,
      "848": 1931,
      "Baclofen": 1932,
      "eramide": 1933,
      "Loperamide": 1934,
      "999": 1935,
      "EL": 1936,
      "LU": 1937,
      "1977": 1938,
      "0902": 1939,
      "28419": 1940,
      "8510": 1941,
      "996": 1942,
      "20300": 1943,
      "156": 1944,
      "5180": 1945,
      "29680": 1946,
      "1970": 1947,
      "Queti": 1948,
      "Quetiapine": 1949,
      "ser": 1950,
      "158": 1951,
      "28529": 1952,
      "429": 1953,
      "042": 1954,
      "559": 1955,
      "Et": 1956,
      "astim": 1957,
      "grastim": 1958,
      "638": 1959,
      "4364": 1960,
      "Filgrastim": 1961,
      "79092": 1962,
      "ram": 1963,
      "27652": 1964,
      "valpro": 1965,
      "tre": 1966,
      "4240": 1967,
      "enadine": 1968,
      "exof": 1969,
      "exofenadine": 1970,
      "169": 1971,
      "Preser": 1972,
      "Cre": 1973,
      "Fexofenadine": 1974,
      "Creon": 1975,
      "valproex": 1976,
      "Divalproex": 1977,
      "zil": 1978,
      "40909": 1979,
      "853": 1980,
      "Oil": 1981,
      "ADD": 1982,
      "CADD": 1983,
      "Amitriptyline": 1984,
      "828": 1985,
      "166": 1986,
      "4282": 1987,
      "4254": 1988,
      "211": 1989,
      "272": 1990,
      "472": 1991,
      "442": 1992,
      "odrine": 1993,
      "462": 1994,
      "Midodrine": 1995,
      "Preserv": 1996,
      "4983": 1997,
      "orsemide": 1998,
      "Torsemide": 1999,
      "bromide": 2000,
      "itabine": 2001,
      "45621": 2002,
      "349": 2003,
      "78900": 2004,
      "oxicillin": 2005,
      "Amoxicillin": 2006,
      "ime": 2007,
      "511": 2008,
      "28803": 2009,
      "006": 2010,
      "yn": 2011,
      "231": 2012,
      "2800": 2013,
      "Hydrobromide": 2014,
      "214": 2015,
      "73390": 2016,
      "515": 2017,
      "221": 2018,
      "enof": 2019,
      "471": 2020,
      "28522": 2021,
      "78321": 2022,
      "8342": 2023,
      "2841": 2024,
      "5363": 2025,
      "ovir": 2026,
      "9221": 2027,
      "Gly": 2028,
      "7823": 2029,
      "lut": 2030,
      "194": 2031,
      "Tenof": 2032,
      "4439": 2033,
      "lution": 2034,
      "157": 2035,
      "238": 2036,
      "Solution": 2037,
      "809": 2038,
      "7802": 2039,
      "923": 2040,
      "950": 2041,
      "167": 2042,
      "cinolone": 2043,
      "nis": 2044,
      "Fle": 2045,
      "Dap": 2046,
      "Susp": 2047,
      "Triamcinolone": 2048,
      "Tenofovir": 2049,
      "Ri": 2050,
      "1046": 2051,
      "Acetonide": 2052,
      "99592": 2053,
      "Du": 2054,
      "7140": 2055,
      "1011": 2056,
      "56210": 2057,
      "atadine": 2058,
      "Ol": 2059,
      "av": 2060,
      "Lor": 2061,
      "Loratadine": 2062,
      "0389": 2063,
      "1990": 2064,
      "lovir": 2065,
      "208": 2066,
      "DQ": 2067,
      "6930": 2068,
      "7291": 2069,
      "5869": 2070,
      "Dulox": 2071,
      "171": 2072,
      "Duloxetine": 2073,
      "6601": 2074,
      "Olan": 2075,
      "42833": 2076,
      "1083": 2077,
      "9967": 2078,
      "Olanzapine": 2079,
      "56409": 2080,
      "pyr": 2081,
      "Glycopyr": 2082,
      "Glycopyrrol": 2083,
      "Glycopyrrolate": 2084,
      "8780": 2085,
      "idopa": 2086,
      "4501": 2087,
      "Capt": 2088,
      "FLU": 2089,
      "Captopril": 2090,
      "FLUoxetine": 2091,
      "186": 2092,
      "7989": 2093,
      "069": 2094,
      "lium": 2095,
      "syllium": 2096,
      "78650": 2097,
      "5070": 2098,
      "Em": 2099,
      "Psyllium": 2100,
      "zan": 2101,
      "odopa": 2102,
      "5033": 2103,
      "415": 2104,
      "5761": 2105,
      "yrid": 2106,
      "3569": 2107,
      "tigm": 2108,
      "Carbidopa": 2109,
      "tigmine": 2110,
      "99859": 2111,
      "Levodopa": 2112,
      "DEINE": 2113,
      "CODEINE": 2114,
      "164": 2115,
      "Mes": 2116,
      "4011": 2117,
      "but": 2118,
      "ril": 2119,
      "NiCAR": 2120,
      "NiCARdipine": 2121,
      "UL": 2122,
      "lind": 2123,
      "Clind": 2124,
      "682": 2125,
      "amycin": 2126,
      "Clindamycin": 2127,
      "Dor": 2128,
      "iram": 2129,
      "zolamide": 2130,
      "99591": 2131,
      "Don": 2132,
      "pinephrine": 2133,
      "038": 2134,
      "gin": 2135,
      "Nalox": 2136,
      "Naloxone": 2137,
      "920": 2138,
      "SP": 2139,
      "azepine": 2140,
      "iramate": 2141,
      "1310": 2142,
      "Topiramate": 2143,
      "04104": 2144,
      "165": 2145,
      "ostigmine": 2146,
      "191": 2147,
      "amax": 2148,
      "Topamax": 2149,
      "ORINE": 2150,
      "SPORINE": 2151,
      "870": 2152,
      "609": 2153,
      "ycline": 2154,
      "ALPR": 2155,
      "AZolam": 2156,
      "ALPRAZolam": 2157,
      "3383": 2158,
      "DUL": 2159,
      "DULoxetine": 2160,
      "8490": 2161,
      "7031": 2162,
      "epezil": 2163,
      "85828": 2164,
      "ungin": 2165,
      "Donepezil": 2166,
      "Oc": 2167,
      "282": 2168,
      "2760": 2169,
      "Er": 2170,
      "370": 2171,
      "2853": 2172,
      "9981": 2173,
      "rimon": 2174,
      "itracin": 2175,
      "Bacitracin": 2176,
      "30981": 2177,
      "rimonidine": 2178,
      "203": 2179,
      "4580": 2180,
      "288": 2181,
      "Dorzolamide": 2182,
      "bicin": 2183,
      "Cloni": 2184,
      "4572": 2185,
      "Nad": 2186,
      "Nadolol": 2187,
      "oside": 2188,
      "3184": 2189,
      "EX": 2190,
      "261": 2191,
      "oposide": 2192,
      "Etoposide": 2193,
      "rubicin": 2194,
      "890": 2195,
      "2689": 2196,
      "45981": 2197,
      "51889": 2198,
      "205": 2199,
      "Brimonidine": 2200,
      "9620": 2201,
      "7850": 2202,
      "De": 2203,
      "271": 2204,
      "210": 2205,
      "ish": 2206,
      "49320": 2207,
      "ega": 2208,
      "225": 2209,
      "Fish": 2210,
      "Omega": 2211,
      "3909": 2212,
      "43909": 2213,
      "975": 2214,
      "262": 2215,
      "Col": 2216,
      "Hydroxy": 2217,
      "CycloSPORINE": 2218,
      "XXXA": 2219,
      "20400": 2220,
      "Hydrocerin": 2221,
      "958": 2222,
      "CY": 2223,
      "Orubicin": 2224,
      "948": 2225,
      "720": 2226,
      "45829": 2227,
      "997": 2228,
      "barb": 2229,
      "9181": 2230,
      "barbital": 2231,
      "1010": 2232,
      "ran": 2233,
      "1588": 2234,
      "7951": 2235,
      "1983": 2236,
      "001": 2237,
      "5022": 2238,
      "tric": 2239,
      "411": 2240,
      "ulan": 2241,
      "PHENO": 2242,
      "70703": 2243,
      "07": 2244,
      "avulan": 2245,
      "Clavulan": 2246,
      "6481": 2247,
      "99674": 2248,
      "8782": 2249,
      "PHENObarbital": 2250,
      "49121": 2251,
      "Pyrid": 2252,
      "8781": 2253,
      "Emtric": 2254,
      "ynin": 2255,
      "butynin": 2256,
      "afungin": 2257,
      "426": 2258,
      "ple": 2259,
      "394": 2260,
      "234": 2261,
      "TO": 2262,
      "ylate": 2263,
      "Micafungin": 2264,
      "Oxybutynin": 2265,
      "549": 2266,
      "242": 2267,
      "6822": 2268,
      "oLONE": 2269,
      "nisoLONE": 2270,
      "Tizan": 2271,
      "Tizanidine": 2272,
      "1300": 2273,
      "7469": 2274,
      "041": 2275,
      "519": 2276,
      "689": 2277,
      "352": 2278,
      "yed": 2279,
      "Fleet": 2280,
      "78720": 2281,
      "Bus": 2282,
      "3189": 2283,
      "ter": 2284,
      "4586": 2285,
      "193": 2286,
      "Emtricitabine": 2287,
      "clovir": 2288,
      "PrednisoLONE": 2289,
      "174": 2290,
      "8770": 2291,
      "591": 2292,
      "Pr": 2293,
      "tomycin": 2294,
      "otide": 2295,
      "treotide": 2296,
      "Daptomycin": 2297,
      "Octreotide": 2298,
      "832": 2299,
      "etiri": 2300,
      "NIFE": 2301,
      "etirizine": 2302,
      "trex": 2303,
      "NIFEdipine": 2304,
      "ythromycin": 2305,
      "ATE": 2306,
      "Erythromycin": 2307,
      "des": 2308,
      "Cetirizine": 2309,
      "545": 2310,
      "178": 2311,
      "251": 2312,
      "Com": 2313,
      "269": 2314,
      "Clavulanic": 2315,
      "Clob": 2316,
      "Trigine": 2317,
      "MOTrigine": 2318,
      "LaMOTrigine": 2319,
      "369": 2320,
      "var": 2321,
      "1140": 2322,
      "ron": 2323,
      "176": 2324,
      "452": 2325,
      "Par": 2326,
      "212": 2327,
      "422": 2328,
      "368": 2329,
      "7881": 2330,
      "1021": 2331,
      "1122": 2332,
      "CI": 2333,
      "1550": 2334,
      "195": 2335,
      "730": 2336,
      "Neostigmine": 2337,
      "684": 2338,
      "8889": 2339,
      "Da": 2340,
      "Do": 2341,
      "73313": 2342,
      "305": 2343,
      "299": 2344,
      "DOX": 2345,
      "9049": 2346,
      "DOXOrubicin": 2347,
      "187": 2348,
      "502": 2349,
      "Paroxetine": 2350,
      "918": 2351,
      "Glydo": 2352,
      "192": 2353,
      "DO": 2354,
      "PIR": 2355,
      "PIRone": 2356,
      "BusPIRone": 2357,
      "5718": 2358,
      "2752": 2359,
      "177": 2360,
      "06": 2361,
      "5601": 2362,
      "tocol": 2363,
      "res": 2364,
      "Flud": 2365,
      "5533": 2366,
      "936": 2367,
      "224": 2368,
      "tamine": 2369,
      "199": 2370,
      "ycycline": 2371,
      "ycl": 2372,
      "Doxycycline": 2373,
      "3000": 2374,
      "Hycl": 2375,
      "Hyclate": 2376,
      "2930": 2377,
      "570": 2378,
      "cov": 2379,
      "astat": 2380,
      "Te": 2381,
      "Phenol": 2382,
      "Cepastat": 2383,
      "1005": 2384,
      "232": 2385,
      "Leu": 2386,
      "41519": 2387,
      "opres": 2388,
      "erap": 2389,
      "2753": 2390,
      "vacaine": 2391,
      "opressin": 2392,
      "301": 2393,
      "orin": 2394,
      "uth": 2395,
      "99685": 2396,
      "oxaban": 2397,
      "CV": 2398,
      "213": 2399,
      "amil": 2400,
      "5559": 2401,
      "Verap": 2402,
      "Nor": 2403,
      "833": 2404,
      "Verapamil": 2405,
      "Inhalation": 2406,
      "varoxaban": 2407,
      "Rivaroxaban": 2408,
      "Vin": 2409,
      "covorin": 2410,
      "da": 2411,
      "aph": 2412,
      "6521": 2413,
      "Glutamine": 2414,
      "230": 2415,
      "27669": 2416,
      "7821": 2417,
      "28749": 2418,
      "310": 2419,
      "228": 2420,
      "exin": 2421,
      "halexin": 2422,
      "Cephalexin": 2423,
      "53550": 2424,
      "Leucovorin": 2425,
      "Vo": 2426,
      "razosin": 2427,
      "7290": 2428,
      "375": 2429,
      "618": 2430,
      "5641": 2431,
      "etas": 2432,
      "IDE": 2433,
      "Zid": 2434,
      "36201": 2435,
      "Vori": 2436,
      "Voriconazole": 2437,
      "7682": 2438,
      "04149": 2439,
      "78079": 2440,
      "inc": 2441,
      "70715": 2442,
      "30390": 2443,
      "4000": 2444,
      "206": 2445,
      "7295": 2446,
      "4310": 2447,
      "Zinc": 2448,
      "7982": 2449,
      "IStine": 2450,
      "CRIStine": 2451,
      "VinCRIStine": 2452,
      "503": 2453,
      "539": 2454,
      "Mesal": 2455,
      "42732": 2456,
      "sylate": 2457,
      "443": 2458,
      "Aqu": 2459,
      "8859": 2460,
      "etasol": 2461,
      "322": 2462,
      "716": 2463,
      "196": 2464,
      "oxine": 2465,
      "Mesalamine": 2466,
      "7837": 2467,
      "7460": 2468,
      "Clobetasol": 2469,
      "ICU": 2470,
      "pivacaine": 2471,
      "Bupivacaine": 2472,
      "Pyridoxine": 2473,
      "aphor": 2474,
      "30393": 2475,
      "9114": 2476,
      "Aquaphor": 2477,
      "398": 2478,
      "7030": 2479,
      "etamine": 2480,
      "Ris": 2481,
      "4571": 2482,
      "vin": 2483,
      "811": 2484,
      "Chemo": 2485,
      "april": 2486,
      "Comple": 2487,
      "851": 2488,
      "454": 2489,
      "Oncovin": 2490,
      "531": 2491,
      "229": 2492,
      "233": 2493,
      "538": 2494,
      "579": 2495,
      "627": 2496,
      "Complex": 2497,
      "204": 2498,
      "4502": 2499,
      "25002": 2500,
      "9484": 2501,
      "29181": 2502,
      "Propran": 2503,
      "258": 2504,
      "Propranolol": 2505,
      "leep": 2506,
      "9689": 2507,
      "6823": 2508,
      "6841": 2509,
      "udine": 2510,
      "3485": 2511,
      "4579": 2512,
      "248": 2513,
      "8499": 2514,
      "Hydrocodone": 2515,
      "Lam": 2516,
      "6284": 2517,
      "207": 2518,
      "78552": 2519,
      "rocortisone": 2520,
      "53789": 2521,
      "7812": 2522,
      "Fludrocortisone": 2523,
      "599": 2524,
      "8546": 2525,
      "ruv": 2526,
      "78830": 2527,
      "283": 2528,
      "oxylate": 2529,
      "ada": 2530,
      "Diphenoxylate": 2531,
      "Truv": 2532,
      "Truvada": 2533,
      "8338": 2534,
      "78039": 2535,
      "TAZid": 2536,
      "CefTAZid": 2537,
      "CefTAZidime": 2538,
      "desonide": 2539,
      "XX": 2540,
      "634": 2541,
      "2536": 2542,
      "carb": 2543,
      "226": 2544,
      "Lamo": 2545,
      "TRIgine": 2546,
      "1272": 2547,
      "LamoTRIgine": 2548,
      "360": 2549,
      "io": 2550,
      "2662": 2551,
      "5722": 2552,
      "Valpro": 2553,
      "79029": 2554,
      "381": 2555,
      "Mo": 2556,
      "42823": 2557,
      "4107": 2558,
      "abin": 2559,
      "abinol": 2560,
      "Dron": 2561,
      "Dronabinol": 2562,
      "Cas": 2563,
      "5609": 2564,
      "482": 2565,
      "079": 2566,
      "20501": 2567,
      "28850": 2568,
      "869": 2569,
      "218": 2570,
      "atr": 2571,
      "9289": 2572,
      "0414": 2573,
      "6000": 2574,
      "302": 2575,
      "33394": 2576,
      "5768": 2577,
      "30391": 2578,
      "AB": 2579,
      "439": 2580,
      "223": 2581,
      "Ez": 2582,
      "etim": 2583,
      "ibe": 2584,
      "Ezetim": 2585,
      "Ezetimibe": 2586,
      "Colch": 2587,
      "icine": 2588,
      "Colchicine": 2589,
      "EP": 2590,
      "34982": 2591,
      "1082": 2592,
      "4928": 2593,
      "eine": 2594,
      "1551": 2595,
      "273": 2596,
      "9342": 2597,
      "EPINE": 2598,
      "EPINEPHrine": 2599,
      "0417": 2600,
      "23875": 2601,
      "LaM": 2602,
      "DELa": 2603,
      "DELayed": 2604,
      "654": 2605,
      "DINE": 2606,
      "peridone": 2607,
      "CYC": 2608,
      "AR": 2609,
      "FI": 2610,
      "9884": 2611,
      "yx": 2612,
      "icin": 2613,
      "0413": 2614,
      "249": 2615,
      "04111": 2616,
      "620": 2617,
      "20410": 2618,
      "469": 2619,
      "217": 2620,
      "myx": 2621,
      "myxin": 2622,
      "797": 2623,
      "235": 2624,
      "Polymyxin": 2625,
      "5853": 2626,
      "Epinephrine": 2627,
      "5569": 2628,
      "215": 2629,
      "7862": 2630,
      "2763": 2631,
      "gra": 2632,
      "Nap": 2633,
      "602": 2634,
      "911": 2635,
      "0390": 2636,
      "047": 2637,
      "216": 2638,
      "351": 2639,
      "ew": 2640,
      "253": 2641,
      "CloniDINE": 2642,
      "tegra": 2643,
      "1976": 2644,
      "IVudine": 2645,
      "LaMIVudine": 2646,
      "1600": 2647,
      "Nortriptyline": 2648,
      "447": 2649,
      "OB": 2650,
      "700": 2651,
      "air": 2652,
      "5023": 2653,
      "CEL": 2654,
      "9811": 2655,
      "EXCEL": 2656,
      "51919": 2657,
      "444": 2658,
      "6827": 2659,
      "ctal": 2660,
      "Rectal": 2661,
      "dine": 2662,
      "tein": 2663,
      "04112": 2664,
      "279": 2665,
      "GAN": 2666,
      "901": 2667,
      "ValGAN": 2668,
      "ValGANCI": 2669,
      "243": 2670,
      "8249": 2671,
      "quine": 2672,
      "ipi": 2673,
      "tegravir": 2674,
      "25541": 2675,
      "phetamine": 2676,
      "ipiZ": 2677,
      "ipiZIDE": 2678,
      "357": 2679,
      "605": 2680,
      "Vas": 2681,
      "227": 2682,
      "cop": 2683,
      "Calc": 2684,
      "GlipiZIDE": 2685,
      "Vasopressin": 2686,
      "290": 2687,
      "ValGANCIclovir": 2688,
      "chloroquine": 2689,
      "Hydroxychloroquine": 2690,
      "oate": 2691,
      "roxen": 2692,
      "Naproxen": 2693,
      "245": 2694,
      "9000": 2695,
      "Mouth": 2696,
      "99931": 2697,
      "34830": 2698,
      "78906": 2699,
      "8801": 2700,
      "Budesonide": 2701,
      "7824": 2702,
      "olamine": 2703,
      "5589": 2704,
      "ivir": 2705,
      "7581": 2706,
      "copolamine": 2707,
      "DX": 2708,
      "ED": 2709,
      "278": 2710,
      "78909": 2711,
      "246": 2712,
      "Scopolamine": 2713,
      "ith": 2714,
      "Protocol": 2715,
      "CVICU": 2716,
      "8580": 2717,
      "day": 2718,
      "Mine": 2719,
      "oral": 2720,
      "PE": 2721,
      "27542": 2722,
      "set": 2723,
      "ABLE": 2724,
      "UNABLE": 2725,
      "Neoral": 2726,
      "Casset": 2727,
      "Cassette": 2728,
      "993": 2729,
      "DIFI": 2730,
      "TAIN": 2731,
      "MODIFI": 2732,
      "OBTAIN": 2733,
      "MODIFIED": 2734,
      "529": 2735,
      "237": 2736,
      "473": 2737,
      "839": 2738,
      "Dose": 2739,
      "60001": 2740,
      "2699": 2741,
      "carbazepine": 2742,
      "59654": 2743,
      "28411": 2744,
      "trexate": 2745,
      "otrexate": 2746,
      "Methotrexate": 2747,
      "able": 2748,
      "Gelcl": 2749,
      "Gelclair": 2750,
      "19889": 2751,
      "373": 2752,
      "Mac": 2753,
      "392": 2754,
      "53085": 2755,
      "521": 2756,
      "omycin": 2757,
      "0789": 2758,
      "OS": 2759,
      "Sod": 2760,
      "236": 2761,
      "ello": 2762,
      "354": 2763,
      "1302": 2764,
      "Yello": 2765,
      "Yellow": 2766,
      "7984": 2767,
      "921": 2768,
      "alapril": 2769,
      "431": 2770,
      "Sin": 2771,
      "odeine": 2772,
      "tara": 2773,
      "Cytara": 2774,
      "318": 2775,
      "256": 2776,
      "Codeine": 2777,
      "Enalapril": 2778,
      "7856": 2779,
      "348": 2780,
      "260": 2781,
      "Naf": 2782,
      "entam": 2783,
      "317": 2784,
      "Cytarabine": 2785,
      "41071": 2786,
      "Sinus": 2787,
      "5789": 2788,
      "cillin": 2789,
      "Nafcillin": 2790,
      "cohol": 2791,
      "799": 2792,
      "azosin": 2793,
      "Doxazosin": 2794,
      "1910": 2795,
      "43889": 2796,
      "Alcohol": 2797,
      "257": 2798,
      "9308": 2799,
      "Des": 2800,
      "330": 2801,
      "8619": 2802,
      "25080": 2803,
      "291": 2804,
      "7804": 2805,
      "244": 2806,
      "7931": 2807,
      "61810": 2808,
      "571": 2809,
      "With": 2810,
      "1204": 2811,
      "CIT": 2812,
      "draw": 2813,
      "Withdraw": 2814,
      "Withdrawal": 2815,
      "313": 2816,
      "6961": 2817,
      "760": 2818,
      "30503": 2819,
      "RATE": 2820,
      "CITRATE": 2821,
      "29420": 2822,
      "264": 2823,
      "99688": 2824,
      "oin": 2825,
      "961": 2826,
      "NA": 2827,
      "379": 2828,
      "304": 2829,
      "ramine": 2830,
      "initrate": 2831,
      "931": 2832,
      "Dinitrate": 2833,
      "04185": 2834,
      "5997": 2835,
      "20288": 2836,
      "57420": 2837,
      "87440": 2838,
      "atio": 2839,
      "8498": 2840,
      "5790": 2841,
      "0311": 2842,
      "78097": 2843,
      "5781": 2844,
      "1749": 2845,
      "9974": 2846,
      "71941": 2847,
      "3899": 2848,
      "5280": 2849,
      "Line": 2850,
      "9352": 2851,
      "932": 2852,
      "247": 2853,
      "zolid": 2854,
      "9340": 2855,
      "78009": 2856,
      "4271": 2857,
      "8541": 2858,
      "Linezolid": 2859,
      "mip": 2860,
      "5090": 2861,
      "7806": 2862,
      "7210": 2863,
      "324": 2864,
      "ps": 2865,
      "5845": 2866,
      "70722": 2867,
      "meta": 2868,
      "1052": 2869,
      "2869": 2870,
      "361": 2871,
      "434": 2872,
      "52801": 2873,
      "idone": 2874,
      "1142": 2875,
      "031": 2876,
      "5772": 2877,
      "1962": 2878,
      "gl": 2879,
      "1629": 2880,
      "cli": 2881,
      "clizine": 2882,
      "72989": 2883,
      "Meclizine": 2884,
      "611": 2885,
      "1151": 2886,
      "3559": 2887,
      "zoline": 2888,
      "45341": 2889,
      "praz": 2890,
      "Oxymeta": 2891,
      "Oxymetazoline": 2892,
      "prazolam": 2893,
      "1830": 2894,
      "2581": 2895,
      "24900": 2896,
      "Alprazolam": 2897,
      "Terazosin": 2898,
      "Rita": 2899,
      "Ritalin": 2900,
      "99812": 2901,
      "MethylPHE": 2902,
      "8792": 2903,
      "899": 2904,
      "NIDATE": 2905,
      "MethylPHENIDATE": 2906,
      "Dine": 2907,
      "4987": 2908,
      "1301": 2909,
      "zed": 2910,
      "265": 2911,
      "7952": 2912,
      "Neomycin": 2913,
      "33818": 2914,
      "2948": 2915,
      "0472": 2916,
      "293": 2917,
      "430": 2918,
      "814": 2919,
      "An": 2920,
      "56211": 2921,
      "1043": 2922,
      "vi": 2923,
      "78609": 2924,
      "808": 2925,
      "478": 2926,
      "99811": 2927,
      "xetil": 2928,
      "025": 2929,
      "pod": 2930,
      "Cefpod": 2931,
      "Cefpodox": 2932,
      "Cefpodoxime": 2933,
      "Proxetil": 2934,
      "sty": 2935,
      "29410": 2936,
      "653": 2937,
      "56981": 2938,
      "El": 2939,
      "AMP": 2940,
      "1961": 2941,
      "455": 2942,
      "onized": 2943,
      "07032": 2944,
      "ux": 2945,
      "entamicin": 2946,
      "Gentamicin": 2947,
      "17200": 2948,
      "79311": 2949,
      "806": 2950,
      "56722": 2951,
      "Prep": 2952,
      "ore": 2953,
      "NIDine": 2954,
      "725": 2955,
      "7906": 2956,
      "71690": 2957,
      "Mov": 2958,
      "359": 2959,
      "0980": 2960,
      "UP": 2961,
      "CloNIDine": 2962,
      "RT": 2963,
      "lid": 2964,
      "CRRT": 2965,
      "940": 2966,
      "Samide": 2967,
      "LACO": 2968,
      "LACOSamide": 2969,
      "8809": 2970,
      "1051": 2971,
      "491": 2972,
      "2270": 2973,
      "iPrep": 2974,
      "MoviPrep": 2975,
      "463": 2976,
      "298": 2977,
      "27952": 2978,
      "1009": 2979,
      "Fo": 2980,
      "5778": 2981,
      "9201": 2982,
      "263": 2983,
      "scale": 2984,
      "02": 2985,
      "aconazole": 2986,
      "6832": 2987,
      "782": 2988,
      "Goly": 2989,
      "tely": 2990,
      "Golytely": 2991,
      "910": 2992,
      "Ionized": 2993,
      "slid": 2994,
      "sliding": 2995,
      "ren": 2996,
      "391": 2997,
      "85118": 2998,
      "9478": 2999,
      "ZOL": 3000,
      "312": 3001,
      "Waf": 3002,
      "3320": 3003,
      "Wafer": 3004,
      "Aceta": 3005,
      "353": 3006,
      "ZOLamide": 3007,
      "AcetaZOLamide": 3008,
      "2740": 3009,
      "969": 3010,
      "ily": 3011,
      "WAF": 3012,
      "1121": 3013,
      "5903": 3014,
      "30501": 3015,
      "268": 3016,
      "rin": 3017,
      "Fos": 3018,
      "267": 3019,
      "873": 3020,
      "266": 3021,
      "4414": 3022,
      "532": 3023,
      "1042": 3024,
      "641": 3025,
      "Pos": 3026,
      "Posaconazole": 3027,
      "argine": 3028,
      "SUP": 3029,
      "SUPP": 3030,
      "292": 3031,
      "Glargine": 3032,
      "99659": 3033,
      "ipine": 3034,
      "78901": 3035,
      "551": 3036,
      "for": 3037,
      "315": 3038,
      "5711": 3039,
      "25061": 3040,
      "Lith": 3041,
      "533": 3042,
      "277": 3043,
      "0481": 3044,
      "85038": 3045,
      "1209": 3046,
      "23871": 3047,
      "sleep": 3048,
      "Nore": 3049,
      "tec": 3050,
      "olesty": 3051,
      "olestyramine": 3052,
      "Cholestyramine": 3053,
      "99749": 3054,
      "Rhythm": 3055,
      "714": 3056,
      "43310": 3057,
      "Es": 3058,
      "10239": 3059,
      "Tu": 3060,
      "4538": 3061,
      "5190": 3062,
      "03116": 3063,
      "826": 3064,
      "Risperidone": 3065,
      "51189": 3066,
      "6929": 3067,
      "ob": 3068,
      "7200": 3069,
      "865": 3070,
      "20502": 3071,
      "72400": 3072,
      "9966": 3073,
      "82868": 3074,
      "45851": 3075,
      "4148": 3076,
      "Pan": 3077,
      "648": 3078,
      "5680": 3079,
      "7300": 3080,
      "4139": 3081,
      "5909": 3082,
      "2630": 3083,
      "une": 3084,
      "274": 3085,
      "56089": 3086,
      "9561": 3087,
      "Mesylate": 3088,
      "Be": 3089,
      "1623": 3090,
      "exole": 3091,
      "mipexole": 3092,
      "6824": 3093,
      "6820": 3094,
      "Norepinephrine": 3095,
      "49322": 3096,
      "4659": 3097,
      "BU": 3098,
      "7820": 3099,
      "ARI": 3100,
      "Piprazole": 3101,
      "ARIPiprazole": 3102,
      "5920": 3103,
      "25050": 3104,
      "651": 3105,
      "tant": 3106,
      "432": 3107,
      "30401": 3108,
      "8542": 3109,
      "dronate": 3110,
      "Tol": 3111,
      "7919": 3112,
      "490": 3113,
      "421": 3114,
      "9621": 3115,
      "372": 3116,
      "2874": 3117,
      "isamide": 3118,
      "onisamide": 3119,
      "341": 3120,
      "Units": 3121,
      "5863": 3122,
      "0088": 3123,
      "Zonisamide": 3124,
      "33819": 3125,
      "lip": 3126,
      "andi": 3127,
      "2970": 3128,
      "5720": 3129,
      "8351": 3130,
      "opy": 3131,
      "repi": 3132,
      "repitant": 3133,
      "mmune": 3134,
      "endronate": 3135,
      "Sandi": 3136,
      "Sandimmune": 3137,
      "Alendronate": 3138,
      "898": 3139,
      "7994": 3140,
      "418": 3141,
      "4892": 3142,
      "508": 3143,
      "70714": 3144,
      "96653": 3145,
      "PAR": 3146,
      "03115": 3147,
      "85820": 3148,
      "oconazole": 3149,
      "Ketoconazole": 3150,
      "Daily": 3151,
      "Ad": 3152,
      "323": 3153,
      "Once": 3154,
      "CYCLO": 3155,
      "58381": 3156,
      "79899": 3157,
      "479": 3158,
      "ytoin": 3159,
      "Lithium": 3160,
      "PARoxetine": 3161,
      "henytoin": 3162,
      "sphenytoin": 3163,
      "Fosphenytoin": 3164,
      "303": 3165,
      "52800": 3166,
      "771": 3167,
      "20050": 3168,
      "722": 3169,
      "01": 3170,
      "4940": 3171,
      "Clonidine": 3172,
      "Prim": 3173,
      "odipine": 3174,
      "Dia": 3175,
      "7100": 3176,
      "Gastro": 3177,
      "295": 3178,
      "4281": 3179,
      "ratio": 3180,
      "1570": 3181,
      "protein": 3182,
      "7830": 3183,
      "307": 3184,
      "30560": 3185,
      "aper": 3186,
      "286": 3187,
      "702": 3188,
      "Entec": 3189,
      "Entecavir": 3190,
      "Taper": 3191,
      "antine": 3192,
      "8786": 3193,
      "10129": 3194,
      "emantine": 3195,
      "Nim": 3196,
      "333": 3197,
      "Nimodipine": 3198,
      "481": 3199,
      "umine": 3200,
      "glumine": 3201,
      "Memantine": 3202,
      "Days": 3203,
      "27541": 3204,
      "96641": 3205,
      "zoate": 3206,
      "Meglumine": 3207,
      "trizoate": 3208,
      "view": 3209,
      "Diatrizoate": 3210,
      "Gastroview": 3211,
      "sleeping": 3212,
      "urant": 3213,
      "2867": 3214,
      "trof": 3215,
      "urantoin": 3216,
      "trofurantoin": 3217,
      "DOP": 3218,
      "1271": 3219,
      "28981": 3220,
      "DOPamine": 3221,
      "Pol": 3222,
      "53010": 3223,
      "Nitrofurantoin": 3224,
      "1290": 3225,
      "30301": 3226,
      "346": 3227,
      "632": 3228,
      "944": 3229,
      "72402": 3230,
      "71945": 3231,
      "0600": 3232,
      "ric": 3233,
      "Sil": 3234,
      "965": 3235,
      "11649": 3236,
      "9202": 3237,
      "2113": 3238,
      "3490": 3239,
      "Hydroxyurea": 3240,
      "772": 3241,
      "odine": 3242,
      "11621": 3243,
      "valbuterol": 3244,
      "915": 3245,
      "Op": 3246,
      "4573": 3247,
      "2721": 3248,
      "opyridine": 3249,
      "3310": 3250,
      "Oxcarbazepine": 3251,
      "5793": 3252,
      "855": 3253,
      "Valproic": 3254,
      "933": 3255,
      "25063": 3256,
      "Levalbuterol": 3257,
      "azopyridine": 3258,
      "Phenazopyridine": 3259,
      "358": 3260,
      "939": 3261,
      "Ari": 3262,
      "Gam": 3263,
      "Sup": 3264,
      "7847": 3265,
      "0549": 3266,
      "96651": 3267,
      "92238": 3268,
      "platin": 3269,
      "53019": 3270,
      "isatr": 3271,
      "acur": 3272,
      "amazepine": 3273,
      "imab": 3274,
      "isatracur": 3275,
      "isatracurium": 3276,
      "Cisatracurium": 3277,
      "Vi": 3278,
      "Besylate": 3279,
      "Amin": 3280,
      "316": 3281,
      "6843": 3282,
      "Tended": 3283,
      "XD": 3284,
      "EXTended": 3285,
      "Tr": 3286,
      "8505": 3287,
      "Carbamazepine": 3288,
      "4561": 3289,
      "NATE": 3290,
      "25062": 3291,
      "308": 3292,
      "6989": 3293,
      "terodine": 3294,
      "cy": 3295,
      "99682": 3296,
      "31401": 3297,
      "625": 3298,
      "748": 3299,
      "Tolterodine": 3300,
      "loc": 3301,
      "954": 3302,
      "str": 3303,
      "27950": 3304,
      "6842": 3305,
      "3970": 3306,
      "294": 3307,
      "ixir": 3308,
      "314": 3309,
      "Elixir": 3310,
      "les": 3311,
      "1110": 3312,
      "29620": 3313,
      "DICYCLO": 3314,
      "DICYCLOMine": 3315,
      "1100": 3316,
      "onam": 3317,
      "Aztre": 3318,
      "Aztreonam": 3319,
      "825": 3320,
      "44023": 3321,
      "NAvir": 3322,
      "cap": 3323,
      "lipase": 3324,
      "297": 3325,
      "78057": 3326,
      "crelipase": 3327,
      "Pancrelipase": 3328,
      "9189": 3329,
      "403": 3330,
      "07030": 3331,
      "27650": 3332,
      "6821": 3333,
      "Ben": 3334,
      "otalol": 3335,
      "71946": 3336,
      "pren": 3337,
      "42830": 3338,
      "5939": 3339,
      "953": 3340,
      "Sotalol": 3341,
      "RiTO": 3342,
      "RiTONAvir": 3343,
      "1230": 3344,
      "78829": 3345,
      "Med": 3346,
      "43820": 3347,
      "981": 3348,
      "iptan": 3349,
      "Valproate": 3350,
      "8543": 3351,
      "710": 3352,
      "zole": 3353,
      "552": 3354,
      "7213": 3355,
      "amphetamine": 3356,
      "gestr": 3357,
      "0785": 3358,
      "1890": 3359,
      "4550": 3360,
      "1006": 3361,
      "2883": 3362,
      "aprepitant": 3363,
      "3558": 3364,
      "Fosaprepitant": 3365,
      "Ral": 3366,
      "Raltegravir": 3367,
      "Gamm": 3368,
      "8918": 3369,
      "atriptan": 3370,
      "04119": 3371,
      "etameth": 3372,
      "etamethasone": 3373,
      "iprazole": 3374,
      "piprazole": 3375,
      "1007": 3376,
      "3441": 3377,
      "982": 3378,
      "11319": 3379,
      "annit": 3380,
      "annitol": 3381,
      "9305": 3382,
      "59970": 3383,
      "2410": 3384,
      "iton": 3385,
      "riDONE": 3386,
      "periDONE": 3387,
      "RisperiDONE": 3388,
      "Betamethasone": 3389,
      "BURI": 3390,
      "Vedilol": 3391,
      "CARVedilol": 3392,
      "BURIDE": 3393,
      "737": 3394,
      "7905": 3395,
      "GlyBURIDE": 3396,
      "sta": 3397,
      "Aripiprazole": 3398,
      "030": 3399,
      "gestrol": 3400,
      "603": 3401,
      "nd": 3402,
      "trozole": 3403,
      "Megestrol": 3404,
      "Mesna": 3405,
      "snd": 3406,
      "sndz": 3407,
      "4829": 3408,
      "514": 3409,
      "854": 3410,
      "5289": 3411,
      "azone": 3412,
      "9581": 3413,
      "95810": 3414,
      "xil": 3415,
      "oproxil": 3416,
      "Disoproxil": 3417,
      "905": 3418,
      "029": 3419,
      "read": 3420,
      "Viread": 3421,
      "7231": 3422,
      "1179": 3423,
      "9589": 3424,
      "Mannitol": 3425,
      "328": 3426,
      "Mivir": 3427,
      "TAMivir": 3428,
      "25040": 3429,
      "ELTAMivir": 3430,
      "OSELTAMivir": 3431,
      "784": 3432,
      "ofib": 3433,
      "856": 3434,
      "7892": 3435,
      "45515": 3436,
      "51181": 3437,
      "383": 3438,
      "868": 3439,
      "96652": 3440,
      "5780": 3441,
      "umatriptan": 3442,
      "ofibrate": 3443,
      "Sumatriptan": 3444,
      "altrex": 3445,
      "altrexone": 3446,
      "011": 3447,
      "itriol": 3448,
      "Calcitriol": 3449,
      "30183": 3450,
      "306": 3451,
      "onium": 3452,
      "Bupren": 3453,
      "ACY": 3454,
      "8352": 3455,
      "72819": 3456,
      "Buprenorphine": 3457,
      "RE": 3458,
      "ramycin": 3459,
      "934": 3460,
      "Tob": 3461,
      "9809": 3462,
      "8590": 3463,
      "Pris": 3464,
      "ug": 3465,
      "ACYclovir": 3466,
      "29590": 3467,
      "Tobramycin": 3468,
      "69354": 3469,
      "6825": 3470,
      "1013": 3471,
      "ValACYclovir": 3472,
      "4239": 3473,
      "hyd": 3474,
      "6830": 3475,
      "671": 3476,
      "78062": 3477,
      "Prazosin": 3478,
      "Dextroamphetamine": 3479,
      "71536": 3480,
      "unable": 3481,
      "oscy": 3482,
      "712": 3483,
      "2766": 3484,
      "Hyoscy": 3485,
      "842": 3486,
      "Hyoscyamine": 3487,
      "736": 3488,
      "amp": 3489,
      "kin": 3490,
      "3071": 3491,
      "7102": 3492,
      "thal": 3493,
      "7455": 3494,
      "tran": 3495,
      "mas": 3496,
      "066": 3497,
      "29690": 3498,
      "040": 3499,
      "5030": 3500,
      "citabine": 3501,
      "phos": 3502,
      "phosph": 3503,
      "rif": 3504,
      "thalidone": 3505,
      "Chlorthalidone": 3506,
      "36250": 3507,
      "510": 3508,
      "4739": 3509,
      "30400": 3510,
      "ID": 3511,
      "03842": 3512,
      "721": 3513,
      "78605": 3514,
      "85528": 3515,
      "30550": 3516,
      "836": 3517,
      "AXIM": 3518,
      "4730": 3519,
      "BO": 3520,
      "CARBO": 3521,
      "5730": 3522,
      "rifAXIM": 3523,
      "rifAXIMin": 3524,
      "6489": 3525,
      "red": 3526,
      "1628": 3527,
      "Pramipexole": 3528,
      "Prismas": 3529,
      "Prismasate": 3530,
      "8689": 3531,
      "542": 3532,
      "580": 3533,
      "GEL": 3534,
      "olazone": 3535,
      "Metolazone": 3536,
      "071": 3537,
      "424": 3538,
      "1231": 3539,
      "umps": 3540,
      "ocarb": 3541,
      "amol": 3542,
      "Methocarb": 3543,
      "Methocarbamol": 3544,
      "atab": 3545,
      "5368": 3546,
      "Infatab": 3547,
      "498": 3548,
      "9971": 3549,
      "2989": 3550,
      "20190": 3551,
      "2440": 3552,
      "lar": 3553,
      "4701": 3554,
      "2819": 3555,
      "8796": 3556,
      "naltrexone": 3557,
      "29810": 3558,
      "332": 3559,
      "7810": 3560,
      "7843": 3561,
      "863": 3562,
      "clumps": 3563,
      "per": 3564,
      "512": 3565,
      "92234": 3566,
      "5738": 3567,
      "Mono": 3568,
      "6837": 3569,
      "89811": 3570,
      "Sel": 3571,
      "70719": 3572,
      "44024": 3573,
      "566": 3574,
      "Dipro": 3575,
      "BID": 3576,
      "roBID": 3577,
      "MacroBID": 3578,
      "Monohyd": 3579,
      "49392": 3580,
      "59971": 3581,
      "agen": 3582,
      "0416": 3583,
      "53390": 3584,
      "lutegravir": 3585,
      "gay": 3586,
      "Bengay": 3587,
      "2400": 3588,
      "Amphetamine": 3589,
      "asleep": 3590,
      "LOm": 3591,
      "5812": 3592,
      "DiCYC": 3593,
      "LOmine": 3594,
      "DiCYCLOmine": 3595,
      "Gem": 3596,
      "4972": 3597,
      "hi": 3598,
      "30001": 3599,
      "9341": 3600,
      "11000": 3601,
      "inil": 3602,
      "acrile": 3603,
      "acrilex": 3604,
      "arun": 3605,
      "Polacrilex": 3606,
      "arunavir": 3607,
      "Dolutegravir": 3608,
      "epin": 3609,
      "Doxepin": 3610,
      "ond": 3611,
      "Darunavir": 3612,
      "34831": 3613,
      "660": 3614,
      "6520": 3615,
      "3694": 3616,
      "5303": 3617,
      "4800": 3618,
      "ondaparin": 3619,
      "Ferric": 3620,
      "Fluoro": 3621,
      "ondaparinux": 3622,
      "lagen": 3623,
      "Collagen": 3624,
      "Collagenase": 3625,
      "Benztropine": 3626,
      "389": 3627,
      "Hem": 3628,
      "3314": 3629,
      "Fondaparinux": 3630,
      "1065": 3631,
      "4430": 3632,
      "44020": 3633,
      "80211": 3634,
      "1991": 3635,
      "080": 3636,
      "27900": 3637,
      "20020": 3638,
      "96642": 3639,
      "807": 3640,
      "Rop": 3641,
      "1800": 3642,
      "bi": 3643,
      "1700": 3644,
      "07044": 3645,
      "Polyst": 3646,
      "yrene": 3647,
      "86010": 3648,
      "Polystyrene": 3649,
      "Sulfonate": 3650,
      "30590": 3651,
      "4779": 3652,
      "9691": 3653,
      "Chew": 3654,
      "4111": 3655,
      "Chewable": 3656,
      "3331": 3657,
      "ho": 3658,
      "6831": 3659,
      "Self": 3660,
      "8020": 3661,
      "99731": 3662,
      "odaf": 3663,
      "326": 3664,
      "8589": 3665,
      "MAZINE": 3666,
      "804": 3667,
      "Chlorpro": 3668,
      "ChlorproMAZINE": 3669,
      "rho": 3670,
      "idal": 3671,
      "orrho": 3672,
      "Hemorrho": 3673,
      "Hemorrhoidal": 3674,
      "odafinil": 3675,
      "TiC": 3676,
      "Vitamins": 3677,
      "5020": 3678,
      "0280": 3679,
      "344": 3680,
      "AGRE": 3681,
      "TiCAGRE": 3682,
      "TiCAGRELOR": 3683,
      "si": 3684,
      "leu": 3685,
      "563": 3686,
      "45382": 3687,
      "823": 3688,
      "uss": 3689,
      "Methylnaltrexone": 3690,
      "99664": 3691,
      "FLO": 3692,
      "4975": 3693,
      "9119": 3694,
      "6828": 3695,
      "sal": 3696,
      "726": 3697,
      "uronium": 3698,
      "72981": 3699,
      "oxif": 3700,
      "Acids": 3701,
      "846": 3702,
      "Amino": 3703,
      "AC": 3704,
      "45182": 3705,
      "WA": 3706,
      "ication": 3707,
      "protocol": 3708,
      "CIWA": 3709,
      "3669": 3710,
      "Medication": 3711,
      "45342": 3712,
      "sone": 3713,
      "Dapsone": 3714,
      "hylax": 3715,
      "Prophylax": 3716,
      "Prophylaxis": 3717,
      "9110": 3718,
      "lion": 3719,
      "43411": 3720,
      "7921": 3721,
      "Niacin": 3722,
      "413": 3723,
      "70705": 3724,
      "659": 3725,
      "ela": 3726,
      "033": 3727,
      "42831": 3728,
      "446": 3729,
      "1561": 3730,
      "Dela": 3731,
      "Delayed": 3732,
      "8783": 3733,
      "6835": 3734,
      "siti": 3735,
      "open": 3736,
      "Xopen": 3737,
      "3384": 3738,
      "Xopenex": 3739,
      "Fenofibrate": 3740,
      "3530": 3741,
      "bis": 3742,
      "4568": 3743,
      "859": 3744,
      "1020": 3745,
      "8572": 3746,
      "9861": 3747,
      "56081": 3748,
      "3500": 3749,
      "Hyper": 3750,
      "376": 3751,
      "4182": 3752,
      "1312": 3753,
      "29281": 3754,
      "414": 3755,
      "8701": 3756,
      "97519": 3757,
      "Eth": 3758,
      "sitiz": 3759,
      "sitization": 3760,
      "97529": 3761,
      "1173": 3762,
      "5570": 3763,
      "Mineral": 3764,
      "Desen": 3765,
      "Desensitization": 3766,
      "495": 3767,
      "terene": 3768,
      "28489": 3769,
      "335": 3770,
      "Gamma": 3771,
      "Opium": 3772,
      "367": 3773,
      "athi": 3774,
      "oprine": 3775,
      "Azathi": 3776,
      "Triamterene": 3777,
      "Azathioprine": 3778,
      "3090": 3779,
      "8271": 3780,
      "Pi": 3781,
      "3576": 3782,
      "7243": 3783,
      "2200": 3784,
      "5693": 3785,
      "9982": 3786,
      "Oxazepam": 3787,
      "85850": 3788,
      "ver": 3789,
      "2738": 3790,
      "pred": 3791,
      "984": 3792,
      "541": 3793,
      "9562": 3794,
      "957": 3795,
      "Per": 3796,
      "378": 3797,
      "PHOS": 3798,
      "912": 3799,
      "44021": 3800,
      "384": 3801,
      "7611": 3802,
      "CycloPHOS": 3803,
      "4263": 3804,
      "71596": 3805,
      "45381": 3806,
      "1079": 3807,
      "374": 3808,
      "5728": 3809,
      "343": 3810,
      "4151": 3811,
      "Methimazole": 3812,
      "8000": 3813,
      "8551": 3814,
      "04109": 3815,
      "oniaz": 3816,
      "oniazid": 3817,
      "1087": 3818,
      "408": 3819,
      "Isoniazid": 3820,
      "6960": 3821,
      "680": 3822,
      "GAR": 3823,
      "GARD": 3824,
      "GammaGARD": 3825,
      "377": 3826,
      "43491": 3827,
      "92019": 3828,
      "1541": 3829,
      "743": 3830,
      "cic": 3831,
      "07999": 3832,
      "334": 3833,
      "34839": 3834,
      "78907": 3835,
      "356": 3836,
      "6829": 3837,
      "1123": 3838,
      "ocin": 3839,
      "Million": 3840,
      "5121": 3841,
      "Saline": 3842,
      "7813": 3843,
      "79001": 3844,
      "336": 3845,
      "5716": 3846,
      "386": 3847,
      "796": 3848,
      "Trans": 3849,
      "acil": 3850,
      "uracil": 3851,
      "084": 3852,
      "Protein": 3853,
      "Sub": 3854,
      "57142": 3855,
      "9100": 3856,
      "6834": 3857,
      "20283": 3858,
      "ciclovir": 3859,
      "sel": 3860,
      "tadine": 3861,
      "548": 3862,
      "1330": 3863,
      "nisolone": 3864,
      "55320": 3865,
      "081": 3866,
      "73679": 3867,
      "87820": 3868,
      "5184": 3869,
      "4556": 3870,
      "0380": 3871,
      "347": 3872,
      "tamivir": 3873,
      "2713": 3874,
      "seltamivir": 3875,
      "1579": 3876,
      "Oseltamivir": 3877,
      "72210": 3878,
      "51884": 3879,
      "635": 3880,
      "CVL": 3881,
      "820": 3882,
      "371": 3883,
      "tle": 3884,
      "7849": 3885,
      "Bot": 3886,
      "425": 3887,
      "ber": 3888,
      "022": 3889,
      "retin": 3890,
      "4404": 3891,
      "41189": 3892,
      "25001": 3893,
      "20510": 3894,
      "1978": 3895,
      "1143": 3896,
      "idate": 3897,
      "fib": 3898,
      "1987": 3899,
      "culin": 3900,
      "Clozapine": 3901,
      "Tuber": 3902,
      "Tuberculin": 3903,
      "ome": 3904,
      "631": 3905,
      "Bottle": 3906,
      "20200": 3907,
      "2700": 3908,
      "45901": 3909,
      "icylate": 3910,
      "72887": 3911,
      "1351": 3912,
      "abi": 3913,
      "78904": 3914,
      "42781": 3915,
      "gatran": 3916,
      "abigatran": 3917,
      "42821": 3918,
      "muth": 3919,
      "ilate": 3920,
      "exilate": 3921,
      "fos": 3922,
      "1642": 3923,
      "980": 3924,
      "1201": 3925,
      "Xin": 3926,
      "7040": 3927,
      "afoate": 3928,
      "Xinafoate": 3929,
      "NF": 3930,
      "337": 3931,
      "840": 3932,
      "1900": 3933,
      "fosf": 3934,
      "Dabigatran": 3935,
      "Fe": 3936,
      "5309": 3937,
      "Ambis": 3938,
      "Etexilate": 3939,
      "Ambisome": 3940,
      "Tem": 3941,
      "Bismuth": 3942,
      "053": 3943,
      "667": 3944,
      "salicylate": 3945,
      "Subsalicylate": 3946,
      "fibro": 3947,
      "Ifosf": 3948,
      "25110": 3949,
      "Ifosfamide": 3950,
      "56969": 3951,
      "oline": 3952,
      "0539": 3953,
      "29570": 3954,
      "90710": 3955,
      "30520": 3956,
      "8711": 3957,
      "6836": 3958,
      "5550": 3959,
      "11284": 3960,
      "prednisolone": 3961,
      "9092": 3962,
      "smopressin": 3963,
      "OXcarbazepine": 3964,
      "56723": 3965,
      "7078": 3966,
      "99932": 3967,
      "Desmopressin": 3968,
      "1261": 3969,
      "8500": 3970,
      "Methylprednisolone": 3971,
      "365": 3972,
      "10319": 3973,
      "9602": 3974,
      "5650": 3975,
      "role": 3976,
      "inirole": 3977,
      "8674": 3978,
      "1410": 3979,
      "fil": 3980,
      "astrozole": 3981,
      "2764": 3982,
      "5383": 3983,
      "Gemfibro": 3984,
      "Gemfibrozil": 3985,
      "894": 3986,
      "363": 3987,
      "Cos": 3988,
      "03849": 3989,
      "7010": 3990,
      "Fluorouracil": 3991,
      "79431": 3992,
      "ck": 3993,
      "2731": 3994,
      "366": 3995,
      "9961": 3996,
      "Decitabine": 3997,
      "7101": 3998,
      "RIS": 3999,
      "78652": 4000,
      "RISperidone": 4001,
      "578": 4002,
      "sa": 4003,
      "7889": 4004,
      "tropin": 4005,
      "4577": 4006,
      "Ropinirole": 4007,
      "Tuck": 4008,
      "Tucks": 4009,
      "1003": 4010,
      "cen": 4011,
      "464": 4012,
      "770": 4013,
      "598": 4014,
      "561": 4015,
      "9081": 4016,
      "2920": 4017,
      "78841": 4018,
      "cain": 4019,
      "ure": 4020,
      "INV": 4021,
      "20282": 4022,
      "yntropin": 4023,
      "9190": 4024,
      "Epi": 4025,
      "Cosyntropin": 4026,
      "9600": 4027,
      "hine": 4028,
      "PEN": 4029,
      "itonin": 4030,
      "anciclovir": 4031,
      "27951": 4032,
      "Salmon": 4033,
      "Calcitonin": 4034,
      "1552": 4035,
      "7011": 4036,
      "Via": 4037,
      "rOP": 4038,
      "INIR": 4039,
      "rOPINIR": 4040,
      "rOPINIRole": 4041,
      "44422": 4042,
      "28521": 4043,
      "55321": 4044,
      "78093": 4045,
      "4189": 4046,
      "Conj": 4047,
      "SM": 4048,
      "10229": 4049,
      "7955": 4050,
      "4321": 4051,
      "783": 4052,
      "6838": 4053,
      "Ganciclovir": 4054,
      "6833": 4055,
      "53190": 4056,
      "010": 4057,
      "Pen": 4058,
      "28959": 4059,
      "4821": 4060,
      "3484": 4061,
      "4592": 4062,
      "GLU": 4063,
      "CONATE": 4064,
      "GLUCONATE": 4065,
      "461": 4066,
      "Dofetil": 4067,
      "Dofetilide": 4068,
      "Levo": 4069,
      "cture": 4070,
      "Machine": 4071,
      "Priming": 4072,
      "ipril": 4073,
      "28731": 4074,
      "Pri": 4075,
      "Tin": 4076,
      "vel": 4077,
      "Tincture": 4078,
      "642": 4079,
      "Modafinil": 4080,
      "centrate": 4081,
      "8042": 4082,
      "Bum": 4083,
      "nide": 4084,
      "etanide": 4085,
      "Concentrate": 4086,
      "Bumetanide": 4087,
      "Rifamp": 4088,
      "Rifampin": 4089,
      "513": 4090,
      "406": 4091,
      "5660": 4092,
      "Concentrated": 4093,
      "locaine": 4094,
      "Flecain": 4095,
      "Flecainide": 4096,
      "4510": 4097,
      "Prilocaine": 4098,
      "8571": 4099,
      "antadine": 4100,
      "afen": 4101,
      "8131": 4102,
      "1152": 4103,
      "uta": 4104,
      "364": 4105,
      "065": 4106,
      "Fluocin": 4107,
      "8220": 4108,
      "34290": 4109,
      "874": 4110,
      "25051": 4111,
      "ell": 4112,
      "atal": 4113,
      "1963": 4114,
      "69398": 4115,
      "9413": 4116,
      "ub": 4117,
      "Si": 4118,
      "7303": 4119,
      "dena": 4120,
      "denafil": 4121,
      "99832": 4122,
      "964": 4123,
      "78903": 4124,
      "Sildenafil": 4125,
      "Sirolimus": 4126,
      "70707": 4127,
      "7401": 4128,
      "Amantadine": 4129,
      "903": 4130,
      "493": 4131,
      "554": 4132,
      "inib": 4133,
      "73730": 4134,
      "42842": 4135,
      "87442": 4136,
      "864": 4137,
      "7318": 4138,
      "792": 4139,
      "4370": 4140,
      "saicin": 4141,
      "Capsaicin": 4142,
      "718": 4143,
      "9986": 4144,
      "mal": 4145,
      "2252": 4146,
      "69351": 4147,
      "6851": 4148,
      "4976": 4149,
      "Vag": 4150,
      "8784": 4151,
      "553": 4152,
      "4210": 4153,
      "Quin": 4154,
      "Nitrate": 4155,
      "42843": 4156,
      "51883": 4157,
      "43811": 4158,
      "EpiPEN": 4159,
      "caps": 4160,
      "78194": 4161,
      "Glycerin": 4162,
      "703": 4163,
      "Pyridostigmine": 4164,
      "6289": 4165,
      "fa": 4166,
      "5852": 4167,
      "362": 4168,
      "Pren": 4169,
      "30300": 4170,
      "355": 4171,
      "car": 4172,
      "7048": 4173,
      "IVE": 4174,
      "995": 4175,
      "5362": 4176,
      "Supps": 4177,
      "Prenatal": 4178,
      "4871": 4179,
      "Pe": 4180,
      "velam": 4181,
      "639": 4182,
      "UTA": 4183,
      "92129": 4184,
      "8194": 4185,
      "96643": 4186,
      "1972": 4187,
      "754": 4188,
      "uximab": 4189,
      "NAT": 4190,
      "leukin": 4191,
      "73342": 4192,
      "Temazepam": 4193,
      "593": 4194,
      "KA": 4195,
      "DIAN": 4196,
      "2900": 4197,
      "ALAS": 4198,
      "INDIAN": 4199,
      "NATIVE": 4200,
      "ALASKA": 4201,
      "78951": 4202,
      "69589": 4203,
      "2512": 4204,
      "5862": 4205,
      "desleukin": 4206,
      "79551": 4207,
      "9789": 4208,
      "70721": 4209,
      "gar": 4210,
      "499": 4211,
      "25013": 4212,
      "6839": 4213,
      "2866": 4214,
      "8330": 4215,
      "eph": 4216,
      "1960": 4217,
      "4802": 4218,
      "3781": 4219,
      "1041": 4220,
      "rys": 4221,
      "5552": 4222,
      "phenazine": 4223,
      "Normal": 4224,
      "Ef": 4225,
      "sevelam": 4226,
      "1911": 4227,
      "Neph": 4228,
      "rocaps": 4229,
      "04186": 4230,
      "Nephrocaps": 4231,
      "Aldesleukin": 4232,
      "7866": 4233,
      "omeprazole": 4234,
      "4162": 4235,
      "7098": 4236,
      "rinone": 4237,
      "5779": 4238,
      "07071": 4239,
      "25082": 4240,
      "Sugar": 4241,
      "20302": 4242,
      "978": 4243,
      "612": 4244,
      "rystal": 4245,
      "1625": 4246,
      "5733": 4247,
      "52809": 4248,
      "Silver": 4249,
      "20401": 4250,
      "78451": 4251,
      "971": 4252,
      "Rit": 4253,
      "6441": 4254,
      "Milrinone": 4255,
      "Rituximab": 4256,
      "0781": 4257,
      "5864": 4258,
      "9479": 4259,
      "534": 4260,
      "568": 4261,
      "404": 4262,
      "70724": 4263,
      "0382": 4264,
      "470": 4265,
      "Epid": 4266,
      "Supp": 4267,
      "platelets": 4268,
      "large": 4269,
      "57451": 4270,
      "7500": 4271,
      "53560": 4272,
      "906": 4273,
      "Rev": 4274,
      "osit": 4275,
      "99662": 4276,
      "3379": 4277,
      "4264": 4278,
      "3079": 4279,
      "1169": 4280,
      "643": 4281,
      "4359": 4282,
      "89813": 4283,
      "7885": 4284,
      "25561": 4285,
      "ural": 4286,
      "ory": 4287,
      "8410": 4288,
      "Cyclophosph": 4289,
      "ository": 4290,
      "Cyclophosphamide": 4291,
      "mi": 4292,
      "4806": 4293,
      "883": 4294,
      "688": 4295,
      "71535": 4296,
      "Epidural": 4297,
      "4588": 4298,
      "Suppository": 4299,
      "iDONE": 4300,
      "8191": 4301,
      "610": 4302,
      "628": 4303,
      "PrimiDONE": 4304,
      "4400": 4305,
      "488": 4306,
      "3371": 4307,
      "78760": 4308,
      "2189": 4309,
      "Xacin": 4310,
      "FLOXacin": 4311,
      "Penicillin": 4312,
      "LevoFLOXacin": 4313,
      "Sprin": 4314,
      "sevelamer": 4315,
      "Gran": 4316,
      "644": 4317,
      "9975": 4318,
      "1509": 4319,
      "Esm": 4320,
      "1190": 4321,
      "Esmolol": 4322,
      "25551": 4323,
      "604": 4324,
      "95811": 4325,
      "2681": 4326,
      "89152": 4327,
      "20210": 4328,
      "387": 4329,
      "3363": 4330,
      "2190": 4331,
      "0254": 4332,
      "399": 4333,
      "azel": 4334,
      "393": 4335,
      "onic": 4336,
      "03311": 4337,
      "9444": 4338,
      "0259": 4339,
      "atide": 4340,
      "7948": 4341,
      "crystal": 4342,
      "Sulfa": 4343,
      "Quinapril": 4344,
      "2858": 4345,
      "min": 4346,
      "ulsion": 4347,
      "3412": 4348,
      "Emulsion": 4349,
      "8332": 4350,
      "735": 4351,
      "losta": 4352,
      "crystals": 4353,
      "SAL": 4354,
      "ules": 4355,
      "395": 4356,
      "935": 4357,
      "72190": 4358,
      "SulfaSAL": 4359,
      "lostazol": 4360,
      "release": 4361,
      "3411": 4362,
      "Roc": 4363,
      "8052": 4364,
      "Load": 4365,
      "5373": 4366,
      "extended": 4367,
      "7854": 4368,
      "5305": 4369,
      "8309": 4370,
      "oxy": 4371,
      "4275": 4372,
      "5031": 4373,
      "SulfaSALAzine": 4374,
      "3682": 4375,
      "2572": 4376,
      "5695": 4377,
      "avirenz": 4378,
      "Efavirenz": 4379,
      "Granules": 4380,
      "5531": 4381,
      "kles": 4382,
      "ACD": 4383,
      "Sprinkles": 4384,
      "25200": 4385,
      "Rocuronium": 4386,
      "4660": 4387,
      "9310": 4388,
      "9622": 4389,
      "4142": 4390,
      "otonic": 4391,
      "Isotonic": 4392,
      "79891": 4393,
      "Prog": 4394,
      "XXXD": 4395,
      "Ep": 4396,
      "1279": 4397,
      "2384": 4398,
      "9389": 4399,
      "oxalate": 4400,
      "024": 4401,
      "59972": 4402,
      "1621": 4403,
      "53290": 4404,
      "3200": 4405,
      "1510": 4406,
      "3439": 4407,
      "ersal": 4408,
      "Reversal": 4409,
      "5370": 4410,
      "amole": 4411,
      "yridamole": 4412,
      "3688": 4413,
      "Ata": 4414,
      "2513": 4415,
      "5651": 4416,
      "2100": 4417,
      "5856": 4418,
      "70713": 4419,
      "619": 4420,
      "Dipyridamole": 4421,
      "8599": 4422,
      "78064": 4423,
      "Sulfadi": 4424,
      "Sulfadiazine": 4425,
      "9112": 4426,
      "672": 4427,
      "385": 4428,
      "7289": 4429,
      "Thy": 4430,
      "1624": 4431,
      "802": 4432,
      "83511": 4433,
      "Ve": 4434,
      "arit": 4435,
      "Clarit": 4436,
      "CARBONATE": 4437,
      "russ": 4438,
      "8379": 4439,
      "tropruss": 4440,
      "Nitropruss": 4441,
      "Nitroprusside": 4442,
      "57450": 4443,
      "34510": 4444,
      "2137": 4445,
      "9348": 4446,
      "3453": 4447,
      "662": 4448,
      "5185": 4449,
      "25119": 4450,
      "NTIN": 4451,
      "7981": 4452,
      "388": 4453,
      "OxyCONTIN": 4454,
      "524": 4455,
      "8501": 4456,
      "3789": 4457,
      "582": 4458,
      "Neonat": 4459,
      "Neonatal": 4460,
      "3400": 4461,
      "zanavir": 4462,
      "95851": 4463,
      "Atazanavir": 4464,
      "099": 4465,
      "40605": 4466,
      "9349": 4467,
      "435": 4468,
      "881": 4469,
      "2780": 4470,
      "1508": 4471,
      "27788": 4472,
      "53540": 4473,
      "573": 4474,
      "732": 4475,
      "27803": 4476,
      "1707": 4477,
      "XS": 4478,
      "plant": 4479,
      "5307": 4480,
      "Esomeprazole": 4481,
      "Transplant": 4482,
      "Program": 4483,
      "0625": 4484,
      "70712": 4485,
      "trogens": 4486,
      "009": 4487,
      "5021": 4488,
      "57410": 4489,
      "Test": 4490,
      "tonic": 4491,
      "89421": 4492,
      "29040": 4493,
      "AMIDE": 4494,
      "PHAMIDE": 4495,
      "Estrogens": 4496,
      "ugated": 4497,
      "CycloPHOSPHAMIDE": 4498,
      "Conjugated": 4499,
      "773": 4500,
      "778": 4501,
      "3300": 4502,
      "Hypertonic": 4503,
      "606": 4504,
      "59080": 4505,
      "7135": 4506,
      "708": 4507,
      "Felodipine": 4508,
      "0602": 4509,
      "abine": 4510,
      "2980": 4511,
      "Tretin": 4512,
      "95820": 4513,
      "Tretinoin": 4514,
      "70709": 4515,
      "2631": 4516,
      "Ept": 4517,
      "ifib": 4518,
      "25512": 4519,
      "Anastrozole": 4520,
      "Eptifib": 4521,
      "Eptifibatide": 4522,
      "888": 4523,
      "choline": 4524,
      "382": 4525,
      "2811": 4526,
      "20040": 4527,
      "Ximab": 4528,
      "5799": 4529,
      "78902": 4530,
      "2210": 4531,
      "Desonide": 4532,
      "759": 4533,
      "45018": 4534,
      "91128": 4535,
      "1040": 4536,
      "516": 4537,
      "ym": 4538,
      "8333": 4539,
      "608": 4540,
      "TR": 4541,
      "2411": 4542,
      "99679": 4543,
      "Str": 4544,
      "7868": 4545,
      "ylcholine": 4546,
      "4552": 4547,
      "hed": 4548,
      "25562": 4549,
      "oep": 4550,
      "seud": 4551,
      "Succinylcholine": 4552,
      "hedrine": 4553,
      "oephedrine": 4554,
      "seudoephedrine": 4555,
      "8521": 4556,
      "Pseudoephedrine": 4557,
      "5178": 4558,
      "70720": 4559,
      "061": 4560,
      "yce": 4561,
      "virine": 4562,
      "679": 4563,
      "methacin": 4564,
      "domethacin": 4565,
      "6202": 4566,
      "atinib": 4567,
      "99989": 4568,
      "be": 4569,
      "arpine": 4570,
      "41072": 4571,
      "locarpine": 4572,
      "8331": 4573,
      "9423": 4574,
      "7197": 4575,
      "Indomethacin": 4576,
      "9300": 4577,
      "34550": 4578,
      "02211": 4579,
      "Abac": 4580,
      "Abacavir": 4581,
      "hromycin": 4582,
      "78729": 4583,
      "2300": 4584,
      "Clarithromycin": 4585,
      "azam": 4586,
      "4181": 4587,
      "8881": 4588,
      "9301": 4589,
      "7873": 4590,
      "9641": 4591,
      "761": 4592,
      "988": 4593,
      "8649": 4594,
      "5571": 4595,
      "7863": 4596,
      "99669": 4597,
      "4412": 4598,
      "Anti": 4599,
      "CARBOplatin": 4600,
      "1253": 4601,
      "540": 4602,
      "40391": 4603,
      "27739": 4604,
      "44022": 4605,
      "1125": 4606,
      "28804": 4607,
      "Sym": 4608,
      "phenidate": 4609,
      "kal": 4610,
      "rom": 4611,
      "844": 4612,
      "34889": 4613,
      "arabine": 4614,
      "9611": 4615,
      "70723": 4616,
      "24290": 4617,
      "73028": 4618,
      "7110": 4619,
      "1974": 4620,
      "25511": 4621,
      "Ketamine": 4622,
      "5410": 4623,
      "520": 4624,
      "20281": 4625,
      "97419": 4626,
      "4846": 4627,
      "3100": 4628,
      "dia": 4629,
      "1089": 4630,
      "1004": 4631,
      "8719": 4632,
      "405": 4633,
      "523": 4634,
      "583": 4635,
      "827": 4636,
      "70725": 4637,
      "Clobazam": 4638,
      "zone": 4639,
      "8050": 4640,
      "3695": 4641,
      "460": 4642,
      "04189": 4643,
      "693": 4644,
      "bicort": 4645,
      "Symbicort": 4646,
      "9111": 4647,
      "8779": 4648,
      "7681": 4649,
      "43330": 4650,
      "CIS": 4651,
      "41402": 4652,
      "99883": 4653,
      "2825": 4654,
      "99666": 4655,
      "CISplatin": 4656,
      "2839": 4657,
      "11289": 4658,
      "7851": 4659,
      "3003": 4660,
      "2769": 4661,
      "Nam": 4662,
      "Methylphenidate": 4663,
      "8532": 4664,
      "79319": 4665,
      "9363": 4666,
      "oxazole": 4667,
      "2239": 4668,
      "enda": 4669,
      "1713": 4670,
      "834": 4671,
      "73007": 4672,
      "Namenda": 4673,
      "27401": 4674,
      "1975": 4675,
      "73027": 4676,
      "itazone": 4677,
      "82898": 4678,
      "rex": 4679,
      "20270": 4680,
      "itch": 4681,
      "Hazel": 4682,
      "Witch": 4683,
      "581": 4684,
      "Ratio": 4685,
      "25552": 4686,
      "98890": 4687,
      "45620": 4688,
      "2582": 4689,
      "03811": 4690,
      "Pad": 4691,
      "pramine": 4692,
      "Sulfamethoxazole": 4693,
      "7000": 4694,
      "25052": 4695,
      "8785": 4696,
      "8790": 4697,
      "51882": 4698,
      "alafen": 4699,
      "NaCl": 4700,
      "apro": 4701,
      "27503": 4702,
      "5750": 4703,
      "Cefta": 4704,
      "9379": 4705,
      "ue": 4706,
      "gth": 4707,
      "ength": 4708,
      "64893": 4709,
      "Strength": 4710,
      "59651": 4711,
      "396": 4712,
      "7962": 4713,
      "Benzocaine": 4714,
      "621": 4715,
      "731": 4716,
      "terone": 4717,
      "99702": 4718,
      "73319": 4719,
      "0500": 4720,
      "769": 4721,
      "29650": 4722,
      "17290": 4723,
      "8089": 4724,
      "1839": 4725,
      "es": 4726,
      "niti": 4727,
      "BAM": 4728,
      "4320": 4729,
      "BAMazepine": 4730,
      "Resc": 4731,
      "roxide": 4732,
      "Initi": 4733,
      "Fluocinonide": 4734,
      "Rescue": 4735,
      "Initial": 4736,
      "738": 4737,
      "ulfate": 4738,
      "CarBAMazepine": 4739,
      "HC": 4740,
      "1611": 4741,
      "ME": 4742,
      "880": 4743,
      "9293": 4744,
      "asug": 4745,
      "45385": 4746,
      "Prasug": 4747,
      "phosphate": 4748,
      "Prasugrel": 4749,
      "56489": 4750,
      "34540": 4751,
      "36900": 4752,
      "4050": 4753,
      "397": 4754,
      "5331": 4755,
      "51851": 4756,
      "3289": 4757,
      "20412": 4758,
      "2949": 4759,
      "oxide": 4760,
      "Iron": 4761,
      "56949": 4762,
      "Peroxide": 4763,
      "9002": 4764,
      "Cilostazol": 4765,
      "886": 4766,
      "3962": 4767,
      "78703": 4768,
      "2111": 4769,
      "otamine": 4770,
      "gan": 4771,
      "31819": 4772,
      "56983": 4773,
      "05319": 4774,
      "504": 4775,
      "8051": 4776,
      "met": 4777,
      "8579": 4778,
      "3481": 4779,
      "8519": 4780,
      "8844": 4781,
      "89150": 4782,
      "2782": 4783,
      "466": 4784,
      "862": 4785,
      "45340": 4786,
      "Chloro": 4787,
      "2564": 4788,
      "ambut": 4789,
      "78551": 4790,
      "Ethambut": 4791,
      "Ethambutol": 4792,
      "ump": 4793,
      "rophosphate": 4794,
      "Glyce": 4795,
      "72885": 4796,
      "Glycerophosphate": 4797,
      "972": 4798,
      "85048": 4799,
      "Fludarabine": 4800,
      "Perphenazine": 4801,
      "Hydrochloride": 4802,
      "40310": 4803,
      "Tetan": 4804,
      "Pump": 4805,
      "407": 4806,
      "8458": 4807,
      "Tetanus": 4808,
      "8681": 4809,
      "465": 4810,
      "616": 4811,
      "1085": 4812,
      "50911": 4813,
      "2600": 4814,
      "28983": 4815,
      "Riton": 4816,
      "Ritonavir": 4817,
      "8538": 4818,
      "4576": 4819,
      "7211": 4820,
      "8250": 4821,
      "5921": 4822,
      "5168": 4823,
      "57400": 4824,
      "osterone": 4825,
      "0981": 4826,
      "Tox": 4827,
      "Diph": 4828,
      "27906": 4829,
      "5082": 4830,
      "lex": 4831,
      "5724": 4832,
      "2555": 4833,
      "5739": 4834,
      "4283": 4835,
      "Protamine": 4836,
      "osine": 4837,
      "3600": 4838,
      "Caffeine": 4839,
      "UXimab": 4840,
      "zom": 4841,
      "2441": 4842,
      "zomib": 4843,
      "36960": 4844,
      "4233": 4845,
      "9317": 4846,
      "4010": 4847,
      "45989": 4848,
      "4558": 4849,
      "5551": 4850,
      "68110": 4851,
      "top": 4852,
      "99813": 4853,
      "Dipine": 4854,
      "MODipine": 4855,
      "IOp": 4856,
      "aTH": 4857,
      "AzaTH": 4858,
      "IOprine": 4859,
      "AzaTHIOprine": 4860,
      "Chlorothiazide": 4861,
      "3963": 4862,
      "04102": 4863,
      "8535": 4864,
      "0150": 4865,
      "945": 4866,
      "SCO": 4867,
      "72888": 4868,
      "423": 4869,
      "85221": 4870,
      "9079": 4871,
      "pramipexole": 4872,
      "53642": 4873,
      "99672": 4874,
      "445": 4875,
      "29630": 4876,
      "VY": 4877,
      "inavir": 4878,
      "Rib": 4879,
      "The": 4880,
      "DESCO": 4881,
      "Ramipril": 4882,
      "48061": 4883,
      "DESCOVY": 4884,
      "25041": 4885,
      "5109": 4886,
      "25083": 4887,
      "82621": 4888,
      "5416": 4889,
      "rod": 4890,
      "60784": 4891,
      "1578": 4892,
      "oglitazone": 4893,
      "Pioglitazone": 4894,
      "Testosterone": 4895,
      "42820": 4896,
      "50912": 4897,
      "78722": 4898,
      "1622": 4899,
      "35800": 4900,
      "30593": 4901,
      "6988": 4902,
      "4847": 4903,
      "34680": 4904,
      "NiMODipine": 4905,
      "4270": 4906,
      "7689": 4907,
      "95828": 4908,
      "4089": 4909,
      "5181": 4910,
      "53510": 4911,
      "002": 4912,
      "47819": 4913,
      "3594": 4914,
      "95901": 4915,
      "72252": 4916,
      "4856": 4917,
      "7517": 4918,
      "090": 4919,
      "olazine": 4920,
      "45386": 4921,
      "5130": 4922,
      "7910": 4923,
      "48242": 4924,
      "53140": 4925,
      "Alfa": 4926,
      "1641": 4927,
      "7244": 4928,
      "DAUN": 4929,
      "946": 4930,
      "5300": 4931,
      "XXS": 4932,
      "ban": 4933,
      "8700": 4934,
      "4585": 4935,
      "4101": 4936,
      "8041": 4937,
      "72992": 4938,
      "alan": 4939,
      "5932": 4940,
      "9483": 4941,
      "deral": 4942,
      "72889": 4943,
      "Ang": 4944,
      "72610": 4945,
      "658": 4946,
      "tt": 4947,
      "7190": 4948,
      "2830": 4949,
      "orte": 4950,
      "52100": 4951,
      "4159": 4952,
      "Lopinavir": 4953,
      "gtt": 4954,
      "8511": 4955,
      "29633": 4956,
      "1584": 4957,
      "Pilocarpine": 4958,
      "713": 4959,
      "tronid": 4960,
      "HYDROc": 4961,
      "3489": 4962,
      "derall": 4963,
      "HYDROcodone": 4964,
      "6844": 4965,
      "36281": 4966,
      "37515": 4967,
      "25070": 4968,
      "Adderall": 4969,
      "aseptic": 4970,
      "Phenaseptic": 4971,
      "DAUNOrubicin": 4972,
      "5732": 4973,
      "travirine": 4974,
      "Pert": 4975,
      "cardia": 4976,
      "33182": 4977,
      "Metronid": 4978,
      "edema": 4979,
      "ioedema": 4980,
      "Angioedema": 4981,
      "Etravirine": 4982,
      "2889": 4983,
      "8812": 4984,
      "llu": 4985,
      "Acellu": 4986,
      "37430": 4987,
      "7230": 4988,
      "tradi": 4989,
      "DiphTox": 4990,
      "Pertuss": 4991,
      "Acellular": 4992,
      "4553": 4993,
      "416": 4994,
      "Borte": 4995,
      "1031": 4996,
      "50995": 4997,
      "40209": 4998,
      "Bortezomib": 4999,
      "inamide": 5000,
      "hycardia": 5001,
      "8110": 5002,
      "8489": 5003,
      "Tachycardia": 5004,
      "flex": 5005,
      "Viaflex": 5006,
      "ister": 5007,
      "1748": 5008,
      "4260": 5009,
      "Admin": 5010,
      "tradiol": 5011,
      "istering": 5012,
      "Administering": 5013,
      "LI": 5014,
      "budesonide": 5015,
      "56989": 5016,
      "5043": 5017,
      "tapenem": 5018,
      "699": 5019,
      "mic": 5020,
      "4259": 5021,
      "775": 5022,
      "5579": 5023,
      "omide": 5024,
      "10649": 5025,
      "Ertapenem": 5026,
      "4854": 5027,
      "57511": 5028,
      "0590": 5029,
      "31400": 5030,
      "36846": 5031,
      "lob": 5032,
      "56609": 5033,
      "8448": 5034,
      "4401": 5035,
      "38611": 5036,
      "565": 5037,
      "5710": 5038,
      "Io": 5039,
      "hexol": 5040,
      "Iohexol": 5041,
      "474": 5042,
      "53649": 5043,
      "6861": 5044,
      "9101": 5045,
      "7842": 5046,
      "34580": 5047,
      "9319": 5048,
      "71595": 5049,
      "cos": 5050,
      "9429": 5051,
      "1809": 5052,
      "Dakin": 5053,
      "Dakins": 5054,
      "cosamide": 5055,
      "3800": 5056,
      "5883": 5057,
      "25081": 5058,
      "448": 5059,
      "813": 5060,
      "oo": 5061,
      "9426": 5062,
      "Ter": 5063,
      "5700": 5064,
      "1022": 5065,
      "78839": 5066,
      "70583": 5067,
      "carboxy": 5068,
      "vox": 5069,
      "well": 5070,
      "56782": 5071,
      "7632": 5072,
      "59010": 5073,
      "carboxyhemoglobin": 5074,
      "5281": 5075,
      "2535": 5076,
      "79604": 5077,
      "1072": 5078,
      "89154": 5079,
      "8523": 5080,
      "4373": 5081,
      "9290": 5082,
      "cycline": 5083,
      "Tige": 5084,
      "Tigecycline": 5085,
      "24200": 5086,
      "99769": 5087,
      "03843": 5088,
      "50905": 5089,
      "417": 5090,
      "9394": 5091,
      "emia": 5092,
      "Hyperkal": 5093,
      "Hyperkalemia": 5094,
      "767": 5095,
      "1820": 5096,
      "727": 5097,
      "pof": 5098,
      "9011": 5099,
      "Caspof": 5100,
      "Caspofungin": 5101,
      "20208": 5102,
      "3019": 5103,
      "25053": 5104,
      "acel": 5105,
      "Lacosamide": 5106,
      "8132": 5107,
      "9309": 5108,
      "Adacel": 5109,
      "30002": 5110,
      "3129": 5111,
      "Dwell": 5112,
      "9972": 5113,
      "2733": 5114,
      "ercap": 5115,
      "37230": 5116,
      "9358": 5117,
      "topurine": 5118,
      "ercaptopurine": 5119,
      "9992": 5120,
      "Carbamide": 5121,
      "877": 5122,
      "779": 5123,
      "8537": 5124,
      "Av": 5125,
      "33183": 5126,
      "1047": 5127,
      "99681": 5128,
      "8611": 5129,
      "Glob": 5130,
      "Mercaptopurine": 5131,
      "475": 5132,
      "82611": 5133,
      "063": 5134,
      "ophyl": 5135,
      "4575": 5136,
      "835": 5137,
      "3540": 5138,
      "925": 5139,
      "atit": 5140,
      "Hepatit": 5141,
      "Hepatitis": 5142,
      "etin": 5143,
      "Topical": 5144,
      "53783": 5145,
      "82412": 5146,
      "ophylline": 5147,
      "483": 5148,
      "44031": 5149,
      "43813": 5150,
      "61811": 5151,
      "methemoglobin": 5152,
      "ST": 5153,
      "4465": 5154,
      "curonium": 5155,
      "0090": 5156,
      "1490": 5157,
      "30928": 5158,
      "2774": 5159,
      "79579": 5160,
      "2971": 5161,
      "6238": 5162,
      "8534": 5163,
      "roid": 5164,
      "48241": 5165,
      "8539": 5166,
      "7808": 5167,
      "6859": 5168,
      "4611": 5169,
      "892": 5170,
      "6282": 5171,
      "Imip": 5172,
      "27549": 5173,
      "30521": 5174,
      "yte": 5175,
      "5430": 5176,
      "20402": 5177,
      "Cil": 5178,
      "enem": 5179,
      "30563": 5180,
      "9072": 5181,
      "Bisulfate": 5182,
      "1091": 5183,
      "Imipenem": 5184,
      "Cilastatin": 5185,
      "633": 5186,
      "xel": 5187,
      "1084": 5188,
      "Lovastatin": 5189,
      "96649": 5190,
      "99667": 5191,
      "711": 5192,
      "23877": 5193,
      "isti": 5194,
      "Polisti": 5195,
      "Polistirex": 5196,
      "Fluvox": 5197,
      "44381": 5198,
      "Fluvoxamine": 5199,
      "8054": 5200,
      "704": 5201,
      "751": 5202,
      "Sh": 5203,
      "492": 5204,
      "7080": 5205,
      "Multiple": 5206,
      "Liq": 5207,
      "Enalaprilat": 5208,
      "besartan": 5209,
      "4379": 5210,
      "43883": 5211,
      "5100": 5212,
      "78630": 5213,
      "Aminoc": 5214,
      "Pent": 5215,
      "42769": 5216,
      "ampoo": 5217,
      "Shampoo": 5218,
      "79605": 5219,
      "55090": 5220,
      "92018": 5221,
      "Py": 5222,
      "ras": 5223,
      "40109": 5224,
      "97429": 5225,
      "Theophylline": 5226,
      "3241": 5227,
      "con": 5228,
      "25201": 5229,
      "ViaFLO": 5230,
      "99739": 5231,
      "1984": 5232,
      "8522": 5233,
      "binaf": 5234,
      "binafine": 5235,
      "592": 5236,
      "36570": 5237,
      "73309": 5238,
      "8536": 5239,
      "485": 5240,
      "437": 5241,
      "2409": 5242,
      "3549": 5243,
      "8080": 5244,
      "2864": 5245,
      "3229": 5246,
      "8533": 5247,
      "468": 5248,
      "979": 5249,
      "6523": 5250,
      "iramine": 5251,
      "20070": 5252,
      "44489": 5253,
      "Aminocapro": 5254,
      "Blu": 5255,
      "2810": 5256,
      "Blue": 5257,
      "antin": 5258,
      "99642": 5259,
      "938": 5260,
      "9359": 5261,
      "sen": 5262,
      "3099": 5263,
      "42989": 5264,
      "Eple": 5265,
      "flu": 5266,
      "8531": 5267,
      "Opht": 5268,
      "renone": 5269,
      "Eplerenone": 5270,
      "27953": 5271,
      "9393": 5272,
      "Vecuronium": 5273,
      "Aminocaproic": 5274,
      "546": 5275,
      "tat": 5276,
      "82432": 5277,
      "RIT": 5278,
      "phamide": 5279,
      "5489": 5280,
      "CycloPHOSphamide": 5281,
      "ocl": 5282,
      "6869": 5283,
      "87342": 5284,
      "41511": 5285,
      "Comb": 5286,
      "AZOLE": 5287,
      "21372": 5288,
      "MetronidAZOLE": 5289,
      "661": 5290,
      "3431": 5291,
      "30553": 5292,
      "03113": 5293,
      "etocl": 5294,
      "5934": 5295,
      "4323": 5296,
      "etoclax": 5297,
      "ylline": 5298,
      "34511": 5299,
      "oxifylline": 5300,
      "Terbinafine": 5301,
      "1104": 5302,
      "taxel": 5303,
      "80212": 5304,
      "oxifloxacin": 5305,
      "30551": 5306,
      "71106": 5307,
      "05410": 5308,
      "4789": 5309,
      "25118": 5310,
      "887": 5311,
      "8614": 5312,
      "Pentoxifylline": 5313,
      "Lub": 5314,
      "5669": 5315,
      "amid": 5316,
      "Intr": 5317,
      "5329": 5318,
      "1339": 5319,
      "4781": 5320,
      "942": 5321,
      "Pamid": 5322,
      "ronate": 5323,
      "Pamidronate": 5324,
      "99831": 5325,
      "3801": 5326,
      "7589": 5327,
      "ipo": 5328,
      "34400": 5329,
      "9681": 5330,
      "50919": 5331,
      "87898": 5332,
      "Estradiol": 5333,
      "99762": 5334,
      "72828": 5335,
      "rost": 5336,
      "10621": 5337,
      "1505": 5338,
      "Macrod": 5339,
      "Macrodantin": 5340,
      "IPR": 5341,
      "7876": 5342,
      "troban": 5343,
      "89422": 5344,
      "9431": 5345,
      "83119": 5346,
      "HCT": 5347,
      "5272": 5348,
      "5959": 5349,
      "71906": 5350,
      "1032": 5351,
      "85590": 5352,
      "triene": 5353,
      "Calcipo": 5354,
      "Calcipotriene": 5355,
      "oetin": 5356,
      "Tax": 5357,
      "91840": 5358,
      "82021": 5359,
      "547": 5360,
      "822": 5361,
      "umi": 5362,
      "3510": 5363,
      "78559": 5364,
      "Epoetin": 5365,
      "9070": 5366,
      "8641": 5367,
      "2734": 5368,
      "25012": 5369,
      "ZIPR": 5370,
      "orine": 5371,
      "sporine": 5372,
      "ASidone": 5373,
      "HCTZ": 5374,
      "ZIPRASidone": 5375,
      "6406": 5376,
      "990": 5377,
      "2651": 5378,
      "7281": 5379,
      "9288": 5380,
      "78459": 5381,
      "69392": 5382,
      "8730": 5383,
      "mo": 5384,
      "rasidone": 5385,
      "484": 5386,
      "45384": 5387,
      "ard": 5388,
      "Ranolazine": 5389,
      "71696": 5390,
      "2550": 5391,
      "4511": 5392,
      "5566": 5393,
      "53782": 5394,
      "Lumi": 5395,
      "1750": 5396,
      "gatroban": 5397,
      "RITUXimab": 5398,
      "Lumigan": 5399,
      "iclofen": 5400,
      "7827": 5401,
      "78606": 5402,
      "Argatroban": 5403,
      "Cyclosporine": 5404,
      "29689": 5405,
      "iclofenac": 5406,
      "4023": 5407,
      "03812": 5408,
      "IAB": 5409,
      "IABP": 5410,
      "1912": 5411,
      "7103": 5412,
      "cinex": 5413,
      "4464": 5414,
      "almic": 5415,
      "rab": 5416,
      "30750": 5417,
      "Mucinex": 5418,
      "Pentam": 5419,
      "5001": 5420,
      "Pentamidine": 5421,
      "ace": 5422,
      "Globulin": 5423,
      "1012": 5424,
      "8670": 5425,
      "56941": 5426,
      "Ophthalmic": 5427,
      "Fat": 5428,
      "1411": 5429,
      "11622": 5430,
      "4476": 5431,
      "8591": 5432,
      "Min": 5433,
      "Paste": 5434,
      "607": 5435,
      "819": 5436,
      "agard": 5437,
      "39498": 5438,
      "Toprol": 5439,
      "31811": 5440,
      "Gammagard": 5441,
      "89512": 5442,
      "iprost": 5443,
      "Letrozole": 5444,
      "iprostone": 5445,
      "4200": 5446,
      "615": 5447,
      "Lubiprostone": 5448,
      "Etom": 5449,
      "28989": 5450,
      "Etomidate": 5451,
      "8679": 5452,
      "517": 5453,
      "1889": 5454,
      "7852": 5455,
      "9323": 5456,
      "8507": 5457,
      "BUT": 5458,
      "0471": 5459,
      "78651": 5460,
      "rabase": 5461,
      "913": 5462,
      "Atr": 5463,
      "69320": 5464,
      "47892": 5465,
      "Orabase": 5466,
      "03819": 5467,
      "1539": 5468,
      "49120": 5469,
      "8799": 5470,
      "6389": 5471,
      "Atrial": 5472,
      "2532": 5473,
      "LM": 5474,
      "25043": 5475,
      "28246": 5476,
      "70704": 5477,
      "DOBUT": 5478,
      "DOBUTamine": 5479,
      "exipril": 5480,
      "8530": 5481,
      "Moexipril": 5482,
      "82524": 5483,
      "Rac": 5484,
      "00869": 5485,
      "71947": 5486,
      "99661": 5487,
      "Racepinephrine": 5488,
      "1612": 5489,
      "FILM": 5490,
      "umab": 5491,
      "7949": 5492,
      "epi": 5493,
      "4299": 5494,
      "1649": 5495,
      "4423": 5496,
      "9481": 5497,
      "Fib": 5498,
      "6953": 5499,
      "7963": 5500,
      "5412": 5501,
      "NEO": 5502,
      "1711": 5503,
      "3700": 5504,
      "72293": 5505,
      "56212": 5506,
      "774": 5507,
      "apleu": 5508,
      "6529": 5509,
      "Intrapleu": 5510,
      "Intrapleural": 5511,
      "4242": 5512,
      "6262": 5513,
      "sis": 5514,
      "Resta": 5515,
      "79099": 5516,
      "3749": 5517,
      "Restasis": 5518,
      "919": 5519,
      "Rab": 5520,
      "663": 5521,
      "4555": 5522,
      "4619": 5523,
      "49300": 5524,
      "anol": 5525,
      "28984": 5526,
      "5112": 5527,
      "TL": 5528,
      "bit": 5529,
      "30781": 5530,
      "Lactic": 5531,
      "558": 5532,
      "Mel": 5533,
      "28809": 5534,
      "8518": 5535,
      "moc": 5536,
      "methamine": 5537,
      "Thymoc": 5538,
      "Rabbit": 5539,
      "Thymocyte": 5540,
      "6179": 5541,
      "oic": 5542,
      "PAC": 5543,
      "3501": 5544,
      "4238": 5545,
      "1712": 5546,
      "morphine": 5547,
      "CL": 5548,
      "623": 5549,
      "ATR": 5550,
      "5042": 5551,
      "azep": 5552,
      "Ade": 5553,
      "2910": 5554,
      "53530": 5555,
      "0990": 5556,
      "Ceftaz": 5557,
      "LItaxel": 5558,
      "PACLItaxel": 5559,
      "891": 5560,
      "ovudine": 5561,
      "Zidovudine": 5562,
      "5792": 5563,
      "2750": 5564,
      "92410": 5565,
      "lation": 5566,
      "irbesartan": 5567,
      "rillation": 5568,
      "Ethanol": 5569,
      "IDI": 5570,
      "1002": 5571,
      "CeftazIDI": 5572,
      "CeftazIDIME": 5573,
      "476": 5574,
      "9210": 5575,
      "Tamoxif": 5576,
      "Fibrillation": 5577,
      "Tamoxifen": 5578,
      "Ir": 5579,
      "9330": 5580,
      "56942": 5581,
      "7092": 5582,
      "mipramine": 5583,
      "1966": 5584,
      "Dextran": 5585,
      "phalan": 5586,
      "8049": 5587,
      "All": 5588,
      "DWEL": 5589,
      "Transretin": 5590,
      "Melphalan": 5591,
      "ATRA": 5592,
      "DWELL": 5593,
      "Transretinoic": 5594,
      "841": 5595,
      "apex": 5596,
      "Mirapex": 5597,
      "Film": 5598,
      "9150": 5599,
      "99649": 5600,
      "8318": 5601,
      "0008": 5602,
      "4500": 5603,
      "5136": 5604,
      "Im": 5605,
      "89612": 5606,
      "Thyroid": 5607,
      "640": 5608,
      "28262": 5609,
      "7722": 5610,
      "100000": 5611,
      "56962": 5612,
      "43882": 5613,
      "556": 5614,
      "80701": 5615,
      "588": 5616,
      "Imipramine": 5617,
      "9529": 5618,
      "960": 5619,
      "60886": 5620,
      "8525": 5621,
      "Tricor": 5622,
      "089": 5623,
      "Lip": 5624,
      "78863": 5625,
      "6862": 5626,
      "99593": 5627,
      "4152": 5628,
      "45376": 5629,
      "9412": 5630,
      "Trioxide": 5631,
      "Arsen": 5632,
      "92002": 5633,
      "62838": 5634,
      "97929": 5635,
      "Arsenic": 5636,
      "imepi": 5637,
      "imepiride": 5638,
      "ie": 5639,
      "594": 5640,
      "032": 5641,
      "3281": 5642,
      "45351": 5643,
      "56731": 5644,
      "97819": 5645,
      "9378": 5646,
      "29980": 5647,
      "072": 5648,
      "99889": 5649,
      "gil": 5650,
      "64303": 5651,
      "42611": 5652,
      "25092": 5653,
      "42090": 5654,
      "TaxOL": 5655,
      "0229": 5656,
      "nosine": 5657,
      "1111": 5658,
      "Adenosine": 5659,
      "5259": 5660,
      "4387": 5661,
      "20972": 5662,
      "25042": 5663,
      "8544": 5664,
      "73008": 5665,
      "821": 5666,
      "Por": 5667,
      "eme": 5668,
      "ulf": 5669,
      "7908": 5670,
      "48283": 5671,
      "73710": 5672,
      "up": 5673,
      "1969": 5674,
      "7464": 5675,
      "8183": 5676,
      "78550": 5677,
      "6281": 5678,
      "ocycline": 5679,
      "Minocycline": 5680,
      "20380": 5681,
      "9012": 5682,
      "4520": 5683,
      "itin": 5684,
      "20310": 5685,
      "4251": 5686,
      "pionate": 5687,
      "2690": 5688,
      "0542": 5689,
      "82612": 5690,
      "4160": 5691,
      "7336": 5692,
      "4408": 5693,
      "9503": 5694,
      "5881": 5695,
      "1069": 5696,
      "3432": 5697,
      "989": 5698,
      "Qvar": 5699,
      "61610": 5700,
      "9420": 5701,
      "29411": 5702,
      "56729": 5703,
      "ock": 5704,
      "alfa": 5705,
      "992": 5706,
      "6510": 5707,
      "Temp": 5708,
      "2894": 5709,
      "TLCL": 5710,
      "4100": 5711,
      "4820": 5712,
      "3577": 5713,
      "Desitin": 5714,
      "1971": 5715,
      "89611": 5716,
      "467": 5717,
      "8088": 5718,
      "53240": 5719,
      "tinib": 5720,
      "1968": 5721,
      "2381": 5722,
      "5381": 5723,
      "5332": 5724,
      "ostat": 5725,
      "91138": 5726,
      "8381": 5727,
      "73349": 5728,
      "0889": 5729,
      "82442": 5730,
      "0261": 5731,
      "40409": 5732,
      "28412": 5733,
      "58881": 5734,
      "9230": 5735,
      "075": 5736,
      "71105": 5737,
      "8200": 5738,
      "clo": 5739,
      "ane": 5740,
      "85818": 5741,
      "82622": 5742,
      "20051": 5743,
      "89151": 5744,
      "84116": 5745,
      "6340": 5746,
      "73017": 5747,
      "8794": 5748,
      "Mis": 5749,
      "3900": 5750,
      "4626": 5751,
      "56881": 5752,
      "7835": 5753,
      "Ev": 5754,
      "1363": 5755,
      "itinib": 5756,
      "1103": 5757,
      "23879": 5758,
      "04184": 5759,
      "enol": 5760,
      "biotic": 5761,
      "03114": 5762,
      "07989": 5763,
      "oprostol": 5764,
      "Misoprostol": 5765,
      "1519": 5766,
      "77090": 5767,
      "50012": 5768,
      "8545": 5769,
      "1619": 5770,
      "Nex": 5771,
      "etiracetam": 5772,
      "modafinil": 5773,
      "1101": 5774,
      "5500": 5775,
      "8524": 5776,
      "6549": 5777,
      "064": 5778,
      "zumab": 5779,
      "Polysaccharide": 5780,
      "7099": 5781,
      "Cele": 5782,
      "30403": 5783,
      "7634": 5784,
      "45350": 5785,
      "Polysaccharides": 5786,
      "37854": 5787,
      "Trav": 5788,
      "71949": 5789,
      "07951": 5790,
      "nase": 5791,
      "4440": 5792,
      "Gemcitabine": 5793,
      "4232": 5794,
      "72939": 5795,
      "56600": 5796,
      "2241": 5797,
      "8082": 5798,
      "44209": 5799,
      "56889": 5800,
      "ve": 5801,
      "4090": 5802,
      "buc": 5803,
      "2112": 5804,
      "Levetiracetam": 5805,
      "53490": 5806,
      "Diclofenac": 5807,
      "59689": 5808,
      "574": 5809,
      "metholone": 5810,
      "97829": 5811,
      "816": 5812,
      "49122": 5813,
      "4361": 5814,
      "Pac": 5815,
      "1334": 5816,
      "5798": 5817,
      "941": 5818,
      "PCA": 5819,
      "70710": 5820,
      "antr": 5821,
      "2822": 5822,
      "4322": 5823,
      "73382": 5824,
      "Foam": 5825,
      "505": 5826,
      "494": 5827,
      "60490": 5828,
      "Aprepitant": 5829,
      "34541": 5830,
      "8119": 5831,
      "Venetoclax": 5832,
      "8189": 5833,
      "4941": 5834,
      "1980": 5835,
      "3009": 5836,
      "Fluocinolone": 5837,
      "Port": 5838,
      "4471": 5839,
      "87311": 5840,
      "Fluorometholone": 5841,
      "626": 5842,
      "5084": 5843,
      "34591": 5844,
      "668": 5845,
      "ements": 5846,
      "Elements": 5847,
      "Trace": 5848,
      "ivacaine": 5849,
      "4984": 5850,
      "elb": 5851,
      "56985": 5852,
      "olyn": 5853,
      "romolyn": 5854,
      "7234": 5855,
      "ilet": 5856,
      "40802": 5857,
      "exilet": 5858,
      "908": 5859,
      "exiletine": 5860,
      "3332": 5861,
      "3941": 5862,
      "92039": 5863,
      "Mexiletine": 5864,
      "507": 5865,
      "Ropivacaine": 5866,
      "avirin": 5867,
      "062": 5868,
      "FA": 5869,
      "9010": 5870,
      "059": 5871,
      "924": 5872,
      "8208": 5873,
      "4971": 5874,
      "Ribavirin": 5875,
      "20600": 5876,
      "anastrozole": 5877,
      "8661": 5878,
      "razinamide": 5879,
      "ALI": 5880,
      "Adv": 5881,
      "Pyrazinamide": 5882,
      "sr": 5883,
      "25569": 5884,
      "99689": 5885,
      "8299": 5886,
      "90722": 5887,
      "73015": 5888,
      "2884": 5889,
      "8389": 5890,
      "11610": 5891,
      "Syrup": 5892,
      "19882": 5893,
      "614": 5894,
      "4578": 5895,
      "42613": 5896,
      "34600": 5897,
      "0179": 5898,
      "Busulf": 5899,
      "3575": 5900,
      "Busulfan": 5901,
      "1210": 5902,
      "69391": 5903,
      "8888": 5904,
      "XXXS": 5905,
      "1319": 5906,
      "9962": 5907,
      "othyron": 5908,
      "othyronine": 5909,
      "0240": 5910,
      "525": 5911,
      "5282": 5912,
      "30924": 5913,
      "Lock": 5914,
      "9690": 5915,
      "9390": 5916,
      "2751": 5917,
      "497": 5918,
      "bucaine": 5919,
      "82411": 5920,
      "ci": 5921,
      "6203": 5922,
      "25072": 5923,
      "Travatan": 5924,
      "8453": 5925,
      "morphone": 5926,
      "89153": 5927,
      "Tro": 5928,
      "ali": 5929,
      "7001": 5930,
      "Ly": 5931,
      "MU": 5932,
      "20511": 5933,
      "3568": 5934,
      "37272": 5935,
      "5679": 5936,
      "XXD": 5937,
      "53551": 5938,
      "HP": 5939,
      "90411": 5940,
      "1105": 5941,
      "543": 5942,
      "xostat": 5943,
      "tar": 5944,
      "alax": 5945,
      "buxostat": 5946,
      "3915": 5947,
      "5699": 5948,
      "86172": 5949,
      "Miralax": 5950,
      "rica": 5951,
      "79662": 5952,
      "Lyrica": 5953,
      "2559": 5954,
      "3315": 5955,
      "Hydromorphone": 5956,
      "9351": 5957,
      "Dibucaine": 5958,
      "oprostenol": 5959,
      "Epoprostenol": 5960,
      "97919": 5961,
      "oz": 5962,
      "555": 5963,
      "4786": 5964,
      "rig": 5965,
      "2448": 5966,
      "fenofibrate": 5967,
      "723": 5968,
      "9130": 5969,
      "Zip": 5970,
      "1560": 5971,
      "1981": 5972,
      "29212": 5973,
      "78096": 5974,
      "85830": 5975,
      "Febuxostat": 5976,
      "Ziprasidone": 5977,
      "1081": 5978,
      "9447": 5979,
      "6256": 5980,
      "5440": 5981,
      "9692": 5982,
      "OG": 5983,
      "506": 5984,
      "698": 5985,
      "82858": 5986,
      "5600": 5987,
      "5950": 5988,
      "Liothyronine": 5989,
      "5568": 5990,
      "0391": 5991,
      "Late": 5992,
      "trac": 5993,
      "0388": 5994,
      "Latex": 5995,
      "glimepiride": 5996,
      "1571": 5997,
      "20071": 5998,
      "1044": 5999,
      "01190": 6000,
      "8190": 6001,
      "8547": 6002,
      "8495": 6003,
      "2452": 6004,
      "Antibiotic": 6005,
      "487": 6006,
      "stim": 6007,
      "6845": 6008,
      "Irrig": 6009,
      "6089": 6010,
      "56982": 6011,
      "15211": 6012,
      "5206": 6013,
      "order": 6014,
      "477": 6015,
      "53461": 6016,
      "4901": 6017,
      "613": 6018,
      "1965": 6019,
      "MOD": 6020,
      "0609": 6021,
      "78607": 6022,
      "idomide": 6023,
      "78821": 6024,
      "4785": 6025,
      "MD": 6026,
      "unolol": 6027,
      "6522": 6028,
      "obunolol": 6029,
      "38910": 6030,
      "5419": 6031,
      "9951": 6032,
      "6812": 6033,
      "20312": 6034,
      "daily": 6035,
      "HFA": 6036,
      "39890": 6037,
      "Cromolyn": 6038,
      "ist": 6039,
      "5521": 6040,
      "afenone": 6041,
      "28249": 6042,
      "45184": 6043,
      "Levobunolol": 6044,
      "53089": 6045,
      "Clavulanate": 6046,
      "33828": 6047,
      "9419": 6048,
      "ipramine": 6049,
      "alidomide": 6050,
      "9610": 6051,
      "47816": 6052,
      "stane": 6053,
      "emestane": 6054,
      "0689": 6055,
      "2273": 6056,
      "7020": 6057,
      "30502": 6058,
      "8319": 6059,
      "25003": 6060,
      "96659": 6061,
      "Advair": 6062,
      "0100": 6063,
      "882": 6064,
      "9383": 6065,
      "758": 6066,
      "747": 6067,
      "7419": 6068,
      "5379": 6069,
      "1202": 6070,
      "0991": 6071,
      "1562": 6072,
      "6918": 6073,
      "5602": 6074,
      "3017": 6075,
      "7622": 6076,
      "vid": 6077,
      "Propafenone": 6078,
      "92199": 6079,
      "Clevid": 6080,
      "Clevidipine": 6081,
      "624": 6082,
      "7384": 6083,
      "roxy": 6084,
      "5285": 6085,
      "abu": 6086,
      "99709": 6087,
      "53020": 6088,
      "56039": 6089,
      "Desipramine": 6090,
      "0083": 6091,
      "2960": 6092,
      "55221": 6093,
      "52460": 6094,
      "chol": 6095,
      "roline": 6096,
      "Rifabu": 6097,
      "Ceftaroline": 6098,
      "Rifabutin": 6099,
      "1540": 6100,
      "9999": 6101,
      "Fluphenazine": 6102,
      "7533": 6103,
      "7104": 6104,
      "Brom": 6105,
      "35989": 6106,
      "5128": 6107,
      "7818": 6108,
      "29572": 6109,
      "20028": 6110,
      "6142": 6111,
      "Beth": 6112,
      "4919": 6113,
      "96612": 6114,
      "37941": 6115,
      "anechol": 6116,
      "Bethanechol": 6117,
      "528": 6118,
      "4022": 6119,
      "89511": 6120,
      "9819": 6121,
      "56738": 6122,
      "5126": 6123,
      "TB": 6124,
      "36816": 6125,
      "72982": 6126,
      "02415": 6127,
      "inac": 6128,
      "7961": 6129,
      "1504": 6130,
      "GO": 6131,
      "9361": 6132,
      "04123": 6133,
      "8502": 6134,
      "85520": 6135,
      "60889": 6136,
      "5225": 6137,
      "82891": 6138,
      "47896": 6139,
      "20030": 6140,
      "99851": 6141,
      "Imatinib": 6142,
      "Irrigation": 6143,
      "2250": 6144,
      "10231": 6145,
      "69322": 6146,
      "8708": 6147,
      "Co": 6148,
      "alcet": 6149,
      "8520": 6150,
      "21371": 6151,
      "Cinac": 6152,
      "Mit": 6153,
      "40291": 6154,
      "20218": 6155,
      "79661": 6156,
      "Combivir": 6157,
      "Cinacalcet": 6158,
      "fe": 6159,
      "kacin": 6160,
      "80703": 6161,
      "98499": 6162,
      "1108": 6163,
      "Amikacin": 6164,
      "85628": 6165,
      "38600": 6166,
      "icar": 6167,
      "1241": 6168,
      "ptine": 6169,
      "41041": 6170,
      "29562": 6171,
      "3410": 6172,
      "82890": 6173,
      "lav": 6174,
      "20929": 6175,
      "29530": 6176,
      "5758": 6177,
      "691": 6178,
      "oflav": 6179,
      "adon": 6180,
      "03313": 6181,
      "oflavin": 6182,
      "Bi": 6183,
      "Rom": 6184,
      "lostim": 6185,
      "riptine": 6186,
      "ocriptine": 6187,
      "iplostim": 6188,
      "30561": 6189,
      "Bromocriptine": 6190,
      "Romiplostim": 6191,
      "5400": 6192,
      "7972": 6193,
      "85201": 6194,
      "DAS": 6195,
      "Riboflavin": 6196,
      "1533": 6197,
      "78003": 6198,
      "STER": 6199,
      "20284": 6200,
      "7503": 6201,
      "060": 6202,
      "0281": 6203,
      "537": 6204,
      "5374": 6205,
      "Chlordi": 6206,
      "2950": 6207,
      "36514": 6208,
      "6191": 6209,
      "olitinib": 6210,
      "78799": 6211,
      "5731": 6212,
      "Dornase": 6213,
      "Medroxy": 6214,
      "43595": 6215,
      "ESTER": 6216,
      "opt": 6217,
      "0009": 6218,
      "PROG": 6219,
      "MedroxyPROG": 6220,
      "ESTERone": 6221,
      "MedroxyPROGESTERone": 6222,
      "1888": 6223,
      "56721": 6224,
      "4255": 6225,
      "78639": 6226,
      "522": 6227,
      "43109": 6228,
      "DASatinib": 6229,
      "812": 6230,
      "42983": 6231,
      "Pap": 6232,
      "ente": 6233,
      "Papain": 6234,
      "2242": 6235,
      "nomide": 6236,
      "su": 6237,
      "oxantr": 6238,
      "4870": 6239,
      "19011": 6240,
      "43819": 6241,
      "itril": 6242,
      "ubitril": 6243,
      "Mitoxantr": 6244,
      "Mitoxantrone": 6245,
      "Moxifloxacin": 6246,
      "70235": 6247,
      "85848": 6248,
      "0950": 6249,
      "0982": 6250,
      "Beta": 6251,
      "745": 6252,
      "6084": 6253,
      "45372": 6254,
      "vigil": 6255,
      "ON": 6256,
      "7831": 6257,
      "5691": 6258,
      "nip": 6259,
      "22804": 6260,
      "0682": 6261,
      "Bell": 6262,
      "amate": 6263,
      "59381": 6264,
      "adonna": 6265,
      "Belladonna": 6266,
      "Sac": 6267,
      "97229": 6268,
      "25519": 6269,
      "020": 6270,
      "4532": 6271,
      "38010": 6272,
      "6259": 6273,
      "vap": 6274,
      "6039": 6275,
      "6110": 6276,
      "852": 6277,
      "fenib": 6278,
      "Tolvap": 6279,
      "Tolvaptan": 6280,
      "622": 6281,
      "xolol": 6282,
      "letri": 6283,
      "5089": 6284,
      "9989": 6285,
      "Veletri": 6286,
      "Iver": 6287,
      "3561": 6288,
      "ctin": 6289,
      "mectin": 6290,
      "9307": 6291,
      "elbamate": 6292,
      "Sacubitril": 6293,
      "Ivermectin": 6294,
      "ista": 6295,
      "7845": 6296,
      "78831": 6297,
      "7292": 6298,
      "prost": 6299,
      "pheniramine": 6300,
      "3183": 6301,
      "ria": 6302,
      "89810": 6303,
      "9889": 6304,
      "Ellip": 6305,
      "64891": 6306,
      "Ellipta": 6307,
      "Provigil": 6308,
      "30392": 6309,
      "flunomide": 6310,
      "Evista": 6311,
      "526": 6312,
      "Vol": 6313,
      "20780": 6314,
      "1710": 6315,
      "5854": 6316,
      "methasone": 6317,
      "33385": 6318,
      "clomethasone": 6319,
      "ven": 6320,
      "Chlorpheniramine": 6321,
      "Lithob": 6322,
      "Lithobid": 6323,
      "5409": 6324,
      "69010": 6325,
      "Flex": 6326,
      "Naph": 6327,
      "7220": 6328,
      "50913": 6329,
      "4293": 6330,
      "92038": 6331,
      "9694": 6332,
      "89411": 6333,
      "5442": 6334,
      "92003": 6335,
      "82855": 6336,
      "azoline": 6337,
      "nitine": 6338,
      "673": 6339,
      "8612": 6340,
      "Naphazoline": 6341,
      "rafenib": 6342,
      "8310": 6343,
      "4801": 6344,
      "30421": 6345,
      "675": 6346,
      "cid": 6347,
      "1921": 6348,
      "27501": 6349,
      "4536": 6350,
      "9650": 6351,
      "LG": 6352,
      "9950": 6353,
      "8141": 6354,
      "CE": 6355,
      "20203": 6356,
      "73314": 6357,
      "4549": 6358,
      "51909": 6359,
      "51289": 6360,
      "Pul": 6361,
      "inal": 6362,
      "20010": 6363,
      "82431": 6364,
      "5964": 6365,
      "5581": 6366,
      "19012": 6367,
      "ozolo": 6368,
      "5401": 6369,
      "9193": 6370,
      "028": 6371,
      "68111": 6372,
      "3829": 6373,
      "72142": 6374,
      "73399": 6375,
      "3804": 6376,
      "Vaginal": 6377,
      "92538": 6378,
      "7582": 6379,
      "net": 6380,
      "thin": 6381,
      "carnet": 6382,
      "ozolomide": 6383,
      "9911": 6384,
      "Betaxolol": 6385,
      "7222": 6386,
      "Vio": 6387,
      "00863": 6388,
      "17590": 6389,
      "7051": 6390,
      "74190": 6391,
      "CLO": 6392,
      "Azopt": 6393,
      "7248": 6394,
      "vancomycin": 6395,
      "Oxali": 6396,
      "884": 6397,
      "51902": 6398,
      "Oxaliplatin": 6399,
      "050": 6400,
      "0101": 6401,
      "1589": 6402,
      "5690": 6403,
      "finamide": 6404,
      "1536": 6405,
      "24901": 6406,
      "3369": 6407,
      "70245": 6408,
      "4530": 6409,
      "Glas": 6410,
      "29624": 6411,
      "73016": 6412,
      "EM": 6413,
      "umet": 6414,
      "arnitine": 6415,
      "25810": 6416,
      "9089": 6417,
      "ocarnitine": 6418,
      "6181": 6419,
      "thindr": 6420,
      "678": 6421,
      "ION": 6422,
      "Omnip": 6423,
      "2115": 6424,
      "aque": 6425,
      "Omnipaque": 6426,
      "1986": 6427,
      "mesartan": 6428,
      "6271": 6429,
      "97219": 6430,
      "Dr": 6431,
      "dex": 6432,
      "20285": 6433,
      "2558": 6434,
      "04110": 6435,
      "30751": 6436,
      "thindrone": 6437,
      "7280": 6438,
      "Foscarnet": 6439,
      "7309": 6440,
      "5735": 6441,
      "Viok": 6442,
      "5189": 6443,
      "gam": 6444,
      "1982": 6445,
      "Pheniramine": 6446,
      "47831": 6447,
      "Au": 6448,
      "Ru": 6449,
      "1913": 6450,
      "27787": 6451,
      "8012": 6452,
      "45352": 6453,
      "544": 6454,
      "1421": 6455,
      "38830": 6456,
      "92231": 6457,
      "Glass": 6458,
      "28982": 6459,
      "71598": 6460,
      "5116": 6461,
      "9281": 6462,
      "5010": 6463,
      "1389": 6464,
      "7944": 6465,
      "Propoxy": 6466,
      "51852": 6467,
      "phene": 6468,
      "45525": 6469,
      "Propoxyphene": 6470,
      "4257": 6471,
      "va": 6472,
      "3968": 6473,
      "47812": 6474,
      "5194": 6475,
      "40901": 6476,
      "5968": 6477,
      "8588": 6478,
      "8130": 6479,
      "Nov": 6480,
      "Tre": 6481,
      "6954": 6482,
      "Rufinamide": 6483,
      "87310": 6484,
      "Amiloride": 6485,
      "20278": 6486,
      "03032": 6487,
      "ryn": 6488,
      "acryn": 6489,
      "Flucy": 6490,
      "exa": 6491,
      "4001": 6492,
      "8529": 6493,
      "95821": 6494,
      "Ethacryn": 6495,
      "Flucyt": 6496,
      "8149": 6497,
      "33720": 6498,
      "17990": 6499,
      "4169": 6500,
      "2584": 6501,
      "1520": 6502,
      "72141": 6503,
      "1030": 6504,
      "1062": 6505,
      "3492": 6506,
      "049": 6507,
      "Xacillin": 6508,
      "3181": 6509,
      "674": 6510,
      "4720": 6511,
      "DiCLO": 6512,
      "DiCLOXacillin": 6513,
      "80702": 6514,
      "bene": 6515,
      "4020": 6516,
      "Levocarnitine": 6517,
      "0310": 6518,
      "Flucytosine": 6519,
      "mbin": 6520,
      "7871": 6521,
      "7932": 6522,
      "575": 6523,
      "4804": 6524,
      "73018": 6525,
      "9347": 6526,
      "ucon": 6527,
      "azonium": 6528,
      "34292": 6529,
      "04129": 6530,
      "gesty": 6531,
      "avucon": 6532,
      "Pangesty": 6533,
      "avuconazonium": 6534,
      "1370": 6535,
      "1919": 6536,
      "74781": 6537,
      "5417": 6538,
      "0796": 6539,
      "STCK": 6540,
      "Ras": 6541,
      "1119": 6542,
      "29532": 6543,
      "20080": 6544,
      "42741": 6545,
      "Tromethamine": 6546,
      "2599": 6547,
      "7971": 6548,
      "Apap": 6549,
      "0003": 6550,
      "9612": 6551,
      "9422": 6552,
      "5382": 6553,
      "47874": 6554,
      "02401": 6555,
      "capone": 6556,
      "umetone": 6557,
      "Ranexa": 6558,
      "63412": 6559,
      "8910": 6560,
      "Probene": 6561,
      "5441": 6562,
      "73315": 6563,
      "Probenecid": 6564,
      "4962": 6565,
      "85220": 6566,
      "4622": 6567,
      "Nab": 6568,
      "lev": 6569,
      "78442": 6570,
      "776": 6571,
      "Pangestyme": 6572,
      "Nabumetone": 6573,
      "6201": 6574,
      "inate": 6575,
      "1259": 6576,
      "osbu": 6577,
      "30011": 6578,
      "Isavuconazonium": 6579,
      "ofosbu": 6580,
      "ccinate": 6581,
      "succinate": 6582,
      "ofosbuvir": 6583,
      "3480": 6584,
      "36210": 6585,
      "78492": 6586,
      "1398": 6587,
      "7389": 6588,
      "71531": 6589,
      "92008": 6590,
      "8454": 6591,
      "82856": 6592,
      "azepoxide": 6593,
      "84112": 6594,
      "9916": 6595,
      "4289": 6596,
      "40919": 6597,
      "42518": 6598,
      "moxifloxacin": 6599,
      "enalidomide": 6600,
      "4610": 6601,
      "970": 6602,
      "PF": 6603,
      "darone": 6604,
      "20198": 6605,
      "78065": 6606,
      "956": 6607,
      "5183": 6608,
      "20921": 6609,
      "0603": 6610,
      "27802": 6611,
      "list": 6612,
      "34551": 6613,
      "64823": 6614,
      "05379": 6615,
      "onedarone": 6616,
      "Benicar": 6617,
      "Dronedarone": 6618,
      "527": 6619,
      "7131": 6620,
      "HTH": 6621,
      "SION": 6622,
      "75169": 6623,
      "OPHTH": 6624,
      "25559": 6625,
      "53641": 6626,
      "ULSION": 6627,
      "CYCLOSPORINE": 6628,
      "EMULSION": 6629,
      "068": 6630,
      "2119": 6631,
      "Blist": 6632,
      "Exemestane": 6633,
      "Blistex": 6634,
      "tamide": 6635,
      "97329": 6636,
      "5224": 6637,
      "61172": 6638,
      "4600": 6639,
      "IDA": 6640,
      "5080": 6641,
      "1715": 6642,
      "4922": 6643,
      "6952": 6644,
      "5290": 6645,
      "IDArubicin": 6646,
      "8509": 6647,
      "79671": 6648,
      "3180": 6649,
      "6200": 6650,
      "70222": 6651,
      "34500": 6652,
      "85028": 6653,
      "0318": 6654,
      "Pack": 6655,
      "Chlordiazepoxide": 6656,
      "lon": 6657,
      "50111": 6658,
      "584": 6659,
      "1639": 6660,
      "70262": 6661,
      "38870": 6662,
      "7093": 6663,
      "99933": 6664,
      "793": 6665,
      "voprost": 6666,
      "1529": 6667,
      "904": 6668,
      "83111": 6669,
      "89432": 6670,
      "travoprost": 6671,
      "8301": 6672,
      "micort": 6673,
      "85698": 6674,
      "MI": 6675,
      "fomycin": 6676,
      "lutamide": 6677,
      "3689": 6678,
      "564": 6679,
      "55329": 6680,
      "rux": 6681,
      "0811": 6682,
      "Fosfomycin": 6683,
      "Combo": 6684,
      "Viokase": 6685,
      "4102": 6686,
      "nin": 6687,
      "atonin": 6688,
      "3393": 6689,
      "7089": 6690,
      "erate": 6691,
      "48062": 6692,
      "4624": 6693,
      "1803": 6694,
      "64813": 6695,
      "ma": 6696,
      "30591": 6697,
      "4380": 6698,
      "Pulmicort": 6699,
      "Lin": 6700,
      "fumarate": 6701,
      "leflunomide": 6702,
      "5831": 6703,
      "3482": 6704,
      "56690": 6705,
      "765": 6706,
      "99830": 6707,
      "41512": 6708,
      "018": 6709,
      "81200": 6710,
      "68100": 6711,
      "53082": 6712,
      "9421": 6713,
      "44481": 6714,
      "53011": 6715,
      "42682": 6716,
      "02402": 6717,
      "0419": 6718,
      "40240": 6719,
      "5960": 6720,
      "8248": 6721,
      "96611": 6722,
      "3491": 6723,
      "0965": 6724,
      "3159": 6725,
      "cyclo": 6726,
      "85598": 6727,
      "7212": 6728,
      "53541": 6729,
      "20700": 6730,
      "ruxolitinib": 6731,
      "CLA": 6732,
      "vas": 6733,
      "GELCLA": 6734,
      "GELCLAIR": 6735,
      "brin": 6736,
      "xib": 6737,
      "coxib": 6738,
      "eron": 6739,
      "9953": 6740,
      "30021": 6741,
      "86011": 6742,
      "Thrombin": 6743,
      "tacapone": 6744,
      "8024": 6745,
      "5961": 6746,
      "34291": 6747,
      "85841": 6748,
      "5702": 6749,
      "ben": 6750,
      "tu": 6751,
      "27903": 6752,
      "1729": 6753,
      "80502": 6754,
      "586": 6755,
      "587": 6756,
      "9001": 6757,
      "moterol": 6758,
      "62830": 6759,
      "1534": 6760,
      "78905": 6761,
      "mel": 6762,
      "8056": 6763,
      "melatonin": 6764,
      "aMI": 6765,
      "Loride": 6766,
      "8290": 6767,
      "8001": 6768,
      "92099": 6769,
      "aMILoride": 6770,
      "8120": 6771,
      "Der": 6772,
      "2511": 6773,
      "2729": 6774,
      "midex": 6775,
      "8669": 6776,
      "04182": 6777,
      "Leup": 6778,
      "71699": 6779,
      "Arimidex": 6780,
      "82330": 6781,
      "sate": 6782,
      "plast": 6783,
      "ampro": 6784,
      "59582": 6785,
      "PRAMINE": 6786,
      "Nitine": 6787,
      "Clomi": 6788,
      "CARNitine": 6789,
      "71430": 6790,
      "moplast": 6791,
      "cilostazol": 6792,
      "Dermoplast": 6793,
      "amprosate": 6794,
      "ClomiPRAMINE": 6795,
      "4973": 6796,
      "rolide": 6797,
      "57490": 6798,
      "68601": 6799,
      "35781": 6800,
      "71101": 6801,
      "Eskal": 6802,
      "Leuprolide": 6803,
      "Eskalith": 6804,
      "2109": 6805,
      "004": 6806,
      "Acamprosate": 6807,
      "666": 6808,
      "99639": 6809,
      "32381": 6810,
      "Avapro": 6811,
      "lix": 6812,
      "vent": 6813,
      "4590": 6814,
      "7226": 6815,
      "Augm": 6816,
      "EN": 6817,
      "5306": 6818,
      "71589": 6819,
      "36840": 6820,
      "53462": 6821,
      "Valerate": 6822,
      "29640": 6823,
      "4702": 6824,
      "2710": 6825,
      "8743": 6826,
      "5462": 6827,
      "azepril": 6828,
      "Nexium": 6829,
      "vastigmine": 6830,
      "41091": 6831,
      "aria": 6832,
      "6983": 6833,
      "78094": 6834,
      "7224": 6835,
      "4422": 6836,
      "4709": 6837,
      "7149": 6838,
      "ticaria": 6839,
      "1129": 6840,
      "Urticaria": 6841,
      "85898": 6842,
      "71943": 6843,
      "Combi": 6844,
      "Tetrac": 6845,
      "048": 6846,
      "6250": 6847,
      "yphen": 6848,
      "1590": 6849,
      "idyl": 6850,
      "7911": 6851,
      "30029": 6852,
      "hexyphen": 6853,
      "70706": 6854,
      "28260": 6855,
      "hexyphenidyl": 6856,
      "8298": 6857,
      "92400": 6858,
      "1652": 6859,
      "33811": 6860,
      "cycloSPORINE": 6861,
      "hep": 6862,
      "30471": 6863,
      "27502": 6864,
      "Trihexyphenidyl": 6865,
      "71940": 6866,
      "46619": 6867,
      "43809": 6868,
      "9299": 6869,
      "9509": 6870,
      "Nevir": 6871,
      "75310": 6872,
      "Nevirapine": 6873,
      "atoprost": 6874,
      "25571": 6875,
      "79606": 6876,
      "imatoprost": 6877,
      "8581": 6878,
      "3536": 6879,
      "8810": 6880,
      "11628": 6881,
      "Linz": 6882,
      "741": 6883,
      "968": 6884,
      "ffe": 6885,
      "5989": 6886,
      "57510": 6887,
      "1252": 6888,
      "9315": 6889,
      "0410": 6890,
      "9160": 6891,
      "Buffe": 6892,
      "OXALI": 6893,
      "rutinib": 6894,
      "82413": 6895,
      "44229": 6896,
      "ess": 6897,
      "Linzess": 6898,
      "Buffered": 6899,
      "OXALIplatin": 6900,
      "3542": 6901,
      "3543": 6902,
      "4312": 6903,
      "Ethyl": 6904,
      "670": 6905,
      "Sofosbuvir": 6906,
      "astine": 6907,
      "8030": 6908,
      "89412": 6909,
      "4732": 6910,
      "4489": 6911,
      "44629": 6912,
      "20979": 6913,
      "2243": 6914,
      "0190": 6915,
      "557": 6916,
      "9171": 6917,
      "rimethamine": 6918,
      "1572": 6919,
      "585": 6920,
      "20048": 6921,
      "3699": 6922,
      "5848": 6923,
      "99590": 6924,
      "linide": 6925,
      "37851": 6926,
      "alantamine": 6927,
      "Combigan": 6928,
      "4921": 6929,
      "70202": 6930,
      "5754": 6931,
      "73311": 6932,
      "58089": 6933,
      "082": 6934,
      "4902": 6935,
      "Otic": 6936,
      "oro": 6937,
      "9751": 6938,
      "8008": 6939,
      "43311": 6940,
      "Ethacrynic": 6941,
      "078": 6942,
      "50811": 6943,
      "agil": 6944,
      "3570": 6945,
      "42841": 6946,
      "72403": 6947,
      "86000": 6948,
      "71591": 6949,
      "56984": 6950,
      "51911": 6951,
      "tocin": 6952,
      "29284": 6953,
      "70261": 6954,
      "ICtal": 6955,
      "61801": 6956,
      "Oxytocin": 6957,
      "Cypro": 6958,
      "LaMICtal": 6959,
      "heptadine": 6960,
      "Cyproheptadine": 6961,
      "IB": 6962,
      "2722": 6963,
      "2862": 6964,
      "2231": 6965,
      "acet": 6966,
      "1548": 6967,
      "5935": 6968,
      "33912": 6969,
      "Loading": 6970,
      "TUXimab": 6971,
      "riTUXimab": 6972,
      "1640": 6973,
      "3402": 6974,
      "Lat": 6975,
      "991": 6976,
      "uda": 6977,
      "78939": 6978,
      "48284": 6979,
      "75982": 6980,
      "Latuda": 6981,
      "27901": 6982,
      "9720": 6983,
      "9318": 6984,
      "40290": 6985,
      "4551": 6986,
      "6850": 6987,
      "4474": 6988,
      "6111": 6989,
      "9013": 6990,
      "39395": 6991,
      "78050": 6992,
      "34989": 6993,
      "89431": 6994,
      "37950": 6995,
      "yme": 6996,
      "2589": 6997,
      "86171": 6998,
      "0383": 6999,
      "47830": 7000,
      "agiline": 7001,
      "017": 7002,
      "4541": 7003,
      "665": 7004,
      "71230": 7005,
      "aglinide": 7006,
      "596": 7007,
      "7061": 7008,
      "6945": 7009,
      "973": 7010,
      "44101": 7011,
      "56971": 7012,
      "1139": 7013,
      "4258": 7014,
      "1420": 7015,
      "89159": 7016,
      "37300": 7017,
      "Ethylsuccinate": 7018,
      "2781": 7019,
      "Rep": 7020,
      "50014": 7021,
      "676": 7022,
      "IUM": 7023,
      "4378": 7024,
      "52340": 7025,
      "Repaglinide": 7026,
      "Gen": 7027,
      "vil": 7028,
      "icam": 7029,
      "idin": 7030,
      "70219": 7031,
      "9654": 7032,
      "4481": 7033,
      "402362": 7034,
      "Volum": 7035,
      "96509": 7036,
      "CELE": 7037,
      "645": 7038,
      "Stri": 7039,
      "rtrate": 7040,
      "bild": 7041,
      "itartrate": 7042,
      "Vision": 7043,
      "4646": 7044,
      "Stribild": 7045,
      "753": 7046,
      "15212": 7047,
      "22322": 7048,
      "ive": 7049,
      "pent": 7050,
      "64313": 7051,
      "6400": 7052,
      "fu": 7053,
      "20158": 7054,
      "asvir": 7055,
      "30420": 7056,
      "2777": 7057,
      "2890": 7058,
      "8373": 7059,
      "3210": 7060,
      "2802": 7061,
      "56961": 7062,
      "82897": 7063,
      "4300": 7064,
      "8600": 7065,
      "8111": 7066,
      "elon": 7067,
      "3940": 7068,
      "3240": 7069,
      "53021": 7070,
      "53084": 7071,
      "52109": 7072,
      "9298": 7073,
      "95812": 7074,
      "53989": 7075,
      "ented": 7076,
      "636": 7077,
      "Aer": 7078,
      "20800": 7079,
      "3911": 7080,
      "986": 7081,
      "78930": 7082,
      "50914": 7083,
      "pivirine": 7084,
      "34570": 7085,
      "03221": 7086,
      "Aerogen": 7087,
      "0211": 7088,
      "2682": 7089,
      "577": 7090,
      "Disopy": 7091,
      "Disopyramide": 7092,
      "33821": 7093,
      "azelastine": 7094,
      "Men": 7095,
      "XIB": 7096,
      "brex": 7097,
      "felbamate": 7098,
      "2798": 7099,
      "2849": 7100,
      "1716": 7101,
      "20023": 7102,
      "69282": 7103,
      "59960": 7104,
      "2232": 7105,
      "9192": 7106,
      "1569": 7107,
      "28951": 7108,
      "Exelon": 7109,
      "Pyrimethamine": 7110,
      "alutamide": 7111,
      "magne": 7112,
      "99652": 7113,
      "8311": 7114,
      "75312": 7115,
      "8513": 7116,
      "79093": 7117,
      "44029": 7118,
      "59969": 7119,
      "NexIUM": 7120,
      "magnesium": 7121,
      "ophi": 7122,
      "34489": 7123,
      "82009": 7124,
      "ophilus": 7125,
      "1789": 7126,
      "9179": 7127,
      "azol": 7128,
      "0479": 7129,
      "41295": 7130,
      "99687": 7131,
      "dro": 7132,
      "008": 7133,
      "2732": 7134,
      "99809": 7135,
      "57491": 7136,
      "8928": 7137,
      "2808": 7138,
      "pilocarpine": 7139,
      "03031": 7140,
      "3898": 7141,
      "8109": 7142,
      "0010": 7143,
      "25572": 7144,
      "97319": 7145,
      "97638": 7146,
      "56200": 7147,
      "5250": 7148,
      "Methylene": 7149,
      "576": 7150,
      "974": 7151,
      "655": 7152,
      "4574": 7153,
      "82441": 7154,
      "30423": 7155,
      "47829": 7156,
      "6782": 7157,
      "dap": 7158,
      "1518": 7159,
      "5839": 7160,
      "PreserVision": 7161,
      "Cop": 7162,
      "gram": 7163,
      "izumab": 7164,
      "entan": 7165,
      "azodone": 7166,
      "75683": 7167,
      "34700": 7168,
      "99631": 7169,
      "30540": 7170,
      "92411": 7171,
      "sulfate": 7172,
      "atment": 7173,
      "1726": 7174,
      "1651": 7175,
      "41011": 7176,
      "Vigam": 7177,
      "ella": 7178,
      "73819": 7179,
      "Treatment": 7180,
      "Vigamox": 7181,
      "2518": 7182,
      "eppra": 7183,
      "70901": 7184,
      "8404": 7185,
      "6789": 7186,
      "6409": 7187,
      "8143": 7188,
      "1512": 7189,
      "9093": 7190,
      "8010": 7191,
      "5851": 7192,
      "99881": 7193,
      "50812": 7194,
      "56699": 7195,
      "Augmented": 7196,
      "05881": 7197,
      "734": 7198,
      "25090": 7199,
      "56789": 7200,
      "ibrutinib": 7201,
      "ARE": 7202,
      "89812": 7203,
      "42511": 7204,
      "Lipos": 7205,
      "crea": 7206,
      "9629": 7207,
      "55092": 7208,
      "33399": 7209,
      "bimatoprost": 7210,
      "atol": 7211,
      "5713": 7212,
      "39891": 7213,
      "8842": 7214,
      "402142": 7215,
      "clidin": 7216,
      "81342": 7217,
      "Tetracycline": 7218,
      "clidinium": 7219,
      "7122": 7220,
      "feron": 7221,
      "20150": 7222,
      "20192": 7223,
      "78491": 7224,
      "8182": 7225,
      "8849": 7226,
      "79439": 7227,
      "25461": 7228,
      "terferon": 7229,
      "3574": 7230,
      "Pancrea": 7231,
      "Keppra": 7232,
      "1211": 7233,
      "2863": 7234,
      "4284": 7235,
      "86672": 7236,
      "04101": 7237,
      "99678": 7238,
      "64843": 7239,
      "9161": 7240,
      "roc": 7241,
      "rad": 7242,
      "9030": 7243,
      "8070": 7244,
      "5882": 7245,
      "45189": 7246,
      "7530": 7247,
      "4279": 7248,
      "86018": 7249,
      "9584": 7250,
      "36813": 7251,
      "Bitartrate": 7252,
      "din": 7253,
      "tide": 7254,
      "10000": 7255,
      "olapril": 7256,
      "6019": 7257,
      "andolapril": 7258,
      "6881": 7259,
      "10620": 7260,
      "3502": 7261,
      "formoterol": 7262,
      "Trandolapril": 7263,
      "LevoCARNitine": 7264,
      "Volumen": 7265,
      "22809": 7266,
      "4352": 7267,
      "ulk": 7268,
      "8172": 7269,
      "3361": 7270,
      "48282": 7271,
      "8336": 7272,
      "0299": 7273,
      "5198": 7274,
      "MT": 7275,
      "lum": 7276,
      "7822": 7277,
      "72271": 7278,
      "9424": 7279,
      "0463": 7280,
      "97821": 7281,
      "907": 7282,
      "8744": 7283,
      "rilpivirine": 7284,
      "pentolate": 7285,
      "5347": 7286,
      "51631": 7287,
      "NovoLIN": 7288,
      "2114": 7289,
      "7265": 7290,
      "595": 7291,
      "07051": 7292,
      "Cyclopentolate": 7293,
      "91041": 7294,
      "5277": 7295,
      "par": 7296,
      "1973": 7297,
      "5800": 7298,
      "53013": 7299,
      "55021": 7300,
      "72705": 7301,
      "3109": 7302,
      "51011": 7303,
      "9103": 7304,
      "5002": 7305,
      "5941": 7306,
      "7062": 7307,
      "8401": 7308,
      "Dac": 7309,
      "lotinib": 7310,
      "emir": 7311,
      "arbazine": 7312,
      "33119": 7313,
      "57512": 7314,
      "37921": 7315,
      "brinzolamide": 7316,
      "Dacarbazine": 7317,
      "5104": 7318,
      "9500": 7319,
      "1859": 7320,
      "imet": 7321,
      "iban": 7322,
      "1769": 7323,
      "59389": 7324,
      "1630": 7325,
      "3668": 7326,
      "53520": 7327,
      "41513": 7328,
      "91410": 7329,
      "mil": 7330,
      "1369": 7331,
      "28240": 7332,
      "8911": 7333,
      "36510": 7334,
      "97618": 7335,
      "53012": 7336,
      "27949": 7337,
      "742": 7338,
      "MetOL": 7339,
      "79601": 7340,
      "COXIB": 7341,
      "10610": 7342,
      "9460": 7343,
      "72002": 7344,
      "CELECOXIB": 7345,
      "MetOLazone": 7346,
      "Ble": 7347,
      "oyl": 7348,
      "letrozole": 7349,
      "597": 7350,
      "9240": 7351,
      "rofiban": 7352,
      "Tirofiban": 7353,
      "113599": 7354,
      "25532": 7355,
      "Bleomycin": 7356,
      "026": 7357,
      "0251": 7358,
      "9391": 7359,
      "1242": 7360,
      "1918": 7361,
      "1723": 7362,
      "irudin": 7363,
      "3330": 7364,
      "6923": 7365,
      "7515": 7366,
      "4712": 7367,
      "4389": 7368,
      "9489": 7369,
      "5461": 7370,
      "78721": 7371,
      "82838": 7372,
      "Se": 7373,
      "7836": 7374,
      "4329": 7375,
      "02416": 7376,
      "benazepril": 7377,
      "2271": 7378,
      "6300": 7379,
      "arav": 7380,
      "4519": 7381,
      "4628": 7382,
      "73316": 7383,
      "ranolazine": 7384,
      "69954": 7385,
      "ardia": 7386,
      "2538": 7387,
      "ampren": 7388,
      "23874": 7389,
      "ycardia": 7390,
      "20213": 7391,
      "63411": 7392,
      "Fosampren": 7393,
      "82220": 7394,
      "Fosamprenavir": 7395,
      "0181": 7396,
      "NIN": 7397,
      "itra": 7398,
      "trim": 7399,
      "all": 7400,
      "3319": 7401,
      "propionate": 7402,
      "Bicitra": 7403,
      "99527": 7404,
      "62810": 7405,
      "MENIN": 7406,
      "GOcoccal": 7407,
      "MENINGOcoccal": 7408,
      "8198": 7409,
      "UA": 7410,
      "actra": 7411,
      "30410": 7412,
      "27700": 7413,
      "6941": 7414,
      "Azole": 7415,
      "IMAzole": 7416,
      "MethIMAzole": 7417,
      "99686": 7418,
      "Menactra": 7419,
      "radycardia": 7420,
      "ume": 7421,
      "5110": 7422,
      "6920": 7423,
      "78842": 7424,
      "3698": 7425,
      "44329": 7426,
      "045": 7427,
      "1760": 7428,
      "85638": 7429,
      "5411": 7430,
      "8609": 7431,
      "85810": 7432,
      "umeclidinium": 7433,
      "22802": 7434,
      "617": 7435,
      "Bradycardia": 7436,
      "iroc": 7437,
      "odar": 7438,
      "5933": 7439,
      "1503": 7440,
      "82401": 7441,
      "quini": 7442,
      "tolo": 7443,
      "8493": 7444,
      "8586": 7445,
      "85819": 7446,
      "92031": 7447,
      "araviroc": 7448,
      "quiniDINE": 7449,
      "3401": 7450,
      "6285": 7451,
      "BR": 7452,
      "Dro": 7453,
      "otec": 7454,
      "ris": 7455,
      "1061": 7456,
      "1175": 7457,
      "9050": 7458,
      "3341": 7459,
      "677": 7460,
      "Pancrease": 7461,
      "Stine": 7462,
      "2638": 7463,
      "6260": 7464,
      "BLAStine": 7465,
      "4612": 7466,
      "9222": 7467,
      "28481": 7468,
      "43884": 7469,
      "VinBLAStine": 7470,
      "ak": 7471,
      "20301": 7472,
      "60789": 7473,
      "79602": 7474,
      "6008": 7475,
      "72292": 7476,
      "4386": 7477,
      "99779": 7478,
      "otecan": 7479,
      "Cimet": 7480,
      "Hear": 7481,
      "ai": 7482,
      "pasvir": 7483,
      "1001": 7484,
      "5538": 7485,
      "4807": 7486,
      "covy": 7487,
      "Descovy": 7488,
      "52462": 7489,
      "Cimetidine": 7490,
      "Heart": 7491,
      "6500": 7492,
      "8409": 7493,
      "sed": 7494,
      "8031": 7495,
      "4900": 7496,
      "70221": 7497,
      "50813": 7498,
      "lurasidone": 7499,
      "2537": 7500,
      "ustine": 7501,
      "8528": 7502,
      "8449": 7503,
      "73341": 7504,
      "1203": 7505,
      "0262": 7506,
      "Fem": 7507,
      "FLI": 7508,
      "Fai": 7509,
      "PALI": 7510,
      "brimonidine": 7511,
      "0081": 7512,
      "lure": 7513,
      "50814": 7514,
      "402112": 7515,
      "InFLI": 7516,
      "8370": 7517,
      "9411": 7518,
      "37924": 7519,
      "72211": 7520,
      "Failure": 7521,
      "InFLIXimab": 7522,
      "2182": 7523,
      "rivastigmine": 7524,
      "402252": 7525,
      "conj": 7526,
      "0231": 7527,
      "Ple": 7528,
      "ator": 7529,
      "Inflix": 7530,
      "8843": 7531,
      "Benzoyl": 7532,
      "Donn": 7533,
      "30470": 7534,
      "03211": 7535,
      "Infliximab": 7536,
      "647": 7537,
      "fam": 7538,
      "2823": 7539,
      "1725": 7540,
      "2396": 7541,
      "itol": 7542,
      "64683": 7543,
      "85831": 7544,
      "01810": 7545,
      "6144": 7546,
      "9239": 7547,
      "Maraviroc": 7548,
      "zosin": 7549,
      "20530": 7550,
      "4150": 7551,
      "8335": 7552,
      "45516": 7553,
      "8598": 7554,
      "fuzosin": 7555,
      "763": 7556,
      "Vel": 7557,
      "galantamine": 7558,
      "78469": 7559,
      "75102": 7560,
      "75612": 7561,
      "3214": 7562,
      "3562": 7563,
      "30522": 7564,
      "02214": 7565,
      "venetoclax": 7566,
      "BREX": 7567,
      "5791": 7568,
      "ind": 7569,
      "3080": 7570,
      "78838": 7571,
      "27702": 7572,
      "9054": 7573,
      "3321": 7574,
      "7015": 7575,
      "65103": 7576,
      "46410": 7577,
      "PALIperidone": 7578,
      "9801": 7579,
      "Gra": 7580,
      "Irin": 7581,
      "Chall": 7582,
      "70213": 7583,
      "45998": 7584,
      "72751": 7585,
      "Graded": 7586,
      "Irinotecan": 7587,
      "Challenge": 7588,
      "762": 7589,
      "1380": 7590,
      "oth": 7591,
      "9998": 7592,
      "9851": 7593,
      "36230": 7594,
      "4460": 7595,
      "omal": 7596,
      "97521": 7597,
      "72633": 7598,
      "Celebrex": 7599,
      "Rasagiline": 7600,
      "Liposomal": 7601,
      "9354": 7602,
      "cep": 7603,
      "istin": 7604,
      "Colistin": 7605,
      "73025": 7606,
      "44389": 7607,
      "17890": 7608,
      "77810": 7609,
      "Ha": 7610,
      "Nu": 7611,
      "dor": 7612,
      "mon": 7613,
      "emophilus": 7614,
      "riz": 7615,
      "1620": 7616,
      "25071": 7617,
      "685": 7618,
      "9443": 7619,
      "82511": 7620,
      "38612": 7621,
      "Haemophilus": 7622,
      "Jan": 7623,
      "Ledi": 7624,
      "isop": 7625,
      "1099": 7626,
      "olmesartan": 7627,
      "7861": 7628,
      "2443": 7629,
      "5523": 7630,
      "32382": 7631,
      "ugate": 7632,
      "rodol": 7633,
      "conjugate": 7634,
      "Ledipasvir": 7635,
      "isoprodol": 7636,
      "08881": 7637,
      "4149": 7638,
      "Naltrexone": 7639,
      "ket": 7640,
      "tem": 7641,
      "Inj": 7642,
      "29900": 7643,
      "29592": 7644,
      "4918": 7645,
      "8900": 7646,
      "4710": 7647,
      "84454": 7648,
      "29041": 7649,
      "81000": 7650,
      "8112": 7651,
      "dipropionate": 7652,
      "694": 7653,
      "beclomethasone": 7654,
      "1039": 7655,
      "albuterol": 7656,
      "23872": 7657,
      "Aspar": 7658,
      "10622": 7659,
      "Methazol": 7660,
      "45387": 7661,
      "Methazolamide": 7662,
      "3239": 7663,
      "4131": 7664,
      "8142": 7665,
      "ose": 7666,
      "3010": 7667,
      "3081": 7668,
      "20021": 7669,
      "azide": 7670,
      "99601": 7671,
      "6884": 7672,
      "0490": 7673,
      "402212": 7674,
      "8241": 7675,
      "STA": 7676,
      "Sorb": 7677,
      "59659": 7678,
      "Ala": 7679,
      "70209": 7680,
      "9211": 7681,
      "8469": 7682,
      "82857": 7683,
      "34931": 7684,
      "92012": 7685,
      "Sorbitol": 7686,
      "744": 7687,
      "1289": 7688,
      "1320": 7689,
      "1724": 7690,
      "2375": 7691,
      "valirudin": 7692,
      "41092": 7693,
      "99676": 7694,
      "Bivalirudin": 7695,
      "Velban": 7696,
      "EA": 7697,
      "alfuzosin": 7698,
      "legil": 7699,
      "acta": 7700,
      "20191": 7701,
      "2355": 7702,
      "7041": 7703,
      "7970": 7704,
      "79651": 7705,
      "5528": 7706,
      "Tenofov": 7707,
      "Norethindrone": 7708,
      "legiline": 7709,
      "7409": 7710,
      "cle": 7711,
      "40599": 7712,
      "78199": 7713,
      "30082": 7714,
      "43821": 7715,
      "Andro": 7716,
      "salazide": 7717,
      "AndroGel": 7718,
      "li": 7719,
      "mb": 7720,
      "20311": 7721,
      "1311": 7722,
      "Act": 7723,
      "36315": 7724,
      "664": 7725,
      "5520": 7726,
      "intub": 7727,
      "5432": 7728,
      "1706": 7729,
      "91850": 7730,
      "91870": 7731,
      "tegrav": 7732,
      "AREDS": 7733,
      "717": 7734,
      "885": 7735,
      "To": 7736,
      "20411": 7737,
      "50013": 7738,
      "6012": 7739,
      "8384": 7740,
      "46400": 7741,
      "091": 7742,
      "5701": 7743,
      "emax": 7744,
      "30789": 7745,
      "78340": 7746,
      "8300": 7747,
      "79652": 7748,
      "6970": 7749,
      "4230": 7750,
      "3580": 7751,
      "04100": 7752,
      "Lotemax": 7753,
      "RifAMP": 7754,
      "serum": 7755,
      "82525": 7756,
      "clearance": 7757,
      "RifAMPin": 7758,
      "ATRI": 7759,
      "PLA": 7760,
      "nore": 7761,
      "72871": 7762,
      "96840": 7763,
      "ATRIPLA": 7764,
      "5200": 7765,
      "62210": 7766,
      "9270": 7767,
      "pep": 7768,
      "3064": 7769,
      "2211": 7770,
      "8921": 7771,
      "78066": 7772,
      "Pres": 7773,
      "4316": 7774,
      "72401": 7775,
      "53250": 7776,
      "64803": 7777,
      "erolimus": 7778,
      "71580": 7779,
      "Bictegrav": 7780,
      "32029": 7781,
      "Emtricit": 7782,
      "7109": 7783,
      "90410": 7784,
      "9862": 7785,
      "8643": 7786,
      "5399": 7787,
      "99820": 7788,
      "28866": 7789,
      "ralox": 7790,
      "2861": 7791,
      "8383": 7792,
      "7936": 7793,
      "4570": 7794,
      "timolol": 7795,
      "raloxifene": 7796,
      "9346": 7797,
      "2939": 7798,
      "4959": 7799,
      "3373": 7800,
      "2693": 7801,
      "1501": 7802,
      "Levemir": 7803,
      "7483": 7804,
      "113299": 7805,
      "MAn": 7806,
      "tep": 7807,
      "2330": 7808,
      "45377": 7809,
      "5562": 7810,
      "9445": 7811,
      "30523": 7812,
      "MEMAn": 7813,
      "MEMAntine": 7814,
      "ecitabine": 7815,
      "4024": 7816,
      "30491": 7817,
      "2860": 7818,
      "2967": 7819,
      "23876": 7820,
      "9232": 7821,
      "Beclomethasone": 7822,
      "temozolomide": 7823,
      "1511": 7824,
      "8320": 7825,
      "83110": 7826,
      "7580": 7827,
      "78071": 7828,
      "79021": 7829,
      "37034": 7830,
      "etasone": 7831,
      "99663": 7832,
      "01198": 7833,
      "Temozolomide": 7834,
      "81209": 7835,
      "tol": 7836,
      "78603": 7837,
      "29574": 7838,
      "7018": 7839,
      "1507": 7840,
      "Triazolam": 7841,
      "famciclovir": 7842,
      "ridex": 7843,
      "20201": 7844,
      "695": 7845,
      "3518": 7846,
      "8846": 7847,
      "43320": 7848,
      "99799": 7849,
      "Peridex": 7850,
      "8147": 7851,
      "Indap": 7852,
      "33372": 7853,
      "9752": 7854,
      "30759": 7855,
      "Indapamide": 7856,
      "za": 7857,
      "1741": 7858,
      "20043": 7859,
      "6700": 7860,
      "97190": 7861,
      "Propyl": 7862,
      "29623": 7863,
      "74602": 7864,
      "69951": 7865,
      "sedated": 7866,
      "44284": 7867,
      "9398": 7868,
      "1950": 7869,
      "7900": 7870,
      "9519": 7871,
      "haler": 7872,
      "72973": 7873,
      "81812": 7874,
      "71650": 7875,
      "Anoro": 7876,
      "million": 7877,
      "7833": 7878,
      "1744": 7879,
      "6981": 7880,
      "enzyme": 7881,
      "92401": 7882,
      "ometasone": 7883,
      "Dipropionate": 7884,
      "bisoprolol": 7885,
      "carisoprodol": 7886,
      "72709": 7887,
      "enpep": 7888,
      "anterol": 7889,
      "49381": 7890,
      "79672": 7891,
      "42099": 7892,
      "84550": 7893,
      "42652": 7894,
      "vilanterol": 7895,
      "6146": 7896,
      "91120": 7897,
      "1580": 7898,
      "23873": 7899,
      "1869": 7900,
      "thio": 7901,
      "4178": 7902,
      "7891": 7903,
      "4409": 7904,
      "Bactrim": 7905,
      "Propylthio": 7906,
      "Propylthiouracil": 7907,
      "088": 7908,
      "Air": 7909,
      "80709": 7910,
      "1610": 7911,
      "ProAir": 7912,
      "Ceftolo": 7913,
      "Azolam": 7914,
      "TRIAzolam": 7915,
      "zane": 7916,
      "43490": 7917,
      "Ceftolozane": 7918,
      "1221": 7919,
      "7945": 7920,
      "Tou": 7921,
      "Lenalidomide": 7922,
      "Tran": 7923,
      "trit": 7924,
      "83202": 7925,
      "2181": 7926,
      "53500": 7927,
      "646": 7928,
      "7411": 7929,
      "33812": 7930,
      "25531": 7931,
      "99665": 7932,
      "97514": 7933,
      "30570": 7934,
      "82020": 7935,
      "52310": 7936,
      "Nutrit": 7937,
      "Nutrition": 7938,
      "9282": 7939,
      "bulk": 7940,
      "5969": 7941,
      "75317": 7942,
      "9520": 7943,
      "Cypionate": 7944,
      "6208": 7945,
      "9788": 7946,
      "Zenpep": 7947,
      "vidone": 7948,
      "50113": 7949,
      "aclo": 7950,
      "4920": 7951,
      "5951": 7952,
      "Povidone": 7953,
      "4809": 7954,
      "29389": 7955,
      "749": 7956,
      "2442": 7957,
      "7439": 7958,
      "5118": 7959,
      "9186": 7960,
      "Zy": 7961,
      "opag": 7962,
      "1390": 7963,
      "1361": 7964,
      "27400": 7965,
      "tromb": 7966,
      "70400": 7967,
      "8811": 7968,
      "29634": 7969,
      "71942": 7970,
      "CeleBREX": 7971,
      "trombopag": 7972,
      "2116": 7973,
      "768": 7974,
      "7273": 7975,
      "9401": 7976,
      "vo": 7977,
      "entacapone": 7978,
      "8026": 7979,
      "692": 7980,
      "8496": 7981,
      "70702": 7982,
      "82534": 7983,
      "7238": 7984,
      "Vanco": 7985,
      "1538": 7986,
      "30562": 7987,
      "27789": 7988,
      "20018": 7989,
      "79399": 7990,
      "eltrombopag": 7991,
      "3960": 7992,
      "4466": 7993,
      "25462": 7994,
      "72290": 7995,
      "58889": 7996,
      "Vancocin": 7997,
      "8128": 7998,
      "7960": 7999,
      "4441": 8000,
      "97511": 8001,
      "0151": 8002,
      "7841": 8003,
      "1460": 8004,
      "5719": 8005,
      "69198": 8006,
      "39315": 8007,
      "82409": 8008,
      "9670": 8009,
      "56481": 8010,
      "Talc": 8011,
      "TAc": 8012,
      "ative": 8013,
      "apone": 8014,
      "9095": 8015,
      "ENTAc": 8016,
      "ENTAcapone": 8017,
      "0219": 8018,
      "9191": 8019,
      "8029": 8020,
      "80704": 8021,
      "20073": 8022,
      "83201": 8023,
      "32019": 8024,
      "03011": 8025,
      "Quinine": 8026,
      "Flexhaler": 8027,
      "01720": 8028,
      "92000": 8029,
      "ara": 8030,
      "3619": 8031,
      "6211": 8032,
      "3553": 8033,
      "3563": 8034,
      "8830": 8035,
      "41412": 8036,
      "Celecoxib": 8037,
      "9782": 8038,
      "3089": 8039,
      "2450": 8040,
      "ostim": 8041,
      "Sargram": 8042,
      "41410": 8043,
      "82022": 8044,
      "norethindrone": 8045,
      "Sargramostim": 8046,
      "052": 8047,
      "1136": 8048,
      "90721": 8049,
      "82101": 8050,
      "70711": 8051,
      "85068": 8052,
      "99939": 8053,
      "637": 8054,
      "cab": 8055,
      "69319": 8056,
      "4539": 8057,
      "6889": 8058,
      "37991": 8059,
      "8451": 8060,
      "42091": 8061,
      "73005": 8062,
      "intubated": 8063,
      "9392": 8064,
      "Iod": 8065,
      "1573": 8066,
      "2940": 8067,
      "29421": 8068,
      "8028": 8069,
      "20011": 8070,
      "99602": 8071,
      "8378": 8072,
      "30022": 8073,
      "3531": 8074,
      "4770": 8075,
      "Dilu": 8076,
      "0520": 8077,
      "5199": 8078,
      "72001": 8079,
      "82538": 8080,
      "ronized": 8081,
      "icator": 8082,
      "Applicator": 8083,
      "8840": 8084,
      "17211": 8085,
      "89322": 8086,
      "82812": 8087,
      "82848": 8088,
      "ya": 8089,
      "1008": 8090,
      "1979": 8091,
      "83518": 8092,
      "7260": 8093,
      "64203": 8094,
      "2706": 8095,
      "Olmesartan": 8096,
      "65971": 8097,
      "Everolimus": 8098,
      "citrate": 8099,
      "52502": 8100,
      "Iodide": 8101,
      "2148": 8102,
      "7993": 8103,
      "81201": 8104,
      "2542": 8105,
      "97191": 8106,
      "4417": 8107,
      "5321": 8108,
      "56032": 8109,
      "83098": 8110,
      "9504": 8111,
      "9403": 8112,
      "5283": 8113,
      "866": 8114,
      "Urea": 8115,
      "2468": 8116,
      "throid": 8117,
      "8002": 8118,
      "vacizumab": 8119,
      "Bevacizumab": 8120,
      "esomeprazole": 8121,
      "967": 8122,
      "9248": 8123,
      "mometasone": 8124,
      "only": 8125,
      "78864": 8126,
      "28319": 8127,
      "70212": 8128,
      "87343": 8129,
      "9619": 8130,
      "86671": 8131,
      "acetate": 8132,
      "Femara": 8133,
      "cel": 8134,
      "dil": 8135,
      "use": 8136,
      "1313": 8137,
      "34501": 8138,
      "36511": 8139,
      "9631": 8140,
      "4822": 8141,
      "4272": 8142,
      "55011": 8143,
      "8704": 8144,
      "Paced": 8145,
      "7354": 8146,
      "9384": 8147,
      "81718": 8148,
      "6924": 8149,
      "3220": 8150,
      "8540": 8151,
      "35579": 8152,
      "92232": 8153,
      "5369": 8154,
      "PKG": 8155,
      "9303": 8156,
      "44421": 8157,
      "43215": 8158,
      "72660": 8159,
      "65953": 8160,
      "058": 8161,
      "3182": 8162,
      "lenalidomide": 8163,
      "756": 8164,
      "3219": 8165,
      "66401": 8166,
      "86803": 8167,
      "5481": 8168,
      "17220": 8169,
      "71594": 8170,
      "82443": 8171,
      "037": 8172,
      "5258": 8173,
      "6600": 8174,
      "diclofenac": 8175,
      "ath": 8176,
      "805": 8177,
      "80219": 8178,
      "7068": 8179,
      "34280": 8180,
      "3550": 8181,
      "9729": 8182,
      "0839": 8183,
      "8639": 8184,
      "0940": 8185,
      "8452": 8186,
      "23771": 8187,
      "GN": 8188,
      "pul": 8189,
      "8072": 8190,
      "2357": 8191,
      "70211": 8192,
      "2692": 8193,
      "Nef": 8194,
      "42840": 8195,
      "7282": 8196,
      "43822": 8197,
      "82421": 8198,
      "REGN": 8199,
      "94522": 8200,
      "92530": 8201,
      "916": 8202,
      "Ry": 8203,
      "rcep": 8204,
      "vim": 8205,
      "1088": 8206,
      "nercep": 8207,
      "29289": 8208,
      "8011": 8209,
      "2220": 8210,
      "3942": 8211,
      "astin": 8212,
      "8583": 8213,
      "45389": 8214,
      "89312": 8215,
      "Diluent": 8216,
      "nercept": 8217,
      "3650": 8218,
      "5172": 8219,
      "istat": 8220,
      "0089": 8221,
      "2812": 8222,
      "89899": 8223,
      "32591": 8224,
      "8774": 8225,
      "36892": 8226,
      "44322": 8227,
      "86890": 8228,
      "65961": 8229,
      "estradiol": 8230,
      "Avastin": 8231,
      "Genvo": 8232,
      "Genvoya": 8233,
      "044": 8234,
      "45990": 8235,
      "40219": 8236,
      "ional": 8237,
      "9051": 8238,
      "6883": 8239,
      "86121": 8240,
      "5431": 8241,
      "25542": 8242,
      "1909": 8243,
      "45375": 8244,
      "0989": 8245,
      "8242": 8246,
      "carbidopa": 8247,
      "82300": 8248,
      "Irbesartan": 8249,
      "Nefazodone": 8250,
      "Muro": 8251,
      "tac": 8252,
      "817": 8253,
      "erg": 8254,
      "5764": 8255,
      "oxyl": 8256,
      "82422": 8257,
      "82509": 8258,
      "056": 8259,
      "7189": 8260,
      "He": 8261,
      "igl": 8262,
      "kg": 8263,
      "inter": 8264,
      "28269": 8265,
      "9995": 8266,
      "9973": 8267,
      "656": 8268,
      "37999": 8269,
      "4480": 8270,
      "27661": 8271,
      "78843": 8272,
      "71534": 8273,
      "20211": 8274,
      "6291": 8275,
      "27731": 8276,
      "prednisoLONE": 8277,
      "77819": 8278,
      "402352": 8279,
      "6119": 8280,
      "Lial": 8281,
      "Sta": 8282,
      "gabapentin": 8283,
      "ary": 8284,
      "4021": 8285,
      "DRIN": 8286,
      "1875": 8287,
      "1635": 8288,
      "32592": 8289,
      "4324": 8290,
      "Inhaled": 8291,
      "afib": 8292,
      "28851": 8293,
      "02414": 8294,
      "tuzumab": 8295,
      "ventional": 8296,
      "monary": 8297,
      "pulmonary": 8298,
      "interventional": 8299,
      "Lialda": 8300,
      "8144": 8301,
      "9452": 8302,
      "ilast": 8303,
      "705": 8304,
      "79022": 8305,
      "79094": 8306,
      "66411": 8307,
      "72825": 8308,
      "99594": 8309,
      "0381": 8310,
      "Rosigl": 8311,
      "Rosiglitazone": 8312,
      "9172": 8313,
      "0059": 8314,
      "bicistat": 8315,
      "3041": 8316,
      "2728": 8317,
      "2489": 8318,
      "8821": 8319,
      "9433": 8320,
      "53170": 8321,
      "Triflu": 8322,
      "0701": 8323,
      "65963": 8324,
      "tary": 8325,
      "Rytary": 8326,
      "mustine": 8327,
      "pan": 8328,
      "2519": 8329,
      "1367": 8330,
      "1727": 8331,
      "99529": 8332,
      "7916": 8333,
      "roxicam": 8334,
      "85518": 8335,
      "3732": 8336,
      "44102": 8337,
      "0489": 8338,
      "6442": 8339,
      "7313": 8340,
      "0312": 8341,
      "82433": 8342,
      "30490": 8343,
      "Piroxicam": 8344,
      "Metronidazole": 8345,
      "03213": 8346,
      "FlexTou": 8347,
      "FlexTouch": 8348,
      "pic": 8349,
      "0074": 8350,
      "9086": 8351,
      "69328": 8352,
      "71103": 8353,
      "72990": 8354,
      "Sorafenib": 8355,
      "82492": 8356,
      "65413": 8357,
      "53440": 8358,
      "92480": 8359,
      "Tropic": 8360,
      "7585": 8361,
      "Tropicamide": 8362,
      "5117": 8363,
      "6253": 8364,
      "multi": 8365,
      "via": 8366,
      "inyl": 8367,
      "0052": 8368,
      "1029": 8369,
      "1531": 8370,
      "5756": 8371,
      "895": 8372,
      "87363": 8373,
      "Carmustine": 8374,
      "etanercept": 8375,
      "dextro": 8376,
      "2126": 8377,
      "29701": 8378,
      "05419": 8379,
      "19041": 8380,
      "29703": 8381,
      "Ave": 8382,
      "senna": 8383,
      "829": 8384,
      "82721": 8385,
      "92512": 8386,
      "Chain": 8387,
      "rides": 8388,
      "20973": 8389,
      "70201": 8390,
      "imen": 8391,
      "abrafenib": 8392,
      "9370": 8393,
      "Trigl": 8394,
      "balsalazide": 8395,
      "6692": 8396,
      "20920": 8397,
      "Medium": 8398,
      "34461": 8399,
      "33520": 8400,
      "ycerides": 8401,
      "Triglycerides": 8402,
      "0794": 8403,
      "3101": 8404,
      "6164": 8405,
      "6783": 8406,
      "947": 8407,
      "Bath": 8408,
      "Pl": 8409,
      "SO": 8410,
      "lecoxib": 8411,
      "36202": 8412,
      "8672": 8413,
      "55010": 8414,
      "celecoxib": 8415,
      "Doxil": 8416,
      "098": 8417,
      "3599": 8418,
      "657": 8419,
      "8238": 8420,
      "914": 8421,
      "Dimen": 8422,
      "rog": 8423,
      "ana": 8424,
      "acid": 8425,
      "28952": 8426,
      "hyDRIN": 8427,
      "span": 8428,
      "6811": 8429,
      "8470": 8430,
      "78723": 8431,
      "43812": 8432,
      "99732": 8433,
      "Selegiline": 8434,
      "36504": 8435,
      "Hespan": 8436,
      "DimenhyDRIN": 8437,
      "DimenhyDRINATE": 8438,
      "5173": 8439,
      "6100": 8440,
      "Lyte": 8441,
      "1050": 8442,
      "anti": 8443,
      "40509": 8444,
      "nib": 8445,
      "asma": 8446,
      "epate": 8447,
      "30250": 8448,
      "2739": 8449,
      "razepate": 8450,
      "8071": 8451,
      "99214": 8452,
      "8771": 8453,
      "Clorazepate": 8454,
      "roflum": 8455,
      "ysta": 8456,
      "Dipotassium": 8457,
      "29699": 8458,
      "56213": 8459,
      "8246": 8460,
      "Preservative": 8461,
      "Plasma": 8462,
      "roflumilast": 8463,
      "taurin": 8464,
      "20078": 8465,
      "9980": 8466,
      "ostaurin": 8467,
      "82402": 8468,
      "4726": 8469,
      "4731": 8470,
      "47419": 8471,
      "Thioth": 8472,
      "7621": 8473,
      "ixene": 8474,
      "4267": 8475,
      "75989": 8476,
      "Thiothixene": 8477,
      "027": 8478,
      "9501": 8479,
      "inase": 8480,
      "aginase": 8481,
      "35801": 8482,
      "11261": 8483,
      "5560": 8484,
      "1309": 8485,
      "78899": 8486,
      "Parente": 8487,
      "7302": 8488,
      "35971": 8489,
      "71440": 8490,
      "02413": 8491,
      "Asparaginase": 8492,
      "Parenteral": 8493,
      "6209": 8494,
      "Systa": 8495,
      "dal": 8496,
      "vudine": 8497,
      "acyclovir": 8498,
      "8150": 8499,
      "3368": 8500,
      "Send": 8501,
      "Salt": 8502,
      "Valtrex": 8503,
      "Systane": 8504,
      "5127": 8505,
      "6141": 8506,
      "7108": 8507,
      "7209": 8508,
      "Felbamate": 8509,
      "13239": 8510,
      "69359": 8511,
      "69898": 8512,
      "97418": 8513,
      "Clof": 8514,
      "44103": 8515,
      "7246": 8516,
      "aquine": 8517,
      "92013": 8518,
      "Primaquine": 8519,
      "29524": 8520,
      "87852": 8521,
      "82501": 8522,
      "5563": 8523,
      "889": 8524,
      "Dep": 8525,
      "nsr": 8526,
      "zox": 8527,
      "1033": 8528,
      "anz": 8529,
      "2723": 8530,
      "1832": 8531,
      "buric": 8532,
      "755": 8533,
      "Entacapone": 8534,
      "Benzoate": 8535,
      "43810": 8536,
      "81221": 8537,
      "Rasburic": 8538,
      "Rasburicase": 8539,
      "764": 8540,
      "lansoprazole": 8541,
      "ADI": 8542,
      "1350": 8543,
      "SulfADI": 8544,
      "33722": 8545,
      "706": 8546,
      "26609": 8547,
      "7930": 8548,
      "57470": 8549,
      "8930": 8550,
      "6931": 8551,
      "37730": 8552,
      "92128": 8553,
      "84500": 8554,
      "4479": 8555,
      "0512": 8556,
      "9597": 8557,
      "8244": 8558,
      "42971": 8559,
      "9588": 8560,
      "37923": 8561,
      "6170": 8562,
      "928": 8563,
      "uvia": 8564,
      "DRP": 8565,
      "nab": 8566,
      "tiga": 8567,
      "6900": 8568,
      "3488": 8569,
      "7502": 8570,
      "8604": 8571,
      "butolol": 8572,
      "91040": 8573,
      "9693": 8574,
      "Donnatol": 8575,
      "Januvia": 8576,
      "Zytiga": 8577,
      "054": 8578,
      "deni": 8579,
      "30411": 8580,
      "687": 8581,
      "3419": 8582,
      "5561": 8583,
      "ifen": 8584,
      "20890": 8585,
      "97524": 8586,
      "42612": 8587,
      "61171": 8588,
      "Thera": 8589,
      "denies": 8590,
      "Lacta": 8591,
      "Non": 8592,
      "econazole": 8593,
      "salate": 8594,
      "1090": 8595,
      "ope": 8596,
      "20286": 8597,
      "arbose": 8598,
      "Acarbose": 8599,
      "teri": 8600,
      "1811": 8601,
      "70909": 8602,
      "99521": 8603,
      "3560": 8604,
      "6001": 8605,
      "43853": 8606,
      "Salsalate": 8607,
      "Tabs": 8608,
      "44030": 8609,
      "44032": 8610,
      "92531": 8611,
      "095": 8612,
      "2141": 8613,
      "3250": 8614,
      "72700": 8615,
      "lera": 8616,
      "50996": 8617,
      "1269": 8618,
      "20193": 8619,
      "Glimepiride": 8620,
      "39012": 8621,
      "1124": 8622,
      "9313": 8623,
      "4647": 8624,
      "34581": 8625,
      "Time": 8626,
      "4599": 8627,
      "Dulera": 8628,
      "73741": 8629,
      "80507": 8630,
      "2609": 8631,
      "9356": 8632,
      "cal": 8633,
      "30302": 8634,
      "33390": 8635,
      "33391": 8636,
      "70244": 8637,
      "9990": 8638,
      "7241": 8639,
      "97518": 8640,
      "71697": 8641,
      "82512": 8642,
      "Eff": 8643,
      "5239": 8644,
      "9208": 8645,
      "Lan": 8646,
      "pat": 8647,
      "exam": 8648,
      "25073": 8649,
      "57431": 8650,
      "89893": 8651,
      "9800": 8652,
      "8613": 8653,
      "53784": 8654,
      "99641": 8655,
      "34460": 8656,
      "9802": 8657,
      "examic": 8658,
      "72706": 8659,
      "Dantr": 8660,
      "1049": 8661,
      "olene": 8662,
      "Acebutolol": 8663,
      "tiq": 8664,
      "8321": 8665,
      "95818": 8666,
      "ginterferon": 8667,
      "6273": 8668,
      "Peginterferon": 8669,
      "paratide": 8670,
      "Dantrolene": 8671,
      "8258": 8672,
      "with": 8673,
      "1514": 8674,
      "5340": 8675,
      "axone": 8676,
      "25510": 8677,
      "1802": 8678,
      "45383": 8679,
      "39490": 8680,
      "Avodar": 8681,
      "SulfADIAzine": 8682,
      "Avodart": 8683,
      "44283": 8684,
      "Flo": 8685,
      "eno": 8686,
      "10221": 8687,
      "5963": 8688,
      "20041": 8689,
      "83118": 8690,
      "82302": 8691,
      "Erlotinib": 8692,
      "8992": 8693,
      "Copaxone": 8694,
      "Aveeno": 8695,
      "Iodine": 8696,
      "Lant": 8697,
      "exemestane": 8698,
      "Int": 8699,
      "29189": 8700,
      "33721": 8701,
      "the": 8702,
      "83512": 8703,
      "8912": 8704,
      "72972": 8705,
      "72818": 8706,
      "42610": 8707,
      "9364": 8708,
      "5704": 8709,
      "30430": 8710,
      "dornase": 8711,
      "Tranexamic": 8712,
      "Lantus": 8713,
      "5106": 8714,
      "sti": 8715,
      "taren": 8716,
      "1532": 8717,
      "bicalutamide": 8718,
      "80218": 8719,
      "72479": 8720,
      "71537": 8721,
      "19042": 8722,
      "99677": 8723,
      "53370": 8724,
      "43225": 8725,
      "71107": 8726,
      "52333": 8727,
      "Cobicistat": 8728,
      "Voltaren": 8729,
      "Copper": 8730,
      "UDC": 8731,
      "bris": 8732,
      "40401": 8733,
      "30893": 8734,
      "4981": 8735,
      "TAL": 8736,
      "7038": 8737,
      "70234": 8738,
      "795": 8739,
      "36217": 8740,
      "0001": 8741,
      "45850": 8742,
      "32039": 8743,
      "6292": 8744,
      "9583": 8745,
      "47875": 8746,
      "Pristiq": 8747,
      "PleTAL": 8748,
      "UDCUP": 8749,
      "brisentan": 8750,
      "5844": 8751,
      "2391": 8752,
      "eline": 8753,
      "4762": 8754,
      "4618": 8755,
      "9507": 8756,
      "35981": 8757,
      "03317": 8758,
      "97811": 8759,
      "5269": 8760,
      "6101": 8761,
      "8100": 8762,
      "8279": 8763,
      "20480": 8764,
      "1314": 8765,
      "1779": 8766,
      "686": 8767,
      "98419": 8768,
      "85200": 8769,
      "97611": 8770,
      "43401": 8771,
      "78704": 8772,
      "5692": 8773,
      "89313": 8774,
      "92300": 8775,
      "80812": 8776,
      "07811": 8777,
      "tacrolimus": 8778,
      "dextroamphetamine": 8779,
      "4509": 8780,
      "72740": 8781,
      "8193": 8782,
      "Ze": 8783,
      "dabrafenib": 8784,
      "ipratropium": 8785,
      "40491": 8786,
      "1365": 8787,
      "aside": 8788,
      "idra": 8789,
      "29560": 8790,
      "20038": 8791,
      "ethinyl": 8792,
      "6810": 8793,
      "8260": 8794,
      "82123": 8795,
      "loxicam": 8796,
      "linaclo": 8797,
      "99840": 8798,
      "2249": 8799,
      "85110": 8800,
      "43919": 8801,
      "65421": 8802,
      "asidenib": 8803,
      "linaclotide": 8804,
      "96842": 8805,
      "uzumab": 8806,
      "tazox": 8807,
      "anide": 8808,
      "otene": 8809,
      "2386": 8810,
      "2180": 8811,
      "42201": 8812,
      "7772": 8813,
      "71930": 8814,
      "71694": 8815,
      "47879": 8816,
      "33382": 8817,
      "ergoline": 8818,
      "tazoxanide": 8819,
      "5105": 8820,
      "DP": 8821,
      "Opt": 8822,
      "0091": 8823,
      "1220": 8824,
      "1321": 8825,
      "unex": 8826,
      "1819": 8827,
      "75162": 8828,
      "3643": 8829,
      "37273": 8830,
      "8504": 8831,
      "22069": 8832,
      "20240": 8833,
      "Gamunex": 8834,
      "tartrate": 8835,
      "0530": 8836,
      "2401": 8837,
      "ucovorin": 8838,
      "tab": 8839,
      "coenzyme": 8840,
      "ick": 8841,
      "ett": 8842,
      "3094": 8843,
      "1904": 8844,
      "oleucovorin": 8845,
      "tel": 8846,
      "2397": 8847,
      "89619": 8848,
      "Levoleucovorin": 8849,
      "37710": 8850,
      "72273": 8851,
      "53149": 8852,
      "4644": 8853,
      "53150": 8854,
      "42490": 8855,
      "Clofarabine": 8856,
      "7600": 8857,
      "847": 8858,
      "My": 8859,
      "VAL": 8860,
      "cast": 8861,
      "lpf": 8862,
      "3061": 8863,
      "Hepa": 8864,
      "9068": 8865,
      "2979": 8866,
      "2469": 8867,
      "6011": 8868,
      "6038": 8869,
      "1893": 8870,
      "2652": 8871,
      "99284": 8872,
      "89429": 8873,
      "3950": 8874,
      "Levoxyl": 8875,
      "9721": 8876,
      "9350": 8877,
      "4450": 8878,
      "7286": 8879,
      "99824": 8880,
      "73026": 8881,
      "indolol": 8882,
      "vimeline": 8883,
      "casts": 8884,
      "50011": 8885,
      "8371": 8886,
      "82301": 8887,
      "9710": 8888,
      "8668": 8889,
      "Soma": 8890,
      "22089": 8891,
      "9306": 8892,
      "34670": 8893,
      "67848": 8894,
      "5902": 8895,
      "6184": 8896,
      "7400": 8897,
      "8791": 8898,
      "96830": 8899,
      "iva": 8900,
      "enasidenib": 8901,
      "2521": 8902,
      "70263": 8903,
      "34200": 8904,
      "5621": 8905,
      "64233": 8906,
      "1307": 8907,
      "ETT": 8908,
      "Capecitabine": 8909,
      "fortic": 8910,
      "ketorolac": 8911,
      "Myfortic": 8912,
      "4153": 8913,
      "5509": 8914,
      "6235": 8915,
      "9682": 8916,
      "PO": 8917,
      "Pindolol": 8918,
      "nol": 8919,
      "enium": 8920,
      "1059": 8921,
      "1280": 8922,
      "20152": 8923,
      "2531": 8924,
      "27402": 8925,
      "8170": 8926,
      "24280": 8927,
      "60883": 8928,
      "99343": 8929,
      "36251": 8930,
      "8444": 8931,
      "7501": 8932,
      "7310": 8933,
      "acetamide": 8934,
      "Bicalutamide": 8935,
      "20880": 8936,
      "8295": 8937,
      "OCH": 8938,
      "est": 8939,
      "pella": 8940,
      "20971": 8941,
      "ilant": 8942,
      "ambrisentan": 8943,
      "Dexilant": 8944,
      "1721": 8945,
      "2390": 8946,
      "1882": 8947,
      "HYDROCH": 8948,
      "6852": 8949,
      "4722": 8950,
      "3739": 8951,
      "LORIDE": 8952,
      "FEW": 8953,
      "29632": 8954,
      "99647": 8955,
      "rednol": 8956,
      "Impella": 8957,
      "HepaGam": 8958,
      "HYDROCHLORIDE": 8959,
      "0110": 8960,
      "01511": 8961,
      "6258": 8962,
      "949": 8963,
      "lim": 8964,
      "4560": 8965,
      "9623": 8966,
      "4636": 8967,
      "71916": 8968,
      "99671": 8969,
      "CoQ": 8970,
      "4911": 8971,
      "tiv": 8972,
      "8312": 8973,
      "79890": 8974,
      "5753": 8975,
      "89610": 8976,
      "6819": 8977,
      "34281": 8978,
      "36252": 8979,
      "4850": 8980,
      "Prednisolone": 8981,
      "7151": 8982,
      "cevimeline": 8983,
      "70701": 8984,
      "52181": 8985,
      "73006": 8986,
      "81399": 8987,
      "Intub": 8988,
      "0502": 8989,
      "75739": 8990,
      "Or": 8991,
      "bonate": 8992,
      "lotep": 8993,
      "20206": 8994,
      "3016": 8995,
      "80700": 8996,
      "6502": 8997,
      "3532": 8998,
      "etabonate": 8999,
      "Excel": 9000,
      "5901": 9001,
      "8488": 9002,
      "82831": 9003,
      "vite": 9004,
      "hydro": 9005,
      "rizatriptan": 9006,
      "limid": 9007,
      "loteprednol": 9008,
      "0681": 9009,
      "9804": 9010,
      "UM": 9011,
      "1542": 9012,
      "69298": 9013,
      "NSR": 9014,
      "Valacyclovir": 9015,
      "71530": 9016,
      "45379": 9017,
      "82832": 9018,
      "Niacinamide": 9019,
      "02422": 9020,
      "77811": 9021,
      "02611": 9022,
      "Trifluope": 9023,
      "Trifluoperazine": 9024,
      "72761": 9025,
      "ROR": 9026,
      "Sk": 9027,
      "Star": 9028,
      "TER": 9029,
      "ZYR": 9030,
      "oTER": 9031,
      "20202": 9032,
      "9064": 9033,
      "1851": 9034,
      "7019": 9035,
      "elax": 9036,
      "00019": 9037,
      "85226": 9038,
      "977": 9039,
      "4889": 9040,
      "ERROR": 9041,
      "74689": 9042,
      "astuzumab": 9043,
      "28950": 9044,
      "85858": 9045,
      "81811": 9046,
      "89324": 9047,
      "DOCE": 9048,
      "22321": 9049,
      "Trastuzumab": 9050,
      "58181": 9051,
      "63311": 9052,
      "TaxoTER": 9053,
      "Skelax": 9054,
      "ZYRtec": 9055,
      "DOCEtaxel": 9056,
      "TaxoTERE": 9057,
      "Skelaxin": 9058,
      "3102": 9059,
      "4144": 9060,
      "9839": 9061,
      "Avi": 9062,
      "TS": 9063,
      "2893": 9064,
      "72291": 9065,
      "9438": 9066,
      "Asleep": 9067,
      "03840": 9068,
      "venlafaxine": 9069,
      "Droperidol": 9070,
      "4372": 9071,
      "8101": 9072,
      "78262": 9073,
      "78602": 9074,
      "14129": 9075,
      "2929": 9076,
      "1764": 9077,
      "80818": 9078,
      "2350": 9079,
      "70223": 9080,
      "752": 9081,
      "3418": 9082,
      "2209": 9083,
      "20930": 9084,
      "37956": 9085,
      "micronized": 9086,
      "92488": 9087,
      "Lactaid": 9088,
      "3130": 9089,
      "75733": 9090,
      "9688": 9091,
      "riva": 9092,
      "1368": 9093,
      "orti": 9094,
      "80503": 9095,
      "49302": 9096,
      "25093": 9097,
      "8390": 9098,
      "66331": 9099,
      "5414": 9100,
      "7729": 9101,
      "9582": 9102,
      "47832": 9103,
      "3897": 9104,
      "Biotene": 9105,
      "6403": 9106,
      "25022": 9107,
      "7915": 9108,
      "89621": 9109,
      "8512": 9110,
      "97411": 9111,
      "Citrac": 9112,
      "19071": 9113,
      "84551": 9114,
      "64821": 9115,
      "Drops": 9116,
      "cabergoline": 9117,
      "ortioxetine": 9118,
      "Citracal": 9119,
      "US": 9120,
      "onex": 9121,
      "albu": 9122,
      "5040": 9123,
      "2726": 9124,
      "2899": 9125,
      "9061": 9126,
      "20042": 9127,
      "5755": 9128,
      "4542": 9129,
      "53191": 9130,
      "8584": 9131,
      "44324": 9132,
      "Claritin": 9133,
      "82210": 9134,
      "Felb": 9135,
      "MP": 9136,
      "ect": 9137,
      "0071": 9138,
      "onatinib": 9139,
      "50411": 9140,
      "12600": 9141,
      "5992": 9142,
      "57149": 9143,
      "57471": 9144,
      "8940": 9145,
      "89109": 9146,
      "3449": 9147,
      "PUMP": 9148,
      "4470": 9149,
      "87890": 9150,
      "87851": 9151,
      "7294": 9152,
      "TObarbital": 9153,
      "71691": 9154,
      "29706": 9155,
      "PENTObarbital": 9156,
      "5564": 9157,
      "74769": 9158,
      "Felbatol": 9159,
      "38918": 9160,
      "52510": 9161,
      "7262": 9162,
      "927": 9163,
      "Bre": 9164,
      "Rux": 9165,
      "0092": 9166,
      "1329": 9167,
      "aspan": 9168,
      "Sulfide": 9169,
      "80126": 9170,
      "3343": 9171,
      "7012": 9172,
      "4540": 9173,
      "85618": 9174,
      "6210": 9175,
      "3551": 9176,
      "9679": 9177,
      "Niaspan": 9178,
      "8459": 9179,
      "7249": 9180,
      "19019": 9181,
      "85868": 9182,
      "4294": 9183,
      "Selenium": 9184,
      "69998": 9185,
      "Breo": 9186,
      "Ruxolitinib": 9187,
      "0499": 9188,
      "3785": 9189,
      "fre": 9190,
      "40300": 9191,
      "Sulfacetamide": 9192,
      "9060": 9193,
      "Interferon": 9194,
      "8768": 9195,
      "97221": 9196,
      "6381": 9197,
      "72886": 9198,
      "meloxicam": 9199,
      "92010": 9200,
      "64811": 9201,
      "04082": 9202,
      "36610": 9203,
      "99522": 9204,
      "6268": 9205,
      "Pal": 9206,
      "pom": 9207,
      "xalo": 9208,
      "25471": 9209,
      "25208": 9210,
      "raf": 9211,
      "1480": 9212,
      "29818": 9213,
      "6071": 9214,
      "18128": 9215,
      "7079": 9216,
      "2660": 9217,
      "99283": 9218,
      "82403": 9219,
      "1048": 9220,
      "9590": 9221,
      "9278": 9222,
      "88101": 9223,
      "19881": 9224,
      "7301": 9225,
      "63431": 9226,
      "pomalidomide": 9227,
      "xalone": 9228,
      "077": 9229,
      "1132": 9230,
      "9162": 9231,
      "Flum": 9232,
      "Syn": 9233,
      "Xi": 9234,
      "ira": 9235,
      "enil": 9236,
      "30285": 9237,
      "azenil": 9238,
      "99701": 9239,
      "97421": 9240,
      "1053": 9241,
      "4841": 9242,
      "48281": 9243,
      "9220": 9244,
      "92122": 9245,
      "89022": 9246,
      "79675": 9247,
      "48882": 9248,
      "stitu": 9249,
      "07799": 9250,
      "Flumazenil": 9251,
      "01003": 9252,
      "7111": 9253,
      "FR": 9254,
      "emtuzumab": 9255,
      "003": 9256,
      "Alemtuzumab": 9257,
      "89890": 9258,
      "69311": 9259,
      "6963": 9260,
      "69275": 9261,
      "98491": 9262,
      "85202": 9263,
      "ZOFR": 9264,
      "4413": 9265,
      "4627": 9266,
      "0580": 9267,
      "22079": 9268,
      "20961": 9269,
      "3499": 9270,
      "43410": 9271,
      "71236": 9272,
      "84033": 9273,
      "ZOFRAN": 9274,
      "4325": 9275,
      "5238": 9276,
      "Brin": 9277,
      "Gum": 9278,
      "Jun": 9279,
      "LIM": 9280,
      "VLIM": 9281,
      "dopa": 9282,
      "yt": 9283,
      "anum": 9284,
      "30431": 9285,
      "4912": 9286,
      "59984": 9287,
      "thanum": 9288,
      "89892": 9289,
      "3730": 9290,
      "Methyldopa": 9291,
      "19072": 9292,
      "53531": 9293,
      "92311": 9294,
      "91871": 9295,
      "71695": 9296,
      "80841": 9297,
      "REVLIM": 9298,
      "53470": 9299,
      "Diphthe": 9300,
      "levodopa": 9301,
      "Lanthanum": 9302,
      "Synthroid": 9303,
      "REVLIMID": 9304,
      "Diphtheria": 9305,
      "2254": 9306,
      "9140": 9307,
      "Ab": 9308,
      "GUM": 9309,
      "Rh": 9310,
      "vy": 9311,
      "ler": 9312,
      "2089": 9313,
      "1340": 9314,
      "etinib": 9315,
      "otin": 9316,
      "99512": 9317,
      "79641": 9318,
      "697": 9319,
      "3552": 9320,
      "55220": 9321,
      "4587": 9322,
      "Saliva": 9323,
      "IMatinib": 9324,
      "trametinib": 9325,
      "45010": 9326,
      "25521": 9327,
      "365930": 9328,
      "82594": 9329,
      "Revlimid": 9330,
      "05889": 9331,
      "0501": 9332,
      "7789": 9333,
      "71509": 9334,
      "8192": 9335,
      "ult": 9336,
      "1440": 9337,
      "28310": 9338,
      "8092": 9339,
      "1844": 9340,
      "Immu": 9341,
      "25522": 9342,
      "20943": 9343,
      "82514": 9344,
      "29718": 9345,
      "63511": 9346,
      "36520": 9347,
      "51636": 9348,
      "Junel": 9349,
      "64511": 9350,
      "8472": 9351,
      "ise": 9352,
      "8359": 9353,
      "57481": 9354,
      "1502": 9355,
      "8550": 9356,
      "3548": 9357,
      "Liver": 9358,
      "8438": 9359,
      "5413": 9360,
      "64913": 9361,
      "Huma": 9362,
      "01111": 9363,
      "Inject": 9364,
      "fresh": 9365,
      "6248": 9366,
      "96841": 9367,
      "Xime": 9368,
      "pH": 9369,
      "ste": 9370,
      "rib": 9371,
      "5041": 9372,
      "40801": 9373,
      "2921": 9374,
      "24103": 9375,
      "7028": 9376,
      "99342": 9377,
      "837": 9378,
      "57440": 9379,
      "45373": 9380,
      "Protop": 9381,
      "8553": 9382,
      "97620": 9383,
      "92303": 9384,
      "4459": 9385,
      "Forte": 9386,
      "4803": 9387,
      "Humalo": 9388,
      "22039": 9389,
      "3203": 9390,
      "iba": 9391,
      "20260": 9392,
      "34211": 9393,
      "3573": 9394,
      "gestrel": 9395,
      "Temodar": 9396,
      "46411": 9397,
      "STAT": 9398,
      "Protopic": 9399,
      "Humalog": 9400,
      "01006": 9401,
      "5652": 9402,
      "6149": 9403,
      "9231": 9404,
      "Bo": 9405,
      "TTS": 9406,
      "movir": 9407,
      "ss": 9408,
      "50810": 9409,
      "2392": 9410,
      "89620": 9411,
      "7514": 9412,
      "96500": 9413,
      "78059": 9414,
      "79095": 9415,
      "37239": 9416,
      "0415": 9417,
      "17920": 9418,
      "07022": 9419,
      "07031": 9420,
      "LOG": 9421,
      "5501": 9422,
      "7283": 9423,
      "4692": 9424,
      "81344": 9425,
      "HumaLOG": 9426,
      "0601": 9427,
      "0232": 9428,
      "4371": 9429,
      "5120": 9430,
      "5165": 9431,
      "81301": 9432,
      "Tres": 9433,
      "gre": 9434,
      "coal": 9435,
      "arcoal": 9436,
      "79500": 9437,
      "57401": 9438,
      "69393": 9439,
      "Atgam": 9440,
      "9712": 9441,
      "4421": 9442,
      "92320": 9443,
      "Comtan": 9444,
      "2903": 9445,
      "42002": 9446,
      "Xiidra": 9447,
      "Tresiba": 9448,
      "4145": 9449,
      "7121": 9450,
      "7271": 9451,
      "9902": 9452,
      "CC": 9453,
      "Eps": 9454,
      "NAD": 9455,
      "2571": 9456,
      "irater": 9457,
      "80121": 9458,
      "58281": 9459,
      "20013": 9460,
      "1618": 9461,
      "6800": 9462,
      "103593": 9463,
      "37993": 9464,
      "746": 9465,
      "8484": 9466,
      "25710": 9467,
      "51211": 9468,
      "82320": 9469,
      "Intubation": 9470,
      "Epsom": 9471,
      "iraterone": 9472,
      "0993": 9473,
      "5124": 9474,
      "iz": 9475,
      "ktar": 9476,
      "nys": 9477,
      "Charcoal": 9478,
      "ill": 9479,
      "Activ": 9480,
      "90711": 9481,
      "1720": 9482,
      "8064": 9483,
      "Bisoprolol": 9484,
      "empro": 9485,
      "5304": 9486,
      "6542": 9487,
      "6690": 9488,
      "5620": 9489,
      "7651": 9490,
      "99981": 9491,
      "Prempro": 9492,
      "71680": 9493,
      "02512": 9494,
      "64841": 9495,
      "kinra": 9496,
      "36645": 9497,
      "82290": 9498,
      "Biktar": 9499,
      "dexlansoprazole": 9500,
      "anakinra": 9501,
      "05479": 9502,
      "Activated": 9503,
      "Biktarvy": 9504,
      "8199": 9505,
      "Br": 9506,
      "fedi": 9507,
      "iriva": 9508,
      "sicar": 9509,
      "5060": 9510,
      "1543": 9511,
      "14103": 9512,
      "6091": 9513,
      "Refresh": 9514,
      "5842": 9515,
      "2354": 9516,
      "azeP": 9517,
      "69151": 9518,
      "30009": 9519,
      "7570": 9520,
      "3519": 9521,
      "97119": 9522,
      "9511": 9523,
      "5647": 9524,
      "42761": 9525,
      "44409": 9526,
      "Spiriva": 9527,
      "OXIDE": 9528,
      "8308": 9529,
      "83022": 9530,
      "82491": 9531,
      "Teal": 9532,
      "50312": 9533,
      "71489": 9534,
      "86891": 9535,
      "03319": 9536,
      "37741": 9537,
      "Vesicar": 9538,
      "41001": 9539,
      "ChlordiazeP": 9540,
      "GenTeal": 9541,
      "Stavudine": 9542,
      "Injection": 9543,
      "Vesicare": 9544,
      "ChlordiazePOXIDE": 9545,
      "3839": 9546,
      "3671": 9547,
      "8261": 9548,
      "9353": 9549,
      "Itr": 9550,
      "UDine": 9551,
      "VUDine": 9552,
      "eo": 9553,
      "iVUDine": 9554,
      "vortioxetine": 9555,
      "aryl": 9556,
      "icill": 9557,
      "12300": 9558,
      "1515": 9559,
[...]
