{
  "version": "1.0",
  "truncation": null,
  "padding": null,
  "added_tokens": [
    {
      "id": 0,
      "content": "<s>",
      "single_word": false,
      "lstrip": false,
      "rstrip": false,
      "normalized": false,
      "special": true
    },
    {
      "id": 1,
      "content": "</s>",
      "single_word": false,
      "lstrip": false,
      "rstrip": false,
      "normalized": false,
      "special": true
    },
    {
      "id": 2,
      "content": "PAD",
      "single_word": false,
      "lstrip": false,
      "rstrip": false,
      "normalized": false,
      "special": true
    },
    {
      "id": 3,
      "content": "UNK",
      "single_word": false,
      "lstrip": false,
      "rstrip": false,
      "normalized": false,
      "special": true
    },
    {
      "id": 4,
      "content": "$",
      "single_word": false,
      "lstrip": false,
      "rstrip": false,
      "normalized": false,
      "special": true
    }
  ],
  "normalizer": {
    "type": "Sequence",
    "normalizers": [
      {
        "type": "Lowercase"
      }
    ]
  },
  "pre_tokenizer": {
    "type": "Sequence",
    "pretokenizers": [
      {
        "type": "Whitespace"
      },
      {
        "type": "Punctuation",
        "behavior": "Isolated"
      }
    ]
  },
  "post_processor": {
    "type": "BertProcessing",
    "sep": [
      "</s>",
      1
    ],
    "cls": [
      "<s>",
      0
    ]
  },
  "decoder": null,
  "model": {
    "type": "BPE",
    "dropout": null,
    "unk_token": "UNK",
    "continuing_subword_prefix": null,
    "end_of_word_suffix": null,
    "fuse_unk": false,
    "vocab": {
      "<s>": 0,
      "</s>": 1,
      "PAD": 2,
      "UNK": 3,
      "$": 4,
      "#": 5,
      "%": 6,
      "(": 7,
      ")": 8,
      "-": 9,
      ".": 10,
      "/": 11,
      "0": 12,
      "1": 13,
      "2": 14,
      "3": 15,
      "4": 16,
      "5": 17,
      "6": 18,
      "7": 19,
      "8": 20,
      "9": 21,
      ";": 22,
      "_": 23,
      "a": 24,
      "b": 25,
      "c": 26,
      "d": 27,
      "e": 28,
      "f": 29,
      "g": 30,
      "h": 31,
      "i": 32,
      "j": 33,
      "k": 34,
      "l": 35,
      "m": 36,
      "n": 37,
      "o": 38,
      "p": 39,
      "q": 40,
      "r": 41,
      "s": 42,
      "t": 43,
      "u": 44,
      "v": 45,
      "w": 46,
      "x": 47,
      "y": 48,
      "z": 49,
      "{": 50,
      "}": 51,
      "°": 52,
      "22": 53,
      "l22": 54,
      "v22": 55,
      "v220": 56,
      "10": 57,
      "um": 58,
      "er": 59,
      "m22": 60,
      "l220": 61,
      "56": 62,
      "13": 63,
      "v2200": 64,
      "74": 65,
      "dl": 66,
      "12": 67,
      "al": 68,
      "ser": 69,
      "serum": 70,
      "me": 71,
      "in": 72,
      "50": 73,
      "18": 74,
      "mg": 75,
      "l2256": 76,
      "v22004": 77,
      "l2274": 78,
      "meq": 79,
      "re": 80,
      "14": 81,
      "l2206": 82,
      "15": 83,
      "bp": 84,
      "co": 85,
      "59": 86,
      "11": 87,
      "at": 88,
      "98": 89,
      "lo": 90,
      "mm": 91,
      "ium": 92,
      "65": 93,
      "17": 94,
      "60": 95,
      "hg": 96,
      "mmhg": 97,
      "on": 98,
      "se": 99,
      "42": 100,
      "v22018": 101,
      "o22": 102,
      "25": 103,
      "ph": 104,
      "37": 105,
      "61": 106,
      "ss": 107,
      "70": 108,
      "bpm": 109,
      "ar": 110,
      "45": 111,
      "16": 112,
      "hr": 113,
      "un": 114,
      "he": 115,
      "di": 116,
      "de": 117,
      "ti": 118,
      "40": 119,
      "gh": 120,
      "19": 121,
      "24": 122,
      "30": 123,
      "ure": 124,
      "igh": 125,
      "130": 126,
      "od": 127,
      "it": 128,
      "75": 129,
      "dv": 130,
      "20": 131,
      "an": 132,
      "78": 133,
      "179": 134,
      "35": 135,
      "120": 136,
      "73": 137,
      "28": 138,
      "ol": 139,
      "ul": 140,
      "ion": 141,
      "90": 142,
      "ot": 143,
      "l2205": 144,
      "v220045": 145,
      "v2237": 146,
      "pho": 147,
      "27": 148,
      "97": 149,
      "v223761": 150,
      "ight": 151,
      "43": 152,
      "bin": 153,
      "hem": 154,
      "23": 155,
      "21": 156,
      "67": 157,
      "99": 158,
      "v220047": 159,
      "100": 160,
      "v220046": 161,
      "pre": 162,
      "68": 163,
      "ssure": 164,
      "pressure": 165,
      "dz": 166,
      "66": 167,
      "gl": 168,
      "29": 169,
      "o2265": 170,
      "uco": 171,
      "gluco": 172,
      "glucose": 173,
      "v220179": 174,
      "v220180": 175,
      "v220181": 176,
      "ml": 177,
      "eri": 178,
      "64": 179,
      "en": 180,
      "cal": 181,
      "m2259": 182,
      "calc": 183,
      "art": 184,
      "83": 185,
      "57": 186,
      "blo": 187,
      "blood": 188,
      "46": 189,
      "51": 190,
      "ou": 191,
      "erial": 192,
      "arterial": 193,
      "26": 194,
      "ous": 195,
      "77": 196,
      "alar": 197,
      "alarm": 198,
      "ine": 199,
      "wh": 200,
      "58": 201,
      "sec": 202,
      "93": 203,
      "coun": 204,
      "count": 205,
      "m225": 206,
      "l22022": 207,
      "te": 208,
      "80": 209,
      "ed": 210,
      "iu": 211,
      "o226559": 212,
      "ri": 213,
      "nbp": 214,
      "ate": 215,
      "phos": 216,
      "iz": 217,
      "ioniz": 218,
      "calcium": 219,
      "ionized": 220,
      "ck": 221,
      "52": 222,
      "38": 223,
      "ne": 224,
      "32": 225,
      "ole": 226,
      "96": 227,
      "02": 228,
      "d4": 229,
      "mi": 230,
      "39": 231,
      "ass": 232,
      "pot": 233,
      "assium": 234,
      "potassium": 235,
      "o226": 236,
      "eight": 237,
      "weight": 238,
      "81": 239,
      "87": 240,
      "89": 241,
      "00": 242,
      "og": 243,
      "ch": 244,
      "33": 245,
      "cr": 246,
      "bmi": 247,
      "sod": 248,
      "sodium": 249,
      "ocr": 250,
      "atocr": 251,
      "hematocr": 252,
      "hematocrit": 253,
      "lori": 254,
      "chlori": 255,
      "chloride": 256,
      "et": 257,
      "62": 258,
      "ff": 259,
      "eren": 260,
      "diff": 261,
      "tial": 262,
      "erential": 263,
      "differential": 264,
      "atin": 265,
      "ga": 266,
      "ag": 267,
      "d42": 268,
      "44": 269,
      "pl": 270,
      "l227442": 271,
      "l220645": 272,
      "l220602": 273,
      "l220615": 274,
      "l225624": 275,
      "cre": 276,
      "atinine": 277,
      "creatinine": 278,
      "l227443": 279,
      "l2270": 280,
      "l227073": 281,
      "bun": 282,
      "hco": 283,
      "hco3": 284,
      "l220621": 285,
      "anion": 286,
      "gap": 287,
      "l220545": 288,
      "l220228": 289,
      "m223": 290,
      "82": 291,
      "lobin": 292,
      "hemog": 293,
      "hemoglobin": 294,
      "l227457": 295,
      "l220546": 296,
      "bc": 297,
      "wbc": 298,
      "l220635": 299,
      "let": 300,
      "atelet": 301,
      "platelet": 302,
      "mag": 303,
      "sium": 304,
      "nesium": 305,
      "magnesium": 306,
      "m2275": 307,
      "34": 308,
      "rous": 309,
      "phorous": 310,
      "phosphorous": 311,
      "l225677": 312,
      "non": 313,
      "l225625": 314,
      "36": 315,
      "85": 316,
      "91": 317,
      "height": 318,
      "ite": 319,
      "white": 320,
      "co2": 321,
      "86": 322,
      "72": 323,
      "110": 324,
      "140": 325,
      "ature": 326,
      "71": 327,
      "d5": 328,
      "d27": 329,
      "88": 330,
      "31": 331,
      "d78": 332,
      "mp": 333,
      "temp": 334,
      "os": 335,
      "41": 336,
      "sti": 337,
      "stick": 338,
      "55": 339,
      "63": 340,
      "ran": 341,
      "erature": 342,
      "temperature": 343,
      "om": 344,
      "pr": 345,
      "o22656": 346,
      "79": 347,
      "dk": 348,
      "as": 349,
      "dr": 350,
      "69": 351,
      "84": 352,
      "low": 353,
      "high": 354,
      "ing": 355,
      "49": 356,
      "prot": 357,
      "l225664": 358,
      "48": 359,
      "time": 360,
      "ac": 361,
      "hrom": 362,
      "hrombin": 363,
      "prothrombin": 364,
      "inr": 365,
      "tt": 366,
      "m221": 367,
      "ptt": 368,
      "fing": 369,
      "ge": 370,
      "range": 371,
      "finger": 372,
      "l227465": 373,
      "l227467": 374,
      "166": 375,
      "l227466": 376,
      "101": 377,
      "103": 378,
      "o226560": 379,
      "95": 380,
      "v220052": 381,
      "v220051": 382,
      "v220050": 383,
      "168": 384,
      "d2": 385,
      "92": 386,
      "id": 387,
      "d40": 388,
      "nbpm": 389,
      "102": 390,
      "nbps": 391,
      "nbpd": 392,
      "76": 393,
      "258": 394,
      "m2283": 395,
      "m22515": 396,
      "53": 397,
      "o2": 398,
      "mmol": 399,
      "m223258": 400,
      "unit": 401,
      "units": 402,
      "m22174": 403,
      "m225166": 404,
      "104": 405,
      "94": 406,
      "ven": 407,
      "54": 408,
      "dj": 409,
      "m2220": 410,
      "venous": 411,
      "abp": 412,
      "fole": 413,
      "foley": 414,
      "105": 415,
      "whole": 416,
      "df": 417,
      "106": 418,
      "d28": 419,
      "m225975": 420,
      "109": 421,
      "d4019": 422,
      "1794": 423,
      "m221794": 424,
      "dd": 425,
      "dg": 426,
      "107": 427,
      "dz8": 428,
      "m222": 429,
      "m222168": 430,
      "d3": 431,
      "108": 432,
      "138": 433,
      "47": 434,
      "139": 435,
      "111": 436,
      "190": 437,
      "135": 438,
      "l2202": 439,
      "sol": 440,
      "137": 441,
      "m222011": 442,
      "dv58": 443,
      "119": 444,
      "112": 445,
      "ab": 446,
      "ute": 447,
      "solute": 448,
      "absolute": 449,
      "150": 450,
      "d7": 451,
      "136": 452,
      "ast": 453,
      "141": 454,
      "dn": 455,
      "tco2": 456,
      "m2218": 457,
      "li": 458,
      "d30": 459,
      "ase": 460,
      "142": 461,
      "m221744": 462,
      "l2265": 463,
      "m225942": 464,
      "m225152": 465,
      "dv15": 466,
      "262": 467,
      "dy": 468,
      "m228315": 469,
      "m227522": 470,
      "m2214": 471,
      "ur": 472,
      "ru": 473,
      "113": 474,
      "1906": 475,
      "m221906": 476,
      "d2724": 477,
      "acti": 478,
      "134": 479,
      "ili": 480,
      "dc": 481,
      "bili": 482,
      "rubin": 483,
      "bilirubin": 484,
      "l2293": 485,
      "115": 486,
      "114": 487,
      "07": 488,
      "m223262": 489,
      "121": 490,
      "acid": 491,
      "tot": 492,
      "total": 493,
      "d250": 494,
      "01": 495,
      "143": 496,
      "m227523": 497,
      "118": 498,
      "lacti": 499,
      "lactic": 500,
      "116": 501,
      "de8": 502,
      "alt": 503,
      "l225668": 504,
      "kal": 505,
      "alkal": 506,
      "phate": 507,
      "phosphate": 508,
      "alkaline": 509,
      "145": 510,
      "dm": 511,
      "125": 512,
      "di10": 513,
      "d530": 514,
      "3830": 515,
      "l223830": 516,
      "129": 517,
      "133": 518,
      "dh": 519,
      "de78": 520,
      "l220644": 521,
      "l225690": 522,
      "l220587": 523,
      "117": 524,
      "m225910": 525,
      "abpm": 526,
      "abpd": 527,
      "abps": 528,
      "base": 529,
      "ce": 530,
      "ex": 531,
      "cess": 532,
      "excess": 533,
      "144": 534,
      "l225612": 535,
      "ic": 536,
      "132": 537,
      "l225667": 538,
      "m221456": 539,
      "4828": 540,
      "l220224": 541,
      "l220235": 542,
      "l224828": 543,
      "l225698": 544,
      "d58": 545,
      "122": 546,
      "ut": 547,
      "131": 548,
      "dz9": 549,
      "m221833": 550,
      "d0": 551,
      "d4273": 552,
      "ly": 553,
      "128": 554,
      "de785": 555,
      "neut": 556,
      "can": 557,
      "123": 558,
      "bas": 559,
      "eos": 560,
      "mon": 561,
      "mph": 562,
      "lymph": 563,
      "neuts": 564,
      "basos": 565,
      "monos": 566,
      "lymphs": 567,
      "126": 568,
      "dz7": 569,
      "dz878": 570,
      "dt": 571,
      "m225907": 572,
      "124": 573,
      "st": 574,
      "127": 575,
      "d57": 576,
      "dz87891": 577,
      "dv45": 578,
      "d42731": 579,
      "de87": 580,
      "d53081": 581,
      "09": 582,
      "oid": 583,
      "void": 584,
      "di4": 585,
      "m2216": 586,
      "dv4": 587,
      "400": 588,
      "160": 589,
      "390": 590,
      "146": 591,
      "dv1582": 592,
      "di25": 593,
      "300": 594,
      "o2266": 595,
      "dy9": 596,
      "l2260": 597,
      "ack": 598,
      "219": 599,
      "m221749": 600,
      "147": 601,
      "200": 602,
      "d25000": 603,
      "935": 604,
      "m2232": 605,
      "m221668": 606,
      "o226588": 607,
      "d4280": 608,
      "db": 609,
      "pe": 610,
      "148": 611,
      "ldh": 612,
      "sat": 613,
      "ng": 614,
      "419": 615,
      "o22659": 616,
      "420": 617,
      "149": 618,
      "l220632": 619,
      "l22935": 620,
      "dk219": 621,
      "dz790": 622,
      "o2275": 623,
      "189": 624,
      "dv10": 625,
      "m223260": 626,
      "m2213": 627,
      "dv12": 628,
      "l225642": 629,
      "l225640": 630,
      "l225643": 631,
      "l225639": 632,
      "l225641": 633,
      "d780": 634,
      "m229": 635,
      "d24": 636,
      "d59": 637,
      "500": 638,
      "000": 639,
      "d73": 640,
      "d99": 641,
      "8640": 642,
      "ra": 643,
      "v228640": 644,
      "d56": 645,
      "l220274": 646,
      "am": 647,
      "urine": 648,
      "m225154": 649,
      "ity": 650,
      "tr": 651,
      "o227510": 652,
      "v2253": 653,
      "dz68": 654,
      "d518": 655,
      "ug": 656,
      "bl": 657,
      "l227464": 658,
      "d4140": 659,
      "152": 660,
      "d41401": 661,
      "m225974": 662,
      "ub": 663,
      "151": 664,
      "bum": 665,
      "album": 666,
      "albumin": 667,
      "yc": 668,
      "600": 669,
      "155": 670,
      "l226537": 671,
      "172": 672,
      "153": 673,
      "l227456": 674,
      "di50": 675,
      "di2510": 676,
      "154": 677,
      "dv5861": 678,
      "d45": 679,
      "tub": 680,
      "tube": 681,
      "black": 682,
      "d3051": 683,
      "d311": 684,
      "170": 685,
      "156": 686,
      "df3": 687,
      "rican": 688,
      "ds": 689,
      "d5849": 690,
      "d2859": 691,
      "679": 692,
      "d2449": 693,
      "pstick": 694,
      "dipstick": 695,
      "734": 696,
      "fic": 697,
      "ific": 698,
      "xa": 699,
      "l220734": 700,
      "vity": 701,
      "cific": 702,
      "gra": 703,
      "spe": 704,
      "gravity": 705,
      "specific": 706,
      "2315": 707,
      "l227471": 708,
      "m221385": 709,
      "ation": 710,
      "uration": 711,
      "saturation": 712,
      "m222315": 713,
      "ian": 714,
      "m228340": 715,
      "df419": 716,
      "df329": 717,
      "03": 718,
      "dg4": 719,
      "di489": 720,
      "161": 721,
      "m22583": 722,
      "d493": 723,
      "04": 724,
      "159": 725,
      "af": 726,
      "african": 727,
      "l220227": 728,
      "erican": 729,
      "american": 730,
      "che": 731,
      "chest": 732,
      "myc": 733,
      "de93": 734,
      "mycin": 735,
      "157": 736,
      "158": 737,
      "dv46": 738,
      "d70": 739,
      "d29": 740,
      "309": 741,
      "181": 742,
      "dv43": 743,
      "198": 744,
      "dy922": 745,
      "dj9": 746,
      "de878": 747,
      "d20": 748,
      "br": 749,
      "van": 750,
      "comycin": 751,
      "vancomycin": 752,
      "2723": 753,
      "m2296": 754,
      "d278": 755,
      "d32723": 756,
      "3679": 757,
      "l223679": 758,
      "749": 759,
      "l226062": 760,
      "l226063": 761,
      "163": 762,
      "asian": 763,
      "m229420": 764,
      "o226599": 765,
      "700": 766,
      "d496": 767,
      "162": 768,
      "d04": 769,
      "dz7901": 770,
      "5a": 771,
      "d9": 772,
      "180": 773,
      "de0": 774,
      "d428": 775,
      "fi": 776,
      "inog": 777,
      "brinog": 778,
      "fibrinog": 779,
      "fibrinogen": 780,
      "986": 781,
      "d790": 782,
      "165": 783,
      "m221828": 784,
      "dv8": 785,
      "05": 786,
      "l227468": 787,
      "183": 788,
      "d72": 789,
      "800": 790,
      "dn179": 791,
      "dd6": 792,
      "x5a": 793,
      "06": 794,
      "de83": 795,
      "649": 796,
      "l229359": 797,
      "l229360": 798,
      "l229361": 799,
      "l229357": 800,
      "l229358": 801,
      "di4891": 802,
      "669": 803,
      "d19": 804,
      "dom": 805,
      "v223762": 806,
      "dv5866": 807,
      "d34": 808,
      "173": 809,
      "350": 810,
      "182": 811,
      "m228316": 812,
      "d2765": 813,
      "mb": 814,
      "250": 815,
      "167": 816,
      "l227429": 817,
      "733": 818,
      "or": 819,
      "dz79": 820,
      "d43": 821,
      "dv462": 822,
      "d4283": 823,
      "ual": 824,
      "d2720": 825,
      "650": 826,
      "her": 827,
      "other": 828,
      "d40390": 829,
      "450": 830,
      "d486": 831,
      "174": 832,
      "175": 833,
      "d5990": 834,
      "l226540": 835,
      "m2290": 836,
      "res": 837,
      "m222056": 838,
      "tf": 839,
      "idual": 840,
      "residual": 841,
      "pon": 842,
      "opon": 843,
      "ric": 844,
      "l226534": 845,
      "tropon": 846,
      "troponin": 847,
      "164": 848,
      "dt8": 849,
      "5309": 850,
      "de039": 851,
      "d73300": 852,
      "dz867": 853,
      "l225634": 854,
      "dj4": 855,
      "l227445": 856,
      "v225312": 857,
      "701": 858,
      "etco2": 859,
      "xed": 860,
      "dv103": 861,
      "mixed": 862,
      "d2761": 863,
      "d30000": 864,
      "v225309": 865,
      "v225310": 866,
      "dg4733": 867,
      "184": 868,
      "185": 869,
      "169": 870,
      "son": 871,
      "is": 872,
      "220": 873,
      "de119": 874,
      "dd649": 875,
      "d60": 876,
      "jack": 877,
      "att": 878,
      "pratt": 879,
      "jackson": 880,
      "601": 881,
      "de84": 882,
      "902": 883,
      "dk7": 884,
      "dv5867": 885,
      "dr0": 886,
      "dy83": 887,
      "cp": 888,
      "dv153": 889,
      "cpk": 890,
      "d2749": 891,
      "178": 892,
      "08": 893,
      "dz794": 894,
      "de871": 895,
      "171": 896,
      "dz7902": 897,
      "da": 898,
      "d787": 899,
      "900": 900,
      "1400": 901,
      "olic": 902,
      "m221986": 903,
      "d338": 904,
      "d49390": 905,
      "di6": 906,
      "789": 907,
      "d4241": 908,
      "d49": 909,
      "d070": 910,
      "d5859": 911,
      "d79": 912,
      "dy929": 913,
      "dj44": 914,
      "df172": 915,
      "d412": 916,
      "db9": 917,
      "m227525": 918,
      "1289": 919,
      "dn390": 920,
      "689": 921,
      "ough": 922,
      "trough": 923,
      "590": 924,
      "o226561": 925,
      "188": 926,
      "6329": 927,
      "eur": 928,
      "v226329": 929,
      "o226627": 930,
      "d998": 931,
      "df17210": 932,
      "l225638": 933,
      "dv4582": 934,
      "di9": 935,
      "m225834": 936,
      "176": 937,
      "de669": 938,
      "dz86": 939,
      "d440": 940,
      "781": 941,
      "5909": 942,
      "210": 943,
      "l226536": 944,
      "cy": 945,
      "gran": 946,
      "ulo": 947,
      "cyte": 948,
      "granulo": 949,
      "granulocyte": 950,
      "l225637": 951,
      "177": 952,
      "osm": 953,
      "d36": 954,
      "di7": 955,
      "l227455": 956,
      "981": 957,
      "d4168": 958,
      "ban": 959,
      "bands": 960,
      "m221289": 961,
      "d198": 962,
      "197": 963,
      "dv4581": 964,
      "his": 965,
      "latin": 966,
      "pan": 967,
      "5150": 968,
      "hispan": 969,
      "latino": 970,
      "hispanic": 971,
      "d715": 972,
      "550": 973,
      "m225150": 974,
      "201": 975,
      "m227536": 976,
      "d16": 977,
      "d27651": 978,
      "d35": 979,
      "de88": 980,
      "ps": 981,
      "yps": 982,
      "atyps": 983,
      "dc78": 984,
      "o226575": 985,
      "l229356": 986,
      "860": 987,
      "d33829": 988,
      "451": 989,
      "imm": 990,
      "d707": 991,
      "granulocytes": 992,
      "immature": 993,
      "d5119": 994,
      "280": 995,
      "931": 996,
      "221": 997,
      "dj96": 998,
      "dc7": 999,
      "501": 1000,
      "d60000": 1001,
      "509": 1002,
      "de11": 1003,
      "dj45909": 1004,
      "di8": 1005,
      "409": 1006,
      "d27800": 1007,
      "682": 1008,
      "dv1251": 1009,
      "186": 1010,
      "l225674": 1011,
      "df10": 1012,
      "di110": 1013,
      "194": 1014,
      "d44": 1015,
      "191": 1016,
      "dz5": 1017,
      "d51881": 1018,
      "dd62": 1019,
      "187": 1020,
      "m229630": 1021,
      "193": 1022,
      "pase": 1023,
      "lipase": 1024,
      "d2762": 1025,
      "d78791": 1026,
      "o22660": 1027,
      "de9331": 1028,
      "d41400": 1029,
      "d788": 1030,
      "de8339": 1031,
      "m225153": 1032,
      "195": 1033,
      "kn": 1034,
      "ow": 1035,
      "unkn": 1036,
      "own": 1037,
      "unknown": 1038,
      "d2851": 1039,
      "dz85": 1040,
      "m221468": 1041,
      "dv440": 1042,
      "dv85": 1043,
      "o226576": 1044,
      "dg89": 1045,
      "439": 1046,
      "dv4364": 1047,
      "249": 1048,
      "dy92239": 1049,
      "xxa": 1050,
      "random": 1051,
      "739": 1052,
      "569": 1053,
      "707": 1054,
      "989": 1055,
      "dg93": 1056,
      "dv5865": 1057,
      "m228339": 1058,
      "o226567": 1059,
      "dk3": 1060,
      "222": 1061,
      "d285": 1062,
      "dv0": 1063,
      "dj449": 1064,
      "dz5111": 1065,
      "d25": 1066,
      "dr4": 1067,
      "di3": 1068,
      "d42832": 1069,
      "d275": 1070,
      "de9": 1071,
      "dr3": 1072,
      "dm8": 1073,
      "d4240": 1074,
      "dv707": 1075,
      "dn400": 1076,
      "192": 1077,
      "de872": 1078,
      "dy92230": 1079,
      "dj9601": 1080,
      "m227526": 1081,
      "d2768": 1082,
      "dz8673": 1083,
      "321": 1084,
      "202": 1085,
      "1000": 1086,
      "211": 1087,
      "l225672": 1088,
      "lase": 1089,
      "ylase": 1090,
      "dv6": 1091,
      "amylase": 1092,
      "728": 1093,
      "d27801": 1094,
      "dk74": 1095,
      "m222042": 1096,
      "m225833": 1097,
      "214": 1098,
      "dv1046": 1099,
      "209": 1100,
      "272": 1101,
      "m227529": 1102,
      "dz86718": 1103,
      "441": 1104,
      "di252": 1105,
      "dk70": 1106,
      "dk766": 1107,
      "m2258": 1108,
      "8510": 1109,
      "m225835": 1110,
      "659": 1111,
      "cat": 1112,
      "cath": 1113,
      "370": 1114,
      "d33": 1115,
      "982": 1116,
      "out": 1117,
      "ope": 1118,
      "europe": 1119,
      "european": 1120,
      "741": 1121,
      "d28860": 1122,
      "380": 1123,
      "diast": 1124,
      "dg8929": 1125,
      "dd68": 1126,
      "l227454": 1127,
      "199": 1128,
      "d68": 1129,
      "de8798": 1130,
      "dv433": 1131,
      "dd728": 1132,
      "d42789": 1133,
      "740": 1134,
      "do": 1135,
      "d2875": 1136,
      "208": 1137,
      "238": 1138,
      "240": 1139,
      "d56400": 1140,
      "205": 1141,
      "d49121": 1142,
      "215": 1143,
      "dj189": 1144,
      "239": 1145,
      "1555": 1146,
      "230": 1147,
      "270": 1148,
      "dv1011": 1149,
      "d733": 1150,
      "225": 1151,
      "o226600": 1152,
      "959": 1153,
      "dm109": 1154,
      "dt451": 1155,
      "dv8741": 1156,
      "909": 1157,
      "dz858": 1158,
      "di480": 1159,
      "dk9": 1160,
      "m221347": 1161,
      "de10": 1162,
      "de870": 1163,
      "m225911": 1164,
      "o226589": 1165,
      "dv1254": 1166,
      "de8342": 1167,
      "dk59": 1168,
      "d79902": 1169,
      "212": 1170,
      "d9959": 1171,
      "dr13": 1172,
      "l220581": 1173,
      "dg8": 1174,
      "m221555": 1175,
      "d2767": 1176,
      "750": 1177,
      "310": 1178,
      "d5715": 1179,
      "850": 1180,
      "to": 1181,
      "196": 1182,
      "o226579": 1183,
      "284": 1184,
      "213": 1185,
      "dw": 1186,
      "231": 1187,
      "di129": 1188,
      "233": 1189,
      "203": 1190,
      "dv5811": 1191,
      "229": 1192,
      "dz781": 1193,
      "m221824": 1194,
      "d42822": 1195,
      "680": 1196,
      "dg6": 1197,
      "204": 1198,
      "d51889": 1199,
      "m225155": 1200,
      "971": 1201,
      "d26": 1202,
      "mean": 1203,
      "d15": 1204,
      "d4254": 1205,
      "tri": 1206,
      "glyc": 1207,
      "eride": 1208,
      "triglyc": 1209,
      "triglyceride": 1210,
      "ct": 1211,
      "sy": 1212,
      "stolic": 1213,
      "dg4700": 1214,
      "systolic": 1215,
      "559": 1216,
      "diastolic": 1217,
      "260": 1218,
      "cco": 1219,
      "295": 1220,
      "008": 1221,
      "rect": 1222,
      "de861": 1223,
      "d69": 1224,
      "dz9981": 1225,
      "dy838": 1226,
      "224": 1227,
      "dd72829": 1228,
      "o226626": 1229,
      "di8510": 1230,
      "dg92": 1231,
      "o226580": 1232,
      "d78650": 1233,
      "d78061": 1234,
      "m229072": 1235,
      "d42833": 1236,
      "de43": 1237,
      "320": 1238,
      "dk5900": 1239,
      "df0": 1240,
      "001": 1241,
      "d438": 1242,
      "dz86711": 1243,
      "dq": 1244,
      "206": 1245,
      "d78701": 1246,
      "de8497": 1247,
      "830": 1248,
      "d28529": 1249,
      "dv100": 1250,
      "dz7682": 1251,
      "l225693": 1252,
      "dm810": 1253,
      "d78959": 1254,
      "dz955": 1255,
      "235": 1256,
      "gast": 1257,
      "dt451x5a": 1258,
      "gastric": 1259,
      "d78659": 1260,
      "9999": 1261,
      "dn189": 1262,
      "207": 1263,
      "d038": 1264,
      "d78321": 1265,
      "dd696": 1266,
      "dz951": 1267,
      "829": 1268,
      "inese": 1269,
      "chinese": 1270,
      "dj98": 1271,
      "654": 1272,
      "l225684": 1273,
      "dr65": 1274,
      "242": 1275,
      "641": 1276,
      "216": 1277,
      "dy920": 1278,
      "dg40": 1279,
      "d4589": 1280,
      "289": 1281,
      "245": 1282,
      "m227": 1283,
      "275": 1284,
      "259": 1285,
      "950": 1286,
      "217": 1287,
      "398": 1288,
      "m223259": 1289,
      "kg": 1290,
      "mosm": 1291,
      "ality": 1292,
      "olality": 1293,
      "d27652": 1294,
      "osmolality": 1295,
      "d78052": 1296,
      "d7070": 1297,
      "401": 1298,
      "255": 1299,
      "241": 1300,
      "di42": 1301,
      "dv498": 1302,
      "o226582": 1303,
      "de1165": 1304,
      "1120": 1305,
      "dr000": 1306,
      "d5853": 1307,
      "dn183": 1308,
      "282": 1309,
      "690": 1310,
      "227": 1311,
      "d42823": 1312,
      "218": 1313,
      "246": 1314,
      "dz80": 1315,
      "de876": 1316,
      "de8889": 1317,
      "228": 1318,
      "di5022": 1319,
      "de8788": 1320,
      "d50": 1321,
      "d456": 1322,
      "dc34": 1323,
      "1100": 1324,
      "dd509": 1325,
      "619": 1326,
      "244": 1327,
      "dc83": 1328,
      "dm5": 1329,
      "db19": 1330,
      "243": 1331,
      "dk5": 1332,
      "de9320": 1333,
      "653": 1334,
      "234": 1335,
      "o226613": 1336,
      "d719": 1337,
      "351": 1338,
      "223": 1339,
      "de860": 1340,
      "d3572": 1341,
      "dv420": 1342,
      "d4011": 1343,
      "251": 1344,
      "dv4986": 1345,
      "dv1255": 1346,
      "d51": 1347,
      "dv1581": 1348,
      "d2639": 1349,
      "d55": 1350,
      "440": 1351,
      "d28800": 1352,
      "d6": 1353,
      "d4439": 1354,
      "d5723": 1355,
      "dv42": 1356,
      "d3659": 1357,
      "dz66": 1358,
      "291": 1359,
      "di4892": 1360,
      "nas": 1361,
      "ogast": 1362,
      "dk7469": 1363,
      "nasogast": 1364,
      "nasogastric": 1365,
      "direct": 1366,
      "d7802": 1367,
      "di272": 1368,
      "d78820": 1369,
      "237": 1370,
      "d2760": 1371,
      "502": 1372,
      "bag": 1373,
      "con": 1374,
      "226": 1375,
      "995": 1376,
      "di5032": 1377,
      "xxxa": 1378,
      "dz90": 1379,
      "dz85828": 1380,
      "d4271": 1381,
      "d5712": 1382,
      "de46": 1383,
      "281": 1384,
      "d42732": 1385,
      "dr740": 1386,
      "dr7": 1387,
      "dd618": 1388,
      "d5180": 1389,
      "dl0": 1390,
      "dv4501": 1391,
      "dz681": 1392,
      "o226571": 1393,
      "d34590": 1394,
      "dr0902": 1395,
      "254": 1396,
      "dr9": 1397,
      "d410": 1398,
      "290": 1399,
      "d9968": 1400,
      "condom": 1401,
      "589": 1402,
      "006": 1403,
      "694": 1404,
      "298": 1405,
      "dr1310": 1406,
      "1200": 1407,
      "325": 1408,
      "616": 1409,
      "285": 1410,
      "391": 1411,
      "dv850": 1412,
      "di693": 1413,
      "d07070": 1414,
      "db1920": 1415,
      "m225906": 1416,
      "l225651": 1417,
      "d1623": 1418,
      "330": 1419,
      "248": 1420,
      "265": 1421,
      "402": 1422,
      "d1983": 1423,
      "410": 1424,
      "232": 1425,
      "375": 1426,
      "d7907": 1427,
      "dv1272": 1428,
      "dz450": 1429,
      "di5033": 1430,
      "d535": 1431,
      "dv422": 1432,
      "1050": 1433,
      "d29420": 1434,
      "503": 1435,
      "dr51": 1436,
      "dv463": 1437,
      "da419": 1438,
      "m221653": 1439,
      "dk72": 1440,
      "o226606": 1441,
      "di0": 1442,
      "d7860": 1443,
      "d99592": 1444,
      "dz8249": 1445,
      "d7242": 1446,
      "o226633": 1447,
      "bra": 1448,
      "dv1083": 1449,
      "d71590": 1450,
      "247": 1451,
      "352": 1452,
      "dj398": 1453,
      "dj9621": 1454,
      "d2809": 1455,
      "m227694": 1456,
      "dz23": 1457,
      "d7823": 1458,
      "oral": 1459,
      "d70703": 1460,
      "dv160": 1461,
      "d49320": 1462,
      "dz98": 1463,
      "dv4983": 1464,
      "d20500": 1465,
      "dz931": 1466,
      "dm4": 1467,
      "1300": 1468,
      "dg936": 1469,
      "236": 1470,
      "de8782": 1471,
      "257": 1472,
      "018": 1473,
      "561": 1474,
      "dd69": 1475,
      "d07054": 1476,
      "560": 1477,
      "dd6959": 1478,
      "009": 1479,
      "d519": 1480,
      "d28419": 1481,
      "d7904": 1482,
      "dv851": 1483,
      "411": 1484,
      "269": 1485,
      "809": 1486,
      "sout": 1487,
      "south": 1488,
      "293": 1489,
      "268": 1490,
      "dl89": 1491,
      "d79092": 1492,
      "dr6521": 1493,
      "570": 1494,
      "east": 1495,
      "dv441": 1496,
      "pleur": 1497,
      "pleural": 1498,
      "d730": 1499,
      "1990": 1500,
      "848": 1501,
      "de8780": 1502,
      "271": 1503,
      "1500": 1504,
      "dv4589": 1505,
      "731": 1506,
      "df0390": 1507,
      "444": 1508,
      "d53": 1509,
      "m229616": 1510,
      "d1970": 1511,
      "di340": 1512,
      "dz958": 1513,
      "m229640": 1514,
      "575": 1515,
      "di959": 1516,
      "o226573": 1517,
      "ds0": 1518,
      "de559": 1519,
      "de8490": 1520,
      "d5770": 1521,
      "d6826": 1522,
      "dk7290": 1523,
      "dr197": 1524,
      "d78060": 1525,
      "0995": 1526,
      "m220995": 1527,
      "d25060": 1528,
      "299": 1529,
      "dr339": 1530,
      "d785": 1531,
      "dk8": 1532,
      "dj441": 1533,
      "d1629": 1534,
      "301": 1535,
      "308": 1536,
      "d45829": 1537,
      "dy848": 1538,
      "dz923": 1539,
      "m225913": 1540,
      "449": 1541,
      "dc7931": 1542,
      "dg40909": 1543,
      "de875": 1544,
      "252": 1545,
      "801": 1546,
      "278": 1547,
      "activ": 1548,
      "340": 1549,
      "xx": 1550,
      "288": 1551,
      "dm1990": 1552,
      "d5718": 1553,
      "m229624": 1554,
      "264": 1555,
      "dc79": 1556,
      "d7804": 1557,
      "d5070": 1558,
      "d008": 1559,
      "625": 1560,
      "7701": 1561,
      "dv120": 1562,
      "o227701": 1563,
      "dk3189": 1564,
      "506": 1565,
      "dz9221": 1566,
      "ein": 1567,
      "protein": 1568,
      "dv173": 1569,
      "dk75": 1570,
      "d7140": 1571,
      "dn170": 1572,
      "510": 1573,
      "d18": 1574,
      "de7800": 1575,
      "d5601": 1576,
      "di509": 1577,
      "d0389": 1578,
      "975": 1579,
      "253": 1580,
      "425": 1581,
      "525": 1582,
      "o227511": 1583,
      "279": 1584,
      "dd689": 1585,
      "d30500": 1586,
      "d00845": 1587,
      "562": 1588,
      "dr6": 1589,
      "d1985": 1590,
      "di428": 1591,
      "360": 1592,
      "274": 1593,
      "df05": 1594,
      "dz966": 1595,
      "m229654": 1596,
      "d51919": 1597,
      "1250": 1598,
      "dz91": 1599,
      "580": 1600,
      "d44020": 1601,
      "dr791": 1602,
      "d29680": 1603,
      "017": 1604,
      "dr001": 1605,
      "970": 1606,
      "dx": 1607,
      "put": 1608,
      "ated": 1609,
      "output": 1610,
      "dv130": 1611,
      "d20280": 1612,
      "d38": 1613,
      "d7821": 1614,
      "dg620": 1615,
      "d46": 1616,
      "379": 1617,
      "d459": 1618,
      "de6": 1619,
      "dm7": 1620,
      "dd638": 1621,
      "dk7031": 1622,
      "1150": 1623,
      "di5023": 1624,
      "267": 1625,
      "430": 1626,
      "l227462": 1627,
      "dh409": 1628,
      "014": 1629,
      "579": 1630,
      "dj90": 1631,
      "d73390": 1632,
      "pu": 1633,
      "erto": 1634,
      "738": 1635,
      "d3004": 1636,
      "d45621": 1637,
      "dd61818": 1638,
      "puerto": 1639,
      "dk6": 1640,
      "d345": 1641,
      "o226598": 1642,
      "vac": 1643,
      "305": 1644,
      "de8809": 1645,
      "303": 1646,
      "dv161": 1647,
      "662": 1648,
      "263": 1649,
      "d7245": 1650,
      "d51189": 1651,
      "ecal": 1652,
      "fecal": 1653,
      "ati": 1654,
      "and": 1655,
      "dk56": 1656,
      "dv4502": 1657,
      "dv6284": 1658,
      "d27669": 1659,
      "785": 1660,
      "m229070": 1661,
      "273": 1662,
      "po2": 1663,
      "m221662": 1664,
      "d99859": 1665,
      "256": 1666,
      "475": 1667,
      "ool": 1668,
      "dz99": 1669,
      "dh5": 1670,
      "stool": 1671,
      "d528": 1672,
      "d3320": 1673,
      "di255": 1674,
      "831": 1675,
      "d5845": 1676,
      "stra": 1677,
      "straight": 1678,
      "016": 1679,
      "d41071": 1680,
      "d238": 1681,
      "266": 1682,
      "d279": 1683,
      "dc77": 1684,
      "dz95810": 1685,
      "363": 1686,
      "302": 1687,
      "ican": 1688,
      "o226593": 1689,
      "d2930": 1690,
      "dg629": 1691,
      "312": 1692,
      "fk": 1693,
      "fk506": 1694,
      "012": 1695,
      "d8": 1696,
      "455": 1697,
      "276": 1698,
      "d5771": 1699,
      "999999": 1700,
      "d48": 1701,
      "341": 1702,
      "di27": 1703,
      "d7850": 1704,
      "d716": 1705,
      "d7295": 1706,
      "dz006": 1707,
      "dz850": 1708,
      "d3569": 1709,
      "dz9181": 1710,
      "dk7030": 1711,
      "319": 1712,
      "de1122": 1713,
      "013": 1714,
      "d74": 1715,
      "l227463": 1716,
      "d78039": 1717,
      "dc7951": 1718,
      "di739": 1719,
      "dr509": 1720,
      "dt380": 1721,
      "d23875": 1722,
      "5118": 1723,
      "385": 1724,
      "dz930": 1725,
      "d4928": 1726,
      "315": 1727,
      "953": 1728,
      "m221429": 1729,
      "d99685": 1730,
      "ebl": 1731,
      "l2275": 1732,
      "ost": 1733,
      "l227516": 1734,
      "011": 1735,
      "dd5": 1736,
      "972": 1737,
      "dz853": 1738,
      "702": 1739,
      "o226597": 1740,
      "ant": 1741,
      "447": 1742,
      "d30390": 1743,
      "dy92009": 1744,
      "inican": 1745,
      "dr112": 1746,
      "dominican": 1747,
      "dz4502": 1748,
      "ca": 1749,
      "432": 1750,
      "d2753": 1751,
      "283": 1752,
      "dj690": 1753,
      "d2880": 1754,
      "dz85118": 1755,
      "dv4365": 1756,
      "dk7581": 1757,
      "ver": 1758,
      "602": 1759,
      "dean": 1760,
      "287": 1761,
      "o226583": 1762,
      "0481": 1763,
      "cape": 1764,
      "verdean": 1765,
      "015": 1766,
      "de1": 1767,
      "dv5869": 1768,
      "di2720": 1769,
      "393": 1770,
      "dz9114": 1771,
      "469": 1772,
      "o226619": 1773,
      "dz6841": 1774,
      "o2274": 1775,
      "373": 1776,
      "di130": 1777,
      "de6601": 1778,
      "261": 1779,
      "dy832": 1780,
      "dc787": 1781,
      "d574": 1782,
      "d2752": 1783,
      "dv0481": 1784,
      "675": 1785,
      "d39": 1786,
      "d7862": 1787,
      "d5533": 1788,
      "019": 1789,
      "dk449": 1790,
      "o226612": 1791,
      "d99591": 1792,
      "495": 1793,
      "d25002": 1794,
      "dv412": 1795,
      "da4": 1796,
      "725": 1797,
      "rti": 1798,
      "corti": 1799,
      "df43": 1800,
      "db9561": 1801,
      "di714": 1802,
      "cortisol": 1803,
      "dr188": 1804,
      "di471": 1805,
      "d2536": 1806,
      "277": 1807,
      "dr569": 1808,
      "d99682": 1809,
      "d4580": 1810,
      "d34982": 1811,
      "021": 1812,
      "984": 1813,
      "d415": 1814,
      "954": 1815,
      "dg9": 1816,
      "d78552": 1817,
      "378": 1818,
      "dk3184": 1819,
      "d73313": 1820,
      "d53550": 1821,
      "1350": 1822,
      "962": 1823,
      "dv443": 1824,
      "342": 1825,
      "d135": 1826,
      "dy8": 1827,
      "d04149": 1828,
      "di330": 1829,
      "uric": 1830,
      "di45": 1831,
      "m225945": 1832,
      "382": 1833,
      "d2841": 1834,
      "dc3490": 1835,
      "dt380x5a": 1836,
      "620": 1837,
      "nati": 1838,
      "dk921": 1839,
      "dj9809": 1840,
      "d78900": 1841,
      "d346": 1842,
      "l227446": 1843,
      "292": 1844,
      "l225628": 1845,
      "phen": 1846,
      "d4414": 1847,
      "d34690": 1848,
      "825": 1849,
      "l225695": 1850,
      "286": 1851,
      "m225909": 1852,
      "7401": 1853,
      "047": 1854,
      "fr": 1855,
      "901": 1856,
      "dz8546": 1857,
      "ort": 1858,
      "421": 1859,
      "dg20": 1860,
      "action": 1861,
      "fraction": 1862,
      "d64": 1863,
      "d7840": 1864,
      "dj84": 1865,
      "d5939": 1866,
      "d1120": 1867,
      "ssian": 1868,
      "russian": 1869,
      "dc8": 1870,
      "m229071": 1871,
      "311": 1872,
      "dd64": 1873,
      "d04104": 1874,
      "875": 1875,
      "m222051": 1876,
      "1600": 1877,
      "d44021": 1878,
      "d36201": 1879,
      "345": 1880,
      "335": 1881,
      "408": 1882,
      "1450": 1883,
      "d73342": 1884,
      "de222": 1885,
      "780": 1886,
      "029": 1887,
      "775": 1888,
      "354": 1889,
      "dw19": 1890,
      "630": 1891,
      "m229233": 1892,
      "dj8": 1893,
      "dk7460": 1894,
      "dv4282": 1895,
      "d80": 1896,
      "d4139": 1897,
      "d78097": 1898,
      "de8792": 1899,
      "dw18": 1900,
      "oun": 1901,
      "woun": 1902,
      "wound": 1903,
      "jp": 1904,
      "di482": 1905,
      "o226610": 1906,
      "dv1003": 1907,
      "dj9811": 1908,
      "di214": 1909,
      "d7824": 1910,
      "go": 1911,
      "xin": 1912,
      "di350": 1913,
      "digo": 1914,
      "007": 1915,
      "d51884": 1916,
      "digoxin": 1917,
      "d5303": 1918,
      "d9971": 1919,
      "da047": 1920,
      "d71536": 1921,
      "d1890": 1922,
      "bn": 1923,
      "pg": 1924,
      "pti": 1925,
      "tic": 1926,
      "uretic": 1927,
      "m227535": 1928,
      "dk57": 1929,
      "pepti": 1930,
      "brain": 1931,
      "dx58": 1932,
      "natiuretic": 1933,
      "bnp": 1934,
      "peptide": 1935,
      "dv454": 1936,
      "de9342": 1937,
      "dd630": 1938,
      "dk922": 1939,
      "361": 1940,
      "460": 1941,
      "296": 1942,
      "d49322": 1943,
      "d34830": 1944,
      "dd684": 1945,
      "294": 1946,
      "de8499": 1947,
      "d5569": 1948,
      "d19889": 1949,
      "313": 1950,
      "ta": 1951,
      "d43310": 1952,
      "d71596": 1953,
      "d43811": 1954,
      "541": 1955,
      "di69": 1956,
      "d45981": 1957,
      "dx58xxxa": 1958,
      "297": 1959,
      "317": 1960,
      "di472": 1961,
      "dv1052": 1962,
      "d1961": 1963,
      "dr911": 1964,
      "dz993": 1965,
      "025": 1966,
      "329": 1967,
      "339": 1968,
      "di5": 1969,
      "304": 1970,
      "307": 1971,
      "d2689": 1972,
      "dj9622": 1973,
      "328": 1974,
      "464": 1975,
      "d2763": 1976,
      "de8770": 1977,
      "db182": 1978,
      "o226592": 1979,
      "d07032": 1980,
      "d71690": 1981,
      "d11": 1982,
      "306": 1983,
      "dv55": 1984,
      "d7820": 1985,
      "d728": 1986,
      "db9689": 1987,
      "d70715": 1988,
      "333": 1989,
      "de780": 1990,
      "d5722": 1991,
      "di951": 1992,
      "dv444": 1993,
      "o226631": 1994,
      "d51883": 1995,
      "d3899": 1996,
      "dd6481": 1997,
      "reactiv": 1998,
      "dv641": 1999,
      "crp": 2000,
      "d515": 2001,
      "reactive": 2002,
      "323": 2003,
      "1700": 2004,
      "dd75": 2005,
      "db96": 2006,
      "dr079": 2007,
      "365": 2008,
      "l227444": 2009,
      "394": 2010,
      "d53010": 2011,
      "de8859": 2012,
      "df10239": 2013,
      "dg893": 2014,
      "316": 2015,
      "383": 2016,
      "710": 2017,
      "651": 2018,
      "652": 2019,
      "1712": 2020,
      "355": 2021,
      "o226590": 2022,
      "d90": 2023,
      "d78720": 2024,
      "dz9861": 2025,
      "d4111": 2026,
      "dr10": 2027,
      "dr338": 2028,
      "d52801": 2029,
      "d185": 2030,
      "dz800": 2031,
      "dv1271": 2032,
      "dc8338": 2033,
      "d78605": 2034,
      "925": 2035,
      "d28749": 2036,
      "d59654": 2037,
      "d59970": 2038,
      "df1010": 2039,
      "dk567": 2040,
      "470": 2041,
      "1025": 2042,
      "de85": 2043,
      "dr40": 2044,
      "stand": 2045,
      "d5609": 2046,
      "df319": 2047,
      "standing": 2048,
      "528": 2049,
      "d5121": 2050,
      "d368": 2051,
      "d737": 2052,
      "de8352": 2053,
      "d24900": 2054,
      "dr410": 2055,
      "di080": 2056,
      "520": 2057,
      "5090": 2058,
      "2000": 2059,
      "023": 2060,
      "318": 2061,
      "720": 2062,
      "eme": 2063,
      "sis": 2064,
      "l220603": 2065,
      "o226601": 2066,
      "d5363": 2067,
      "dv151": 2068,
      "dv1051": 2069,
      "d4659": 2070,
      "emesis": 2071,
      "yto": 2072,
      "431": 2073,
      "dz953": 2074,
      "dt828": 2075,
      "dd539": 2076,
      "d41519": 2077,
      "phenyto": 2078,
      "phenytoin": 2079,
      "ldl": 2080,
      "dj9600": 2081,
      "db961": 2082,
      "d43889": 2083,
      "dm545": 2084,
      "dr110": 2085,
      "d5856": 2086,
      "d42842": 2087,
      "il": 2088,
      "d3970": 2089,
      "743": 2090,
      "349": 2091,
      "erol": 2092,
      "de440": 2093,
      "olest": 2094,
      "cholest": 2095,
      "dn401": 2096,
      "dm79": 2097,
      "d25541": 2098,
      "cholesterol": 2099,
      "671": 2100,
      "dv5863": 2101,
      "d73399": 2102,
      "480": 2103,
      "980": 2104,
      "dz96": 2105,
      "d4829": 2106,
      "omy": 2107,
      "d53019": 2108,
      "db370": 2109,
      "o226604": 2110,
      "ostomy": 2111,
      "4112": 2112,
      "d56409": 2113,
      "dl9": 2114,
      "507": 2115,
      "lant": 2116,
      "dial": 2117,
      "dilant": 2118,
      "d4232": 2119,
      "d537": 2120,
      "dj910": 2121,
      "dilantin": 2122,
      "hdl": 2123,
      "1800": 2124,
      "l227461": 2125,
      "dz93": 2126,
      "di826": 2127,
      "db9620": 2128,
      "540": 2129,
      "l220624": 2130,
      "dv163": 2131,
      "d0416": 2132,
      "024": 2133,
      "d4412": 2134,
      "3a": 2135,
      "686": 2136,
      "939": 2137,
      "df1120": 2138,
      "dz7982": 2139,
      "d29181": 2140,
      "di712": 2141,
      "dv554": 2142,
      "ain": 2143,
      "429": 2144,
      "dv270": 2145,
      "drain": 2146,
      "dh9": 2147,
      "dj958": 2148,
      "d1977": 2149,
      "d60001": 2150,
      "7881": 2151,
      "d7837": 2152,
      "o226563": 2153,
      "dr7881": 2154,
      "d362": 2155,
      "di952": 2156,
      "dv1204": 2157,
      "1075": 2158,
      "dr42": 2159,
      "dv1588": 2160,
      "022": 2161,
      "df11": 2162,
      "1125": 2163,
      "d30503": 2164,
      "dz7984": 2165,
      "dv4579": 2166,
      "d3485": 2167,
      "m221712": 2168,
      "di26": 2169,
      "581": 2170,
      "d7812": 2171,
      "d722": 2172,
      "dv4576": 2173,
      "dz7952": 2174,
      "610": 2175,
      "331": 2176,
      "d5370": 2177,
      "de8351": 2178,
      "d78829": 2179,
      "d27952": 2180,
      "368": 2181,
      "l227440": 2182,
      "dr55": 2183,
      "dv1552": 2184,
      "d73679": 2185,
      "dv1302": 2186,
      "car": 2187,
      "de115": 2188,
      "dg971": 2189,
      "dc220": 2190,
      "d04112": 2191,
      "dj811": 2192,
      "314": 2193,
      "dl409": 2194,
      "1550": 2195,
      "405": 2196,
      "dk831": 2197,
      "d20400": 2198,
      "381": 2199,
      "dd500": 2200,
      "d30183": 2201,
      "di429": 2202,
      "069": 2203,
      "ulated": 2204,
      "calculated": 2205,
      "db954": 2206,
      "d452": 2207,
      "dz8674": 2208,
      "dd4": 2209,
      "l225671": 2210,
      "7690": 2211,
      "dk7200": 2212,
      "de1065": 2213,
      "d28803": 2214,
      "dw19xxxa": 2215,
      "m227690": 2216,
      "dr739": 2217,
      "dz952": 2218,
      "d0417": 2219,
      "338": 2220,
      "344": 2221,
      "cen": 2222,
      "dy830": 2223,
      "d56210": 2224,
      "tral": 2225,
      "dj9602": 2226,
      "dv029": 2227,
      "d27541": 2228,
      "central": 2229,
      "371": 2230,
      "d478": 2231,
      "395": 2232,
      "de1043": 2233,
      "dm549": 2234,
      "406": 2235,
      "d340": 2236,
      "d30393": 2237,
      "d996": 2238,
      "d99812": 2239,
      "di70": 2240,
      "d5762": 2241,
      "d99749": 2242,
      "dg8194": 2243,
      "m225147": 2244,
      "d4148": 2245,
      "334": 2246,
      "dz720": 2247,
      "de8786": 2248,
      "7686": 2249,
      "d23": 2250,
      "l227686": 2251,
      "1330": 2252,
      "d49392": 2253,
      "de8781": 2254,
      "490": 2255,
      "530": 2256,
      "660": 2257,
      "d78702": 2258,
      "dr64": 2259,
      "322": 2260,
      "485": 2261,
      "735": 2262,
      "di420": 2263,
      "dg43": 2264,
      "dz950": 2265,
      "dv8801": 2266,
      "d9982": 2267,
      "dc772": 2268,
      "d5761": 2269,
      "dv4586": 2270,
      "d71941": 2271,
      "d2738": 2272,
      "d40391": 2273,
      "d756": 2274,
      "d30391": 2275,
      "d150": 2276,
      "15a": 2277,
      "709": 2278,
      "458": 2279,
      "1650": 2280,
      "1121": 2281,
      "d042": 2282,
      "dy831": 2283,
      "640": 2284,
      "d00": 2285,
      "505": 2286,
      "de116": 2287,
      "d0413": 2288,
      "d33818": 2289,
      "dc786": 2290,
      "dg9340": 2291,
      "di4581": 2292,
      "324": 2293,
      "dr5": 2294,
      "di2699": 2295,
      "599": 2296,
      "di87": 2297,
      "681": 2298,
      "d793": 2299,
      "d53085": 2300,
      "dz6837": 2301,
      "dz85528": 2302,
      "di63": 2303,
      "839": 2304,
      "392": 2305,
      "326": 2306,
      "488": 2307,
      "d17": 2308,
      "585": 2309,
      "dn12": 2310,
      "dd6851": 2311,
      "1175": 2312,
      "dj111": 2313,
      "dr0789": 2314,
      "de1010": 2315,
      "d53789": 2316,
      "ad": 2317,
      "748": 2318,
      "ssion": 2319,
      "672": 2320,
      "386": 2321,
      "mission": 2322,
      "age": 2323,
      "dr570": 2324,
      "1225": 2325,
      "drainage": 2326,
      "admission": 2327,
      "026": 2328,
      "327": 2329,
      "770": 2330,
      "d93": 2331,
      "sit": 2332,
      "ting": 2333,
      "372": 2334,
      "347": 2335,
      "d342": 2336,
      "d5772": 2337,
      "d6929": 2338,
      "d78609": 2339,
      "sitting": 2340,
      "027": 2341,
      "d5768": 2342,
      "d20501": 2343,
      "426": 2344,
      "dz87": 2345,
      "dj9691": 2346,
      "di824": 2347,
      "346": 2348,
      "d72989": 2349,
      "ese": 2350,
      "port": 2351,
      "uese": 2352,
      "dl8": 2353,
      "dz896": 2354,
      "d30981": 2355,
      "uguese": 2356,
      "dr4701": 2357,
      "dr634": 2358,
      "portuguese": 2359,
      "332": 2360,
      "1750": 2361,
      "di671": 2362,
      "de2": 2363,
      "1900": 2364,
      "dv4572": 2365,
      "d1550": 2366,
      "356": 2367,
      "dr1312": 2368,
      "670": 2369,
      "d7890": 2370,
      "dk29": 2371,
      "d5920": 2372,
      "d51181": 2373,
      "dv5": 2374,
      "rectal": 2375,
      "dq282": 2376,
      "343": 2377,
      "d37": 2378,
      "d21": 2379,
      "571": 2380,
      "6a": 2381,
      "423": 2382,
      "d42781": 2383,
      "d583": 2384,
      "dd320": 2385,
      "d25080": 2386,
      "dm25": 2387,
      "m229069": 2388,
      "clo": 2389,
      "x6a": 2390,
      "d5178": 2391,
      "tting": 2392,
      "dv1082": 2393,
      "d70723": 2394,
      "o226603": 2395,
      "activated": 2396,
      "d58381": 2397,
      "clotting": 2398,
      "d200": 2399,
      "dk22": 2400,
      "d25042": 2401,
      "d25040": 2402,
      "dv1005": 2403,
      "min": 2404,
      "1275": 2405,
      "d7830": 2406,
      "dr50": 2407,
      "d3441": 2408,
      "d560": 2409,
      "d0414": 2410,
      "di878": 2411,
      "de662": 2412,
      "de1121": 2413,
      "dm6": 2414,
      "dm9": 2415,
      "d07030": 2416,
      "dr627": 2417,
      "dg43909": 2418,
      "x5": 2419,
      "508": 2420,
      "l220650": 2421,
      "11a": 2422,
      "dz590": 2423,
      "dm255": 2424,
      "dt455": 2425,
      "db181": 2426,
      "di5021": 2427,
      "dg8191": 2428,
      "dt45515a": 2429,
      "465": 2430,
      "435": 2431,
      "dv08": 2432,
      "357": 2433,
      "dk5909": 2434,
      "dr471": 2435,
      "dr6520": 2436,
      "dz801": 2437,
      "d71946": 2438,
      "dz9049": 2439,
      "960": 2440,
      "1370": 2441,
      "d4263": 2442,
      "df17": 2443,
      "dl031": 2444,
      "dz45018": 2445,
      "dv1301": 2446,
      "890": 2447,
      "pac": 2448,
      "x0": 2449,
      "l220507": 2450,
      "d7847": 2451,
      "m225832": 2452,
      "d6961": 2453,
      "dc3411": 2454,
      "df17200": 2455,
      "dz87820": 2456,
      "dj9503": 2457,
      "d7905": 2458,
      "d28522": 2459,
      "930": 2460,
      "555": 2461,
      "d53089": 2462,
      "dc7801": 2463,
      "d5081": 2464,
      "905": 2465,
      "d2441": 2466,
      "df1021": 2467,
      "dv427": 2468,
      "337": 2469,
      "481": 2470,
      "515": 2471,
      "358": 2472,
      "df14": 2473,
      "d2869": 2474,
      "m227689": 2475,
      "d53190": 2476,
      "de1151": 2477,
      "dz7401": 2478,
      "dr748": 2479,
      "d20190": 2480,
      "m229632": 2481,
      "gu": 2482,
      "4359": 2483,
      "dd469": 2484,
      "412": 2485,
      "di82": 2486,
      "403": 2487,
      "dy92": 2488,
      "d44023": 2489,
      "d70722": 2490,
      "dw1830": 2491,
      "418": 2492,
      "d22": 2493,
      "376": 2494,
      "dk80": 2495,
      "d2731": 2496,
      "d2867": 2497,
      "d99931": 2498,
      "dz6834": 2499,
      "d4404": 2500,
      "o227489": 2501,
      "o227488": 2502,
      "572": 2503,
      "dm480": 2504,
      "dm797": 2505,
      "dw1830xa": 2506,
      "dl97": 2507,
      "605": 2508,
      "dd8": 2509,
      "dz8619": 2510,
      "dr319": 2511,
      "d1519": 2512,
      "dh534": 2513,
      "820": 2514,
      "gta": 2515,
      "igta": 2516,
      "pigta": 2517,
      "dv49": 2518,
      "d2662": 2519,
      "dg935": 2520,
      "dm54": 2521,
      "dt8641": 2522,
      "d7464": 2523,
      "pigtail": 2524,
      "1325": 2525,
      "de106": 2526,
      "d04111": 2527,
      "d43411": 2528,
      "d4940": 2529,
      "442": 2530,
      "535": 2531,
      "cer": 2532,
      "ebr": 2533,
      "eral": 2534,
      "1850": 2535,
      "di447": 2536,
      "dz3a": 2537,
      "384": 2538,
      "d42843": 2539,
      "cerebr": 2540,
      "cerebral": 2541,
      "869": 2542,
      "dm419": 2543,
      "d45341": 2544,
      "dy92234": 2545,
      "dj849": 2546,
      "359": 2547,
      "dc85": 2548,
      "d7906": 2549,
      "dj95851": 2550,
      "v224359": 2551,
      "dv53": 2552,
      "695": 2553,
      "d72400": 2554,
      "dc7989": 2555,
      "d2113": 2556,
      "1230": 2557,
      "lying": 2558,
      "dt501": 2559,
      "dh53461": 2560,
      "760": 2561,
      "840": 2562,
      "d725": 2563,
      "dg9389": 2564,
      "de1142": 2565,
      "pacu": 2566,
      "lat": 2567,
      "424": 2568,
      "d7873": 2569,
      "dv1261": 2570,
      "d72402": 2571,
      "dl89152": 2572,
      "lateral": 2573,
      "399": 2574,
      "1425": 2575,
      "685": 2576,
      "dz982": 2577,
      "d4142": 2578,
      "dj439": 2579,
      "dc8510": 2580,
      "d79001": 2581,
      "dl03115": 2582,
      "a1": 2583,
      "m221319": 2584,
      "d36250": 2585,
      "595": 2586,
      "dr600": 2587,
      "d28246": 2588,
      "d1963": 2589,
      "dj459": 2590,
      "d78841": 2591,
      "dz85038": 2592,
      "dd751": 2593,
      "730": 2594,
      "d2800": 2595,
      "d7291": 2596,
      "d30501": 2597,
      "d30560": 2598,
      "ds065": 2599,
      "445": 2600,
      "491": 2601,
      "d759": 2602,
      "d567": 2603,
      "d56089": 2604,
      "990": 2605,
      "dl408": 2606,
      "1110": 2607,
      "d4739": 2608,
      "d5789": 2609,
      "dr298": 2610,
      "d2853": 2611,
      "di442": 2612,
      "d42821": 2613,
      "dr4182": 2614,
      "dv1209": 2615,
      "dr29810": 2616,
      "545": 2617,
      "615": 2618,
      "mediast": 2619,
      "inal": 2620,
      "1440": 2621,
      "68a": 2622,
      "d51289": 2623,
      "dj939": 2624,
      "dz874": 2625,
      "d9966": 2626,
      "d27803": 2627,
      "dv8521": 2628,
      "dk861": 2629,
      "dz96641": 2630,
      "dt82868a": 2631,
      "mediastinal": 2632,
      "880": 2633,
      "1290": 2634,
      "353": 2635,
      "d04119": 2636,
      "dk760": 2637,
      "dk521": 2638,
      "415": 2639,
      "603": 2640,
      "d4233": 2641,
      "348": 2642,
      "dv5812": 2643,
      "dv0382": 2644,
      "dk5190": 2645,
      "374": 2646,
      "940": 2647,
      "cub": 2648,
      "di495": 2649,
      "d0380": 2650,
      "d99889": 2651,
      "dc7802": 2652,
      "cuban": 2653,
      "795": 2654,
      "dn182": 2655,
      "dc641": 2656,
      "dz940": 2657,
      "d1962": 2658,
      "d99811": 2659,
      "de2740": 2660,
      "367": 2661,
      "715": 2662,
      "xd": 2663,
      "705": 2664,
      "de873": 2665,
      "o226620": 2666,
      "df1020": 2667,
      "de9378": 2668,
      "dv620": 2669,
      "dz803": 2670,
      "de1140": 2671,
      "d75689": 2672,
      "635": 2673,
      "565": 2674,
      "1675": 2675,
      "de935": 2676,
      "d5559": 2677,
      "d2825": 2678,
      "d726": 2679,
      "de890": 2680,
      "dv4972": 2681,
      "dj479": 2682,
      "d7910": 2683,
      "dz9884": 2684,
      "di872": 2685,
      "2100": 2686,
      "d75": 2687,
      "dn319": 2688,
      "d04185": 2689,
      "di9581": 2690,
      "di7101": 2691,
      "dt451x5": 2692,
      "d34510": 2693,
      "d99674": 2694,
      "d96": 2695,
      "609": 2696,
      "dz09": 2697,
      "805": 2698,
      "dc91": 2699,
      "dz6827": 2700,
      "dt8579": 2701,
      "d43820": 2702,
      "d71945": 2703,
      "d648": 2704,
      "dd473": 2705,
      "dt8579xa": 2706,
      "645": 2707,
      "dz018": 2708,
      "779": 2709,
      "d4253": 2710,
      "dv442": 2711,
      "dj440": 2712,
      "d3383": 2713,
      "dr918": 2714,
      "dm941": 2715,
      "dz01810": 2716,
      "665": 2717,
      "920": 2718,
      "1020": 2719,
      "1475": 2720,
      "336": 2721,
      "d42830": 2722,
      "db965": 2723,
      "dm8580": 2724,
      "xxs": 2725,
      "df4310": 2726,
      "985": 2727,
      "1950": 2728,
      "389": 2729,
      "dt80": 2730,
      "d2440": 2731,
      "ds00": 2732,
      "d3484": 2733,
      "dv8542": 2734,
      "d78551": 2735,
      "de874": 2736,
      "d78079": 2737,
      "d591": 2738,
      "ds22": 2739,
      "dc7889": 2740,
      "di69320": 2741,
      "1a": 2742,
      "404": 2743,
      "26xxa": 2744,
      "d4400": 2745,
      "d365": 2746,
      "d5711": 2747,
      "d590": 2748,
      "d7318": 2749,
      "dz6830": 2750,
      "dt826xxa": 2751,
      "de8842": 2752,
      "dv4987": 2753,
      "1375": 2754,
      "dl975": 2755,
      "1210": 2756,
      "di2": 2757,
      "dv1072": 2758,
      "dz6843": 2759,
      "d3694": 2760,
      "d78830": 2761,
      "df0280": 2762,
      "2200": 2763,
      "dv550": 2764,
      "di493": 2765,
      "d1960": 2766,
      "d4386": 2767,
      "di723": 2768,
      "v22464": 2769,
      "di76": 2770,
      "dz902": 2771,
      "d4160": 2772,
      "m227531": 2773,
      "dd709": 2774,
      "d25050": 2775,
      "d29590": 2776,
      "df10229": 2777,
      "dk318": 2778,
      "bar": 2779,
      "m227520": 2780,
      "dg35": 2781,
      "dz6831": 2782,
      "d431": 2783,
      "dc7800": 2784,
      "dv1006": 2785,
      "dc8339": 2786,
      "dv5332": 2787,
      "835": 2788,
      "910": 2789,
      "1060": 2790,
      "dz22": 2791,
      "dk589": 2792,
      "d27401": 2793,
      "d7210": 2794,
      "d70719": 2795,
      "d28521": 2796,
      "dy92019": 2797,
      "1525": 2798,
      "377": 2799,
      "dv140": 2800,
      "387": 2801,
      "d553": 2802,
      "dz6838": 2803,
      "dv8541": 2804,
      "dz89612": 2805,
      "810": 2806,
      "di77": 2807,
      "d30401": 2808,
      "de8796": 2809,
      "dg9341": 2810,
      "d73730": 2811,
      "di21": 2812,
      "784": 2813,
      "648": 2814,
      "448": 2815,
      "dy834": 2816,
      "de11649": 2817,
      "dy846": 2818,
      "di21a1": 2819,
      "028": 2820,
      "d112": 2821,
      "land": 2822,
      "969": 2823,
      "dt402": 2824,
      "d79029": 2825,
      "island": 2826,
      "d3559": 2827,
      "d53510": 2828,
      "d4821": 2829,
      "031": 2830,
      "ado": 2831,
      "gc": 2832,
      "tgc": 2833,
      "563": 2834,
      "medial": 2835,
      "dz16": 2836,
      "d5750": 2837,
      "do99": 2838,
      "dt451x5s": 2839,
      "2150": 2840,
      "895": 2841,
      "d7231": 2842,
      "1180": 2843,
      "1189": 2844,
      "dt361": 2845,
      "dv4511": 2846,
      "d959": 2847,
      "d6989": 2848,
      "d28804": 2849,
      "dt361x5a": 2850,
      "870": 2851,
      "tric": 2852,
      "ular": 2853,
      "999": 2854,
      "m225973": 2855,
      "ventric": 2856,
      "db952": 2857,
      "d1570": 2858,
      "de11621": 2859,
      "ventricular": 2860,
      "865": 2861,
      "zili": 2862,
      "655": 2863,
      "de113": 2864,
      "d4785": 2865,
      "d78559": 2866,
      "dr68": 2867,
      "d2989": 2868,
      "dn1330": 2869,
      "dj918": 2870,
      "d34839": 2871,
      "d44024": 2872,
      "d70724": 2873,
      "brazili": 2874,
      "brazilian": 2875,
      "885": 2876,
      "591": 2877,
      "1625": 2878,
      "8242": 2879,
      "855": 2880,
      "d575": 2881,
      "d2721": 2882,
      "dd801": 2883,
      "d25063": 2884,
      "d73743": 2885,
      "de9363": 2886,
      "dr0600": 2887,
      "dc771": 2888,
      "dl896": 2889,
      "de10620": 2890,
      "815": 2891,
      "845": 2892,
      "1010": 2893,
      "1080": 2894,
      "d41189": 2895,
      "d48242": 2896,
      "dj385": 2897,
      "dz8572": 2898,
      "d0785": 2899,
      "dz6824": 2900,
      "d2948": 2901,
      "di9789": 2902,
      "dk529": 2903,
      "1749": 2904,
      "d07": 2905,
      "1320": 2906,
      "658": 2907,
      "dv180": 2908,
      "907": 2909,
      "438": 2910,
      "d99672": 2911,
      "d70701": 2912,
      "d20410": 2913,
      "d1976": 2914,
      "d71535": 2915,
      "di5189": 2916,
      "d72887": 2917,
      "dh9190": 2918,
      "dv4975": 2919,
      "d78009": 2920,
      "dj309": 2921,
      "d99731": 2922,
      "d3558": 2923,
      "d99688": 2924,
      "di69354": 2925,
      "d79311": 2926,
      "dt402x5a": 2927,
      "396": 2928,
      "611": 2929,
      "9a": 2930,
      "1040": 2931,
      "m225912": 2932,
      "d2766": 2933,
      "d05": 2934,
      "dv4571": 2935,
      "d78062": 2936,
      "0472": 2937,
      "d7078": 2938,
      "d60784": 2939,
      "da0472": 2940,
      "d2252": 2941,
      "dk31819": 2942,
      "790": 2943,
      "1410": 2944,
      "755": 2945,
      "dr458": 2946,
      "dz6825": 2947,
      "dv8543": 2948,
      "dr45851": 2949,
      "965": 2950,
      "m225148": 2951,
      "d444": 2952,
      "df39": 2953,
      "d28249": 2954,
      "dz6828": 2955,
      "dr310": 2956,
      "dd61811": 2957,
      "d99664": 2958,
      "de11319": 2959,
      "551": 2960,
      "v2246": 2961,
      "d414": 2962,
      "dr32": 2963,
      "dy92238": 2964,
      "d997": 2965,
      "di678": 2966,
      "d7955": 2967,
      "d44101": 2968,
      "d52800": 2969,
      "dr1013": 2970,
      "dr5081": 2971,
      "dj45901": 2972,
      "1130": 2973,
      "613": 2974,
      "d85": 2975,
      "1575": 2976,
      "1190": 2977,
      "1725": 2978,
      "dr05": 2979,
      "d40310": 2980,
      "d5778": 2981,
      "dt835": 2982,
      "di864": 2983,
      "de9308": 2984,
      "dv6406": 2985,
      "dz85820": 2986,
      "di69398": 2987,
      "bb": 2988,
      "d262": 2989,
      "ean": 2990,
      "ibb": 2991,
      "745": 2992,
      "90a": 2993,
      "6812": 2994,
      "d532": 2995,
      "d7876": 2996,
      "dj069": 2997,
      "dv4573": 2998,
      "dc8599": 2999,
      "d1179": 3000,
      "caribb": 3001,
      "dc8513": 3002,
      "caribbean": 3003,
      "2500": 3004,
      "1070": 3005,
      "1005": 3006,
      "d5589": 3007,
      "d7856": 3008,
      "dk224": 3009,
      "dr109": 3010,
      "dg0": 3011,
      "dg63": 3012,
      "dn907": 3013,
      "d5852": 3014,
      "d5641": 3015,
      "dz6820": 3016,
      "de9394": 3017,
      "d04109": 3018,
      "dc8335": 3019,
      "dc8336": 3020,
      "dk610": 3021,
      "dy92129": 3022,
      "dt83511a": 3023,
      "765": 3024,
      "d52": 3025,
      "gant": 3026,
      "host": 3027,
      "ir": 3028,
      "peri": 3029,
      "vol": 3030,
      "1035": 3031,
      "ume": 3032,
      "atic": 3033,
      "427": 3034,
      "994": 3035,
      "rigant": 3036,
      "dv1087": 3037,
      "orthost": 3038,
      "de854": 3039,
      "cardial": 3040,
      "irrigant": 3041,
      "pericardial": 3042,
      "volume": 3043,
      "orthostatic": 3044,
      "366": 3045,
      "1090": 3046,
      "l225692": 3047,
      "1170": 3048,
      "dz981": 3049,
      "1105": 3050,
      "d3962": 3051,
      "1220": 3052,
      "de041": 3053,
      "de0590": 3054,
      "d70714": 3055,
      "de9444": 3056,
      "dl024": 3057,
      "d07999": 3058,
      "538": 3059,
      "1310": 3060,
      "di680": 3061,
      "dk648": 3062,
      "d28850": 3063,
      "dc90": 3064,
      "d78057": 3065,
      "dy833": 3066,
      "di313": 3067,
      "d6960": 3068,
      "di071": 3069,
      "2681": 3070,
      "397": 3071,
      "889": 3072,
      "d118": 3073,
      "x9a": 3074,
      "di65": 3075,
      "369": 3076,
      "d27650": 3077,
      "dm069": 3078,
      "tobra": 3079,
      "dm542": 3080,
      "d57420": 3081,
      "tobramycin": 3082,
      "dl76": 3083,
      "di81": 3084,
      "004": 3085,
      "dz6823": 3086,
      "d4430": 3087,
      "o226608": 3088,
      "d78906": 3089,
      "2300": 3090,
      "ovac": 3091,
      "2050": 3092,
      "hemovac": 3093,
      "d78194": 3094,
      "dk6812": 3095,
      "dg409": 3096,
      "dm190": 3097,
      "dt4": 3098,
      "dt8131": 3099,
      "dl97519": 3100,
      "dg40919": 3101,
      "915": 3102,
      "su": 3103,
      "1030": 3104,
      "454": 3105,
      "dv13": 3106,
      "434": 3107,
      "388": 3108,
      "d78909": 3109,
      "d7994": 3110,
      "d57142": 3111,
      "de8784": 3112,
      "d79579": 3113,
      "959xxs": 3114,
      "di69318": 3115,
      "di69359": 3116,
      "dx959xxs": 3117,
      "dt8131xa": 3118,
      "d66": 3119,
      "1270": 3120,
      "o226584": 3121,
      "d4239": 3122,
      "dr8": 3123,
      "dr2681": 3124,
      "dg70": 3125,
      "d309": 3126,
      "d7806": 3127,
      "m229234": 3128,
      "d1625": 3129,
      "364": 3130,
      "955": 3131,
      "1055": 3132,
      "1260": 3133,
      "indi": 3134,
      "703": 3135,
      "dc258": 3136,
      "dt5090": 3137,
      "db964": 3138,
      "d1628": 3139,
      "dr7989": 3140,
      "dk5790": 3141,
      "de9352": 3142,
      "indian": 3143,
      "dt50905a": 3144,
      "362": 3145,
      "d379": 3146,
      "mer": 3147,
      "1065": 3148,
      "dimer": 3149,
      "407": 3150,
      "732": 3151,
      "992": 3152,
      "005": 3153,
      "df259": 3154,
      "d25061": 3155,
      "d566": 3156,
      "di9589": 3157,
      "di724": 3158,
      "d27951": 3159,
      "d7455": 3160,
      "df1111": 3161,
      "dr531": 3162,
      "dm25562": 3163,
      "dr8271": 3164,
      "amm": 3165,
      "ia": 3166,
      "umol": 3167,
      "onia": 3168,
      "d319": 3169,
      "d59971": 3170,
      "d4359": 3171,
      "d33394": 3172,
      "dz96651": 3173,
      "di82622": 3174,
      "ammonia": 3175,
      "945": 3176,
      "1045": 3177,
      "1240": 3178,
      "3000": 3179,
      "dv600": 3180,
      "d7863": 3181,
      "dg309": 3182,
      "d25051": 3183,
      "dh9193": 3184,
      "476": 3185,
      "769": 3186,
      "1480": 3187,
      "932": 3188,
      "d514": 3189,
      "dk830": 3190,
      "d56211": 3191,
      "dz6822": 3192,
      "dz6842": 3193,
      "df10129": 3194,
      "d5368": 3195,
      "456": 3196,
      "sal": 3197,
      "vado": 3198,
      "x1a": 3199,
      "d296": 3200,
      "d35781": 3201,
      "di890": 3202,
      "dd688": 3203,
      "dz8051": 3204,
      "d0088": 3205,
      "dz87440": 3206,
      "dg7000": 3207,
      "salvado": 3208,
      "salvadoran": 3209,
      "lum": 3210,
      "2250": 3211,
      "1280": 3212,
      "dv113": 3213,
      "d78451": 3214,
      "dz6826": 3215,
      "dq211": 3216,
      "d73012": 3217,
      "dz96653": 3218,
      "d2384": 3219,
      "511": 3220,
      "863": 3221,
      "d2189": 3222,
      "9299": 3223,
      "dn200": 3224,
      "d30550": 3225,
      "d45342": 3226,
      "dt814": 3227,
      "dz515": 3228,
      "dk5730": 3229,
      "di2109": 3230,
      "d659": 3231,
      "1775": 3232,
      "453": 3233,
      "de94": 3234,
      "dv64": 3235,
      "l220580": 3236,
      "dk222": 3237,
      "dr200": 3238,
      "dz6829": 3239,
      "d29690": 3240,
      "d75982": 3241,
      "414": 3242,
      "443": 3243,
      "1085": 3244,
      "12a": 3245,
      "dk429": 3246,
      "d359": 3247,
      "di481": 3248,
      "o226625": 3249,
      "db379": 3250,
      "d5650": 3251,
      "d5680": 3252,
      "dv071": 3253,
      "d2572": 3254,
      "df0150": 3255,
      "d5531": 3256,
      "dv6441": 3257,
      "417": 3258,
      "1825": 3259,
      "l225636": 3260,
      "dz481": 3261,
      "d5305": 3262,
      "dz798": 3263,
      "db488": 3264,
      "d20510": 3265,
      "dt823": 3266,
      "dd72819": 3267,
      "da4101": 3268,
      "x0a": 3269,
      "d53290": 3270,
      "1840": 3271,
      "dz370": 3272,
      "582": 3273,
      "806": 3274,
      "d7851": 3275,
      "dr451": 3276,
      "dj14": 3277,
      "df209": 3278,
      "dh93": 3279,
      "dh54": 3280,
      "d43491": 3281,
      "de8498": 3282,
      "dk317": 3283,
      "d03849": 3284,
      "dt501x5a": 3285,
      "d55321": 3286,
      "d41402": 3287,
      "di351": 3288,
      "dk264": 3289,
      "dr590": 3290,
      "492": 3291,
      "d2890": 3292,
      "dt368": 3293,
      "dv452": 3294,
      "d56962": 3295,
      "dz6836": 3296,
      "d43330": 3297,
      "d4561": 3298,
      "dm478": 3299,
      "dm7989": 3300,
      "di4510": 3301,
      "d36846": 3302,
      "d72210": 3303,
      "2400": 3304,
      "d14": 3305,
      "1335": 3306,
      "dl982": 3307,
      "1470": 3308,
      "bps": 3309,
      "428": 3310,
      "1660": 3311,
      "3530": 3312,
      "d7885": 3313,
      "d30301": 3314,
      "dc9": 3315,
      "di5043": 3316,
      "d1972": 3317,
      "df1011": 3318,
      "d27542": 3319,
      "dd6859": 3320,
      "dz2239": 3321,
      "dt368x5a": 3322,
      "983": 3323,
      "991": 3324,
      "d5781": 3325,
      "dz8701": 3326,
      "d3439": 3327,
      "o226632": 3328,
      "dd6832": 3329,
      "413": 3330,
      "818": 3331,
      "1420": 3332,
      "de103": 3333,
      "1911": 3334,
      "dv168": 3335,
      "dz94": 3336,
      "39xa": 3337,
      "d42769": 3338,
      "d7892": 3339,
      "7611": 3340,
      "d7244": 3341,
      "d56969": 3342,
      "dz6845": 3343,
      "di5020": 3344,
      "m229068": 3345,
      "di825": 3346,
      "dv8535": 3347,
      "dv643": 3348,
      "dk7010": 3349,
      "db1910": 3350,
      "dj8410": 3351,
      "dr578": 3352,
      "1140": 3353,
      "564": 3354,
      "1360": 3355,
      "1380": 3356,
      "1115": 3357,
      "1160": 3358,
      "1205": 3359,
      "2350": 3360,
      "d4162": 3361,
      "dr21": 3362,
      "dr29": 3363,
      "m221623": 3364,
      "1560": 3365,
      "di639": 3366,
      "d45620": 3367,
      "dv4281": 3368,
      "dk754": 3369,
      "dw1839xa": 3370,
      "dt814xxa": 3371,
      "do2": 3372,
      "1510": 3373,
      "dj383": 3374,
      "dz8679": 3375,
      "1155": 3376,
      "dt447": 3377,
      "db59": 3378,
      "d72992": 3379,
      "d33819": 3380,
      "d2631": 3381,
      "dl978": 3382,
      "dk2210": 3383,
      "d30928": 3384,
      "459": 3385,
      "639": 3386,
      "1245": 3387,
      "871": 3388,
      "d570": 3389,
      "dh3530": 3390,
      "dv1041": 3391,
      "dk9423": 3392,
      "d873": 3393,
      "d6489": 3394,
      "dc9110": 3395,
      "8109": 3396,
      "1295": 3397,
      "d491": 3398,
      "d7881": 3399,
      "d78652": 3400,
      "dr269": 3401,
      "dh8109": 3402,
      "db258": 3403,
      "dv1079": 3404,
      "d7211": 3405,
      "df17290": 3406,
      "di8500": 3407,
      "d2630": 3408,
      "d49122": 3409,
      "533": 3410,
      "d7109": 3411,
      "d7108": 3412,
      "dv1551": 3413,
      "132xa": 3414,
      "dv4577": 3415,
      "di25119": 3416,
      "d9975": 3417,
      "d99659": 3418,
      "d5184": 3419,
      "dt8132xa": 3420,
      "di7102": 3421,
      "dz8551": 3422,
      "d69589": 3423,
      "d53140": 3424,
      "dy842": 3425,
      "dk2950": 3426,
      "dm6282": 3427,
      "d1370": 3428,
      "par": 3429,
      "l227460": 3430,
      "597": 3431,
      "606": 3432,
      "dr350": 3433,
      "d25013": 3434,
      "dm48": 3435,
      "di25118": 3436,
      "d45381": 3437,
      "d20300": 3438,
      "d20288": 3439,
      "d99883": 3440,
      "d4401": 3441,
      "dv8523": 3442,
      "dv667": 3443,
      "dh538": 3444,
      "dy828": 3445,
      "d59010": 3446,
      "422": 3447,
      "m229299": 3448,
      "1255": 3449,
      "ent": 3450,
      "d42613": 3451,
      "d5289": 3452,
      "d5738": 3453,
      "d34831": 3454,
      "dq8": 3455,
      "dl022": 3456,
      "dl89154": 3457,
      "d1122": 3458,
      "dk2270": 3459,
      "dm4856": 3460,
      "1535": 3461,
      "604": 3462,
      "452": 3463,
      "1610": 3464,
      "de92": 3465,
      "dv148": 3466,
      "d2823": 3467,
      "d25083": 3468,
      "d25062": 3469,
      "d53084": 3470,
      "o226628": 3471,
      "d59972": 3472,
      "d73309": 3473,
      "d99932": 3474,
      "d7265": 3475,
      "dz8542": 3476,
      "dv0254": 3477,
      "d6959": 3478,
      "dr4022": 3479,
      "dl97229": 3480,
      "dm4856xa": 3481,
      "482": 3482,
      "529": 3483,
      "d65": 3484,
      "l227451": 3485,
      "di97": 3486,
      "802": 3487,
      "o226564": 3488,
      "dk5090": 3489,
      "dj45": 3490,
      "dz860": 3491,
      "dn141": 3492,
      "dt85": 3493,
      "di25110": 3494,
      "d99739": 3495,
      "d70713": 3496,
      "d70705": 3497,
      "dz9079": 3498,
      "d34550": 3499,
      "dz933": 3500,
      "d56723": 3501,
      "2600": 3502,
      "446": 3503,
      "v22419": 3504,
      "de806": 3505,
      "1925": 3506,
      "2450": 3507,
      "d5579": 3508,
      "dr7611": 3509,
      "d7135": 3510,
      "o226629": 3511,
      "d99702": 3512,
      "d45184": 3513,
      "1740": 3514,
      "di728": 3515,
      "d6823": 3516,
      "dz9081": 3517,
      "dz85048": 3518,
      "dc9000": 3519,
      "v224192": 3520,
      "ap": 3521,
      "504": 3522,
      "1305": 3523,
      "588": 3524,
      "d27739": 3525,
      "d7843": 3526,
      "prap": 3527,
      "dz823": 3528,
      "dc61": 3529,
      "dc801": 3530,
      "de8700": 3531,
      "di440": 3532,
      "dz6835": 3533,
      "ubic": 3534,
      "dr040": 3535,
      "dd6861": 3536,
      "dw06": 3537,
      "dc3412": 3538,
      "df4320": 3539,
      "suprap": 3540,
      "suprapubic": 3541,
      "516": 3542,
      "man": 3543,
      "1445": 3544,
      "988": 3545,
      "d729": 3546,
      "dn184": 3547,
      "dc250": 3548,
      "dz9641": 3549,
      "dt464": 3550,
      "d4550": 3551,
      "di698": 3552,
      "d4422": 3553,
      "d6822": 3554,
      "d3688": 3555,
      "d34290": 3556,
      "dm6284": 3557,
      "manual": 3558,
      "cl": 3559,
      "pati": 3560,
      "sw": 3561,
      "dl03": 3562,
      "decl": 3563,
      "answ": 3564,
      "ined": 3565,
      "d4373": 3566,
      "888": 3567,
      "dk121": 3568,
      "dk652": 3569,
      "dr432": 3570,
      "df1911": 3571,
      "d3562": 3572,
      "d5854": 3573,
      "dz9119": 3574,
      "dz6832": 3575,
      "dv4611": 3576,
      "de1021": 3577,
      "dq231": 3578,
      "dq442": 3579,
      "d73027": 3580,
      "dz9911": 3581,
      "dz87738": 3582,
      "ds065x0a": 3583,
      "v224646": 3584,
      "d57510": 3585,
      "d37941": 3586,
      "dz79899": 3587,
      "patient": 3588,
      "declined": 3589,
      "answer": 3590,
      "1015": 3591,
      "dl500": 3592,
      "1875": 3593,
      "1490": 3594,
      "1975": 3595,
      "dv145": 3596,
      "d55090": 3597,
      "dk257": 3598,
      "95a": 3599,
      "d2733": 3600,
      "dj159": 3601,
      "d7197": 3602,
      "1145": 3603,
      "dh02": 3604,
      "d5793": 3605,
      "d6827": 3606,
      "d1510": 3607,
      "d6930": 3608,
      "da4102": 3609,
      "dw19xx": 3610,
      "df1110": 3611,
      "dd861": 3612,
      "468": 3613,
      "di441": 3614,
      "462": 3615,
      "d5780": 3616,
      "d7813": 3617,
      "dt426": 3618,
      "d2411": 3619,
      "d51852": 3620,
      "d4553": 3621,
      "di868": 3622,
      "dv0991": 3623,
      "d3331": 3624,
      "dk9189": 3625,
      "dk551": 3626,
      "dm4800": 3627,
      "df4321": 3628,
      "de8532": 3629,
      "d1505": 3630,
      "3500": 3631,
      "497": 3632,
      "466": 3633,
      "544": 3634,
      "qt": 3635,
      "de162": 3636,
      "2075": 3637,
      "d78901": 3638,
      "1185": 3639,
      "dh440": 3640,
      "db20": 3641,
      "db376": 3642,
      "o226595": 3643,
      "di716": 3644,
      "dv0980": 3645,
      "d2537": 3646,
      "d5570": 3647,
      "d55221": 3648,
      "dl89151": 3649,
      "dz8505": 3650,
      "lumbar": 3651,
      "dt426x5a": 3652,
      "qtc": 3653,
      "2125": 3654,
      "416": 3655,
      "472": 3656,
      "521": 3657,
      "1235": 3658,
      "1720": 3659,
      "de7": 3660,
      "v223766": 3661,
      "dz21": 3662,
      "3390": 3663,
      "dm351": 3664,
      "dz915": 3665,
      "d56212": 3666,
      "di611": 3667,
      "d2532": 3668,
      "dz90710": 3669,
      "di081": 3670,
      "d36230": 3671,
      "489": 3672,
      "642": 3673,
      "d62": 3674,
      "1365": 3675,
      "1385": 3676,
      "1395": 3677,
      "1460": 3678,
      "903": 3679,
      "dz954": 3680,
      "d3689": 3681,
      "dn281": 3682,
      "dc3": 3683,
      "m229597": 3684,
      "d4571": 3685,
      "de8785": 3686,
      "d1991": 3687,
      "d70720": 3688,
      "dv8533": 3689,
      "dr4781": 3690,
      "d9349": 3691,
      "dk8051": 3692,
      "d96509": 3693,
      "1135": 3694,
      "du": 3695,
      "d174": 3696,
      "d1500": 3697,
      "1285": 3698,
      "5000": 3699,
      "di278": 3700,
      "4060": 3701,
      "30a": 3702,
      "dv150": 3703,
      "854": 3704,
      "d261": 3705,
      "dj302": 3706,
      "d2883": 3707,
      "d3373": 3708,
      "d30750": 3709,
      "de8790": 3710,
      "d70909": 3711,
      "d29620": 3712,
      "dy836": 3713,
      "dc711": 3714,
      "d2521": 3715,
      "dz905": 3716,
      "d41072": 3717,
      "dm7981": 3718,
      "d95912": 3719,
      "d44422": 3720,
      "di2782": 3721,
      "dl299": 3722,
      "1810": 3723,
      "1520": 3724,
      "1195": 3725,
      "1710": 3726,
      "di60": 3727,
      "di85": 3728,
      "v223765": 3729,
      "433": 3730,
      "963": 3731,
      "dj152": 3732,
      "dj151": 3733,
      "df1290": 3734,
      "de859": 3735,
      "de8779": 3736,
      "dt508": 3737,
      "dy9200": 3738,
      "dt825": 3739,
      "di6203": 3740,
      "d99813": 3741,
      "de8881": 3742,
      "dg8220": 3743,
      "dl89150": 3744,
      "d4592": 3745,
      "dz8711": 3746,
      "dt82330a": 3747,
      "dz9484": 3748,
      "di8511": 3749,
      "dt508x5a": 3750,
      "d1749": 3751,
      "1340": 3752,
      "1165": 3753,
      "o2294": 3754,
      "di96": 3755,
      "dj04": 3756,
      "dg25": 3757,
      "dn134": 3758,
      "dv453": 3759,
      "db029": 3760,
      "dv1042": 3761,
      "dv1043": 3762,
      "dz6839": 3763,
      "d51851": 3764,
      "dg4739": 3765,
      "d2920": 3766,
      "di615": 3767,
      "db9562": 3768,
      "211a": 3769,
      "d73007": 3770,
      "di82412": 3771,
      "df1411": 3772,
      "dr6884": 3773,
      "d64891": 3774,
      "dw06xxxa": 3775,
      "dj0410": 3776,
      "032": 3777,
      "3749": 3778,
      "437": 3779,
      "bit": 3780,
      "d87": 3781,
      "obar": 3782,
      "v2260": 3783,
      "1860": 3784,
      "1590": 3785,
      "de869": 3786,
      "436": 3787,
      "d53390": 3788,
      "d28240": 3789,
      "dz8501": 3790,
      "d3079": 3791,
      "dc439": 3792,
      "db3749": 3793,
      "ds12": 3794,
      "de042": 3795,
      "dz96642": 3796,
      "d38611": 3797,
      "phenobar": 3798,
      "di70202": 3799,
      "dt80211a": 3800,
      "d36570": 3801,
      "v224645": 3802,
      "dl02416": 3803,
      "dz86010": 3804,
      "dl03116": 3805,
      "dh44001": 3806,
      "bital": 3807,
      "v226092": 3808,
      "phenobarbital": 3809,
      "d13": 3810,
      "1820": 3811,
      "1455": 3812,
      "1530": 3813,
      "1630": 3814,
      "1680": 3815,
      "751": 3816,
      "dd352": 3817,
      "dd3a": 3818,
      "dg95": 3819,
      "d3669": 3820,
      "de782": 3821,
      "dv4585": 3822,
      "m229615": 3823,
      "di634": 3824,
      "d7919": 3825,
      "d79431": 3826,
      "dg8918": 3827,
      "dq2": 3828,
      "d99681": 3829,
      "dz89611": 3830,
      "dr5082": 3831,
      "mal": 3832,
      "dl298": 3833,
      "12xa": 3834,
      "593": 3835,
      "1620": 3836,
      "atemal": 3837,
      "494": 3838,
      "dj40": 3839,
      "dd350": 3840,
      "dn421": 3841,
      "dh4": 3842,
      "dt4060": 3843,
      "d99989": 3844,
      "dt856": 3845,
      "di7300": 3846,
      "dj9610": 3847,
      "de9289": 3848,
      "de9293": 3849,
      "dl89159": 3850,
      "dh532": 3851,
      "dj810": 3852,
      "d9348": 3853,
      "guatemal": 3854,
      "v224647": 3855,
      "di6783": 3856,
      "d1481": 3857,
      "dq8789": 3858,
      "dd3a8": 3859,
      "dq2733": 3860,
      "dt40605a": 3861,
      "guatemalan": 3862,
      "473": 3863,
      "471": 3864,
      "d110": 3865,
      "de273": 3866,
      "d4210": 3867,
      "dr12": 3868,
      "dj679": 3869,
      "d71230": 3870,
      "d0419": 3871,
      "dv4574": 3872,
      "dj9589": 3873,
      "di613": 3874,
      "dd61810": 3875,
      "d34540": 3876,
      "d23871": 3877,
      "dm4806": 3878,
      "d72939": 3879,
      "567": 3880,
      "1570": 3881,
      "1580": 3882,
      "1760": 3883,
      "2025": 3884,
      "v223764": 3885,
      "463": 3886,
      "d78639": 3887,
      "dj386": 3888,
      "dn62": 3889,
      "dm46": 3890,
      "de063": 3891,
      "d7213": 3892,
      "dd693": 3893,
      "d3510": 3894,
      "d3576": 3895,
      "dc719": 3896,
      "dv0179": 3897,
      "dv066": 3898,
      "dv642": 3899,
      "dk7011": 3900,
      "d48241": 3901,
      "dg911": 3902,
      "d9092": 3903,
      "di871": 3904,
      "dk2970": 3905,
      "dm25512": 3906,
      "dz1624": 3907,
      "dv1351": 3908,
      "de9290": 3909,
      "478": 3910,
      "467": 3911,
      "557": 3912,
      "711": 3913,
      "d616": 3914,
      "1345": 3915,
      "1430": 3916,
      "de213": 3917,
      "dv65": 3918,
      "dv167": 3919,
      "dz488": 3920,
      "d4779": 3921,
      "dk581": 3922,
      "dg7": 3923,
      "de8783": 3924,
      "d42820": 3925,
      "d42831": 3926,
      "dc710": 3927,
      "432a": 3928,
      "di69351": 3929,
      "d9070": 3930,
      "d36816": 3931,
      "dl974": 3932,
      "d72293": 3933,
      "dm25561": 3934,
      "dm4802": 3935,
      "ds00432a": 3936,
      "di7771": 3937,
      "d61610": 3938,
      "474": 3939,
      "498": 3940,
      "546": 3941,
      "539": 3942,
      "7243": 3943,
      "v227243": 3944,
      "1089": 3945,
      "1515": 3946,
      "dz89": 3947,
      "d443": 3948,
      "81xa": 3949,
      "d78630": 3950,
      "d78703": 3951,
      "dk651": 3952,
      "m222062": 3953,
      "d7103": 3954,
      "dh53": 3955,
      "d5790": 3956,
      "db942": 3957,
      "d4464": 3958,
      "dv0251": 3959,
      "dk5903": 3960,
      "401a": 3961,
      "dk7210": 3962,
      "dk661": 3963,
      "ds0081xa": 3964,
      "d59080": 3965,
      "ds12401a": 3966,
      "dv6549": 3967,
      "479": 3968,
      "1215": 3969,
      "4050": 3970,
      "dv1749": 3971,
      "anti": 3972,
      "2800": 3973,
      "7242": 3974,
      "49xa": 3975,
      "dc159": 3976,
      "dc569": 3977,
      "d2448": 3978,
      "d24901": 3979,
      "d4556": 3980,
      "1565": 3981,
      "d20502": 3982,
      "dr042": 3983,
      "d79551": 3984,
      "di7103": 3985,
      "de9420": 3986,
      "d4568": 3987,
      "d656": 3988,
      "ds0101": 3989,
      "d820": 3990,
      "dz934": 3991,
      "di63449": 3992,
      "de10319": 3993,
      "dt464x5a": 3994,
      "dv1509": 3995,
      "483": 3996,
      "d86": 3997,
      "xs": 3998,
      "v227242": 3999,
      "1390": 4000,
      "1435": 4001,
      "di119": 4002,
      "di158": 4003,
      "de538": 4004,
      "d5285": 4005,
      "d5571": 4006,
      "dk209": 4007,
      "dn312": 4008,
      "di2541": 4009,
      "dv1279": 4010,
      "d99669": 4011,
      "d4552": 4012,
      "de099": 4013,
      "d72972": 4014,
      "d4387": 4015,
      "dr0603": 4016,
      "dj9620": 4017,
      "d27549": 4018,
      "de9426": 4019,
      "dk920": 4020,
      "d03842": 4021,
      "dd573": 4022,
      "d57450": 4023,
      "d37739": 4024,
      "df1420": 4025,
      "dh9313": 4026,
      "dy92003": 4027,
      "dg2581": 4028,
      "035": 4029,
      "2180": 4030,
      "4167": 4031,
      "ore": 4032,
      "v224167": 4033,
      "5099": 4034,
      "l227470": 4035,
      "1495": 4036,
      "704": 4037,
      "dv02": 4038,
      "dz5309": 4039,
      "2650": 4040,
      "803": 4041,
      "d2409": 4042,
      "df410": 4043,
      "dd65": 4044,
      "dg3": 4045,
      "d7100": 4046,
      "dz9111": 4047,
      "dt5099": 4048,
      "d2410": 4049,
      "di5030": 4050,
      "de912": 4051,
      "dz85850": 4052,
      "dk8681": 4053,
      "dv1201": 4054,
      "d1830": 4055,
      "dk660": 4056,
      "dz932": 4057,
      "d34291": 4058,
      "dz87442": 4059,
      "d9694": 4060,
      "dr6883": 4061,
      "dv0259": 4062,
      "dt50995a": 4063,
      "514": 4064,
      "661": 4065,
      "722": 4066,
      "881": 4067,
      "ern": 4068,
      "dl270": 4069,
      "1265": 4070,
      "1415": 4071,
      "98a": 4072,
      "29d": 4073,
      "d42989": 4074,
      "dk860": 4075,
      "dk259": 4076,
      "547": 4077,
      "d30300": 4078,
      "dc163": 4079,
      "dt412": 4080,
      "d78096": 4081,
      "d56889": 4082,
      "di699": 4083,
      "dc785": 4084,
      "d70725": 4085,
      "d4413": 4086,
      "dr414": 4087,
      "dk743": 4088,
      "de8704": 4089,
      "212a": 4090,
      "dy92002": 4091,
      "dl033": 4092,
      "d41041": 4093,
      "eastern": 4094,
      "dz96659": 4095,
      "dc8281": 4096,
      "dv552": 4097,
      "dg3184": 4098,
      "dt41295a": 4099,
      "461": 4100,
      "518": 4101,
      "628": 4102,
      "ro": 4103,
      "1595": 4104,
      "bpd": 4105,
      "27xxa": 4106,
      "d4370": 4107,
      "d420": 4108,
      "884": 4109,
      "d259": 4110,
      "5412xa": 4111,
      "dj339": 4112,
      "dg56": 4113,
      "d30590": 4114,
      "db441": 4115,
      "d5693": 4116,
      "d45182": 4117,
      "ds5412xa": 4118,
      "d7098": 4119,
      "d79099": 4120,
      "d34931": 4121,
      "dt827xxa": 4122,
      "da411": 4123,
      "db9681": 4124,
      "590a": 4125,
      "d6824": 4126,
      "dw0": 4127,
      "dv1009": 4128,
      "dz807": 4129,
      "dl089": 4130,
      "d73025": 4131,
      "dk8590": 4132,
      "dg919": 4133,
      "d72888": 4134,
      "di82611": 4135,
      "df1190": 4136,
      "mins": 4137,
      "dm25511": 4138,
      "dt501x6a": 4139,
      "d56722": 4140,
      "d0549": 4141,
      "v224643": 4142,
      "de71440": 4143,
      "045": 4144,
      "uf": 4145,
      "1095": 4146,
      "1315": 4147,
      "1585": 4148,
      "59xa": 4149,
      "hepar": 4150,
      "di469": 4151,
      "d490": 4152,
      "1405": 4153,
      "d7842": 4154,
      "d78651": 4155,
      "dr571": 4156,
      "8459xa": 4157,
      "d274": 4158,
      "d2564": 4159,
      "dj392": 4160,
      "d28262": 4161,
      "d3682": 4162,
      "dc509": 4163,
      "de8502": 4164,
      "dt8459xa": 4165,
      "d9950": 4166,
      "d29410": 4167,
      "d72981": 4168,
      "d1911": 4169,
      "m229057": 4170,
      "d44022": 4171,
      "dc7982": 4172,
      "d03810": 4173,
      "tap": 4174,
      "d73710": 4175,
      "d1713": 4176,
      "d11284": 4177,
      "d3594": 4178,
      "heparin": 4179,
      "046": 4180,
      "526": 4181,
      "614": 4182,
      "634": 4183,
      "d61": 4184,
      "d156": 4185,
      "1730": 4186,
      "1645": 4187,
      "1640": 4188,
      "di248": 4189,
      "di953": 4190,
      "2889": 4191,
      "2325": 4192,
      "833": 4193,
      "003": 4194,
      "8250": 4195,
      "d5733": 4196,
      "d7868": 4197,
      "m222021": 4198,
      "dg8250": 4199,
      "dz8571": 4200,
      "dn3": 4201,
      "dn2889": 4202,
      "dv1584": 4203,
      "dh168": 4204,
      "dh1089": 4205,
      "o226591": 4206,
      "d78094": 4207,
      "1980": 4208,
      "dj470": 4209,
      "di314": 4210,
      "d3363": 4211,
      "dd6862": 4212,
      "d68110": 4213,
      "dj984": 4214,
      "dz98890": 4215,
      "d51902": 4216,
      "dz96649": 4217,
      "d34511": 4218,
      "d57410": 4219,
      "d8054": 4220,
      "ds2249xa": 4221,
      "d1123": 4222,
      "dl89611": 4223,
      "dl89621": 4224,
      "dm19011": 4225,
      "d42090": 4226,
      "484": 4227,
      "532": 4228,
      "cin": 4229,
      "gen": 4230,
      "kore": 4231,
      "x2": 4232,
      "z0": 4233,
      "22a": 4234,
      "1485": 4235,
      "1540": 4236,
      "1785": 4237,
      "6080": 4238,
      "1685": 4239,
      "de441": 4240,
      "micin": 4241,
      "dr579": 4242,
      "dg90": 4243,
      "dg510": 4244,
      "dm6080": 4245,
      "d4588": 4246,
      "d20240": 4247,
      "d1974": 4248,
      "dt8743": 4249,
      "d78723": 4250,
      "di6201": 4251,
      "dg8921": 4252,
      "di361": 4253,
      "dz8052": 4254,
      "d8220": 4255,
      "tamicin": 4256,
      "di514": 4257,
      "dr4021": 4258,
      "de1152": 4259,
      "di824z": 4260,
      "dl893": 4261,
      "di82b": 4262,
      "dc91z0": 4263,
      "d87342": 4264,
      "dh4902": 4265,
      "gentamicin": 4266,
      "korean": 4267,
      "522": 4268,
      "523": 4269,
      "536": 4270,
      "a0": 4271,
      "2275": 4272,
      "5010": 4273,
      "1755": 4274,
      "phil": 4275,
      "457": 4276,
      "de90": 4277,
      "2310": 4278,
      "892": 4279,
      "d4299": 4280,
      "d78831": 4281,
      "d28731": 4282,
      "dd701": 4283,
      "dm32": 4284,
      "neutro": 4285,
      "d5716": 4286,
      "1745": 4287,
      "d7921": 4288,
      "d4478": 4289,
      "dk7040": 4290,
      "do0": 4291,
      "d6111": 4292,
      "dk8309": 4293,
      "xx0": 4294,
      "dk632": 4295,
      "dc865": 4296,
      "d1173": 4297,
      "di6340": 4298,
      "dl7634": 4299,
      "de9478": 4300,
      "do240": 4301,
      "dd3502": 4302,
      "di69954": 4303,
      "d27400": 4304,
      "neutrophil": 4305,
      "002": 4306,
      "x7": 4307,
      "2232": 4308,
      "568": 4309,
      "l227452": 4310,
      "1465": 4311,
      "1770": 4312,
      "1780": 4313,
      "1615": 4314,
      "1635": 4315,
      "dv16": 4316,
      "dz430": 4317,
      "d430": 4318,
      "8299": 4319,
      "dk94": 4320,
      "84a0": 4321,
      "dj155": 4322,
      "d28981": 4323,
      "d28411": 4324,
      "dd619": 4325,
      "dz820": 4326,
      "d30520": 4327,
      "dc84a0": 4328,
      "dm47": 4329,
      "dt500": 4330,
      "d78050": 4331,
      "ds400": 4332,
      "d92232": 4333,
      "dd631": 4334,
      "di638": 4335,
      "dj9611": 4336,
      "d25200": 4337,
      "dd680": 4338,
      "de1022": 4339,
      "ds066": 4340,
      "dg930": 4341,
      "d8052": 4342,
      "dl930": 4343,
      "de2749": 4344,
      "dv551": 4345,
      "dl979": 4346,
      "034": 4347,
      "1830": 4348,
      "1715": 4349,
      "di743": 4350,
      "1910": 4351,
      "2080": 4352,
      "m223257": 4353,
      "d7827": 4354,
      "d7854": 4355,
      "dk550": 4356,
      "d40291": 4357,
      "dj384": 4358,
      "dd735": 4359,
      "d3379": 4360,
      "dn30": 4361,
      "dc8299": 4362,
      "d25070": 4363,
      "dm329": 4364,
      "d5300": 4365,
      "db356": 4366,
      "d9961": 4367,
      "d45385": 4368,
      "d2910": 4369,
      "d29562": 4370,
      "m229618": 4371,
      "de83111": 4372,
      "db957": 4373,
      "d6825": 4374,
      "da4189": 4375,
      "da4152": 4376,
      "d72889": 4377,
      "dd7581": 4378,
      "dm79a": 4379,
      "d1508": 4380,
      "d20040": 4381,
      "dl7632": 4382,
      "d6268": 4383,
      "d8730": 4384,
      "di824z2": 4385,
      "ds40022a": 4386,
      "2175": 4387,
      "3100": 4388,
      "487": 4389,
      "d91": 4390,
      "1690": 4391,
      "dv166": 4392,
      "m227528": 4393,
      "d523": 4394,
      "d2764": 4395,
      "m222037": 4396,
      "df411": 4397,
      "dh570": 4398,
      "de7849": 4399,
      "dz87898": 4400,
      "dt179": 4401,
      "d9974": 4402,
      "d45384": 4403,
      "dk763": 4404,
      "d99809": 4405,
      "d36900": 4406,
      "de8844": 4407,
      "dv011": 4408,
      "dz8589": 4409,
      "2425": 4410,
      "dm479": 4411,
      "dz96612": 4412,
      "dz91120": 4413,
      "d462": 4414,
      "d41511": 4415,
      "di513": 4416,
      "dr4023": 4417,
      "dz96652": 4418,
      "de11628": 4419,
      "dv5331": 4420,
      "ds065x9a": 4421,
      "d29633": 4422,
      "dt447x6a": 4423,
      "dc3432": 4424,
      "dg9511": 4425,
      "dt500x6a": 4426,
      "dm79a3": 4427,
      "dh5702": 4428,
      "573": 4429,
      "998": 4430,
      "dd259": 4431,
      "566": 4432,
      "1890": 4433,
      "6000": 4434,
      "2410": 4435,
      "dv165": 4436,
      "dv171": 4437,
      "904": 4438,
      "dz84": 4439,
      "663": 4440,
      "771": 4441,
      "d27903": 4442,
      "d78492": 4443,
      "dk40": 4444,
      "dn186": 4445,
      "dc20": 4446,
      "d25082": 4447,
      "dm000": 4448,
      "dm008": 4449,
      "3005": 4450,
      "db349": 4451,
      "d56983": 4452,
      "d4578": 4453,
      "d78722": 4454,
      "d43883": 4455,
      "dv1004": 4456,
      "d03819": 4457,
      "dy92018": 4458,
      "dz90722": 4459,
      "d73017": 4460,
      "dz95820": 4461,
      "dg912": 4462,
      "di82612": 4463,
      "dm5489": 4464,
      "d75312": 4465,
      "dl02214": 4466,
      "di69851": 4467,
      "dw19xxxd": 4468,
      "dt17990a": 4469,
      "dz8489": 4470,
      "dm00012": 4471,
      "dm00812": 4472,
      "2700": 4473,
      "2900": 4474,
      "2290": 4475,
      "1545": 4476,
      "592": 4477,
      "di213": 4478,
      "de230": 4479,
      "1970": 4480,
      "dv7": 4481,
      "20a": 4482,
      "788": 4483,
      "1790": 4484,
      "2110": 4485,
      "647": 4486,
      "d4421": 4487,
      "d27950": 4488,
      "dz811": 4489,
      "d30400": 4490,
      "dc160": 4491,
      "dc679": 4492,
      "d25041": 4493,
      "1605": 4494,
      "d56731": 4495,
      "d4530": 4496,
      "d4549": 4497,
      "1705": 4498,
      "ds8": 4499,
      "dj948": 4500,
      "d0479": 4501,
      "de0500": 4502,
      "d4321": 4503,
      "d99881": 4504,
      "de1169": 4505,
      "dv854": 4506,
      "dz8042": 4507,
      "d74781": 4508,
      "de8543": 4509,
      "dz8774": 4510,
      "dy92199": 4511,
      "d75989": 4512,
      "dz22321": 4513,
      "477": 4514,
      "517": 4515,
      "rate": 4516,
      "1880": 4517,
      "sed": 4518,
      "7081": 4519,
      "di120": 4520,
      "di83": 4521,
      "di160": 4522,
      "1795": 4523,
      "dz833": 4524,
      "dk029": 4525,
      "dr61": 4526,
      "dr202": 4527,
      "dr1110": 4528,
      "d290": 4529,
      "dj438": 4530,
      "d28809": 4531,
      "dy95": 4532,
      "dc259": 4533,
      "dm0": 4534,
      "dv1085": 4535,
      "dz6833": 4536,
      "d45382": 4537,
      "ds818": 4538,
      "d97081": 4539,
      "1655": 4540,
      "1741": 4541,
      "d78729": 4542,
      "dv090": 4543,
      "dm8448": 4544,
      "d73013": 4545,
      "dk5660": 4546,
      "dc779": 4547,
      "d9072": 4548,
      "dz936": 4549,
      "d4786": 4550,
      "d47830": 4551,
      "d1509": 4552,
      "d00863": 4553,
      "df1410": 4554,
      "d66411": 4555,
      "dw010": 4556,
      "dm8448xa": 4557,
      "033": 4558,
      "724": 4559,
      "dur": 4560,
      "sub": 4561,
      "1815": 4562,
      "2550": 4563,
      "2525": 4564,
      "1930": 4565,
      "2020": 4566,
      "2750": 4567,
      "dz223": 4568,
      "587": 4569,
      "38a": 4570,
      "d5239": 4571,
      "d27503": 4572,
      "dr159": 4573,
      "d2874": 4574,
      "dg728": 4575,
      "d3159": 4576,
      "1505": 4577,
      "d25053": 4578,
      "d25001": 4579,
      "dh40": 4580,
      "db372": 4581,
      "149xa": 4582,
      "dv1242": 4583,
      "d5185": 4584,
      "ds220": 4585,
      "ds320": 4586,
      "d29281": 4587,
      "dt8149xa": 4588,
      "de8493": 4589,
      "di6200": 4590,
      "d49300": 4591,
      "d1640": 4592,
      "dv8544": 4593,
      "dv8531": 4594,
      "dk311": 4595,
      "dr4189": 4596,
      "d33183": 4597,
      "dm4854": 4598,
      "dk635": 4599,
      "d0090": 4600,
      "dc8518": 4601,
      "d72633": 4602,
      "di7772": 4603,
      "d65961": 4604,
      "dt447x5a": 4605,
      "dw010xxa": 4606,
      "dural": 4607,
      "subdural": 4608,
      "dz22322": 4609,
      "493": 4610,
      "496": 4611,
      "513": 4612,
      "519": 4613,
      "583": 4614,
      "531": 4615,
      "612": 4616,
      "d82": 4617,
      "2240": 4618,
      "10x0": 4619,
      "dl309": 4620,
      "dl4050": 4621,
      "596": 4622,
      "de109": 4623,
      "de278": 4624,
      "dv54": 4625,
      "2825": 4626,
      "dz888": 4627,
      "d5109": 4628,
      "dd869": 4629,
      "d30563": 4630,
      "dc642": 4631,
      "d53020": 4632,
      "de781": 4633,
      "dt174": 4634,
      "d5730": 4635,
      "d5959": 4636,
      "d4538": 4637,
      "d20201": 4638,
      "d04184": 4639,
      "dz8612": 4640,
      "dz8611": 4641,
      "d4408": 4642,
      "d44031": 4643,
      "dc782": 4644,
      "dj9690": 4645,
      "dc774": 4646,
      "dr1314": 4647,
      "d53560": 4648,
      "dr630": 4649,
      "d71695": 4650,
      "dr1032": 4651,
      "d73719": 4652,
      "di82621": 4653,
      "d79319": 4654,
      "dz48815": 4655,
      "dk4030": 4656,
      "dh4010x0": 4657,
      "dt17490a": 4658,
      "039": 4659,
      "2190": 4660,
      "886": 4661,
      "1735": 4662,
      "1670": 4663,
      "de95": 4664,
      "dz751": 4665,
      "838": 4666,
      "dk0": 4667,
      "dk208": 4668,
      "dg248": 4669,
      "d317": 4670,
      "dv5864": 4671,
      "d7280": 4672,
      "141xa": 4673,
      "dt178": 4674,
      "di2582": 4675,
      "dv1089": 4676,
      "dz6844": 4677,
      "d4519": 4678,
      "1805": 4679,
      "d72971": 4680,
      "dt8141xa": 4681,
      "di618": 4682,
      "di635": 4683,
      "d1984": 4684,
      "dc770": 4685,
      "dg894": 4686,
      "d2531": 4687,
      "di319": 4688,
      "dm868": 4689,
      "dv626": 4690,
      "de10649": 4691,
      "dr6510": 4692,
      "dz808": 4693,
      "d53540": 4694,
      "xxd": 4695,
      "d4599": 4696,
      "dz992": 4697,
      "dm79601": 4698,
      "d47831": 4699,
      "di82c": 4700,
      "dm5430": 4701,
      "de10622": 4702,
      "dz3a38": 4703,
      "d72691": 4704,
      "d55320": 4705,
      "d85221": 4706,
      "di6523": 4707,
      "dj15211": 4708,
      "dg7241": 4709,
      "d82021": 4710,
      "dr402112": 4711,
      "813": 4712,
      "d89": 4713,
      "747": 4714,
      "dl739": 4715,
      "1895": 4716,
      "4000": 4717,
      "1935": 4718,
      "2775": 4719,
      "808": 4720,
      "d558": 4721,
      "o226565": 4722,
      "m225151": 4723,
      "dj80": 4724,
      "df09": 4725,
      "dd860": 4726,
      "dg2": 4727,
      "dg47": 4728,
      "dg250": 4729,
      "d3371": 4730,
      "d3089": 4731,
      "d3009": 4732,
      "d25052": 4733,
      "dm170": 4734,
      "d5679": 4735,
      "dk7681": 4736,
      "d35800": 4737,
      "dc7901": 4738,
      "dv8545": 4739,
      "de9305": 4740,
      "de1040": 4741,
      "d6988": 4742,
      "dz980": 4743,
      "dd5700": 4744,
      "dj84116": 4745,
      "dr1031": 4746,
      "d72252": 4747,
      "dk2960": 4748,
      "dt80212a": 4749,
      "d44489": 4750,
      "dh02401": 4751,
      "dt82538a": 4752,
      "do095": 4753,
      "486": 4754,
      "537": 4755,
      "643": 4756,
      "721": 4757,
      "hon": 4758,
      "2260": 4759,
      "2220": 4760,
      "dl88": 4761,
      "1282": 4762,
      "1885": 4763,
      "1111a": 4764,
      "4275": 4765,
      "1940": 4766,
      "24a": 4767,
      "dv1741": 4768,
      "2035": 4769,
      "9761": 4770,
      "2160": 4771,
      "d5199": 4772,
      "dk220": 4773,
      "dr935": 4774,
      "dr161": 4775,
      "dr971": 4776,
      "d2102": 4777,
      "df603": 4778,
      "d344": 4779,
      "d3129": 4780,
      "d7963": 4781,
      "dn839": 4782,
      "d3003": 4783,
      "dc92": 4784,
      "dc181": 4785,
      "dm1a": 4786,
      "di4901": 4787,
      "db001": 4788,
      "l229355": 4789,
      "m221393": 4790,
      "d569": 4791,
      "d04102": 4792,
      "d1978": 4793,
      "dk7689": 4794,
      "0811": 4795,
      "da430": 4796,
      "da0811": 4797,
      "d78760": 4798,
      "d36960": 4799,
      "d70721": 4800,
      "dc7962": 4801,
      "de9288": 4802,
      "dv6107": 4803,
      "dv6142": 4804,
      "dr1313": 4805,
      "dv1007": 4806,
      "dr978": 4807,
      "ds01111a": 4808,
      "dc7961": 4809,
      "dk56600": 4810,
      "d4846": 4811,
      "d57400": 4812,
      "dd6489": 4813,
      "d72885": 4814,
      "dm79606": 4815,
      "d9341": 4816,
      "d78907": 4817,
      "dd8689": 4818,
      "di67848": 4819,
      "dt461": 4820,
      "duran": 4821,
      "dv1642": 4822,
      "dn3090": 4823,
      "de9539": 4824,
      "di63512": 4825,
      "dm868x7": 4826,
      "honduran": 4827,
      "dm1a9": 4828,
      "2130": 4829,
      "2680": 4830,
      "556": 4831,
      "574": 4832,
      "542": 4833,
      "629": 4834,
      "796": 4835,
      "9375": 4836,
      "ve": 4837,
      "l229375": 4838,
      "m221282": 4839,
      "dl984": 4840,
      "594": 4841,
      "65171": 4842,
      "di258": 4843,
      "de969": 4844,
      "1945": 4845,
      "3050": 4846,
      "2060": 4847,
      "2040": 4848,
      "100xa": 4849,
      "2950": 4850,
      "d4260": 4851,
      "d2769": 4852,
      "553": 4853,
      "dj188": 4854,
      "d2819": 4855,
      "dn485": 4856,
      "dc884": 4857,
      "de883": 4858,
      "dm65171": 4859,
      "dh5010": 4860,
      "d5821": 4861,
      "d079": 4862,
      "dt462": 4863,
      "d9992": 4864,
      "d56881": 4865,
      "d3668": 4866,
      "dv8532": 4867,
      "de915": 4868,
      "de9429": 4869,
      "dk740": 4870,
      "do770": 4871,
      "d1541": 4872,
      "dq0": 4873,
      "d70709": 4874,
      "dk5289": 4875,
      "ds0100xa": 4876,
      "dz8507": 4877,
      "native": 4878,
      "dm79604": 4879,
      "dl958": 4880,
      "d1717": 4881,
      "d20030": 4882,
      "dm5412": 4883,
      "dt80818": 4884,
      "d9596": 4885,
      "dl02411": 4886,
      "di6521": 4887,
      "di6012": 4888,
      "dl97412": 4889,
      "d1561": 4890,
      "di8390": 4891,
      "dt461x5a": 4892,
      "di25810": 4893,
      "dt80818a": 4894,
      "036": 4895,
      "9103": 4896,
      "13a": 4897,
      "1355": 4898,
      "dl732": 4899,
      "1765": 4900,
      "de210": 4901,
      "dv9103": 4902,
      "2015": 4903,
      "o226574": 4904,
      "577": 4905,
      "2625": 4906,
      "938": 4907,
      "dk2": 4908,
      "dk649": 4909,
      "dk580": 4910,
      "dj869": 4911,
      "d28959": 4912,
      "dg975": 4913,
      "d398": 4914,
      "d3432": 4915,
      "dv5862": 4916,
      "d053": 4917,
      "dt360": 4918,
      "dy9289": 4919,
      "db259": 4920,
      "ds308": 4921,
      "d20780": 4922,
      "dz7951": 4923,
      "dr030": 4924,
      "da630": 4925,
      "d7942": 4926,
      "d3530": 4927,
      "di889": 4928,
      "o226602": 4929,
      "dy92039": 4930,
      "dv4283": 4931,
      "dk859": 4932,
      "d1889": 4933,
      "dk621": 4934,
      "d57451": 4935,
      "dk5792": 4936,
      "dr40235": 4937,
      "d57511": 4938,
      "d52100": 4939,
      "dh9319": 4940,
      "d1744": 4941,
      "dl97919": 4942,
      "di82c11": 4943,
      "dt462x5a": 4944,
      "dg9751": 4945,
      "ds30813a": 4946,
      "512": 4947,
      "534": 4948,
      "778": 4949,
      "2210": 4950,
      "2225": 4951,
      "598": 4952,
      "1920": 4953,
      "1955": 4954,
      "d4419": 4955,
      "d4275": 4956,
      "d27900": 4957,
      "55a": 4958,
      "dk027": 4959,
      "dk863": 4960,
      "dr680": 4961,
      "dj156": 4962,
      "df418": 4963,
      "dd599": 4964,
      "dd563": 4965,
      "d73005": 4966,
      "d054": 4967,
      "dt4275": 4968,
      "dv4971": 4969,
      "d99679": 4970,
      "d70707": 4971,
      "de8496": 4972,
      "dk713": 4973,
      "dk761": 4974,
      "dr0602": 4975,
      "di830": 4976,
      "dg939": 4977,
      "d1578": 4978,
      "d1533": 4979,
      "dc3492": 4980,
      "2375": 4981,
      "da4151": 4982,
      "dt82855a": 4983,
      "d47819": 4984,
      "dv4973": 4985,
      "ds065x1a": 4986,
      "do99344": 4987,
      "d0539": 4988,
      "d99799": 4989,
      "dh5460": 4990,
      "dh5461": 4991,
      "dr402212": 4992,
      "dh02402": 4993,
      "o229413": 4994,
      "d44381": 4995,
      "d29040": 4996,
      "dr402352": 4997,
      "dt4275xa": 4998,
      "2105": 4999,
      "499": 5000,
      "543": 5001,
      "d84": 5002,
      "m2297": 5003,
      "1789": 5004,
      "2575": 5005,
      "de114": 5006,
      "de279": 5007,
      "dv892": 5008,
      "2340": 5009,
      "d4238": 5010,
      "d5206": 5011,
      "d78459": 5012,
      "dr52": 5013,
      "dr195": 5014,
      "d2971": 5015,
      "d2866": 5016,
      "d30001": 5017,
      "dy711": 5018,
      "01xa": 5019,
      "dm1712": 5020,
      "de8791": 5021,
      "dv1241": 5022,
      "d78064": 5023,
      "d5997": 5024,
      "ds80": 5025,
      "de9348": 5026,
      "d7093": 5027,
      "d60886": 5028,
      "di978": 5029,
      "d1987": 5030,
      "dc7902": 5031,
      "dz8543": 5032,
      "dj9819": 5033,
      "d80121": 5034,
      "drains": 5035,
      "dm25552": 5036,
      "de9353": 5037,
      "d52109": 5038,
      "dm47812": 5039,
      "dc9300": 5040,
      "dl97829": 5041,
      "o229414": 5042,
      "d1363": 5043,
      "ds0101xa": 5044,
      "d8670": 5045,
      "d9118": 5046,
      "d52333": 5047,
      "ds32029d": 5048,
      "dc9230": 5049,
      "m229760": 5050,
      "2140": 5051,
      "667": 5052,
      "d88": 5053,
      "eo": 5054,
      "dl259": 5055,
      "5930": 5056,
      "di700": 5057,
      "2010": 5058,
      "dz431": 5059,
      "d4131": 5060,
      "d4441": 5061,
      "3695": 5062,
      "365930": 5063,
      "d2774": 5064,
      "dk8510": 5065,
      "dk559": 5066,
      "dk5000": 5067,
      "dr300": 5068,
      "dr180": 5069,
      "dr402": 5070,
      "dr591": 5071,
      "dr938": 5072,
      "d2858": 5073,
      "dz880": 5074,
      "1123": 5075,
      "d3071": 5076,
      "dc221": 5077,
      "d25072": 5078,
      "d99603": 5079,
      "d5695": 5080,
      "dz6821": 5081,
      "dj9509": 5082,
      "d04186": 5083,
      "dr067": 5084,
      "de9309": 5085,
      "dm899": 5086,
      "dd72818": 5087,
      "do365930": 5088,
      "dz85821": 5089,
      "dg8101": 5090,
      "dk5732": 5091,
      "condu": 5092,
      "dl0100": 5093,
      "d78603": 5094,
      "dg960": 5095,
      "dk5720": 5096,
      "dd7589": 5097,
      "dd7582": 5098,
      "d73734": 5099,
      "ileo": 5100,
      "dd472": 5101,
      "d99673": 5102,
      "d7564": 5103,
      "dm48061": 5104,
      "d99769": 5105,
      "d85220": 5106,
      "di69891": 5107,
      "d1748": 5108,
      "dh53451": 5109,
      "dl89322": 5110,
      "de9063": 5111,
      "conduit": 5112,
      "ileoconduit": 5113,
      "038": 5114,
      "524": 5115,
      "623": 5116,
      "621": 5117,
      "638": 5118,
      "631": 5119,
      "pul": 5120,
      "us": 5121,
      "xus": 5122,
      "2255": 5123,
      "5639": 5124,
      "1695": 5125,
      "di672": 5126,
      "de09": 5127,
      "1965": 5128,
      "753": 5129,
      "dv172": 5130,
      "dv602": 5131,
      "782": 5132,
      "783": 5133,
      "787": 5134,
      "28a": 5135,
      "2850": 5136,
      "2320": 5137,
      "683": 5138,
      "772": 5139,
      "9383": 5140,
      "d5739": 5141,
      "d5373": 5142,
      "dr209": 5143,
      "d242": 5144,
      "d2562": 5145,
      "d25639": 5146,
      "dj9383": 5147,
      "d2839": 5148,
      "d28989": 5149,
      "d28983": 5150,
      "dg83": 5151,
      "d7220": 5152,
      "dn939": 5153,
      "d30593": 5154,
      "d30002": 5155,
      "dy93": 5156,
      "d53021": 5157,
      "di499": 5158,
      "d70901": 5159,
      "d04101": 5160,
      "dk767": 5161,
      "da09": 5162,
      "d99832": 5163,
      "d71537": 5164,
      "d1622": 5165,
      "de8841": 5166,
      "de8849": 5167,
      "dv8538": 5168,
      "dy92007": 5169,
      "dg40802": 5170,
      "dc3491": 5171,
      "d642": 5172,
      "dr7303": 5173,
      "di050": 5174,
      "di099": 5175,
      "dm4658": 5176,
      "dm4647": 5177,
      "dz96611": 5178,
      "dt380x5": 5179,
      "dr1011": 5180,
      "d1715": 5181,
      "d9331": 5182,
      "d34292": 5183,
      "d56081": 5184,
      "dl97909": 5185,
      "ds2242": 5186,
      "adoxus": 5187,
      "sus": 5188,
      "dv1365": 5189,
      "paradoxus": 5190,
      "dj4551": 5191,
      "di608": 5192,
      "dz89421": 5193,
      "dk9413": 5194,
      "ds81812a": 5195,
      "dt17890a": 5196,
      "d55841": 5197,
      "pulsus": 5198,
      "049": 5199,
      "527": 5200,
      "552": 5201,
      "696": 5202,
      "714": 5203,
      "761": 5204,
      "823": 5205,
      "l227441": 5206,
      "1665": 5207,
      "di209": 5208,
      "di260": 5209,
      "de118": 5210,
      "de291": 5211,
      "752": 5212,
      "2030": 5213,
      "dk140": 5214,
      "dr502": 5215,
      "dj029": 5216,
      "d2822": 5217,
      "dg809": 5218,
      "d3229": 5219,
      "dv5883": 5220,
      "dm244": 5221,
      "dh43": 5222,
      "dh269": 5223,
      "dh905": 5224,
      "dt424": 5225,
      "d5735": 5226,
      "di5031": 5227,
      "di50813": 5228,
      "df332": 5229,
      "d20193": 5230,
      "d20283": 5231,
      "dj471": 5232,
      "dc718": 5233,
      "o226605": 5234,
      "dg9349": 5235,
      "d2512": 5236,
      "de9179": 5237,
      "do342": 5238,
      "dv4984": 5239,
      "d670": 5240,
      "dz906": 5241,
      "d41011": 5242,
      "d4610": 5243,
      "di63441": 5244,
      "dk8020": 5245,
      "d99666": 5246,
      "d72665": 5247,
      "dl97529": 5248,
      "d35981": 5249,
      "dw19xxxs": 5250,
      "dt82524a": 5251,
      "di63412": 5252,
      "ds066x9a": 5253,
      "dv5419": 5254,
      "di2609": 5255,
      "dm24411": 5256,
      "do34219": 5257,
      "3200": 5258,
      "549": 5259,
      "633": 5260,
      "719": 5261,
      "thrombin": 5262,
      "12d": 5263,
      "1231": 5264,
      "l227447": 5265,
      "1631": 5266,
      "di161": 5267,
      "43xa": 5268,
      "dz895": 5269,
      "934": 5270,
      "48a": 5271,
      "df13": 5272,
      "dd125": 5273,
      "d380": 5274,
      "d7102": 5275,
      "dn139": 5276,
      "dv1541": 5277,
      "dt3695": 5278,
      "d5779": 5279,
      "d5964": 5280,
      "6008": 5281,
      "dv861": 5282,
      "dj9692": 5283,
      "di828": 5284,
      "de9300": 5285,
      "de9447": 5286,
      "d3314": 5287,
      "do6": 5288,
      "dg40109": 5289,
      "dg40901": 5290,
      "d70706": 5291,
      "dr9431": 5292,
      "de1139": 5293,
      "d41513": 5294,
      "di69220": 5295,
      "di69251": 5296,
      "de11622": 5297,
      "d72660": 5298,
      "d75169": 5299,
      "d64893": 5300,
      "ds2243xa": 5301,
      "do99354": 5302,
      "do268": 5303,
      "dr402252": 5304,
      "dt85590a": 5305,
      "dj15212": 5306,
      "dt85628a": 5307,
      "dr402362": 5308,
      "d8911": 5309,
      "dm1a9xx0": 5310,
      "dr402142": 5311,
      "dt3695xa": 5312,
      "626": 5313,
      "723": 5314,
      "762": 5315,
      "bian": 5316,
      "dd496": 5317,
      "d378": 5318,
      "l229761": 5319,
      "meas": 5320,
      "1870": 5321,
      "1845": 5322,
      "1835": 5323,
      "colum": 5324,
      "2512": 5325,
      "di341": 5326,
      "de248": 5327,
      "ured": 5328,
      "dv23": 5329,
      "736": 5330,
      "996": 5331,
      "dz428": 5332,
      "dz628": 5333,
      "d481": 5334,
      "d4270": 5335,
      "d4264": 5336,
      "d27661": 5337,
      "dj954": 5338,
      "df99": 5339,
      "dd508": 5340,
      "dv580": 5341,
      "d25043": 5342,
      "d58889": 5343,
      "dz9689": 5344,
      "dt17": 5345,
      "db953": 5346,
      "d7808": 5347,
      "d45386": 5348,
      "ds02": 5349,
      "d20282": 5350,
      "d92310": 5351,
      "d72982": 5352,
      "da6000": 5353,
      "dz8614": 5354,
      "981x0": 5355,
      "d71595": 5356,
      "dc7a1": 5357,
      "dv037": 5358,
      "do76": 5359,
      "dw011": 5360,
      "d6953": 5361,
      "dl89153": 5362,
      "d4660": 5363,
      "dm796": 5364,
      "dk631": 5365,
      "d3453": 5366,
      "dj45991": 5367,
      "d36510": 5368,
      "di2119": 5369,
      "d11289": 5370,
      "do99214": 5371,
      "de9479": 5372,
      "dt82320a": 5373,
      "di82511": 5374,
      "dn3289": 5375,
      "dg9050": 5376,
      "di82b11": 5377,
      "dm4712": 5378,
      "d07951": 5379,
      "d05319": 5380,
      "do6981x0": 5381,
      "measured": 5382,
      "columbian": 5383,
      "2120": 5384,
      "674": 5385,
      "632": 5386,
      "793": 5387,
      "dd519": 5388,
      "2230": 5389,
      "1865": 5390,
      "607": 5391,
      "2440": 5392,
      "dv694": 5393,
      "2070": 5394,
      "2090": 5395,
      "979": 5396,
      "2115": 5397,
      "666": 5398,
      "644": 5399,
      "576": 5400,
      "3250": 5401,
      "d4230": 5402,
      "d4272": 5403,
      "d5173": 5404,
      "d5282": 5405,
      "dn132": 5406,
      "dy658": 5407,
      "1132": 5408,
      "dc031": 5409,
      "de8120": 5410,
      "dt383": 5411,
      "09293": 5412,
      "2005": 5413,
      "db37": 5414,
      "d2443": 5415,
      "d59659": 5416,
      "d56789": 5417,
      "d56984": 5418,
      "dv4361": 5419,
      "d04189": 5420,
      "d9972": 5421,
      "d193": 5422,
      "d34400": 5423,
      "dt865": 5424,
      "dr011": 5425,
      "dr0682": 5426,
      "d3384": 5427,
      "di974": 5428,
      "d3341": 5429,
      "d6820": 5430,
      "do133": 5431,
      "do620": 5432,
      "do904": 5433,
      "do09293": 5434,
      "dk598": 5435,
      "dq6": 5436,
      "2355": 5437,
      "d70702": 5438,
      "dk5731": 5439,
      "d6239": 5440,
      "d41091": 5441,
      "di69322": 5442,
      "dz95828": 5443,
      "ds069": 5444,
      "d27919": 5445,
      "dz85028": 5446,
      "dr4024": 5447,
      "dt82898a": 5448,
      "dm79602": 5449,
      "d1707": 5450,
      "d78904": 5451,
      "d20048": 5452,
      "dd8982": 5453,
      "dz3a39": 5454,
      "dm19012": 5455,
      "di82512": 5456,
      "di82532": 5457,
      "dl97819": 5458,
      "d65621": 5459,
      "dm3214": 5460,
      "dg7289": 5461,
      "dm4854xa": 5462,
      "do09523": 5463,
      "d34461": 5464,
      "dt360x5a": 5465,
      "di83029": 5466,
      "2370": 5467,
      "3175": 5468,
      "622": 5469,
      "693": 5470,
      "712": 5471,
      "918": 5472,
      "944": 5473,
      "d81": 5474,
      "d94": 5475,
      "xican": 5476,
      "mexican": 5477,
      "98d": 5478,
      "2085": 5479,
      "2830": 5480,
      "906": 5481,
      "2345": 5482,
      "2390": 5483,
      "677": 5484,
      "66x5a": 5485,
      "d42611": 5486,
      "1401": 5487,
      "d27953": 5488,
      "d27906": 5489,
      "dk228": 5490,
      "dr208": 5491,
      "847": 5492,
      "849": 5493,
      "dd803": 5494,
      "dz881": 5495,
      "dm75": 5496,
      "dt510": 5497,
      "dv4962": 5498,
      "d5969": 5499,
      "d59689": 5500,
      "d59582": 5501,
      "d99649": 5502,
      "d56985": 5503,
      "ds510": 5504,
      "dg459": 5505,
      "de9359": 5506,
      "d20200": 5507,
      "d1969": 5508,
      "dk750": 5509,
      "dk759": 5510,
      "d36202": 5511,
      "d3540": 5512,
      "dr490": 5513,
      "df0281": 5514,
      "dg4089": 5515,
      "d71961": 5516,
      "d99686": 5517,
      "d53541": 5518,
      "d73015": 5519,
      "d73028": 5520,
      "dk8689": 5521,
      "de639": 5522,
      "dm726": 5523,
      "d813": 5524,
      "d3942": 5525,
      "dg9589": 5526,
      "dy840": 5527,
      "d8024": 5528,
      "db963": 5529,
      "dj95811": 5530,
      "dj95821": 5531,
      "d37854": 5532,
      "di82a": 5533,
      "d41412": 5534,
      "dg039": 5535,
      "dt466x5a": 5536,
      "d65971": 5537,
      "ds0101xd": 5538,
      "dc50919": 5539,
      "x2a": 5540,
      "de1143": 5541,
      "dt380x5d": 5542,
      "dt17590a": 5543,
      "dw01198d": 5544,
      "578": 5545,
      "957": 5546,
      "d690": 5547,
      "2265": 5548,
      "1041": 5549,
      "4202": 5550,
      "2510": 5551,
      "2520": 5552,
      "3700": 5553,
      "1960": 5554,
      "2475": 5555,
      "dv560": 5556,
      "2360": 5557,
      "d541": 5558,
      "d27788": 5559,
      "d7810": 5560,
      "d78343": 5561,
      "dr53": 5562,
      "dr400": 5563,
      "df1210": 5564,
      "d28260": 5565,
      "dz856": 5566,
      "4720": 5567,
      "111xa": 5568,
      "d727": 5569,
      "d7222": 5570,
      "d30029": 5571,
      "d5307": 5572,
      "dh4720": 5573,
      "de8799": 5574,
      "09xa": 5575,
      "db373": 5576,
      "ds42": 5577,
      "ds70": 5578,
      "dv4321": 5579,
      "1985": 5580,
      "d20270": 5581,
      "d0478": 5582,
      "dt8111xa": 5583,
      "dk7110": 5584,
      "dr002": 5585,
      "d78724": 5586,
      "di614": 5587,
      "db951": 5588,
      "d4417": 5589,
      "d4480": 5590,
      "dr413": 5591,
      "dr3121": 5592,
      "dk745": 5593,
      "do4202": 5594,
      "2305": 5595,
      "d1579": 5596,
      "dg40119": 5597,
      "d5088": 5598,
      "dm546": 5599,
      "d6262": 5600,
      "dr760": 5601,
      "di69392": 5602,
      "2780": 5603,
      "dz96643": 5604,
      "dh5441": 5605,
      "d3960": 5606,
      "dw1809xa": 5607,
      "dv553": 5608,
      "d9061": 5609,
      "d1503": 5610,
      "d37950": 5611,
      "dd898": 5612,
      "d56729": 5613,
      "dl89620": 5614,
      "d0527": 5615,
      "dc9001": 5616,
      "dh5340": 5617,
      "dn3281": 5618,
      "dk2971": 5619,
      "d39891": 5620,
      "ds51012a": 5621,
      "d69010": 5622,
      "dr5383": 5623,
      "048": 5624,
      "2420": 5625,
      "3400": 5626,
      "548": 5627,
      "2215": 5628,
      "l227449": 5629,
      "2460": 5630,
      "2065": 5631,
      "2055": 5632,
      "2875": 5633,
      "2165": 5634,
      "584": 5635,
      "d4379": 5636,
      "d42518": 5637,
      "d7822": 5638,
      "d78550": 5639,
      "554": 5640,
      "dk30": 5641,
      "dj1000": 5642,
      "dj380": 5643,
      "dj329": 5644,
      "df430": 5645,
      "dd682": 5646,
      "dz8669": 5647,
      "d3963": 5648,
      "d7503": 5649,
      "d3099": 5650,
      "dc154": 5651,
      "dc680": 5652,
      "d5728": 5653,
      "2195": 5654,
      "db009": 5655,
      "dv1091": 5656,
      "d5921": 5657,
      "d5932": 5658,
      "d5934": 5659,
      "ds720": 5660,
      "d20412": 5661,
      "d9582": 5662,
      "d7230": 5663,
      "dk769": 5664,
      "dr066": 5665,
      "dr0781": 5666,
      "d4941": 5667,
      "d99851": 5668,
      "d36320": 5669,
      "d3549": 5670,
      "dr41840": 5671,
      "d3310": 5672,
      "dz85830": 5673,
      "dj988": 5674,
      "dg408": 5675,
      "d71943": 5676,
      "dl02512": 5677,
      "di69391": 5678,
      "d78607": 5679,
      "d73018": 5680,
      "d53641": 5681,
      "xxxs": 5682,
      "d4870": 5683,
      "di517": 5684,
      "dd490": 5685,
      "d47874": 5686,
      "d47829": 5687,
      "di82442": 5688,
      "dm940": 5689,
      "dm25551": 5690,
      "dm5440": 5691,
      "d7580": 5692,
      "d64841": 5693,
      "d36514": 5694,
      "di7774": 5695,
      "d99779": 5696,
      "d44329": 5697,
      "dm3219": 5698,
      "dv1651": 5699,
      "di82a11": 5700,
      "d72762": 5701,
      "041": 5702,
      "d1410": 5703,
      "lab": 5704,
      "2285": 5705,
      "746": 5706,
      "dl539": 5707,
      "608": 5708,
      "706": 5709,
      "40240": 5710,
      "1995": 5711,
      "2480": 5712,
      "dv510": 5713,
      "2089": 5714,
      "2335": 5715,
      "23xxa": 5716,
      "5230": 5717,
      "d4267": 5718,
      "4412": 5719,
      "4440": 5720,
      "m227534": 5721,
      "d51631": 5722,
      "8881": 5723,
      "d7866": 5724,
      "d78839": 5725,
      "dk439": 5726,
      "dk266": 5727,
      "dr232": 5728,
      "df40240": 5729,
      "dd582": 5730,
      "dg931": 5731,
      "1905": 5732,
      "dn529": 5733,
      "dc23": 5734,
      "dc155": 5735,
      "de8585": 5736,
      "145xa": 5737,
      "dm213": 5738,
      "dm353": 5739,
      "d580": 5740,
      "dt66": 5741,
      "dt465": 5742,
      "d5724": 5743,
      "di2584": 5744,
      "d5933": 5745,
      "d73349": 5746,
      "d51882": 5747,
      "di5042": 5748,
      "d45351": 5749,
      "ds06": 5750,
      "de9317": 5751,
      "de9347": 5752,
      "d04100": 5753,
      "d9221": 5754,
      "d92410": 5755,
      "d9747": 5756,
      "d1965": 5757,
      "d1968": 5758,
      "d34600": 5759,
      "d34889": 5760,
      "dy839": 5761,
      "d07044": 5762,
      "di778": 5763,
      "dv8524": 5764,
      "d2518": 5765,
      "d3361": 5766,
      "do244": 5767,
      "do4412": 5768,
      "d674": 5769,
      "d73023": 5770,
      "ds023xxa": 5771,
      "dm791": 5772,
      "dg9741": 5773,
      "di452": 5774,
      "d8082": 5775,
      "di511": 5776,
      "d9089": 5777,
      "520a": 5778,
      "di2690": 5779,
      "di70201": 5780,
      "di70209": 5781,
      "d75651": 5782,
      "d1501": 5783,
      "di82411": 5784,
      "d37230": 5785,
      "dk2211": 5786,
      "d36522": 5787,
      "dz1623": 5788,
      "dt4145xa": 5789,
      "dm47892": 5790,
      "dc9152": 5791,
      "dz9483": 5792,
      "dr29702": 5793,
      "dt85520a": 5794,
      "di63442": 5795,
      "di82b12": 5796,
      "dk55029": 5797,
      "dv1652": 5798,
      "dv7651": 5799,
      "dm0600": 5800,
      "d8821": 5801,
      "d24290": 5802,
      "d38010": 5803,
      "d81220": 5804,
      "dt510x2a": 5805,
      "037": 5806,
      "2145": 5807,
      "2185": 5808,
      "3xa": 5809,
      "3280": 5810,
      "637": 5811,
      "624": 5812,
      "9989": 5813,
      "d67": 5814,
      "d1125": 5815,
      "ka": 5816,
      "2295": 5817,
      "1011": 5818,
      "744": 5819,
      "1246": 5820,
      "alas": 5821,
      "60x9a": 5822,
      "2540": 5823,
      "de236": 5824,
      "2430": 5825,
      "684": 5826,
      "688": 5827,
      "dz53": 5828,
      "dz634": 5829,
      "2670": 5830,
      "2630": 5831,
      "2620": 5832,
      "586": 5833,
      "3345": 5834,
      "m227524": 5835,
      "9198": 5836,
      "d550": 5837,
      "3150": 5838,
      "d78838": 5839,
      "dk469": 5840,
      "dr34": 5841,
      "692": 5842,
      "d2452": 5843,
      "1047": 5844,
      "df50": 5845,
      "d2894": 5846,
      "d28984": 5847,
      "108xxa": 5848,
      "dv5841": 5849,
      "dn500": 5850,
      "dy939": 5851,
      "d25081": 5852,
      "dm3500": 5853,
      "dh349": 5854,
      "219a": 5855,
      "db199": 5856,
      "d78093": 5857,
      "d5950": 5858,
      "d59681": 5859,
      "ds32": 5860,
      "d29610": 5861,
      "182xa": 5862,
      "dt8182xa": 5863,
      "dr0609": 5864,
      "di69198": 5865,
      "dz8613": 5866,
      "dz8661": 5867,
      "d36504": 5868,
      "de8843": 5869,
      "dz8544": 5870,
      "dz8541": 5871,
      "do14": 5872,
      "d73319": 5873,
      "dw108xxa": 5874,
      "df0781": 5875,
      "dy92010": 5876,
      "dg40101": 5877,
      "dr9439": 5878,
      "ds060x9a": 5879,
      "d38600": 5880,
      "d4612": 5881,
      "de611": 5882,
      "da4159": 5883,
      "d9093": 5884,
      "d36813": 5885,
      "di82493": 5886,
      "d20020": 5887,
      "d22802": 5888,
      "d99762": 5889,
      "d53240": 5890,
      "dg030": 5891,
      "d37923": 5892,
      "d1104": 5893,
      "d1108": 5894,
      "dg2409": 5895,
      "598a": 5896,
      "dh43392": 5897,
      "dt424x5a": 5898,
      "df13239": 5899,
      "dz62810": 5900,
      "dj3801": 5901,
      "dt465x5a": 5902,
      "alaska": 5903,
      "044": 5904,
      "2135": 5905,
      "2689": 5906,
      "673": 5907,
      "d860": 5908,
      "2235": 5909,
      "2280": 5910,
      "18000": 5911,
      "1782": 5912,
      "708": 5913,
      "de00": 5914,
      "2485": 5915,
      "20219a": 5916,
      "9000": 5917,
      "976": 5918,
      "9720": 5919,
      "2365": 5920,
      "2330": 5921,
      "2925": 5922,
      "834": 5923,
      "776": 5924,
      "d4871": 5925,
      "d48881": 5926,
      "d4242": 5927,
      "3450": 5928,
      "41xa": 5929,
      "dk254": 5930,
      "dk430": 5931,
      "dk1231": 5932,
      "dr260": 5933,
      "dr251": 5934,
      "dr292": 5935,
      "dr2689": 5936,
      "dj82": 5937,
      "dj101": 5938,
      "df1123": 5939,
      "d28489": 5940,
      "dn39": 5941,
      "dm50": 5942,
      "dm159": 5943,
      "dh1132": 5944,
      "dt450": 5945,
      "di459": 5946,
      "ds14": 5947,
      "ds72": 5948,
      "ds20219a": 5949,
      "de9383": 5950,
      "d20210": 5951,
      "d20203": 5952,
      "d20411": 5953,
      "d20511": 5954,
      "d2781": 5955,
      "de079": 5956,
      "dv860": 5957,
      "d72669": 5958,
      "d72709": 5959,
      "d3489": 5960,
      "dt8649": 5961,
      "da408": 5962,
      "da1782": 5963,
      "di629": 5964,
      "d3698": 5965,
      "d35801": 5966,
      "dc784": 5967,
      "d44103": 5968,
      "dk315": 5969,
      "dv632": 5970,
      "do365": 5971,
      "do470": 5972,
      "do998": 5973,
      "dq613": 5974,
      "d03843": 5975,
      "2595": 5976,
      "d4560": 5977,
      "dr948": 5978,
      "402a": 5979,
      "dc7970": 5980,
      "d1832": 5981,
      "d1844": 5982,
      "d46619": 5983,
      "d45989": 5984,
      "dk56609": 5985,
      "dg914": 5986,
      "d64934": 5987,
      "dk5791": 5988,
      "dm79672": 5989,
      "dm25569": 5990,
      "d64824": 5991,
      "ds2241xa": 5992,
      "dg060": 5993,
      "d30924": 5994,
      "d65911": 5995,
      "dh5442": 5996,
      "dm47816": 5997,
      "d64894": 5998,
      "d65421": 5999,
      "di97710": 6000,
      "dt85598a": 6001,
      "d1361": 6002,
      "dt85695a": 6003,
      "do24013": 6004,
      "do24011": 6005,
      "d82300": 6006,
      "dg4737": 6007,
      "dd89811": 6008,
      "dt450x5a": 6009,
      "do365130": 6010,
      "do4703": 6011,
      "do99824": 6012,
      "2155": 6013,
      "2560": 6014,
      "627": 6015,
      "713": 6016,
      "727": 6017,
      "768": 6018,
      "852": 6019,
      "rostomy": 6020,
      "2245": 6021,
      "2205": 6022,
      "l227469": 6023,
      "phrostomy": 6024,
      "di808": 6025,
      "2470": 6026,
      "dv728": 6027,
      "2660": 6028,
      "2675": 6029,
      "93402a": 6030,
      "nephrostomy": 6031,
      "3350": 6032,
      "d4293": 6033,
      "d42511": 6034,
      "3650": 6035,
      "d5439": 6036,
      "d5224": 6037,
      "d78939": 6038,
      "792": 6039,
      "dk210": 6040,
      "dk869": 6041,
      "df200": 6042,
      "d2811": 6043,
      "dg4440": 6044,
      "119xa": 6045,
      "d7110": 6046,
      "d7962": 6047,
      "dc73": 6048,
      "dc187": 6049,
      "d5855": 6050,
      "dz91041": 6051,
      "d78065": 6052,
      "d5183": 6053,
      "d41404": 6054,
      "di5041": 6055,
      "df339": 6056,
      "ds93402a": 6057,
      "de9319": 6058,
      "d29570": 6059,
      "d34591": 6060,
      "dt8351": 6061,
      "dt8119xa": 6062,
      "d9984": 6063,
      "d71530": 6064,
      "de8888": 6065,
      "dc713": 6066,
      "d4476": 6067,
      "dv8534": 6068,
      "do361": 6069,
      "dz85818": 6070,
      "dk51011": 6071,
      "d5110": 6072,
      "d55229": 6073,
      "d6181": 6074,
      "d53200": 6075,
      "d00843": 6076,
      "d38610": 6077,
      "d34580": 6078,
      "d4822": 6079,
      "d4820": 6080,
      "d71694": 6081,
      "d64783": 6082,
      "d53783": 6083,
      "d53782": 6084,
      "dg43109": 6085,
      "d37001": 6086,
      "d37289": 6087,
      "x0s": 6088,
      "dt501x1a": 6089,
      "d64844": 6090,
      "di6529": 6091,
      "d29621": 6092,
      "de9413": 6093,
      "dz79891": 6094,
      "dm47896": 6095,
      "dl02213": 6096,
      "d65701": 6097,
      "dj4521": 6098,
      "dt464x1a": 6099,
      "dz89431": 6100,
      "dl03313": 6101,
      "ds066x0a": 6102,
      "dg4730": 6103,
      "dv892xxs": 6104,
      "di97821": 6105,
      "d67014": 6106,
      "dv2349": 6107,
      "ds0219": 6108,
      "db3781": 6109,
      "d58081": 6110,
      "di77810": 6111,
      "d8604": 6112,
      "dt8351xa": 6113,
      "do361130": 6114,
      "084": 6115,
      "2170": 6116,
      "3125": 6117,
      "691": 6118,
      "764": 6119,
      "867": 6120,
      "951": 6121,
      "d649": 6122,
      "d373": 6123,
      "d658": 6124,
      "2270": 6125,
      "1272": 6126,
      "4209": 6127,
      "di208": 6128,
      "di748": 6129,
      "2495": 6130,
      "3015": 6131,
      "dv272": 6132,
      "dv241": 6133,
      "2095": 6134,
      "1209": 6135,
      "676": 6136,
      "687": 6137,
      "2940": 6138,
      "5848a": 6139,
      "d536": 6140,
      "d5562": 6141,
      "d78704": 6142,
      "dk269": 6143,
      "d2148": 6144,
      "dj17": 6145,
      "dj158": 6146,
      "dj860": 6147,
      "df909": 6148,
      "d28319": 6149,
      "dd333": 6150,
      "dg04": 6151,
      "dg905": 6152,
      "dz813": 6153,
      "dz86008": 6154,
      "m222151": 6155,
      "d326": 6156,
      "d3438": 6157,
      "d7243": 6158,
      "d7292": 6159,
      "dn63": 6160,
      "d30411": 6161,
      "dm905": 6162,
      "dh109": 6163,
      "de784": 6164,
      "1229": 6165,
      "dt83": 6166,
      "db49": 6167,
      "d2468": 6168,
      "d5989": 6169,
      "d99662": 6170,
      "ds273": 6171,
      "ds724": 6172,
      "dg44209": 6173,
      "d70583": 6174,
      "d29980": 6175,
      "d20380": 6176,
      "d1973": 6177,
      "d1971": 6178,
      "dz792": 6179,
      "dt85848a": 6180,
      "d60785": 6181,
      "da403": 6182,
      "da084": 6183,
      "d71580": 6184,
      "dc7b": 6185,
      "dc778": 6186,
      "di820": 6187,
      "dv053": 6188,
      "d6828": 6189,
      "dk91840": 6190,
      "dr1319": 6191,
      "dg8104": 6192,
      "dw109": 6193,
      "d1589": 6194,
      "dq321": 6195,
      "dm5126": 6196,
      "dz9012": 6197,
      "di083": 6198,
      "dh548": 6199,
      "dh5500": 6200,
      "d8208": 6201,
      "d48249": 6202,
      "di2721": 6203,
      "d7483": 6204,
      "d3968": 6205,
      "di69192": 6206,
      "dm792": 6207,
      "d47875": 6208,
      "di70262": 6209,
      "di70401": 6210,
      "dv536": 6211,
      "d20042": 6212,
      "dm25519": 6213,
      "di82409": 6214,
      "dk8000": 6215,
      "d7593": 6216,
      "dt451x5d": 6217,
      "d52181": 6218,
      "di6522": 6219,
      "d1419": 6220,
      "dr29701": 6221,
      "de756": 6222,
      "dz48811": 6223,
      "dl03311": 6224,
      "dc50911": 6225,
      "dg2119": 6226,
      "dz89511": 6227,
      "ds069x0s": 6228,
      "dr402432": 6229,
      "d81342": 6230,
      "dv7281": 6231,
      "ds0219xa": 6232,
      "d37313": 6233,
      "dg0490": 6234,
      "042": 6235,
      "3800": 6236,
      "617": 6237,
      "968": 6238,
      "964": 6239,
      "ak": 6240,
      "d92": 6241,
      "d375": 6242,
      "d1272": 6243,
      "ha": 6244,
      "ob": 6245,
      "1329": 6246,
      "1711": 6247,
      "2545": 6248,
      "2530": 6249,
      "de1310": 6250,
      "de9299": 6251,
      "1915": 6252,
      "2465": 6253,
      "dv88": 6254,
      "dv193": 6255,
      "dv1229": 6256,
      "2811": 6257,
      "2725": 6258,
      "2720": 6259,
      "646": 6260,
      "83xa": 6261,
      "5112": 6262,
      "d42290": 6263,
      "39a": 6264,
      "8261": 6265,
      "3489": 6266,
      "d2730": 6267,
      "d7852": 6268,
      "d78262": 6269,
      "dk267": 6270,
      "4830": 6271,
      "d40311": 6272,
      "dd122": 6273,
      "dd151": 6274,
      "dd721": 6275,
      "d3599": 6276,
      "1126": 6277,
      "d7248": 6278,
      "dn359": 6279,
      "dn3000": 6280,
      "d30746": 6281,
      "dc0": 6282,
      "d25093": 6283,
      "dm316": 6284,
      "dm1711": 6285,
      "d587": 6286,
      "d5829": 6287,
      "d0319": 6288,
      "dz7289": 6289,
      "dv4575": 6290,
      "o226630": 6291,
      "dy92830": 6292,
      "dv1081": 6293,
      "d5691": 6294,
      "d56989": 6295,
      "d34680": 6296,
      "dt8451": 6297,
      "d3699": 6298,
      "d36241": 6299,
      "d36404": 6300,
      "di721": 6301,
      "981xa": 6302,
      "d3575": 6303,
      "dc775": 6304,
      "d4465": 6305,
      "d4471": 6306,
      "o226607": 6307,
      "dv8537": 6308,
      "dk319": 6309,
      "d68100": 6310,
      "dg835": 6311,
      "dg8103": 6312,
      "dw1789": 6313,
      "dg6289": 6314,
      "d1551": 6315,
      "d1588": 6316,
      "d6954": 6317,
      "dq323": 6318,
      "di427": 6319,
      "dz806": 6320,
      "dk558": 6321,
      "d6962": 6322,
      "dk858": 6323,
      "dc792": 6324,
      "dz91128": 6325,
      "d8900": 6326,
      "d8404": 6327,
      "d57490": 6328,
      "dr1084": 6329,
      "d99668": 6330,
      "d2390": 6331,
      "d7936": 6332,
      "di6350": 6333,
      "dv5831": 6334,
      "dl03114": 6335,
      "dy92121": 6336,
      "dk8063": 6337,
      "dk31811": 6338,
      "dg002": 6339,
      "d87364": 6340,
      "dr402222": 6341,
      "dj4550": 6342,
      "dm4624": 6343,
      "dg7111": 6344,
      "dl03319": 6345,
      "ds8981xa": 6346,
      "ds80212a": 6347,
      "ds8001xa": 6348,
      "ds2242xa": 6349,
      "di9742": 6350,
      "d37515": 6351,
      "dv193xxa": 6352,
      "dt8451xa": 6353,
      "dw1789xa": 6354,
      "678": 6355,
      "668": 6356,
      "773": 6357,
      "767": 6358,
      "729": 6359,
      "837": 6360,
      "868": 6361,
      "887": 6362,
      "921": 6363,
      "966": 6364,
      "ai": 6365,
      "wai": 6366,
      "l22650": 6367,
      "dl131": 6368,
      "dl649": 6369,
      "dl738": 6370,
      "1119": 6371,
      "1172": 6372,
      "7093": 6373,
      "4511": 6374,
      "di200": 6375,
      "130xa": 6376,
      "754": 6377,
      "758": 6378,
      "dv44": 6379,
      "dv141": 6380,
      "dv147": 6381,
      "dv265": 6382,
      "dv1047": 6383,
      "2715": 6384,
      "9763": 6385,
      "2122": 6386,
      "dz150": 6387,
      "dz5112": 6388,
      "2975": 6389,
      "832": 6390,
      "2690": 6391,
      "804": 6392,
      "80a": 6393,
      "3325": 6394,
      "86xxa": 6395,
      "d5550": 6396,
      "d78199": 6397,
      "dk659": 6398,
      "dr453": 6399,
      "d4010": 6400,
      "d40491": 6401,
      "dj3489": 6402,
      "df458": 6403,
      "df609": 6404,
      "df2089": 6405,
      "d2830": 6406,
      "dd001": 6407,
      "dd571": 6408,
      "dg9763": 6409,
      "dz873": 6410,
      "dz882": 6411,
      "d3181": 6412,
      "dv5881": 6413,
      "dn178": 6414,
      "dn280": 6415,
      "dn318": 6416,
      "dn7093": 6417,
      "d3019": 6418,
      "d3068": 6419,
      "d30989": 6420,
      "dc321": 6421,
      "d53082": 6422,
      "129xxs": 6423,
      "dt172": 6424,
      "d5719": 6425,
      "dy92122": 6426,
      "dv1021": 6427,
      "dv1029": 6428,
      "d99709": 6429,
      "153s": 6430,
      "d4555": 6431,
      "d45389": 6432,
      "ds129xxs": 6433,
      "d70219": 6434,
      "d29630": 6435,
      "dt8130xa": 6436,
      "dt886xxa": 6437,
      "di6789": 6438,
      "d7948": 6439,
      "dj9612": 6440,
      "dc7972": 6441,
      "dz8559": 6442,
      "dv8536": 6443,
      "dg932": 6444,
      "dv0752": 6445,
      "de9283": 6446,
      "do4112": 6447,
      "dr1311": 6448,
      "dg8254": 6449,
      "dg8252": 6450,
      "dg40219": 6451,
      "d5552": 6452,
      "d6159": 6453,
      "d6238": 6454,
      "d64511": 6455,
      "dv425": 6456,
      "dl02811": 6457,
      "dr944": 6458,
      "2655": 6459,
      "ds063": 6460,
      "dc7911": 6461,
      "de6609": 6462,
      "d23874": 6463,
      "d8244": 6464,
      "d85230": 6465,
      "da4153": 6466,
      "dj8489": 6467,
      "dj95822": 6468,
      "dd419": 6469,
      "d7932": 6470,
      "d2114": 6471,
      "dm6281": 6472,
      "pacific": 6473,
      "dv5359": 6474,
      "di2111": 6475,
      "islander": 6476,
      "dz1630": 6477,
      "d85200": 6478,
      "dg061": 6479,
      "dc3402": 6480,
      "d8728": 6481,
      "dg9520": 6482,
      "d1101": 6483,
      "dm4627": 6484,
      "d86121": 6485,
      "dg9059": 6486,
      "de9068": 6487,
      "dm0609": 6488,
      "dg7281": 6489,
      "ds22080a": 6490,
      "dm4854xd": 6491,
      "d56949": 6492,
      "dq059": 6493,
      "dg8321": 6494,
      "dy9367": 6495,
      "dy9344": 6496,
      "d64231": 6497,
      "d37887": 6498,
      "ds7001xa": 6499,
      "ds14153s": 6500,
      "dg90511": 6501,
      "hawai": 6502,
      "l226504": 6503,
      "dv4459": 6504,
      "dv2651": 6505,
      "dt17298a": 6506,
      "do411230": 6507,
      "hawaiian": 6508,
      "3300": 6509,
      "618": 6510,
      "799": 6511,
      "816": 6512,
      "828": 6513,
      "851": 6514,
      "dd27": 6515,
      "ej": 6516,
      "jej": 6517,
      "dl989": 6518,
      "1236": 6519,
      "4250": 6520,
      "2511": 6521,
      "2580": 6522,
      "1611": 6523,
      "unostomy": 6524,
      "de161": 6525,
      "de232": 6526,
      "4082": 6527,
      "40xd": 6528,
      "3075": 6529,
      "3020": 6530,
      "dv09": 6531,
      "dv2511": 6532,
      "1201": 6533,
      "2840": 6534,
      "2380": 6535,
      "dz77": 6536,
      "dz171": 6537,
      "dz228": 6538,
      "m225908": 6539,
      "57a": 6540,
      "3850": 6541,
      "3920": 6542,
      "1101": 6543,
      "d27787": 6544,
      "d7871": 6545,
      "d78951": 6546,
      "dr54": 6547,
      "d2116": 6548,
      "dj09": 6549,
      "dj986": 6550,
      "dj1100": 6551,
      "dd18": 6552,
      "dd703": 6553,
      "dg808": 6554,
      "dz859": 6555,
      "d3241": 6556,
      "dn289": 6557,
      "dv1529": 6558,
      "dc781": 6559,
      "dc257": 6560,
      "d25003": 6561,
      "dm84": 6562,
      "dm1710": 6563,
      "dm1611": 6564,
      "d5819": 6565,
      "d04082": 6566,
      "dt370": 6567,
      "dt398": 6568,
      "dt375": 6569,
      "dt421": 6570,
      "dt888": 6571,
      "d5710": 6572,
      "di498": 6573,
      "m223261": 6574,
      "db0": 6575,
      "db368": 6576,
      "dv1071": 6577,
      "d78059": 6578,
      "d5963": 6579,
      "d56981": 6580,
      "d4558": 6581,
      "d4581": 6582,
      "ds274": 6583,
      "1619": 6584,
      "d7010": 6585,
      "d7020": 6586,
      "d7080": 6587,
      "d990": 6588,
      "d42840": 6589,
      "d1975": 6590,
      "d3492": 6591,
      "d43311": 6592,
      "d6089": 6593,
      "d49120": 6594,
      "d07071": 6595,
      "db958": 6596,
      "dv8530": 6597,
      "dv8539": 6598,
      "dv074": 6599,
      "dv072": 6600,
      "de9271": 6601,
      "de9301": 6602,
      "do98": 6603,
      "dk913": 6604,
      "dk9589": 6605,
      "d43821": 6606,
      "d43881": 6607,
      "d03844": 6608,
      "dy92000": 6609,
      "dg40409": 6610,
      "dg40209": 6611,
      "dc3481": 6612,
      "dc8330": 6613,
      "d6151": 6614,
      "dr945": 6615,
      "d53531": 6616,
      "d53989": 6617,
      "dk824": 6618,
      "301s": 6619,
      "d27949": 6620,
      "d81201": 6621,
      "d48283": 6622,
      "d48802": 6623,
      "d71699": 6624,
      "d57431": 6625,
      "d57441": 6626,
      "d8056": 6627,
      "d80709": 6628,
      "dr4020": 6629,
      "dt82857a": 6630,
      "d99661": 6631,
      "di70245": 6632,
      "dr5381": 6633,
      "d78903": 6634,
      "d20080": 6635,
      "dm4807": 6636,
      "dv4940xd": 6637,
      "dm5410": 6638,
      "dj45998": 6639,
      "d7533": 6640,
      "d64881": 6641,
      "d95901": 6642,
      "d5259": 6643,
      "d5298": 6644,
      "d66111": 6645,
      "d66401": 6646,
      "dc9200": 6647,
      "991xa": 6648,
      "di97638": 6649,
      "dd3501": 6650,
      "d65651": 6651,
      "dg5681": 6652,
      "dg5682": 6653,
      "d6150": 6654,
      "dl89312": 6655,
      "dr402312": 6656,
      "ds8991xa": 6657,
      "dl98499": 6658,
      "d05410": 6659,
      "d8470": 6660,
      "d8479": 6661,
      "dv892xxa": 6662,
      "de0940": 6663,
      "ds2242xd": 6664,
      "ds42301s": 6665,
      "dm21371": 6666,
      "dt66xxxs": 6667,
      "ds27329d": 6668,
      "dd271": 6669,
      "jejunostomy": 6670,
      "dz7722": 6671,
      "dj09x2": 6672,
      "dt370x5a": 6673,
      "dt398x5a": 6674,
      "dt888xxa": 6675,
      "ds27439a": 6676,
      "043": 6677,
      "3135": 6678,
      "4100": 6679,
      "4500": 6680,
      "699": 6681,
      "717": 6682,
      "842": 6683,
      "861": 6684,
      "883": 6685,
      "967": 6686,
      "d95": 6687,
      "d1121": 6688,
      "d1105": 6689,
      "1817": 6690,
      "657": 6691,
      "2570": 6692,
      "di74": 6693,
      "di352": 6694,
      "40a": 6695,
      "1991": 6696,
      "2490": 6697,
      "3010": 6698,
      "3032": 6699,
      "30xxxa": 6700,
      "1303": 6701,
      "3550": 6702,
      "2805": 6703,
      "9042": 6704,
      "dz048": 6705,
      "dz1619": 6706,
      "o226557": 6707,
      "5712": 6708,
      "2615": 6709,
      "2665": 6710,
      "2695": 6711,
      "d4730": 6712,
      "3310": 6713,
      "3475": 6714,
      "1403": 6715,
      "d5168": 6716,
      "d5111": 6717,
      "d5194": 6718,
      "d27901": 6719,
      "d78902": 6720,
      "d78340": 6721,
      "794": 6722,
      "dk05": 6723,
      "dr700": 6724,
      "dr222": 6725,
      "d2740": 6726,
      "df29": 6727,
      "dd569": 6728,
      "dd892": 6729,
      "d3591": 6730,
      "dn394": 6731,
      "dy731": 6732,
      "dc153": 6733,
      "dc490": 6734,
      "d25092": 6735,
      "dm80": 6736,
      "dm1991": 6737,
      "dh160": 6738,
      "dh9042": 6739,
      "dh5712": 6740,
      "dt43": 6741,
      "dt670": 6742,
      "dv4561": 6743,
      "di25719": 6744,
      "db002": 6745,
      "dv1253": 6746,
      "d7321": 6747,
      "d99701": 6748,
      "di5040": 6749,
      "de9323": 6750,
      "de08": 6751,
      "d34939": 6752,
      "dt82110": 6753,
      "dj430": 6754,
      "0889": 6755,
      "di63032": 6756,
      "d4919": 6757,
      "d49302": 6758,
      "d07022": 6759,
      "501a": 6760,
      "de916": 6761,
      "dd72828": 6762,
      "do75": 6763,
      "2405": 6764,
      "de1052": 6765,
      "dg6181": 6766,
      "d03811": 6767,
      "2455": 6768,
      "d71940": 6769,
      "di052": 6770,
      "dz9889": 6771,
      "dz95811": 6772,
      "ds061": 6773,
      "dx30xxxa": 6774,
      "dk5652": 6775,
      "d48282": 6776,
      "dc8300": 6777,
      "di5181": 6778,
      "d72884": 6779,
      "3655": 6780,
      "dk2920": 6781,
      "d20034": 6782,
      "dm968": 6783,
      "dk8050": 6784,
      "dz1611": 6785,
      "d44481": 6786,
      "de103593": 6787,
      "d87320": 6788,
      "d72990": 6789,
      "dk9412": 6790,
      "dl97929": 6791,
      "dv714": 6792,
      "di97820": 6793,
      "de0922": 6794,
      "dg8311": 6795,
      "dm79674": 6796,
      "dm79675": 6797,
      "dq6102": 6798,
      "dq6689": 6799,
      "d67484": 6800,
      "dt8383xa": 6801,
      "dc0689": 6802,
      "ds06340a": 6803,
      "dt375x5a": 6804,
      "dt421x5a": 6805,
      "db0181": 6806,
      "dk0530": 6807,
      "dh16002": 6808,
      "dt670xxa": 6809,
      "dt82110a": 6810,
      "1136": 6811,
      "3225": 6812,
      "3425": 6813,
      "4300": 6814,
      "4600": 6815,
      "636": 6816,
      "718": 6817,
      "737": 6818,
      "819": 6819,
      "827": 6820,
      "857": 6821,
      "882": 6822,
      "913": 6823,
      "978": 6824,
      "973": 6825,
      "927": 6826,
      "997": 6827,
      "dd518": 6828,
      "v2278": 6829,
      "1094": 6830,
      "1328": 6831,
      "7439": 6832,
      "1291": 6833,
      "1851": 6834,
      "1855": 6835,
      "1422": 6836,
      "1122": 6837,
      "11xa": 6838,
      "4200": 6839,
      "3725": 6840,
      "4542": 6841,
      "di731": 6842,
      "de160": 6843,
      "de282": 6844,
      "de7439": 6845,
      "2445": 6846,
      "786": 6847,
      "12000": 6848,
      "1004": 6849,
      "2910": 6850,
      "2635": 6851,
      "807": 6852,
      "872": 6853,
      "0089": 6854,
      "d4259": 6855,
      "4430": 6856,
      "3490": 6857,
      "853": 6858,
      "1103": 6859,
      "d5277": 6860,
      "d27509": 6861,
      "dk605": 6862,
      "dk0889": 6863,
      "dr262": 6864,
      "dr162": 6865,
      "dr270": 6866,
      "dr803": 6867,
      "d237": 6868,
      "d2152": 6869,
      "dj42": 6870,
      "dj05": 6871,
      "df119": 6872,
      "df1121": 6873,
      "d28982": 6874,
      "dd732": 6875,
      "dg903": 6876,
      "dz818": 6877,
      "dn995": 6878,
      "dn269": 6879,
      "dn630": 6880,
      "d3090": 6881,
      "d30521": 6882,
      "dy793": 6883,
      "dc328": 6884,
      "l229374": 6885,
      "1154": 6886,
      "1149": 6887,
      "1181": 6888,
      "dm40": 6889,
      "dh6": 6890,
      "dh42": 6891,
      "dh5000": 6892,
      "dh1851": 6893,
      "dz9282": 6894,
      "dt390": 6895,
      "dt502": 6896,
      "dt393": 6897,
      "db0089": 6898,
      "dv1044": 6899,
      "d5968": 6900,
      "d5602": 6901,
      "d56200": 6902,
      "d4510": 6903,
      "d45340": 6904,
      "1708": 6905,
      "ds24": 6906,
      "d2931": 6907,
      "181xa": 6908,
      "d0415": 6909,
      "d9587": 6910,
      "de038": 6911,
      "de0865": 6912,
      "d6039": 6913,
      "dk716": 6914,
      "dr062": 6915,
      "dr031": 6916,
      "dr0689": 6917,
      "di6349": 6918,
      "di6381": 6919,
      "d79989": 6920,
      "db9789": 6921,
      "d44029": 6922,
      "d71534": 6923,
      "dc799": 6924,
      "dc7971": 6925,
      "di82210": 6926,
      "d44771": 6927,
      "d3315": 6928,
      "dd7289": 6929,
      "do702": 6930,
      "do1403": 6931,
      "2401": 6932,
      "dk9171": 6933,
      "dy92032": 6934,
      "dg40419": 6935,
      "di421": 6936,
      "dz8049": 6937,
      "dm5137": 6938,
      "d5161": 6939,
      "dl032": 6940,
      "2980": 6941,
      "dm4187": 6942,
      "dz95812": 6943,
      "ds020": 6944,
      "ds0181xa": 6945,
      "xxxd": 6946,
      "dk6389": 6947,
      "d81401": 6948,
      "d48284": 6949,
      "d48289": 6950,
      "d3941": 6951,
      "df4325": 6952,
      "df4323": 6953,
      "dg9749": 6954,
      "dv555": 6955,
      "de8583": 6956,
      "dm79671": 6957,
      "dl973": 6958,
      "d72273": 6959,
      "di63432": 6960,
      "d1727": 6961,
      "d34282": 6962,
      "df1421": 6963,
      "dl97211": 6964,
      "dd8685": 6965,
      "dm5416": 6966,
      "ds2220": 6967,
      "do9942": 6968,
      "dr29708": 6969,
      "dj4520": 6970,
      "di63411": 6971,
      "dh4901": 6972,
      "ds828": 6973,
      "do09513": 6974,
      "d56942": 6975,
      "dq079": 6976,
      "dt383x5a": 6977,
      "dt383x1a": 6978,
      "ds32501a": 6979,
      "dm5001": 6980,
      "dv0950": 6981,
      "do98313": 6982,
      "dn39498": 6983,
      "de08649": 6984,
      "do7589": 6985,
      "ds061x9a": 6986,
      "v227858": 6987,
      "dj0510": 6988,
      "df11921": 6989,
      "dt39015a": 6990,
      "dt39315a": 6991,
      "558": 6992,
      "511a": 6993,
      "698": 6994,
      "821": 6995,
      "922": 6996,
      "917": 6997,
      "943": 6998,
      "946": 6999,
      "948": 7000,
      "d71": 7001,
      "fre": 7002,
      "hn": 7003,
      "mul": 7004,
      "rac": 7005,
      "2243": 7006,
      "2239": 7007,
      "v2279": 7008,
      "1081": 7009,
      "dl308": 7010,
      "dl988": 7011,
      "1238": 7012,
      "12562": 7013,
      "18a": 7014,
      "l227450": 7015,
      "1548": 7016,
      "9812": 7017,
      "98x7": 7018,
      "6554": 7019,
      "2585": 7020,
      "3750": 7021,
      "di73": 7022,
      "di619": 7023,
      "di348": 7024,
      "tipl": 7025,
      "4040": 7026,
      "3025": 7027,
      "3030": 7028,
      "3511": 7029,
      "1203": 7030,
      "2870": 7031,
      "2760": 7032,
      "43212": 7033,
      "2343": 7034,
      "99xxd": 7035,
      "993xa": 7036,
      "1001": 7037,
      "2696": 7038,
      "777": 7039,
      "58a": 7040,
      "936": 7041,
      "3210": 7042,
      "3275": 7043,
      "d4423": 7044,
      "891": 7045,
      "ethn": 7046,
      "6250": 7047,
      "d4289": 7048,
      "4481": 7049,
      "369a": 7050,
      "9161": 7051,
      "1102": 7052,
      "d5190": 7053,
      "88x2": 7054,
      "dk289": 7055,
      "dk625": 7056,
      "dk9161": 7057,
      "dr45": 7058,
      "dr441": 7059,
      "dr2243": 7060,
      "d2111": 7061,
      "d2143": 7062,
      "d2132": 7063,
      "d2167": 7064,
      "92a": 7065,
      "m225157": 7066,
      "dj0": 7067,
      "dj00": 7068,
      "df439": 7069,
      "dd561": 7070,
      "dg901": 7071,
      "dg540": 7072,
      "d3561": 7073,
      "d33511": 7074,
      "d7142": 7075,
      "d71789": 7076,
      "dn131": 7077,
      "dn181": 7078,
      "dn9989": 7079,
      "d30421": 7080,
      "d30392": 7081,
      "d30591": 7082,
      "dy849": 7083,
      "dc182": 7084,
      "d25022": 7085,
      "d25073": 7086,
      "1188": 7087,
      "dm86": 7088,
      "dm169": 7089,
      "dm254": 7090,
      "dm6008": 7091,
      "dm12562": 7092,
      "dh04": 7093,
      "dh05": 7094,
      "icity": 7095,
      "d586": 7096,
      "dz944": 7097,
      "d01123": 7098,
      "d01126": 7099,
      "dt4359": 7100,
      "dt7611": 7101,
      "dt463": 7102,
      "di491": 7103,
      "dv4976": 7104,
      "o226623": 7105,
      "db4481": 7106,
      "peak": 7107,
      "m229619": 7108,
      "d5960": 7109,
      "d59651": 7110,
      "d56481": 7111,
      "ds90": 7112,
      "ds09": 7113,
      "ds460": 7114,
      "ds526": 7115,
      "d2929": 7116,
      "d20286": 7117,
      "d1966": 7118,
      "d3481": 7119,
      "d99831": 7120,
      "dz8639": 7121,
      "d36251": 7122,
      "d36252": 7123,
      "d1980": 7124,
      "df10220": 7125,
      "d4440": 7126,
      "d44421": 7127,
      "dg8912": 7128,
      "dv099xxd": 7129,
      "dm898x7": 7130,
      "dk709": 7131,
      "d33182": 7132,
      "d6868": 7133,
      "do9": 7134,
      "do43212": 7135,
      "2705": 7136,
      "dt451x": 7137,
      "dk5733": 7138,
      "d6121": 7139,
      "d6202": 7140,
      "d66554": 7141,
      "616a": 7142,
      "dm488x2": 7143,
      "2685": 7144,
      "d53649": 7145,
      "ds0993xa": 7146,
      "dk822": 7147,
      "dk828": 7148,
      "d3814": 7149,
      "d38920": 7150,
      "379a": 7151,
      "d71696": 7152,
      "de1136": 7153,
      "d57470": 7154,
      "dc8190": 7155,
      "dc8178": 7156,
      "d8020": 7157,
      "d80703": 7158,
      "di69151": 7159,
      "d1119": 7160,
      "d9081": 7161,
      "d36840": 7162,
      "dt82848a": 7163,
      "dt82858a": 7164,
      "d72292": 7165,
      "d0039": 7166,
      "d7933": 7167,
      "di63233": 7168,
      "di63433": 7169,
      "d1734": 7170,
      "d34210": 7171,
      "dv5302": 7172,
      "d2112": 7173,
      "d2250": 7174,
      "dz3a25": 7175,
      "dz3a27": 7176,
      "d7542": 7177,
      "d7534": 7178,
      "dc9150": 7179,
      "ds00511a": 7180,
      "d5758": 7181,
      "di6782": 7182,
      "dg062": 7183,
      "d29699": 7184,
      "d35989": 7185,
      "dr29703": 7186,
      "dl02211": 7187,
      "di97191": 7188,
      "dw06xxxd": 7189,
      "dy92008": 7190,
      "dt85698a": 7191,
      "dl97419": 7192,
      "d6110": 7193,
      "d61183": 7194,
      "dr402122": 7195,
      "do09812": 7196,
      "dm4722": 7197,
      "d9110": 7198,
      "ds81812d": 7199,
      "d82123": 7200,
      "dk056": 7201,
      "dk068": 7202,
      "dk089": 7203,
      "dl98418": 7204,
      "dl98498": 7205,
      "dk2981": 7206,
      "d39890": 7207,
      "d05479": 7208,
      "dz89512": 7209,
      "di82812": 7210,
      "do26872": 7211,
      "d37851": 7212,
      "ds06369a": 7213,
      "ds06379a": 7214,
      "do24410": 7215,
      "do24414": 7216,
      "d53642": 7217,
      "dz87311": 7218,
      "dt43616a": 7219,
      "d23773": 7220,
      "dh6123": 7221,
      "dt502x5a": 7222,
      "ds020xxa": 7223,
      "ds2220xd": 7224,
      "free": 7225,
      "multipl": 7226,
      "race": 7227,
      "v227916": 7228,
      "di7389": 7229,
      "ethnicity": 7230,
      "d51909": 7231,
      "dt7611xa": 7232,
      "dt463x5a": 7233,
      "ds46012a": 7234,
      "multiple": 7235,
      "1d": 7236,
      "2669": 7237,
      "2590": 7238,
      "3370": 7239,
      "4125": 7240,
      "797": 7241,
      "7602": 7242,
      "822": 7243,
      "874": 7244,
      "897": 7245,
      "862": 7246,
      "942": 7247,
      "929": 7248,
      "952": 7249,
      "d83": 7250,
      "d9720": 7251,
      "x9": 7252,
      "2222": 7253,
      "dl709": 7254,
      "dl905": 7255,
      "dl7602": 7256,
      "1559": 7257,
      "1732": 7258,
      "2515": 7259,
      "2535": 7260,
      "4550": 7261,
      "di237": 7262,
      "di609": 7263,
      "3040": 7264,
      "1302": 7265,
      "dv169": 7266,
      "2855": 7267,
      "90xa": 7268,
      "2770": 7269,
      "2730": 7270,
      "1006": 7271,
      "1008": 7272,
      "dz451": 7273,
      "dz302": 7274,
      "2960": 7275,
      "2990": 7276,
      "2610": 7277,
      "2645": 7278,
      "933": 7279,
      "80xd": 7280,
      "d446": 7281,
      "d4352": 7282,
      "d4255": 7283,
      "d42741": 7284,
      "d42610": 7285,
      "d42761": 7286,
      "44609": 7287,
      "3470": 7288,
      "91a": 7289,
      "110xa": 7290,
      "d55010": 7291,
      "d2713": 7292,
      "d2729": 7293,
      "d2726": 7294,
      "d78834": 7295,
      "dk658": 7296,
      "dr9720": 7297,
      "d2181": 7298,
      "d40591": 7299,
      "dj122": 7300,
      "df54": 7301,
      "d2813": 7302,
      "d28412": 7303,
      "109s": 7304,
      "dd731": 7305,
      "dd591": 7306,
      "dg09": 7307,
      "dg08": 7308,
      "dg252": 7309,
      "dg546": 7310,
      "dg9761": 7311,
      "d3102": 7312,
      "d33920": 7313,
      "1508": 7314,
      "15000": 7315,
      "d7101": 7316,
      "d7234": 7317,
      "d71236": 7318,
      "dn8": 7319,
      "dn138": 7320,
      "dn028": 7321,
      "d30551": 7322,
      "dc240": 7323,
      "dc322": 7324,
      "dc434": 7325,
      "dc44609": 7326,
      "1159": 7327,
      "d25012": 7328,
      "d25090": 7329,
      "dm2669": 7330,
      "d5848": 7331,
      "d58881": 7332,
      "1221": 7333,
      "dt503": 7334,
      "dt378": 7335,
      "dt434": 7336,
      "dt452": 7337,
      "di4439": 7338,
      "3900": 7339,
      "39012a": 7340,
      "300xxd": 7341,
      "o226614": 7342,
      "o226617": 7343,
      "db178": 7344,
      "db377": 7345,
      "db999": 7346,
      "d5967": 7347,
      "d5941": 7348,
      "500xa": 7349,
      "0003xa": 7350,
      "d7336": 7351,
      "d9999": 7352,
      "d99982": 7353,
      "d99529": 7354,
      "d5187": 7355,
      "di5084": 7356,
      "d4536": 7357,
      "ds52": 7358,
      "ds525": 7359,
      "ds39012a": 7360,
      "ds300xxd": 7361,
      "ds0003xa": 7362,
      "d49382": 7363,
      "d7099": 7364,
      "d29650": 7365,
      "de8789": 7366,
      "d20930": 7367,
      "d9100": 7368,
      "d9181": 7369,
      "d9248": 7370,
      "de0781": 7371,
      "d42841": 7372,
      "d79022": 7373,
      "d7273": 7374,
      "350xx0": 7375,
      "dt830": 7376,
      "d605": 7377,
      "dr072": 7378,
      "dr0681": 7379,
      "da170": 7380,
      "da280": 7381,
      "di7789": 7382,
      "d70712": 7383,
      "dc7a": 7384,
      "d4473": 7385,
      "dz5181": 7386,
      "d78842": 7387,
      "dz8553": 7388,
      "d2550": 7389,
      "d25208": 7390,
      "dr4789": 7391,
      "de9307": 7392,
      "dm878": 7393,
      "d3319": 7394,
      "d3330": 7395,
      "dd6869": 7396,
      "d683": 7397,
      "do700": 7398,
      "do368": 7399,
      "do358": 7400,
      "do985": 7401,
      "do988": 7402,
      "do778": 7403,
      "do9989": 7404,
      "do350xx0": 7405,
      "dg8190": 7406,
      "d1518": 7407,
      "d1543": 7408,
      "d6924": 7409,
      "d43822": 7410,
      "dq046": 7411,
      "dz802": 7412,
      "dz8041": 7413,
      "d71902": 7414,
      "d71949": 7415,
      "d6271": 7416,
      "d6279": 7417,
      "dl0292": 7418,
      "dr921": 7419,
      "d41092": 7420,
      "di69323": 7421,
      "d78606": 7422,
      "d5362": 7423,
      "ds0500xa": 7424,
      "dz91138": 7425,
      "d52809": 7426,
      "d81000": 7427,
      "dt380x6a": 7428,
      "d3940": 7429,
      "df4324": 7430,
      "d64761": 7431,
      "dc8193": 7432,
      "d80116": 7433,
      "d80225": 7434,
      "d80426": 7435,
      "dr1012": 7436,
      "dr404": 7437,
      "528a": 7438,
      "dh9192": 7439,
      "d72283": 7440,
      "d00329": 7441,
      "di63421": 7442,
      "di63431": 7443,
      "dz8759": 7444,
      "di82509": 7445,
      "di82423": 7446,
      "dk8010": 7447,
      "dz3a13": 7448,
      "dz3a30": 7449,
      "dz3a28": 7450,
      "dz3a23": 7451,
      "dz3a32": 7452,
      "3745": 7453,
      "de9351": 7454,
      "do99334": 7455,
      "d85201": 7456,
      "d85226": 7457,
      "d66331": 7458,
      "d66604": 7459,
      "d66624": 7460,
      "dt814xxd": 7461,
      "de103293": 7462,
      "do2402": 7463,
      "dl97818": 7464,
      "dl97828": 7465,
      "dq858": 7466,
      "de9298": 7467,
      "de9270": 7468,
      "di97190": 7469,
      "dt85528a": 7470,
      "dl03221": 7471,
      "d6256": 7472,
      "dg2571": 7473,
      "d1398": 7474,
      "dm4628": 7475,
      "d65681": 7476,
      "dg5600": 7477,
      "dw0110xa": 7478,
      "dc50912": 7479,
      "do24012": 7480,
      "dn3080": 7481,
      "592a": 7482,
      "ds22089": 7483,
      "d56941": 7484,
      "d67024": 7485,
      "di97418": 7486,
      "dm7550": 7487,
      "d67144": 7488,
      "d67124": 7489,
      "dz5321": 7490,
      "dz5329": 7491,
      "d55011": 7492,
      "do1493": 7493,
      "do1494": 7494,
      "de0061": 7495,
      "dn3946": 7496,
      "dn3941": 7497,
      "d65811": 7498,
      "ds72492a": 7499,
      "dw109xxa": 7500,
      "dm8080xd": 7501,
      "dm96830": 7502,
      "dm40209": 7503,
      "dl03211": 7504,
      "dl97329": 7505,
      "dr45850": 7506,
      "dm86152": 7507,
      "dh05222": 7508,
      "ds0990xa": 7509,
      "do9902": 7510,
      "dt451x1d": 7511,
      "dt378x5a": 7512,
      "dt434x5a": 7513,
      "dt452x5a": 7514,
      "do368130": 7515,
      "do358xx0": 7516,
      "do98513": 7517,
      "do98811": 7518,
      "3110": 7519,
      "3195": 7520,
      "3375": 7521,
      "6175": 7522,
      "756": 7523,
      "766": 7524,
      "824": 7525,
      "928": 7526,
      "d173": 7527,
      "d1708": 7528,
      "le": 7529,
      "1013": 7530,
      "1098": 7531,
      "1061": 7532,
      "1068": 7533,
      "1052": 7534,
      "1256": 7535,
      "1217": 7536,
      "1239": 7537,
      "1284": 7538,
      "1549": 7539,
      "1156": 7540,
      "1111": 7541,
      "1737": 7542,
      "4255": 7543,
      "3710": 7544,
      "45525": 7545,
      "1633": 7546,
      "unab": 7547,
      "di650": 7548,
      "di249": 7549,
      "di606": 7550,
      "de271": 7551,
      "de891": 7552,
      "2435": 7553,
      "24562": 7554,
      "3060": 7555,
      "3019": 7556,
      "3035": 7557,
      "dv198": 7558,
      "2045": 7559,
      "2835": 7560,
      "2890": 7561,
      "2790": 7562,
      "6712": 7563,
      "dz208": 7564,
      "dz560": 7565,
      "dz434": 7566,
      "dz4542": 7567,
      "2970": 7568,
      "2945": 7569,
      "2930": 7570,
      "51a": 7571,
      "3815": 7572,
      "3240": 7573,
      "d4733": 7574,
      "d4378": 7575,
      "d4732": 7576,
      "8110": 7577,
      "3445": 7578,
      "3481": 7579,
      "3625": 7580,
      "d5258": 7581,
      "d5238": 7582,
      "d5225": 7583,
      "d5839": 7584,
      "d2759": 7585,
      "d78469": 7586,
      "d78930": 7587,
      "dk120": 7588,
      "dk602": 7589,
      "dr39": 7590,
      "dr278": 7591,
      "dr599": 7592,
      "dr358": 7593,
      "4950": 7594,
      "4921": 7595,
      "d2180": 7596,
      "d2979": 7597,
      "7696": 7598,
      "df450": 7599,
      "df333": 7600,
      "df445": 7601,
      "df1320": 7602,
      "df459": 7603,
      "df5000": 7604,
      "df1910": 7605,
      "df1221": 7606,
      "d28269": 7607,
      "dd431": 7608,
      "dg94": 7609,
      "dg219": 7610,
      "dg439": 7611,
      "dg008": 7612,
      "dg253": 7613,
      "dg2401": 7614,
      "dz8241": 7615,
      "d3560": 7616,
      "141a": 7617,
      "dn472": 7618,
      "dn998": 7619,
      "dn838": 7620,
      "d3093": 7621,
      "d30303": 7622,
      "142a": 7623,
      "dc169": 7624,
      "01d": 7625,
      "de8580": 7626,
      "dm023": 7627,
      "dm6250": 7628,
      "dm24562": 7629,
      "dh4921": 7630,
      "dz961": 7631,
      "dz91030": 7632,
      "d0400": 7633,
      "dt82": 7634,
      "dt457": 7635,
      "dt45525": 7636,
      "di484": 7637,
      "di25111": 7638,
      "db1710": 7639,
      "d24960": 7640,
      "d59381": 7641,
      "d9953": 7642,
      "d99677": 7643,
      "d56489": 7644,
      "d41405": 7645,
      "df320": 7646,
      "df323": 7647,
      "ds8261": 7648,
      "de9310": 7649,
      "de9390": 7650,
      "d7089": 7651,
      "d7079": 7652,
      "d29383": 7653,
      "d29530": 7654,
      "d20198": 7655,
      "d20972": 7656,
      "m229617": 7657,
      "m229639": 7658,
      "d2788": 7659,
      "d9132": 7660,
      "d9986": 7661,
      "de0580": 7662,
      "d79009": 7663,
      "dv8401": 7664,
      "d72700": 7665,
      "d72403": 7666,
      "de83119": 7667,
      "d34501": 7668,
      "d43850": 7669,
      "m229062": 7670,
      "dt8619": 7671,
      "dt8453": 7672,
      "dt8744": 7673,
      "d6010": 7674,
      "d6084": 7675,
      "de8495": 7676,
      "dk7151": 7677,
      "dr092": 7678,
      "dr0989": 7679,
      "da69": 7680,
      "d78799": 7681,
      "d4959": 7682,
      "d7944": 7683,
      "db967": 7684,
      "di998": 7685,
      "d3643": 7686,
      "d36253": 7687,
      "d71531": 7688,
      "d1618": 7689,
      "d1639": 7690,
      "d3518": 7691,
      "d3542": 7692,
      "d3521": 7693,
      "o226609": 7694,
      "d78821": 7695,
      "dv8522": 7696,
      "d2558": 7697,
      "dr4181": 7698,
      "dr4702": 7699,
      "de9192": 7700,
      "de9248": 7701,
      "dr3129": 7702,
      "d3343": 7703,
      "d33111": 7704,
      "d6821": 7705,
      "do701": 7706,
      "do429": 7707,
      "d73315": 7708,
      "de1039": 7709,
      "dk592": 7710,
      "d2650": 7711,
      "d6923": 7712,
      "df0391": 7713,
      "001a": 7714,
      "dq250": 7715,
      "dq796": 7716,
      "dv1002": 7717,
      "dc8331": 7718,
      "d5198": 7719,
      "d55220": 7720,
      "d66712": 7721,
      "dz903": 7722,
      "dz90410": 7723,
      "dz90411": 7724,
      "2905": 7725,
      "3305": 7726,
      "dl89529": 7727,
      "dl89519": 7728,
      "dk851": 7729,
      "xx1": 7730,
      "d1820": 7731,
      "d38910": 7732,
      "d34541": 7733,
      "dk5650": 7734,
      "dh539": 7735,
      "d27941": 7736,
      "d74442": 7737,
      "da481": 7738,
      "df4322": 7739,
      "dg9782": 7740,
      "dc8590": 7741,
      "dc8588": 7742,
      "d80001": 7743,
      "d80502": 7744,
      "d80706": 7745,
      "tain": 7746,
      "d9086": 7747,
      "de8550": 7748,
      "dm79605": 7749,
      "di70221": 7750,
      "di70213": 7751,
      "di70235": 7752,
      "di70234": 7753,
      "di70223": 7754,
      "d2381": 7755,
      "d2392": 7756,
      "d34280": 7757,
      "d34202": 7758,
      "di82431": 7759,
      "dl890": 7760,
      "dl8992": 7761,
      "d78905": 7762,
      "50811": 7763,
      "d2249": 7764,
      "dk8071": 7765,
      "dz3a31": 7766,
      "dc8519": 7767,
      "d7517": 7768,
      "d9623": 7769,
      "d64813": 7770,
      "d64814": 7771,
      "d64811": 7772,
      "d64843": 7773,
      "ds0011xa": 7774,
      "dz1635": 7775,
      "do99324": 7776,
      "d85101": 7777,
      "dc9002": 7778,
      "dm19079": 7779,
      "d29624": 7780,
      "d29623": 7781,
      "d1460": 7782,
      "de103599": 7783,
      "dr2990": 7784,
      "dr29700": 7785,
      "dl97811": 7786,
      "d65101": 7787,
      "d65103": 7788,
      "d65261": 7789,
      "d65404": 7790,
      "dv1507": 7791,
      "dm4626": 7792,
      "dm4692": 7793,
      "dl97411": 7794,
      "d82022": 7795,
      "d2592": 7796,
      "d61650": 7797,
      "d1562": 7798,
      "dv1649": 7799,
      "dm4726": 7800,
      "dk55019": 7801,
      "d29012": 7802,
      "d8260": 7803,
      "dt17820a": 7804,
      "d34489": 7805,
      "dm1a9xx1": 7806,
      "d0794": 7807,
      "dt360x6a": 7808,
      "d24200": 7809,
      "d64233": 7810,
      "dh43399": 7811,
      "dt424x1a": 7812,
      "di82890": 7813,
      "di82891": 7814,
      "do26873": 7815,
      "do26833": 7816,
      "dv2385": 7817,
      "dr402412": 7818,
      "d94100": 7819,
      "d94800": 7820,
      "dm7552": 7821,
      "ds42001a": 7822,
      "ds72001d": 7823,
      "dg40814": 7824,
      "dg40811": 7825,
      "d55091": 7826,
      "ds72141a": 7827,
      "ds72142a": 7828,
      "d71104": 7829,
      "d71106": 7830,
      "dm90551": 7831,
      "dm90552": 7832,
      "obtain": 7833,
      "dv8812": 7834,
      "ds24109s": 7835,
      "ds82891a": 7836,
      "dj040": 7837,
      "dh04129": 7838,
      "dt43595a": 7839,
      "ds52612d": 7840,
      "d44621": 7841,
      "ds52592a": 7842,
      "ds52512d": 7843,
      "dm87878": 7844,
      "ds22089a": 7845,
      "unable": 7846,
      "di6502": 7847,
      "dz20828": 7848,
      "dg43911": 7849,
      "dm02331": 7850,
      "dt457x6a": 7851,
      "dt45525a": 7852,
      "dt8453xa": 7853,
      "do42913": 7854,
      "2740": 7855,
      "5500": 7856,
      "656": 7857,
      "774": 7858,
      "759": 7859,
      "814": 7860,
      "878": 7861,
      "866": 7862,
      "841": 7863,
      "8662": 7864,
      "924": 7865,
      "941": 7866,
      "949": 7867,
      "aer": 7868,
      "d220": 7869,
      "d1280": 7870,
      "d1209": 7871,
      "sum": 7872,
      "xk": 7873,
      "1067": 7874,
      "1064": 7875,
      "1038": 7876,
      "1039": 7877,
      "1082": 7878,
      "erson": 7879,
      "5600": 7880,
      "1314": 7881,
      "1319": 7882,
      "1338": 7883,
      "1339": 7884,
      "7409": 7885,
      "dl720": 7886,
      "1296": 7887,
      "5042": 7888,
      "1807": 7889,
      "1801": 7890,
      "rest": 7891,
      "1491": 7892,
      "1476": 7893,
      "1518": 7894,
      "1593": 7895,
      "1113": 7896,
      "1166": 7897,
      "1179": 7898,
      "987": 7899,
      "9802": 7900,
      "9888": 7901,
      "1774": 7902,
      "6089": 7903,
      "2555": 7904,
      "1629": 7905,
      "1647": 7906,
      "di2723": 7907,
      "de233": 7908,
      "de561": 7909,
      "de790": 7910,
      "de8261": 7911,
      "de9888": 7912,
      "4055": 7913,
      "2415": 7914,
      "2478": 7915,
      "3009": 7916,
      "1307": 7917,
      "dv138": 7918,
      "dv1000": 7919,
      "dv568": 7920,
      "dv5042": 7921,
      "dv6089": 7922,
      "3585": 7923,
      "120a": 7924,
      "2810": 7925,
      "2815": 7926,
      "2865": 7927,
      "2839": 7928,
      "2765": 7929,
      "2735": 7930,
      "2385": 7931,
      "6890": 7932,
      "68xa": 7933,
      "dz483": 7934,
      "6690": 7935,
      "2920": 7936,
      "o226570": 7937,
      "4624a": 7938,
      "2643": 7939,
      "2668": 7940,
      "3880": 7941,
      "3212": 7942,
      "3270": 7943,
      "02a": 7944,
      "d4719": 7945,
      "d4847": 7946,
      "00d": 7947,
      "d42612": 7948,
      "3480": 7949,
      "1404": 7950,
      "d5400": 7951,
      "d5563": 7952,
      "d51284": 7953,
      "d7841": 7954,
      "dk450": 7955,
      "dk226": 7956,
      "dk561": 7957,
      "dk432": 7958,
      "dk436": 7959,
      "dr252": 7960,
      "dr296": 7961,
      "6975": 7962,
      "d2155": 7963,
      "d2309": 7964,
      "d2682": 7965,
      "dj60": 7966,
      "dj61": 7967,
      "dj121": 7968,
      "dj704": 7969,
      "df70": 7970,
      "df519": 7971,
      "df918": 7972,
      "d2862": 7973,
      "d2801": 7974,
      "d28244": 7975,
      "d28481": 7976,
      "d28732": 7977,
      "dd381": 7978,
      "dg114": 7979,
      "dg0481": 7980,
      "dg588": 7981,
      "dg003": 7982,
      "dz8500": 7983,
      "d31401": 7984,
      "d7202": 7985,
      "d7209": 7986,
      "dn10": 7987,
      "dn83": 7988,
      "dn361": 7989,
      "dn760": 7990,
      "dn990": 7991,
      "dn4830": 7992,
      "dn1339": 7993,
      "d30470": 7994,
      "d30751": 7995,
      "dy638": 7996,
      "dc184": 7997,
      "dc830": 7998,
      "dc50811": 7999,
      "dm160": 8000,
      "dm250": 8001,
      "d53013": 8002,
      "dh209": 8003,
      "dh6690": 8004,
      "d58289": 8005,
      "1223": 8006,
      "1226": 8007,
      "12200d": 8008,
      "d0312": 8009,
      "dt801": 8010,
      "d5798": 8011,
      "di468": 8012,
      "di2542": 8013,
      "dy92410": 8014,
      "2003": 8015,
      "db451": 8016,
      "m229781": 8017,
      "d2461": 8018,
      "d24990": 8019,
      "d5940": 8020,
      "d7385": 8021,
      "d73382": 8022,
      "d99741": 8023,
      "d99644": 8024,
      "d99676": 8025,
      "d4559": 8026,
      "d4539": 8027,
      "ds12200d": 8028,
      "dg4731": 8029,
      "dg43009": 8030,
      "de9356": 8031,
      "d29289": 8032,
      "d29560": 8033,
      "d20195": 8034,
      "d20971": 8035,
      "d9663": 8036,
      "dv8731": 8037,
      "182xxa": 8038,
      "dt840": 8039,
      "dt86890": 8040,
      "dt84624a": 8041,
      "d6019": 8042,
      "d6083": 8043,
      "di621": 8044,
      "di6202": 8045,
      "di63212": 8046,
      "d49301": 8047,
      "d99801": 8048,
      "di9751": 8049,
      "di720": 8050,
      "de8810": 8051,
      "dc7839": 8052,
      "dc712": 8053,
      "de1110": 8054,
      "df1099": 8055,
      "d4479": 8056,
      "dz510": 8057,
      "dv070": 8058,
      "de9421": 8059,
      "dr330": 8060,
      "dm8788": 8061,
      "do24": 8062,
      "do995": 8063,
      "de10641": 8064,
      "dg8192": 8065,
      "dw880": 8066,
      "dw182xxa": 8067,
      "d1532": 8068,
      "d1534": 8069,
      "d1548": 8070,
      "2605": 8071,
      "dq615": 8072,
      "dq639": 8073,
      "dy92038": 8074,
      "dg40804": 8075,
      "d71926": 8076,
      "d6258": 8077,
      "d6981": 8078,
      "d6209": 8079,
      "d61179": 8080,
      "dv426": 8081,
      "dz4509": 8082,
      "d73098": 8083,
      "d73026": 8084,
      "dz95818": 8085,
      "dk868": 8086,
      "dk852": 8087,
      "2745": 8088,
      "d4611": 8089,
      "d34570": 8090,
      "anderson": 8091,
      "dk5669": 8092,
      "d81303": 8093,
      "d82003": 8094,
      "d71680": 8095,
      "d7482": 8096,
      "d74739": 8097,
      "dd510": 8098,
      "d64671": 8099,
      "dc8309": 8100,
      "dx58xxxs": 8101,
      "di69353": 8102,
      "31702": 8103,
      "d1118": 8104,
      "d9054": 8105,
      "dr1033": 8106,
      "de8542": 8107,
      "dd471": 8108,
      "d99665": 8109,
      "di70298": 8110,
      "d23872": 8111,
      "dg43819": 8112,
      "d75683": 8113,
      "de11620": 8114,
      "d1726": 8115,
      "d1733": 8116,
      "d1709": 8117,
      "d20018": 8118,
      "dm66812": 8119,
      "x5s": 8120,
      "di82402": 8121,
      "di82421": 8122,
      "dh53483": 8123,
      "dz3a14": 8124,
      "dv5399": 8125,
      "d96971": 8126,
      "di771": 8127,
      "dt402x6a": 8128,
      "d07989": 8129,
      "d99761": 8130,
      "di67841": 8131,
      "dl02413": 8132,
      "dm19042": 8133,
      "dm19041": 8134,
      "dm19049": 8135,
      "dt486": 8136,
      "dv1359": 8137,
      "d37956": 8138,
      "d65921": 8139,
      "dc9101": 8140,
      "dq8901": 8141,
      "di97120": 8142,
      "di97121": 8143,
      "di97790": 8144,
      "dz86000": 8145,
      "dz89422": 8146,
      "d82002": 8147,
      "dg5601": 8148,
      "ds22029d": 8149,
      "d8921": 8150,
      "d55842": 8151,
      "dq057": 8152,
      "d05320": 8153,
      "d05443": 8154,
      "de1149": 8155,
      "d88100": 8156,
      "df13129": 8157,
      "db3789": 8158,
      "ds069x9": 8159,
      "d94500": 8160,
      "dt66xxxa": 8161,
      "df5001": 8162,
      "de0009": 8163,
      "dm5011": 8164,
      "852a": 8165,
      "dc7b09": 8166,
      "dc7b04": 8167,
      "dw109xxd": 8168,
      "d92303": 8169,
      "obic": 8170,
      "dv8811": 8171,
      "dz1501": 8172,
      "dz1502": 8173,
      "dm8468xa": 8174,
      "d95200": 8175,
      "dn99521": 8176,
      "d71743": 8177,
      "dm25411": 8178,
      "ds90852a": 8179,
      "d8361": 8180,
      "dt503x5a": 8181,
      "dt83018a": 8182,
      "dc7a019": 8183,
      "d17362": 8184,
      "dr3914": 8185,
      "dn99840": 8186,
      "dt82120a": 8187,
      "ds8261xk": 8188,
      "da6920": 8189,
      "dl89019": 8190,
      "aerobic": 8191,
      "sump": 8192,
      "dc8308": 8193,
      "dm25011": 8194,
      "dt801xxa": 8195,
      "do99511": 8196,
      "dw880xxa": 8197,
      "ds069x9s": 8198,
      "21000": 8199,
      "3120": 8200,
      "3145": 8201,
      "3600": 8202,
      "3170": 8203,
      "4145": 8204,
      "4175": 8205,
      "5130": 8206,
      "5135": 8207,
      "716": 8208,
      "7749": 8209,
      "7222": 8210,
      "856": 8211,
      "873": 8212,
      "864": 8213,
      "956": 8214,
      "916": 8215,
      "926": 8216,
      "d654": 8217,
      "teral": 8218,
      "2293": 8219,
      "2276": 8220,
      "1022": 8221,
      "1059": 8222,
      "1062": 8223,
      "1069": 8224,
      "5623": 8225,
      "1321": 8226,
      "742": 8227,
      "dl258": 8228,
      "dl219": 8229,
      "dl900": 8230,
      "1297": 8231,
      "1244": 8232,
      "1279": 8233,
      "50130": 8234,
      "1873": 8235,
      "l227448": 8236,
      "1423": 8237,
      "1457": 8238,
      "1439": 8239,
      "1572": 8240,
      "1554": 8241,
      "6589": 8242,
      "1728": 8243,
      "6050": 8244,
      "60110": 8245,
      "42a": 8246,
      "4260": 8247,
      "2542": 8248,
      "3720": 8249,
      "3790": 8250,
      "di309": 8251,
      "di701": 8252,
      "di4430": 8253,
      "de41": 8254,
      "1977": 8255,
      "2461": 8256,
      "3070": 8257,
      "3093": 8258,
      "3080": 8259,
      "ureteral": 8260,
      "1301": 8261,
      "757": 8262,
      "dv170": 8263,
      "1205a": 8264,
      "2860": 8265,
      "2820": 8266,
      "9088": 8267,
      "2795": 8268,
      "433a": 8269,
      "1003": 8270,
      "1007": 8271,
      "100xxa": 8272,
      "dz432": 8273,
      "2965": 8274,
      "4695": 8275,
      "5156": 8276,
      "5889": 8277,
      "3260": 8278,
      "d42293": 8279,
      "3950": 8280,
      "8940": 8281,
      "d42971": 8282,
      "3460": 8283,
      "3675": 8284,
      "8611": 8285,
      "1104": 8286,
      "1408": 8287,
      "d5192": 8288,
      "d2750": 8289,
      "4160": 8290,
      "o226569": 8291,
      "dk1321": 8292,
      "dr17": 8293,
      "dr772": 8294,
      "d2127": 8295,
      "d2355": 8296,
      "76x5a": 8297,
      "dj1089": 8298,
      "df250": 8299,
      "df1510": 8300,
      "df1590": 8301,
      "d28952": 8302,
      "dd136": 8303,
      "dd839": 8304,
      "dd890": 8305,
      "dd588": 8306,
      "dd3500": 8307,
      "dg909": 8308,
      "d31400": 8309,
      "d7104": 8310,
      "d7931": 8311,
      "dn904": 8312,
      "m221892": 8313,
      "d30440": 8314,
      "d30021": 8315,
      "d30572": 8316,
      "dy09": 8317,
      "dy792": 8318,
      "dc50": 8319,
      "dc228": 8320,
      "dc510": 8321,
      "dc518": 8322,
      "dc8110": 8323,
      "1147": 8324,
      "de8171": 8325,
      "de8508": 8326,
      "dm128": 8327,
      "dm210": 8328,
      "dm654": 8329,
      "dm508": 8330,
      "dm1040": 8331,
      "dm9088": 8332,
      "dh700": 8333,
      "1228": 8334,
      "dt403": 8335,
      "dt367": 8336,
      "dt404": 8337,
      "dt8611": 8338,
      "stent": 8339,
      "di456": 8340,
      "di483": 8341,
      "dv4352": 8342,
      "db5889": 8343,
      "4203": 8344,
      "d78099": 8345,
      "m229709": 8346,
      "d7384": 8347,
      "d73741": 8348,
      "d73341": 8349,
      "d99641": 8350,
      "d4542": 8351,
      "ds615": 8352,
      "ds614": 8353,
      "ds721": 8354,
      "ds913": 8355,
      "ds7222": 8356,
      "03xxxa": 8357,
      "de9343": 8358,
      "de9344": 8359,
      "d20979": 8360,
      "d20921": 8361,
      "d04103": 8362,
      "d9170": 8363,
      "d9658": 8364,
      "de030": 8365,
      "de064": 8366,
      "d79094": 8367,
      "d34989": 8368,
      "d43381": 8369,
      "dz8672": 8370,
      "de8492": 8371,
      "da400": 8372,
      "da369": 8373,
      "da7749": 8374,
      "d07041": 8375,
      "d36234": 8376,
      "d36281": 8377,
      "d3570": 8378,
      "d70710": 8379,
      "dc773": 8380,
      "dz538": 8381,
      "d2513": 8382,
      "dr498": 8383,
      "di342": 8384,
      "de9600": 8385,
      "de9424": 8386,
      "dm8588": 8387,
      "dm84550": 8388,
      "do134": 8389,
      "24000": 8390,
      "dw540": 8391,
      "dw100xxa": 8392,
      "dw03xxxa": 8393,
      "d1573": 8394,
      "dq6589": 8395,
      "d5080": 8396,
      "dm5136": 8397,
      "d6184": 8398,
      "d6208": 8399,
      "d6205": 8400,
      "d64203": 8401,
      "2985": 8402,
      "d53530": 8403,
      "dk821": 8404,
      "dk8580": 8405,
      "3405": 8406,
      "dx788": 8407,
      "d46400": 8408,
      "d45910": 8409,
      "dk623": 8410,
      "d81305": 8411,
      "d64901": 8412,
      "d64403": 8413,
      "d64793": 8414,
      "dc8238": 8415,
      "dc8239": 8416,
      "dc8448": 8417,
      "dw1849xa": 8418,
      "d1177": 8419,
      "dm79669": 8420,
      "dz9359": 8421,
      "d72251": 8422,
      "d23989": 8423,
      "d17391": 8424,
      "dz8719": 8425,
      "di82432": 8426,
      "d37100": 8427,
      "d37909": 8428,
      "dm25571": 8429,
      "dr5084": 8430,
      "dl03113": 8431,
      "di82501": 8432,
      "dk8033": 8433,
      "dz3a37": 8434,
      "dv5339": 8435,
      "d99663": 8436,
      "d72690": 8437,
      "d64883": 8438,
      "d9597": 8439,
      "d05449": 8440,
      "dg042": 8441,
      "dl7622": 8442,
      "dl7621": 8443,
      "dt41205a": 8444,
      "dt476x5a": 8445,
      "dv1329": 8446,
      "dg7001": 8447,
      "dh547": 8448,
      "dc9201": 8449,
      "dr29709": 8450,
      "d87349": 8451,
      "dl02229": 8452,
      "dz86018": 8453,
      "dh44002": 8454,
      "d6274": 8455,
      "d65611": 8456,
      "dg5621": 8457,
      "d1569": 8458,
      "dg908": 8459,
      "dk55011": 8460,
      "dk55069": 8461,
      "d52340": 8462,
      "d52331": 8463,
      "dv7189": 8464,
      "di8391": 8465,
      "dv5413": 8466,
      "dk0381": 8467,
      "di83019": 8468,
      "d64201": 8469,
      "d38022": 8470,
      "dz62811": 8471,
      "dm7542": 8472,
      "d81383": 8473,
      "ds7012xa": 8474,
      "ds72012a": 8475,
      "ds72002a": 8476,
      "d67403": 8477,
      "df5089": 8478,
      "df5082": 8479,
      "d64913": 8480,
      "d65841": 8481,
      "d53640": 8482,
      "ds72442a": 8483,
      "d92400": 8484,
      "dd1802": 8485,
      "dm84433a": 8486,
      "di7411": 8487,
      "di7419": 8488,
      "dn8500": 8489,
      "dn8320": 8490,
      "dt84020a": 8491,
      "do24424": 8492,
      "dt486x5a": 8493,
      "d65411": 8494,
      "dm12812": 8495,
      "dm21072": 8496,
      "dm50821": 8497,
      "dh70093": 8498,
      "dt403x5a": 8499,
      "dt367x5a": 8500,
      "dt404x5a": 8501,
      "dv4352xa": 8502,
      "ds61511a": 8503,
      "ds61451a": 8504,
      "ds72112a": 8505,
      "ds91311a": 8506,
      "ds7222xa": 8507,
      "dm84550a": 8508,
      "dw540xxa": 8509,
      "dx788xxa": 8510,
      "1137": 8511,
      "2136": 8512,
      "2149": 8513,
      "2569": 8514,
      "3190": 8515,
      "3220": 8516,
      "3569": 8517,
      "3222": 8518,
      "3982": 8519,
      "3224": 8520,
      "3255": 8521,
      "3293": 8522,
      "3469": 8523,
      "4420": 8524,
      "4900": 8525,
      "4995": 8526,
      "5300": 8527,
      "5391": 8528,
      "697": 8529,
      "6500": 8530,
      "6173": 8531,
      "6279": 8532,
      "6745": 8533,
      "726": 8534,
      "7300": 8535,
      "7561": 8536,
      "7962": 8537,
      "812": 8538,
      "811": 8539,
      "898": 8540,
      "817": 8541,
      "877": 8542,
      "858": 8543,
      "8800": 8544,
      "8451": 8545,
      "937": 8546,
      "923": 8547,
      "d1307": 8548,
      "em": 8549,
      "fun": 8550,
      "2274": 8551,
      "2227": 8552,
      "2229": 8553,
      "2257": 8554,
      "2263": 8555,
      "22103": 8556,
      "2207": 8557,
      "1018": 8558,
      "1042": 8559,
      "1024": 8560,
      "1078": 8561,
      "1043": 8562,
      "1057": 8563,
      "1046": 8564,
      "1044": 8565,
      "10205": 8566,
      "10421": 8567,
      "5674": 8568,
      "5640": 8569,
      "1359": 8570,
      "1383": 8571,
      "1357": 8572,
      "1358": 8573,
      "1332": 8574,
      "1386": 8575,
      "1371": 8576,
      "1353": 8577,
      "13863": 8578,
      "1298": 8579,
      "1252": 8580,
      "1286": 8581,
      "1822": 8582,
      "1824": 8583,
      "1852": 8584,
      "1881": 8585,
      "1412": 8586,
      "1496": 8587,
      "1436": 8588,
      "14572": 8589,
      "1596": 8590,
      "1586": 8591,
      "1576": 8592,
      "5943": 8593,
      "1174": 8594,
      "1118": 8595,
      "1114": 8596,
      "1192": 8597,
      "11743": 8598,
      "9825": 8599,
      "9880": 8600,
      "9848": 8601,
      "9854": 8602,
      "6518": 8603,
      "1771": 8604,
      "6051": 8605,
      "4297": 8606,
      "4246": 8607,
      "2531": 8608,
      "2554": 8609,
      "2547": 8610,
      "3712": 8611,
      "3715": 8612,
      "3775": 8613,
      "3786": 8614,
      "4531": 8615,
      "45571": 8616,
      "1678": 8617,
      "1626": 8618,
      "1638": 8619,
      "1679": 8620,
      "1669": 8621,
      "16931": 8622,
      "16560": 8623,
      "4089": 8624,
      "4071": 8625,
      "1913": 8626,
      "1948": 8627,
      "2468": 8628,
      "2432": 8629,
      "3027": 8630,
      "3052": 8631,
      "2017": 8632,
      "2099": 8633,
      "2077": 8634,
      "2094": 8635,
      "20555": 8636,
      "7898": 8637,
      "1796": 8638,
      "3518": 8639,
      "3575": 8640,
      "3520": 8641,
      "3558": 8642,
      "3587": 8643,
      "12069": 8644,
      "7313": 8645,
      "7344": 8646,
      "2845": 8647,
      "908": 8648,
      "9064": 8649,
      "9058": 8650,
      "977": 8651,
      "4343": 8652,
      "4367": 8653,
      "4331": 8654,
      "2342": 8655,
      "2316": 8656,
      "2382": 8657,
      "6640": 8658,
      "2915": 8659,
      "2937": 8660,
      "2935": 8661,
      "2955": 8662,
      "8356": 8663,
      "8315": 8664,
      "4618": 8665,
      "2623": 8666,
      "5879": 8667,
      "5806": 8668,
      "8098": 8669,
      "8020": 8670,
      "3823": 8671,
      "3265": 8672,
      "3219": 8673,
      "876": 8674,
      "3360": 8675,
      "3380": 8676,
      "3338": 8677,
      "d42652": 8678,
      "4450": 8679,
      "3415": 8680,
      "34115": 8681,
      "3612": 8682,
      "3661": 8683,
      "3640": 8684,
      "d5581": 8685,
      "d53470": 8686,
      "8851": 8687,
      "3160": 8688,
      "4150": 8689,
      "5550": 8690,
      "dk900": 8691,
      "dk260": 8692,
      "dr932": 8693,
      "dr1111": 8694,
      "4959": 8695,
      "4935": 8696,
      "4958": 8697,
      "5316": 8698,
      "5320": 8699,
      "5481": 8700,
      "df72": 8701,
      "df802": 8702,
      "df3481": 8703,
      "d2808": 8704,
      "4760": 8705,
      "119a": 8706,
      "1128": 8707,
      "d71105": 8708,
      "d30403": 8709,
      "11382": 8710,
      "activity": 8711,
      "1152": 8712,
      "1144": 8713,
      "dm349": 8714,
      "d0318": 8715,
      "dz770": 8716,
      "dt420": 8717,
      "d5720": 8718,
      "2008": 8719,
      "4195": 8720,
      "d99602": 8721,
      "d56982": 8722,
      "blak": 8723,
      "1616": 8724,
      "d29532": 8725,
      "1982": 8726,
      "1983": 8727,
      "1806": 8728,
      "1652": 8729,
      "2502": 8730,
      "respon": 8731,
      "dr0982": 8732,
      "di690": 8733,
      "di6302": 8734,
      "d71594": 8735,
      "d4467": 8736,
      "dm818": 8737,
      "15554": 8738,
      "9599": 8739,
      "dk9409": 8740,
      "d1539": 8741,
      "d43813": 8742,
      "dq391": 8743,
      "m227692": 8744,
      "2752": 8745,
      "d70704": 8746,
      "d71951": 8747,
      "dr9401": 8748,
      "29880": 8749,
      "d53170": 8750,
      "dk810": 8751,
      "2784": 8752,
      "3606": 8753,
      "30537": 8754,
      "dk5641": 8755,
      "2565": 8756,
      "d23877": 8757,
      "d81301": 8758,
      "3452": 8759,
      "3395": 8760,
      "3658": 8761,
      "d9052": 8762,
      "d36210": 8763,
      "3685": 8764,
      "d1729": 8765,
      "d22804": 8766,
      "dz3a21": 8767,
      "do99352": 8768,
      "dr6889": 8769,
      "d66612": 8770,
      "dk8301": 8771,
      "d65251": 8772,
      "4742": 8773,
      "antithrombin": 8774,
      "d6191": 8775,
      "4847": 8776,
      "62342": 8777,
      "dt380x5s": 8778,
      "ds02119a": 8779,
      "dg40812": 8780,
      "dm21372": 8781,
      "d64943": 8782,
      "d64941": 8783,
      "dd1803": 8784,
      "dc50211": 8785,
      "emore": 8786,
      "funct": 8787,
      "dt420x5s": 8788,
      "blakemore": 8789,
      "response": 8790
    },
    "merges": [
      "2 2",
      "l 22",
      "v 22",
      "v22 0",
      "1 0",
      "u m",
      "e r",
      "m 22",
      "l22 0",
      "5 6",
      "1 3",
      "v220 0",
      "7 4",
      "d l",
      "1 2",
      "a l",
      "s er",
      "ser um",
      "m e",
      "i n",
      "5 0",
      "1 8",
      "m g",
      "l22 56",
      "v2200 4",
      "l22 74",
      "me q",
      "r e",
      "1 4",
      "l220 6",
      "1 5",
      "b p",
      "c o",
      "5 9",
      "1 1",
      "a t",
      "9 8",
      "l o",
      "m m",
      "i um",
      "6 5",
      "1 7",
      "6 0",
      "h g",
      "mm hg",
      "o n",
      "s e",
      "4 2",
      "v220 18",
      "o 22",
      "2 5",
      "p h",
      "3 7",
      "6 1",
      "s s",
      "7 0",
      "bp m",
      "a r",
      "4 5",
      "1 6",
      "h r",
      "u n",
      "h e",
      "d i",
      "d e",
      "t i",
      "4 0",
      "g h",
      "1 9",
      "2 4",
      "3 0",
      "u re",
      "i gh",
      "13 0",
      "o d",
      "i t",
      "7 5",
      "d v",
      "2 0",
      "a n",
      "7 8",
      "17 9",
      "3 5",
      "12 0",
      "7 3",
      "2 8",
      "o l",
      "u l",
      "i on",
      "9 0",
      "o t",
      "l220 5",
      "v22004 5",
      "v22 37",
      "ph o",
      "2 7",
      "9 7",
      "v2237 61",
      "igh t",
      "4 3",
      "b in",
      "he m",
      "2 3",
      "2 1",
      "6 7",
      "9 9",
      "v22004 7",
      "10 0",
      "v22004 6",
      "p re",
      "6 8",
      "ss ure",
      "pre ssure",
      "d z",
      "6 6",
      "g l",
      "2 9",
      "o22 65",
      "u co",
      "gl uco",
      "gluco se",
      "v220 179",
      "v22018 0",
      "v22018 1",
      "m l",
      "er i",
      "6 4",
      "e n",
      "c al",
      "m22 59",
      "cal c",
      "ar t",
      "8 3",
      "5 7",
      "b lo",
      "blo od",
      "4 6",
      "5 1",
      "o u",
      "eri al",
      "art erial",
      "2 6",
      "ou s",
      "7 7",
      "al ar",
      "alar m",
      "in e",
      "w h",
      "5 8",
      "se c",
      "9 3",
      "co un",
      "coun t",
      "m22 5",
      "l220 22",
      "t e",
      "8 0",
      "e d",
      "i u",
      "o2265 59",
      "r i",
      "n bp",
      "at e",
      "pho s",
      "i z",
      "ion iz",
      "calc ium",
      "ioniz ed",
      "c k",
      "5 2",
      "3 8",
      "n e",
      "3 2",
      "ol e",
      "9 6",
      "0 2",
      "d 4",
      "m i",
      "3 9",
      "a ss",
      "p ot",
      "ass ium",
      "pot assium",
      "o22 6",
      "e ight",
      "w eight",
      "8 1",
      "8 7",
      "8 9",
      "0 0",
      "o g",
      "c h",
      "3 3",
      "c r",
      "b mi",
      "s od",
      "sod ium",
      "o cr",
      "at ocr",
      "hem atocr",
      "hematocr it",
      "lo ri",
      "ch lori",
      "chlori de",
      "e t",
      "6 2",
      "f f",
      "er en",
      "di ff",
      "ti al",
      "eren tial",
      "diff erential",
      "at in",
      "g a",
      "a g",
      "d 42",
      "4 4",
      "p l",
      "l2274 42",
      "l2206 45",
      "l2206 02",
      "l2206 15",
      "l2256 24",
      "c re",
      "atin ine",
      "cre atinine",
      "l2274 43",
      "l22 70",
      "l2270 73",
      "b un",
      "h co",
      "hco 3",
      "l2206 21",
      "an ion",
      "ga p",
      "l2205 45",
      "l22022 8",
      "m22 3",
      "8 2",
      "lo bin",
      "hem og",
      "hemog lobin",
      "l2274 57",
      "l2205 46",
      "b c",
      "w bc",
      "l2206 35",
      "l et",
      "ate let",
      "pl atelet",
      "m ag",
      "s ium",
      "ne sium",
      "mag nesium",
      "m22 75",
      "3 4",
      "r ous",
      "pho rous",
      "phos phorous",
      "l2256 77",
      "n on",
      "l2256 25",
      "3 6",
      "8 5",
      "9 1",
      "he ight",
      "it e",
      "wh ite",
      "co 2",
      "8 6",
      "7 2",
      "1 10",
      "14 0",
      "at ure",
      "7 1",
      "d 5",
      "d 27",
      "8 8",
      "3 1",
      "d 78",
      "m p",
      "te mp",
      "o s",
      "4 1",
      "s ti",
      "sti ck",
      "5 5",
      "6 3",
      "r an",
      "er ature",
      "temp erature",
      "o m",
      "p r",
      "o226 56",
      "7 9",
      "d k",
      "a s",
      "d r",
      "6 9",
      "8 4",
      "lo w",
      "h igh",
      "in g",
      "4 9",
      "pr ot",
      "l2256 64",
      "4 8",
      "ti me",
      "a c",
      "hr om",
      "hrom bin",
      "prot hrombin",
      "in r",
      "t t",
      "m22 1",
      "p tt",
      "f ing",
      "g e",
      "ran ge",
      "fing er",
      "l2274 65",
      "l2274 67",
      "16 6",
      "l2274 66",
      "10 1",
      "10 3",
      "o22656 0",
      "9 5",
      "v2200 52",
      "v2200 51",
      "v2200 50",
      "16 8",
      "d 2",
      "9 2",
      "i d",
      "d 40",
      "n bpm",
      "10 2",
      "nbp s",
      "nbp d",
      "7 6",
      "25 8",
      "m22 83",
      "m225 15",
      "5 3",
      "o 2",
      "mm ol",
      "m223 258",
      "un it",
      "unit s",
      "m221 74",
      "m225 166",
      "10 4",
      "9 4",
      "v en",
      "5 4",
      "d j",
      "m22 20",
      "ven ous",
      "a bp",
      "f ole",
      "fole y",
      "10 5",
      "wh ole",
      "d f",
      "10 6",
      "d 28",
      "m2259 75",
      "10 9",
      "d40 19",
      "179 4",
      "m22 1794",
      "d d",
      "d g",
      "10 7",
      "dz 8",
      "m22 2",
      "m222 168",
      "d 3",
      "10 8",
      "13 8",
      "4 7",
      "13 9",
      "11 1",
      "19 0",
      "13 5",
      "l220 2",
      "s ol",
      "13 7",
      "m2220 11",
      "dv 58",
      "11 9",
      "1 12",
      "a b",
      "u te",
      "sol ute",
      "ab solute",
      "1 50",
      "d 7",
      "13 6",
      "as t",
      "14 1",
      "d n",
      "t co2",
      "m22 18",
      "l i",
      "d 30",
      "a se",
      "14 2",
      "m22174 4",
      "l22 65",
      "m2259 42",
      "m22515 2",
      "dv 15",
      "26 2",
      "d y",
      "m2283 15",
      "m2275 22",
      "m22 14",
      "u r",
      "r u",
      "1 13",
      "190 6",
      "m22 1906",
      "d27 24",
      "ac ti",
      "13 4",
      "i li",
      "d c",
      "b ili",
      "ru bin",
      "bili rubin",
      "l22 93",
      "1 15",
      "1 14",
      "0 7",
      "m223 262",
      "12 1",
      "ac id",
      "t ot",
      "tot al",
      "d2 50",
      "0 1",
      "14 3",
      "m2275 23",
      "1 18",
      "l acti",
      "lacti c",
      "11 6",
      "de 8",
      "al t",
      "l2256 68",
      "k al",
      "al kal",
      "ph ate",
      "phos phate",
      "alkal ine",
      "14 5",
      "d m",
      "12 5",
      "di 10",
      "d5 30",
      "38 30",
      "l22 3830",
      "12 9",
      "13 3",
      "d h",
      "de 78",
      "l2206 44",
      "l2256 90",
      "l2205 87",
      "11 7",
      "m2259 10",
      "a bpm",
      "abp d",
      "abp s",
      "b ase",
      "c e",
      "e x",
      "ce ss",
      "ex cess",
      "14 4",
      "l2256 12",
      "i c",
      "13 2",
      "l2256 67",
      "m2214 56",
      "48 28",
      "l22022 4",
      "l2202 35",
      "l22 4828",
      "l2256 98",
      "d 58",
      "1 22",
      "u t",
      "13 1",
      "dz 9",
      "m2218 33",
      "d 0",
      "d42 73",
      "l y",
      "12 8",
      "de78 5",
      "ne ut",
      "c an",
      "12 3",
      "b as",
      "e os",
      "m on",
      "m ph",
      "ly mph",
      "neut s",
      "bas os",
      "mon os",
      "lymph s",
      "12 6",
      "dz 7",
      "dz8 78",
      "d t",
      "m2259 07",
      "12 4",
      "s t",
      "12 7",
      "d 57",
      "dz878 91",
      "dv 45",
      "d4273 1",
      "de 87",
      "d530 81",
      "0 9",
      "o id",
      "v oid",
      "di 4",
      "m22 16",
      "dv 4",
      "40 0",
      "1 60",
      "3 90",
      "14 6",
      "dv15 82",
      "di 25",
      "30 0",
      "o22 66",
      "dy 9",
      "l22 60",
      "a ck",
      "2 19",
      "m22174 9",
      "14 7",
      "20 0",
      "d250 00",
      "9 35",
      "m22 32",
      "m2216 68",
      "o2265 88",
      "d42 80",
      "d b",
      "p e",
      "14 8",
      "l dh",
      "s at",
      "n g",
      "4 19",
      "o226 59",
      "42 0",
      "14 9",
      "l2206 32",
      "l22 935",
      "dk 219",
      "dz7 90",
      "o22 75",
      "18 9",
      "dv 10",
      "m2232 60",
      "m22 13",
      "dv 12",
      "l2256 42",
      "l2256 40",
      "l2256 43",
      "l2256 39",
      "l2256 41",
      "d78 0",
      "m22 9",
      "d 24",
      "d 59",
      "50 0",
      "00 0",
      "d 73",
      "d 99",
      "86 40",
      "r a",
      "v22 8640",
      "d 56",
      "l2202 74",
      "a m",
      "ur ine",
      "m22515 4",
      "it y",
      "t r",
      "o2275 10",
      "v22 53",
      "dz 68",
      "d5 18",
      "u g",
      "b l",
      "l2274 64",
      "d4 140",
      "15 2",
      "d4140 1",
      "m2259 74",
      "u b",
      "15 1",
      "b um",
      "al bum",
      "album in",
      "y c",
      "60 0",
      "15 5",
      "l2265 37",
      "17 2",
      "15 3",
      "l2274 56",
      "di 50",
      "di25 10",
      "15 4",
      "dv58 61",
      "d 45",
      "t ub",
      "tub e",
      "bl ack",
      "d30 51",
      "d3 11",
      "17 0",
      "1 56",
      "df 3",
      "ri can",
      "d s",
      "d58 49",
      "d28 59",
      "67 9",
      "d24 49",
      "p stick",
      "di pstick",
      "73 4",
      "f ic",
      "i fic",
      "x a",
      "l220 734",
      "v ity",
      "c ific",
      "g ra",
      "s pe",
      "gra vity",
      "spe cific",
      "23 15",
      "l2274 71",
      "m2213 85",
      "at ion",
      "ur ation",
      "sat uration",
      "m22 2315",
      "i an",
      "m2283 40",
      "df 419",
      "df3 29",
      "0 3",
      "dg 4",
      "di4 89",
      "1 61",
      "m225 83",
      "d4 93",
      "0 4",
      "15 9",
      "a f",
      "af rican",
      "l22022 7",
      "eri can",
      "am erican",
      "c he",
      "che st",
      "m yc",
      "de 93",
      "myc in",
      "15 7",
      "15 8",
      "dv 46",
      "d 70",
      "d 29",
      "30 9",
      "18 1",
      "dv 43",
      "1 98",
      "dy9 22",
      "dj 9",
      "de8 78",
      "d 20",
      "b r",
      "v an",
      "co mycin",
      "van comycin",
      "27 23",
      "m22 96",
      "d2 78",
      "d3 2723",
      "3 679",
      "l22 3679",
      "74 9",
      "l2260 62",
      "l2260 63",
      "16 3",
      "as ian",
      "m229 420",
      "o22659 9",
      "70 0",
      "d4 96",
      "16 2",
      "d0 4",
      "dz790 1",
      "5 a",
      "d 9",
      "18 0",
      "de 0",
      "d42 8",
      "f i",
      "in og",
      "br inog",
      "fi brinog",
      "fibrinog en",
      "98 6",
      "d7 90",
      "1 65",
      "m2218 28",
      "dv 8",
      "0 5",
      "l2274 68",
      "18 3",
      "d 72",
      "80 0",
      "dn 179",
      "dd 6",
      "x 5a",
      "0 6",
      "de 83",
      "64 9",
      "l2293 59",
      "l2293 60",
      "l2293 61",
      "l22935 7",
      "l22935 8",
      "di489 1",
      "66 9",
      "d 19",
      "d om",
      "v2237 62",
      "dv58 66",
      "d 34",
      "17 3",
      "3 50",
      "18 2",
      "m2283 16",
      "d27 65",
      "m b",
      "2 50",
      "16 7",
      "l2274 29",
      "73 3",
      "o r",
      "dz 79",
      "d 43",
      "dv46 2",
      "d42 83",
      "u al",
      "d27 20",
      "6 50",
      "h er",
      "ot her",
      "d40 390",
      "4 50",
      "d4 86",
      "1 74",
      "17 5",
      "d59 90",
      "l2265 40",
      "m22 90",
      "re s",
      "m2220 56",
      "t f",
      "id ual",
      "res idual",
      "p on",
      "o pon",
      "ri c",
      "l2265 34",
      "tr opon",
      "tropon in",
      "16 4",
      "dt 8",
      "5 309",
      "de0 39",
      "d73 300",
      "dz8 67",
      "l2256 34",
      "dj 4",
      "l2274 45",
      "v2253 12",
      "70 1",
      "et co2",
      "x ed",
      "dv 103",
      "mi xed",
      "d27 61",
      "d30 000",
      "v22 5309",
      "v2253 10",
      "dg4 733",
      "18 4",
      "18 5",
      "16 9",
      "s on",
      "i s",
      "22 0",
      "de 119",
      "dd 649",
      "d 60",
      "j ack",
      "at t",
      "pr att",
      "jack son",
      "60 1",
      "de 84",
      "90 2",
      "dk 7",
      "dv58 67",
      "dr 0",
      "dy 83",
      "c p",
      "dv15 3",
      "cp k",
      "d2 749",
      "17 8",
      "0 8",
      "dz79 4",
      "de87 1",
      "17 1",
      "dz790 2",
      "d a",
      "d78 7",
      "90 0",
      "14 00",
      "ol ic",
      "m221 986",
      "d3 38",
      "d493 90",
      "di 6",
      "78 9",
      "d42 41",
      "d4 9",
      "d0 70",
      "d58 59",
      "d 79",
      "dy9 29",
      "dj 44",
      "df 172",
      "d4 12",
      "db 9",
      "m2275 25",
      "12 89",
      "dn 390",
      "68 9",
      "ou gh",
      "tr ough",
      "59 0",
      "o22656 1",
      "18 8",
      "63 29",
      "e ur",
      "v22 6329",
      "o2266 27",
      "d9 98",
      "df172 10",
      "l2256 38",
      "dv45 82",
      "di 9",
      "m22583 4",
      "17 6",
      "de 669",
      "dz 86",
      "d4 40",
      "78 1",
      "59 09",
      "2 10",
      "l2265 36",
      "c y",
      "g ran",
      "u lo",
      "cy te",
      "gran ulo",
      "granulo cyte",
      "l2256 37",
      "17 7",
      "os m",
      "d 36",
      "di 7",
      "l2274 55",
      "98 1",
      "d4 168",
      "b an",
      "ban ds",
      "m22 1289",
      "d 198",
      "19 7",
      "dv45 81",
      "h is",
      "l atin",
      "p an",
      "51 50",
      "his pan",
      "latin o",
      "hispan ic",
      "d7 15",
      "5 50",
      "m22 5150",
      "20 1",
      "m2275 36",
      "d 16",
      "d2765 1",
      "d 35",
      "de 88",
      "p s",
      "y ps",
      "at yps",
      "dc 78",
      "o2265 75",
      "l2293 56",
      "8 60",
      "d338 29",
      "45 1",
      "i mm",
      "d70 7",
      "granulocyte s",
      "imm ature",
      "d5 119",
      "28 0",
      "93 1",
      "22 1",
      "dj 96",
      "dc 7",
      "50 1",
      "d60 000",
      "50 9",
      "de 11",
      "dj4 5909",
      "di 8",
      "40 9",
      "d278 00",
      "68 2",
      "dv12 51",
      "18 6",
      "l2256 74",
      "df 10",
      "di 110",
      "19 4",
      "d4 4",
      "19 1",
      "dz 5",
      "d518 81",
      "dd 62",
      "18 7",
      "m2296 30",
      "19 3",
      "p ase",
      "li pase",
      "d27 62",
      "d787 91",
      "o226 60",
      "de93 31",
      "d4 1400",
      "d78 8",
      "de83 39",
      "m22515 3",
      "19 5",
      "k n",
      "o w",
      "un kn",
      "ow n",
      "unkn own",
      "d28 51",
      "dz 85",
      "m2214 68",
      "dv4 40",
      "dv 85",
      "o2265 76",
      "dg 89",
      "43 9",
      "dv43 64",
      "24 9",
      "dy922 39",
      "x xa",
      "ran dom",
      "73 9",
      "56 9",
[...]
