{
  "version": "1.0",
  "truncation": null,
  "padding": null,
  "added_tokens": [
    {
      "id": 0,
      "content": "<s>",
      "single_word": false,
      "lstrip": false,
      "rstrip": false,
      "normalized": false,
      "special": true
    },
    {
      "id": 1,
      "content": "</s>",
      "single_word": false,
      "lstrip": false,
      "rstrip": false,
      "normalized": false,
      "special": true
    },
    {
      "id": 2,
      "content": "PAD",
      "single_word": false,
      "lstrip": false,
      "rstrip": false,
      "normalized": false,
      "special": true
    },
    {
      "id": 3,
      "content": "UNK",
      "single_word": false,
      "lstrip": false,
      "rstrip": false,
      "normalized": false,
      "special": true
    },
    {
      "id": 4,
      "content": "$",
      "single_word": false,
      "lstrip": false,
      "rstrip": false,
      "normalized": false,
      "special": true
    }
  ],
  "normalizer": {
    "type": "Sequence",
    "normalizers": [
      {
        "type": "Lowercase"
      }
    ]
  },
  "pre_tokenizer": {
    "type": "Sequence",
    "pretokenizers": [
      {
        "type": "Whitespace"
      },
      {
        "type": "Punctuation",
        "behavior": "Isolated"
      }
    ]
  },
  "post_processor": {
    "type": "BertProcessing",
    "sep": [
      "</s>",
      1
    ],
    "cls": [
      "<s>",
      0
    ]
  },
  "decoder": null,
  "model": {
    "type": "BPE",
    "dropout": null,
    "unk_token": "UNK",
    "continuing_subword_prefix": null,
    "end_of_word_suffix": null,
    "fuse_unk": false,
    "vocab": {
      "<s>": 0,
      "</s>": 1,
      "PAD": 2,
      "UNK": 3,
      "$": 4,
      "!": 5,
      "\"": 6,
      "#": 7,
      "%": 8,
      "&": 9,
      "'": 10,
      "(": 11,
      ")": 12,
      "*": 13,
      "+": 14,
      ",": 15,
      "-": 16,
      ".": 17,
      "/": 18,
      "0": 19,
      "1": 20,
      "2": 21,
      "3": 22,
      "4": 23,
      "5": 24,
      "6": 25,
      "7": 26,
      "8": 27,
      "9": 28,
      ":": 29,
      ";": 30,
      "<": 31,
      "=": 32,
      ">": 33,
      "?": 34,
      "[": 35,
      "\\": 36,
      "]": 37,
      "_": 38,
      "`": 39,
      "a": 40,
      "b": 41,
      "c": 42,
      "d": 43,
      "e": 44,
      "f": 45,
      "g": 46,
      "h": 47,
      "i": 48,
      "j": 49,
      "k": 50,
      "l": 51,
      "m": 52,
      "n": 53,
      "o": 54,
      "p": 55,
      "q": 56,
      "r": 57,
      "s": 58,
      "t": 59,
      "u": 60,
      "v": 61,
      "w": 62,
      "x": 63,
      "y": 64,
      "z": 65,
      "~": 66,
      "°": 67,
      "µ": 68,
      "â": 69,
      "ä": 70,
      "è": 71,
      "é": 72,
      "–": 73,
      "”": 74,
      "lo": 75,
      "od": 76,
      "he": 77,
      "in": 78,
      "hem": 79,
      "mg": 80,
      "at": 81,
      "blo": 82,
      "blood": 83,
      "tr": 84,
      "is": 85,
      "chem": 86,
      "istr": 87,
      "chemistr": 88,
      "chemistry": 89,
      "on": 90,
      "um": 91,
      "me": 92,
      "ium": 93,
      "00": 94,
      "al": 95,
      "ate": 96,
      "de": 97,
      "ri": 98,
      "meq": 99,
      "an": 100,
      "dl": 101,
      "as": 102,
      "re": 103,
      "ato": 104,
      "hemato": 105,
      "ot": 106,
      "ar": 107,
      "ch": 108,
      "it": 109,
      "ml": 110,
      "se": 111,
      "ine": 112,
      "lu": 113,
      "un": 114,
      "co": 115,
      "sod": 116,
      "ac": 117,
      "sodium": 118,
      "gy": 119,
      "logy": 120,
      "ic": 121,
      "ro": 122,
      "hematology": 123,
      "le": 124,
      "chlo": 125,
      "ride": 126,
      "chloride": 127,
      "en": 128,
      "am": 129,
      "10": 130,
      "ul": 131,
      "100": 132,
      "pe": 133,
      "ion": 134,
      "50": 135,
      "op": 136,
      "sium": 137,
      "og": 138,
      "hy": 139,
      "ne": 140,
      "ap": 141,
      "ol": 142,
      "or": 143,
      "ag": 144,
      "glu": 145,
      "pot": 146,
      "te": 147,
      "flu": 148,
      "potas": 149,
      "potassium": 150,
      "pl": 151,
      "nan": 152,
      "if": 153,
      "cal": 154,
      "ed": 155,
      "id": 156,
      "et": 157,
      "of": 158,
      "az": 159,
      "atin": 160,
      "one": 161,
      "unit": 162,
      "calc": 163,
      "onate": 164,
      "us": 165,
      "ifi": 166,
      "ified": 167,
      "calcium": 168,
      "25": 169,
      "gluco": 170,
      "pec": 171,
      "bin": 172,
      "di": 173,
      "spec": 174,
      "amin": 175,
      "glucose": 176,
      "sh": 177,
      "specified": 178,
      "flush": 179,
      "ab": 180,
      "ure": 181,
      "itr": 182,
      "arb": 183,
      "rit": 184,
      "12": 185,
      "sul": 186,
      "arbonate": 187,
      "ir": 188,
      "unspecified": 189,
      "500": 190,
      "crit": 191,
      "cre": 192,
      "otal": 193,
      "total": 194,
      "20": 195,
      "hen": 196,
      "th": 197,
      "nitr": 198,
      "nitrog": 199,
      "hematocrit": 200,
      "bic": 201,
      "13": 202,
      "creatin": 203,
      "creatinine": 204,
      "1000": 205,
      "40": 206,
      "wh": 207,
      "bicarbonate": 208,
      "coun": 209,
      "urea": 210,
      "oglo": 211,
      "hemoglo": 212,
      "hemoglobin": 213,
      "nitrogen": 214,
      "arin": 215,
      "oc": 216,
      "acet": 217,
      "pr": 218,
      "let": 219,
      "gap": 220,
      "anion": 221,
      "plate": 222,
      "platelet": 223,
      "ite": 224,
      "count": 225,
      "ase": 226,
      "ph": 227,
      "15": 228,
      "ide": 229,
      "hyd": 230,
      "hep": 231,
      "aminop": 232,
      "aminophen": 233,
      "acetaminophen": 234,
      "white": 235,
      "yc": 236,
      "st": 237,
      "ole": 238,
      "gm": 239,
      "dex": 240,
      "nt": 241,
      "heparin": 242,
      "tro": 243,
      "per": 244,
      "ox": 245,
      "iv": 246,
      "dextro": 247,
      "ur": 248,
      "gas": 249,
      "il": 250,
      "dextrose": 251,
      "act": 252,
      "14": 253,
      "pt": 254,
      "ith": 255,
      "er": 256,
      "os": 257,
      "sulf": 258,
      "dis": 259,
      "her": 260,
      "with": 261,
      "30": 262,
      "bag": 263,
      "tab": 264,
      "hydro": 265,
      "na": 266,
      "sulfate": 267,
      "ia": 268,
      "ent": 269,
      "im": 270,
      "other": 271,
      "azole": 272,
      "and": 273,
      "gluc": 274,
      "pro": 275,
      "mag": 276,
      "doc": 277,
      "magne": 278,
      "docus": 279,
      "docusate": 280,
      "top": 281,
      "ep": 282,
      "el": 283,
      "sen": 284,
      "ast": 285,
      "ond": 286,
      "insul": 287,
      "insulin": 288,
      "odone": 289,
      "es": 290,
      "trate": 291,
      "artrate": 292,
      "ad": 293,
      "5000": 294,
      "lact": 295,
      "17": 296,
      "senna": 297,
      "neb": 298,
      "650": 299,
      "inr": 300,
      "ial": 301,
      "alb": 302,
      "ron": 303,
      "ment": 304,
      "ut": 305,
      "tron": 306,
      "bp": 307,
      "lol": 308,
      "magnesium": 309,
      "orph": 310,
      "11": 311,
      "ute": 312,
      "rol": 313,
      "ation": 314,
      "morph": 315,
      "pir": 316,
      "lactate": 317,
      "oxyc": 318,
      "ce": 319,
      "yl": 320,
      "itamin": 321,
      "anse": 322,
      "ondanse": 323,
      "ric": 324,
      "ondansetron": 325,
      "ing": 326,
      "mol": 327,
      "qu": 328,
      "80": 329,
      "spr": 330,
      "meth": 331,
      "200": 332,
      "ct": 333,
      "oxycodone": 334,
      "mmol": 335,
      "pol": 336,
      "com": 337,
      "cg": 338,
      "rop": 339,
      "mcg": 340,
      "out": 341,
      "astatin": 342,
      "acc": 343,
      "vastatin": 344,
      "la": 345,
      "aspir": 346,
      "aspirin": 347,
      "ain": 348,
      "rele": 349,
      "release": 350,
      "60": 351,
      "rican": 352,
      "ease": 353,
      "disease": 354,
      "ary": 355,
      "ive": 356,
      "poly": 357,
      "hyper": 358,
      "urine": 359,
      "val": 360,
      "bil": 361,
      "azep": 362,
      "without": 363,
      "col": 364,
      "appl": 365,
      "mide": 366,
      "art": 367,
      "iru": 368,
      "biliru": 369,
      "bilirubin": 370,
      "325": 371,
      "16": 372,
      "af": 373,
      "agon": 374,
      "ronic": 375,
      "chronic": 376,
      "glucagon": 377,
      "azepam": 378,
      "250": 379,
      "der": 380,
      "pain": 381,
      "su": 382,
      "pan": 383,
      "pre": 384,
      "81": 385,
      "ter": 386,
      "enz": 387,
      "em": 388,
      "ens": 389,
      "rolol": 390,
      "metop": 391,
      "metoprolol": 392,
      "lev": 393,
      "vacc": 394,
      "ult": 395,
      "albute": 396,
      "albuterol": 397,
      "vaccine": 398,
      "thm": 399,
      "aine": 400,
      "bis": 401,
      "23": 402,
      "ly": 403,
      "24": 404,
      "umin": 405,
      "medi": 406,
      "bisac": 407,
      "bisacod": 408,
      "bisacodyl": 409,
      "age": 410,
      "otic": 411,
      "mediate": 412,
      "immediate": 413,
      "iso": 414,
      "gluconate": 415,
      "his": 416,
      "tem": 417,
      "use": 418,
      "tartrate": 419,
      "ud": 420,
      "idine": 421,
      "morphone": 422,
      "hydromorphone": 423,
      "400": 424,
      "valent": 425,
      "ig": 426,
      "26": 427,
      "gel": 428,
      "rhy": 429,
      "rhythm": 430,
      "ame": 431,
      "units": 432,
      "tor": 433,
      "laud": 434,
      "150": 435,
      "lor": 436,
      "mal": 437,
      "18": 438,
      "pat": 439,
      "27": 440,
      "las": 441,
      "dilaud": 442,
      "dilaudid": 443,
      "ension": 444,
      "con": 445,
      "mult": 446,
      "ty": 447,
      "ff": 448,
      "enza": 449,
      "fluenza": 450,
      "influenza": 451,
      "ob": 452,
      "temp": 453,
      "osm": 454,
      "osmotic": 455,
      "type": 456,
      "sat": 457,
      "o2": 458,
      "dbp": 459,
      "sbp": 460,
      "heartrate": 461,
      "respr": 462,
      "o2sat": 463,
      "resprate": 464,
      "dip": 465,
      "kid": 466,
      "ney": 467,
      "kidney": 468,
      "ator": 469,
      "razole": 470,
      "lorazepam": 471,
      "amine": 472,
      "vir": 473,
      "itamins": 474,
      "ca": 475,
      "multiv": 476,
      "son": 477,
      "sol": 478,
      "li": 479,
      "multivitamins": 480,
      "28": 481,
      "lid": 482,
      "75": 483,
      "imeth": 484,
      "ome": 485,
      "ycin": 486,
      "ant": 487,
      "ocaine": 488,
      "plac": 489,
      "fa": 490,
      "person": 491,
      "lidocaine": 492,
      "vial": 493,
      "soln": 494,
      "ater": 495,
      "ack": 496,
      "ex": 497,
      "hyro": 498,
      "hydr": 499,
      "ste": 500,
      "prazole": 501,
      "gly": 502,
      "gen": 503,
      "uro": 504,
      "histor": 505,
      "history": 506,
      "order": 507,
      "lox": 508,
      "ns": 509,
      "98": 510,
      "ril": 511,
      "pantop": 512,
      "pantoprazole": 513,
      "chlor": 514,
      "sy": 515,
      "place": 516,
      "oph": 517,
      "mention": 518,
      "bl": 519,
      "disorder": 520,
      "lis": 521,
      "ical": 522,
      "not": 523,
      "29": 524,
      "carbonate": 525,
      "atorvastatin": 526,
      "oco": 527,
      "omeprazole": 528,
      "ction": 529,
      "300": 530,
      "om": 531,
      "semide": 532,
      "xine": 533,
      "hypert": 534,
      "acid": 535,
      "19": 536,
      "olic": 537,
      "asone": 538,
      "tic": 539,
      "vitamin": 540,
      "clo": 541,
      "22": 542,
      "prop": 543,
      "hyle": 544,
      "hylene": 545,
      "whole": 546,
      "personal": 547,
      "glycol": 548,
      "polyet": 549,
      "polyethylene": 550,
      "american": 551,
      "83": 552,
      "albumin": 553,
      "azine": 554,
      "compl": 555,
      "oral": 556,
      "cap": 557,
      "black": 558,
      "african": 559,
      "ros": 560,
      "morphine": 561,
      "cef": 562,
      "pu": 563,
      "ree": 564,
      "rile": 565,
      "complic": 566,
      "ib": 567,
      "ated": 568,
      "puff": 569,
      "inh": 570,
      "patch": 571,
      "prof": 572,
      "placement": 573,
      "water": 574,
      "furo": 575,
      "furosemide": 576,
      "replacement": 577,
      "levot": 578,
      "levothyro": 579,
      "levothyroxine": 580,
      "simeth": 581,
      "icone": 582,
      "simethicone": 583,
      "ss": 584,
      "ld": 585,
      "dehydro": 586,
      "genase": 587,
      "dehydrogenase": 588,
      "atrop": 589,
      "gab": 590,
      "onco": 591,
      "sterile": 592,
      "diab": 593,
      "itis": 594,
      "free": 595,
      "iu": 596,
      "mia": 597,
      "oncology": 598,
      "ring": 599,
      "phos": 600,
      "po": 601,
      "bro": 602,
      "ipr": 603,
      "21": 604,
      "van": 605,
      "drop": 606,
      "str": 607,
      "inf": 608,
      "apine": 609,
      "acute": 610,
      "pne": 611,
      "600": 612,
      "pneum": 613,
      "ilu": 614,
      "cy": 615,
      "failu": 616,
      "failure": 617,
      "cc": 618,
      "atropium": 619,
      "ipratropium": 620,
      "whe": 621,
      "pram": 622,
      "d5": 623,
      "flutic": 624,
      "fluticasone": 625,
      "acin": 626,
      "bromide": 627,
      "sus": 628,
      "heart": 629,
      "quad": 630,
      "inop": 631,
      "isone": 632,
      "97": 633,
      "comycin": 634,
      "vancomycin": 635,
      "tes": 636,
      "lopram": 637,
      "apent": 638,
      "gabapent": 639,
      "gabapentin": 640,
      "stage": 641,
      "quadri": 642,
      "thro": 643,
      "quadrivalent": 644,
      "complication": 645,
      "sent": 646,
      "cur": 647,
      "mil": 648,
      "99": 649,
      "083": 650,
      "etes": 651,
      "diabetes": 652,
      "met": 653,
      "hypertension": 654,
      "oin": 655,
      "pred": 656,
      "inopril": 657,
      "ans": 658,
      "predn": 659,
      "lisinopril": 660,
      "sia": 661,
      "car": 662,
      "ronary": 663,
      "ti": 664,
      "los": 665,
      "pide": 666,
      "milk": 667,
      "magnesia": 668,
      "31": 669,
      "spry": 670,
      "propion": 671,
      "neop": 672,
      "curre": 673,
      "139": 674,
      "urin": 675,
      "ende": 676,
      "no": 677,
      "nant": 678,
      "malig": 679,
      "malignant": 680,
      "lasm": 681,
      "neoplasm": 682,
      "essent": 683,
      "essential": 684,
      "ccal": 685,
      "rine": 686,
      "138": 687,
      "emia": 688,
      "ococcal": 689,
      "32": 690,
      "lass": 691,
      "mon": 692,
      "140": 693,
      "where": 694,
      "sewhere": 695,
      "elsewhere": 696,
      "class": 697,
      "phen": 698,
      "succ": 699,
      "pneumococcal": 700,
      "hydrox": 701,
      "ral": 702,
      "ism": 703,
      "sw": 704,
      "ng": 705,
      "loxacin": 706,
      "folic": 707,
      "classified": 708,
      "dipine": 709,
      "diphen": 710,
      "care": 711,
      "gr": 712,
      "34": 713,
      "itrate": 714,
      "ve": 715,
      "azodone": 716,
      "trazodone": 717,
      "arf": 718,
      "warf": 719,
      "warfarin": 720,
      "sim": 721,
      "fic": 722,
      "coronary": 723,
      "33": 724,
      "simvastatin": 725,
      "for": 726,
      "stat": 727,
      "125": 728,
      "137": 729,
      "diphenhydr": 730,
      "diphenhydramine": 731,
      "current": 732,
      "lodipine": 733,
      "cond": 734,
      "the": 735,
      "azol": 736,
      "103": 737,
      "102": 738,
      "ver": 739,
      "liqu": 740,
      "liquid": 741,
      "ge": 742,
      "tram": 743,
      "nic": 744,
      "amlodipine": 745,
      "lin": 746,
      "virus": 747,
      "non": 748,
      "to": 749,
      "104": 750,
      "rim": 751,
      "phosph": 752,
      "min": 753,
      "inhal": 754,
      "critical": 755,
      "37": 756,
      "141": 757,
      "susp": 758,
      "du": 759,
      "101": 760,
      "tion": 761,
      "oint": 762,
      "35": 763,
      "esoph": 764,
      "fam": 765,
      "stru": 766,
      "site": 767,
      "105": 768,
      "ptch": 769,
      "osis": 770,
      "term": 771,
      "ific": 772,
      "rosis": 773,
      "status": 774,
      "prednisone": 775,
      "ser": 776,
      "nal": 777,
      "ameth": 778,
      "long": 779,
      "otine": 780,
      "ci": 781,
      "nicotine": 782,
      "136": 783,
      "peri": 784,
      "lus": 785,
      "xl": 786,
      "obstru": 787,
      "inhaler": 788,
      "ers": 789,
      "asal": 790,
      "propionate": 791,
      "my": 792,
      "suspension": 793,
      "cle": 794,
      "96": 795,
      "nasal": 796,
      "trans": 797,
      "athe": 798,
      "800": 799,
      "36": 800,
      "cit": 801,
      "lactated": 802,
      "ringers": 803,
      "mel": 804,
      "cor": 805,
      "ative": 806,
      "lit": 807,
      "led": 808,
      "106": 809,
      "succin": 810,
      "inte": 811,
      "ident": 812,
      "ophth": 813,
      "illin": 814,
      "succinate": 815,
      "trol": 816,
      "mellit": 817,
      "mellitus": 818,
      "inj": 819,
      "rel": 820,
      "ect": 821,
      "ran": 822,
      "142": 823,
      "ii": 824,
      "110": 825,
      "hyperli": 826,
      "hyperlipide": 827,
      "hyperlipidemia": 828,
      "yclo": 829,
      "control": 830,
      "alazine": 831,
      "hydralazine": 832,
      "ciprof": 833,
      "ciprofloxacin": 834,
      "cl": 835,
      "nce": 836,
      "alumin": 837,
      "aluminum": 838,
      "anemia": 839,
      "ay": 840,
      "sal": 841,
      "ma": 842,
      "taz": 843,
      "artific": 844,
      "artificial": 845,
      "profen": 846,
      "ibu": 847,
      "ibuprofen": 848,
      "135": 849,
      "controlled": 850,
      "cita": 851,
      "citalopram": 852,
      "uncontrolled": 853,
      "accident": 854,
      "press": 855,
      "ven": 856,
      "ip": 857,
      "etine": 858,
      "95": 859,
      "ous": 860,
      "aparin": 861,
      "tract": 862,
      "fer": 863,
      "nor": 864,
      "ular": 865,
      "107": 866,
      "epi": 867,
      "gu": 868,
      "otidine": 869,
      "famotidine": 870,
      "pi": 871,
      "loz": 872,
      "enox": 873,
      "enoxaparin": 874,
      "ug": 875,
      "ifen": 876,
      "plus": 877,
      "ection": 878,
      "neu": 879,
      "mini": 880,
      "citrate": 881,
      "phrine": 882,
      "pid": 883,
      "phosphate": 884,
      "bu": 885,
      "gua": 886,
      "guaifen": 887,
      "guaifenes": 888,
      "guaifenesin": 889,
      "mic": 890,
      "infection": 891,
      "ageal": 892,
      "esophageal": 893,
      "red": 894,
      "lyc": 895,
      "ity": 896,
      "38": 897,
      "tra": 898,
      "itidine": 899,
      "ranitidine": 900,
      "tam": 901,
      "rous": 902,
      "hcl": 903,
      "amide": 904,
      "ured": 905,
      "roscle": 906,
      "atheroscle": 907,
      "clopid": 908,
      "clopidog": 909,
      "clopidogrel": 910,
      "rh": 911,
      "ferrous": 912,
      "erin": 913,
      "thi": 914,
      "bc": 915,
      "ced": 916,
      "entan": 917,
      "ition": 918,
      "injured": 919,
      "gan": 920,
      "thiamine": 921,
      "perid": 922,
      "pow": 923,
      "adol": 924,
      "tramadol": 925,
      "fentan": 926,
      "fentanyl": 927,
      "normal": 928,
      "native": 929,
      "powder": 930,
      "wbc": 931,
      "stated": 932,
      "ointment": 933,
      "eti": 934,
      "hp": 935,
      "tear": 936,
      "hpf": 937,
      "vac": 938,
      "collis": 939,
      "collision": 940,
      "91": 941,
      "reflu": 942,
      "reflux": 943,
      "134": 944,
      "ian": 945,
      "polyvalent": 946,
      "rin": 947,
      "perazine": 948,
      "clon": 949,
      "ended": 950,
      "ext": 951,
      "108": 952,
      "prochlor": 953,
      "prochlorperazine": 954,
      "extended": 955,
      "atic": 956,
      "urinary": 957,
      "trop": 958,
      "idazole": 959,
      "metron": 960,
      "metronidazole": 961,
      "94": 962,
      "143": 963,
      "ulo": 964,
      "sulos": 965,
      "tamsulos": 966,
      "tamsulosin": 967,
      "000": 968,
      "zol": 969,
      "panic": 970,
      "abnormal": 971,
      "pressive": 972,
      "90": 973,
      "ands": 974,
      "do": 975,
      "latin": 976,
      "pic": 977,
      "rinse": 978,
      "bands": 979,
      "pheny": 980,
      "onazole": 981,
      "last": 982,
      "yst": 983,
      "hispanic": 984,
      "latino": 985,
      "ient": 986,
      "terol": 987,
      "gest": 988,
      "70": 989,
      "lycerin": 990,
      "lop": 991,
      "meterol": 992,
      "salmeterol": 993,
      "atri": 994,
      "benz": 995,
      "ating": 996,
      "hex": 997,
      "proced": 998,
      "ode": 999,
      "mb": 1000,
      "sar": 1001,
      "45": 1002,
      "cream": 1003,
      "lactulo": 1004,
      "lactulose": 1005,
      "dep": 1006,
      "nitroglycerin": 1007,
      "renal": 1008,
      "hi": 1009,
      "mine": 1010,
      "res": 1011,
      "metoc": 1012,
      "lopramide": 1013,
      "metoclopramide": 1014,
      "low": 1015,
      "tin": 1016,
      "condition": 1017,
      "tery": 1018,
      "artery": 1019,
      "allop": 1020,
      "urinol": 1021,
      "allopurinol": 1022,
      "mis": 1023,
      "xone": 1024,
      "cefazol": 1025,
      "cefazolin": 1026,
      "disk": 1027,
      "diskus": 1028,
      "oplast": 1029,
      "tria": 1030,
      "ceftria": 1031,
      "ceftriaxone": 1032,
      "39": 1033,
      "sr": 1034,
      "fib": 1035,
      "cha": 1036,
      "inal": 1037,
      "depende": 1038,
      "88": 1039,
      "lotion": 1040,
      "chlorhex": 1041,
      "chlorhexidine": 1042,
      "dependence": 1043,
      "queti": 1044,
      "alco": 1045,
      "alcoh": 1046,
      "quetiapine": 1047,
      "gestive": 1048,
      "tral": 1049,
      "able": 1050,
      "athy": 1051,
      "dr": 1052,
      "gical": 1053,
      "sac": 1054,
      "sarna": 1055,
      "ensive": 1056,
      "hypertensive": 1057,
      "eff": 1058,
      "counter": 1059,
      "encounter": 1060,
      "ys": 1061,
      "fum": 1062,
      "arate": 1063,
      "fumarate": 1064,
      "hic": 1065,
      "disorders": 1066,
      "chl": 1067,
      "ass": 1068,
      "calcul": 1069,
      "109": 1070,
      "artan": 1071,
      "atherosclerosis": 1072,
      "trimeth": 1073,
      "iz": 1074,
      "charide": 1075,
      "trimethop": 1076,
      "trimethoprim": 1077,
      "hypot": 1078,
      "66": 1079,
      "sulfameth": 1080,
      "polysac": 1081,
      "polysaccharide": 1082,
      "lone": 1083,
      "133": 1084,
      "acyclo": 1085,
      "acyclovir": 1086,
      "93": 1087,
      "hyp": 1088,
      "wn": 1089,
      "depressive": 1090,
      "calculated": 1091,
      "ec": 1092,
      "traf": 1093,
      "traffic": 1094,
      "acetam": 1095,
      "etir": 1096,
      "levetir": 1097,
      "levetiracetam": 1098,
      "kno": 1099,
      "known": 1100,
      "pk": 1101,
      "obstruction": 1102,
      "plant": 1103,
      "pkt": 1104,
      "2000": 1105,
      "tob": 1106,
      "mineral": 1107,
      "sertral": 1108,
      "sertraline": 1109,
      "syring": 1110,
      "iol": 1111,
      "orb": 1112,
      "syringe": 1113,
      "atrial": 1114,
      "nyst": 1115,
      "acetate": 1116,
      "adult": 1117,
      "post": 1118,
      "oxetine": 1119,
      "ket": 1120,
      "nystatin": 1121,
      "prim": 1122,
      "ha": 1123,
      "ang": 1124,
      "92": 1125,
      "ofol": 1126,
      "propofol": 1127,
      "ort": 1128,
      "reg": 1129,
      "750": 1130,
      "infar": 1131,
      "infarction": 1132,
      "tears": 1133,
      "diseases": 1134,
      "oper": 1135,
      "unknown": 1136,
      "ien": 1137,
      "olism": 1138,
      "second": 1139,
      "orrh": 1140,
      "hemorrh": 1141,
      "minerals": 1142,
      "120": 1143,
      "rill": 1144,
      "fibrill": 1145,
      "acco": 1146,
      "tobacco": 1147,
      "cer": 1148,
      "integr": 1149,
      "disintegr": 1150,
      "disintegrating": 1151,
      "mi": 1152,
      "due": 1153,
      "part": 1154,
      "miconazole": 1155,
      "1500": 1156,
      "zapine": 1157,
      "112": 1158,
      "thromb": 1159,
      "65": 1160,
      "144": 1161,
      "vehic": 1162,
      "vehicle": 1163,
      "congestive": 1164,
      "anti": 1165,
      "cause": 1166,
      "67": 1167,
      "ations": 1168,
      "bac": 1169,
      "procedure": 1170,
      "ired": 1171,
      "63": 1172,
      "cort": 1173,
      "68": 1174,
      "iver": 1175,
      "64": 1176,
      "acqu": 1177,
      "acquired": 1178,
      "effect": 1179,
      "onat": 1180,
      "actam": 1181,
      "ved": 1182,
      "liver": 1183,
      "bal": 1184,
      "ht": 1185,
      "azide": 1186,
      "othi": 1187,
      "patient": 1188,
      "secondary": 1189,
      "iency": 1190,
      "chlorothi": 1191,
      "chlorothiazide": 1192,
      "by": 1193,
      "62": 1194,
      "atitis": 1195,
      "zine": 1196,
      "action": 1197,
      "organ": 1198,
      "defic": 1199,
      "72": 1200,
      "neph": 1201,
      "hyroid": 1202,
      "reaction": 1203,
      "rect": 1204,
      "keto": 1205,
      "69": 1206,
      "cyan": 1207,
      "ocobal": 1208,
      "ocobalamin": 1209,
      "cyanocobalamin": 1210,
      "85": 1211,
      "fibrillation": 1212,
      "71": 1213,
      "78": 1214,
      "132": 1215,
      "ptic": 1216,
      "cep": 1217,
      "84": 1218,
      "coag": 1219,
      "coagul": 1220,
      "zolpide": 1221,
      "zolpidem": 1222,
      "hydrochlorothiazide": 1223,
      "87": 1224,
      "mir": 1225,
      "d5w": 1226,
      "clonazepam": 1227,
      "olan": 1228,
      "olanzapine": 1229,
      "ctive": 1230,
      "mid": 1231,
      "par": 1232,
      "caus": 1233,
      "86": 1234,
      "causing": 1235,
      "diazepam": 1236,
      "cardi": 1237,
      "neutra": 1238,
      "74": 1239,
      "89": 1240,
      "ketorol": 1241,
      "ketorolac": 1242,
      "cefepi": 1243,
      "cefepime": 1244,
      "82": 1245,
      "primary": 1246,
      "76": 1247,
      "rom": 1248,
      "lab": 1249,
      "amethasone": 1250,
      "throat": 1251,
      "pul": 1252,
      "cortisone": 1253,
      "77": 1254,
      "asian": 1255,
      "aft": 1256,
      "dil": 1257,
      "alol": 1258,
      "isos": 1259,
      "isosorb": 1260,
      "isosorbide": 1261,
      "44": 1262,
      "state": 1263,
      "73": 1264,
      "2ns": 1265,
      "61": 1266,
      "lam": 1267,
      "fla": 1268,
      "ra": 1269,
      "enem": 1270,
      "gyl": 1271,
      "flagyl": 1272,
      "ile": 1273,
      "dilti": 1274,
      "diltiaz": 1275,
      "ther": 1276,
      "obstructive": 1277,
      "diltiazem": 1278,
      "145": 1279,
      "79": 1280,
      "iod": 1281,
      "tazapine": 1282,
      "mirtazapine": 1283,
      "itial": 1284,
      "pulmon": 1285,
      "cere": 1286,
      "lower": 1287,
      "hyroidism": 1288,
      "58": 1289,
      "41": 1290,
      "lte": 1291,
      "rame": 1292,
      "lteon": 1293,
      "ramelteon": 1294,
      "vent": 1295,
      "ardi": 1296,
      "59": 1297,
      "asc": 1298,
      "pulmonary": 1299,
      "initial": 1300,
      "arone": 1301,
      "55": 1302,
      "111": 1303,
      "labet": 1304,
      "labetalol": 1305,
      "graft": 1306,
      "ateno": 1307,
      "atenolol": 1308,
      "pra": 1309,
      "phenyle": 1310,
      "phenylephrine": 1311,
      "amiod": 1312,
      "amiodarone": 1313,
      "cyc": 1314,
      "later": 1315,
      "42": 1316,
      "ilol": 1317,
      "carved": 1318,
      "carvedilol": 1319,
      "ultram": 1320,
      "time": 1321,
      "alcohol": 1322,
      "advent": 1323,
      "misadvent": 1324,
      "misadventure": 1325,
      "57": 1326,
      "man": 1327,
      "azolam": 1328,
      "verse": 1329,
      "ugh": 1330,
      "oste": 1331,
      "56": 1332,
      "gastro": 1333,
      "dro": 1334,
      "sur": 1335,
      "ital": 1336,
      "adverse": 1337,
      "dexamethasone": 1338,
      "cin": 1339,
      "nontraffic": 1340,
      "bral": 1341,
      "ropathy": 1342,
      "hydroxy": 1343,
      "emb": 1344,
      "embolism": 1345,
      "pravastatin": 1346,
      "sence": 1347,
      "54": 1348,
      "oar": 1349,
      "intest": 1350,
      "131": 1351,
      "ife": 1352,
      "hypothyroidism": 1353,
      "cr": 1354,
      "syn": 1355,
      "ben": 1356,
      "lr": 1357,
      "ulcer": 1358,
      "cel": 1359,
      "hyl": 1360,
      "operation": 1361,
      "end": 1362,
      "up": 1363,
      "110mcg": 1364,
      "ofloxacin": 1365,
      "acol": 1366,
      "ps": 1367,
      "caps": 1368,
      "cepacol": 1369,
      "levofloxacin": 1370,
      "ants": 1371,
      "hydrocortisone": 1372,
      "inephrine": 1373,
      "fo": 1374,
      "ple": 1375,
      "olol": 1376,
      "through": 1377,
      "fluoxetine": 1378,
      "spray": 1379,
      "leep": 1380,
      "antine": 1381,
      "iet": 1382,
      "actone": 1383,
      "spir": 1384,
      "onol": 1385,
      "spironol": 1386,
      "spironolactone": 1387,
      "methyl": 1388,
      "anx": 1389,
      "opro": 1390,
      "asthm": 1391,
      "ifest": 1392,
      "asthma": 1393,
      "xim": 1394,
      "chole": 1395,
      "way": 1396,
      "manifest": 1397,
      "manifestations": 1398,
      "all": 1399,
      "ized": 1400,
      "losartan": 1401,
      "43": 1402,
      "anticoagul": 1403,
      "anticoagulants": 1404,
      "conditions": 1405,
      "neg": 1406,
      "130": 1407,
      "53": 1408,
      "iety": 1409,
      "imus": 1410,
      "ds": 1411,
      "ix": 1412,
      "predniso": 1413,
      "52": 1414,
      "prednisolone": 1415,
      "anxiety": 1416,
      "rolimus": 1417,
      "ritis": 1418,
      "nephro": 1419,
      "picc": 1420,
      "otrop": 1421,
      "nephrocaps": 1422,
      "sion": 1423,
      "oxide": 1424,
      "loper": 1425,
      "loperamide": 1426,
      "peridol": 1427,
      "cerebral": 1428,
      "halo": 1429,
      "haloperidol": 1430,
      "bupropion": 1431,
      "tri": 1432,
      "effects": 1433,
      "drug": 1434,
      "nalox": 1435,
      "naloxone": 1436,
      "hum": 1437,
      "tiotrop": 1438,
      "tiotropium": 1439,
      "complications": 1440,
      "phenol": 1441,
      "ternal": 1442,
      "monon": 1443,
      "so": 1444,
      "atory": 1445,
      "mononitrate": 1446,
      "psy": 1447,
      "omy": 1448,
      "sleep": 1449,
      "coma": 1450,
      "51": 1451,
      "port": 1452,
      "epis": 1453,
      "48": 1454,
      "enge": 1455,
      "lozenge": 1456,
      "fin": 1457,
      "acillin": 1458,
      "stero": 1459,
      "xr": 1460,
      "adine": 1461,
      "obactam": 1462,
      "tazobactam": 1463,
      "dline": 1464,
      "midline": 1465,
      "ign": 1466,
      "romycin": 1467,
      "113": 1468,
      "oprost": 1469,
      "piper": 1470,
      "piperacillin": 1471,
      "inser": 1472,
      "insertion": 1473,
      "benzonat": 1474,
      "benzonatate": 1475,
      "surgical": 1476,
      "insertions": 1477,
      "46": 1478,
      "oxic": 1479,
      "human": 1480,
      "ess": 1481,
      "vel": 1482,
      "epile": 1483,
      "carb": 1484,
      "va": 1485,
      "sl": 1486,
      "oplastic": 1487,
      "direct": 1488,
      "antineoplastic": 1489,
      "lar": 1490,
      "hea": 1491,
      "hemorrhage": 1492,
      "lym": 1493,
      "49": 1494,
      "oxy": 1495,
      "rifa": 1496,
      "ximin": 1497,
      "rifaximin": 1498,
      "lat": 1499,
      "sevel": 1500,
      "amer": 1501,
      "sodiol": 1502,
      "ursodiol": 1503,
      "esophag": 1504,
      "sevelamer": 1505,
      "dic": 1506,
      "ret": 1507,
      "rosu": 1508,
      "rosuvastatin": 1509,
      "enia": 1510,
      "tac": 1511,
      "dose": 1512,
      "tacrolimus": 1513,
      "005": 1514,
      "azith": 1515,
      "azithromycin": 1516,
      "ily": 1517,
      "ascor": 1518,
      "ascorbic": 1519,
      "ural": 1520,
      "atric": 1521,
      "ocy": 1522,
      "che": 1523,
      "ance": 1524,
      "phy": 1525,
      "esity": 1526,
      "obesity": 1527,
      "prot": 1528,
      "but": 1529,
      "venous": 1530,
      "thrombosis": 1531,
      "drome": 1532,
      "syndrome": 1533,
      "dox": 1534,
      "lans": 1535,
      "lansop": 1536,
      "ontin": 1537,
      "lansoprazole": 1538,
      "47": 1539,
      "146": 1540,
      "ody": 1541,
      "latan": 1542,
      "vasc": 1543,
      "latanoprost": 1544,
      "oxycontin": 1545,
      "elly": 1546,
      "vascular": 1547,
      "jelly": 1548,
      "aff": 1549,
      "114": 1550,
      "lymph": 1551,
      "ante": 1552,
      "etic": 1553,
      "cycle": 1554,
      "cardiac": 1555,
      "sel": 1556,
      "hepatitis": 1557,
      "etil": 1558,
      "benign": 1559,
      "900": 1560,
      "mun": 1561,
      "ach": 1562,
      "py": 1563,
      "body": 1564,
      "129": 1565,
      "orus": 1566,
      "phosphorus": 1567,
      "vic": 1568,
      "leg": 1569,
      "transplant": 1570,
      "aste": 1571,
      "episode": 1572,
      "rig": 1573,
      "ding": 1574,
      "diabetic": 1575,
      "dulox": 1576,
      "duloxetine": 1577,
      "diast": 1578,
      "diastolic": 1579,
      "ck": 1580,
      "rep": 1581,
      "550": 1582,
      "venla": 1583,
      "venlafa": 1584,
      "5mg": 1585,
      "venlafaxine": 1586,
      "fr": 1587,
      "otr": 1588,
      "ape": 1589,
      "contin": 1590,
      "hydroxyzine": 1591,
      "kin": 1592,
      "acel": 1593,
      "ane": 1594,
      "115": 1595,
      "fract": 1596,
      "tric": 1597,
      "mot": 1598,
      "nea": 1599,
      "fracture": 1600,
      "logical": 1601,
      "ccus": 1602,
      "ardial": 1603,
      "apnea": 1604,
      "mdi": 1605,
      "hos": 1606,
      "motor": 1607,
      "deficiency": 1608,
      "extr": 1609,
      "opa": 1610,
      "128": 1611,
      "men": 1612,
      "alin": 1613,
      "mass": 1614,
      "sing": 1615,
      "torsemide": 1616,
      "remia": 1617,
      "igr": 1618,
      "migr": 1619,
      "abuse": 1620,
      "asteride": 1621,
      "utic": 1622,
      "therape": 1623,
      "therapeutic": 1624,
      "immun": 1625,
      "complicated": 1626,
      "valpro": 1627,
      "maa": 1628,
      "finasteride": 1629,
      "valve": 1630,
      "maalox": 1631,
      "pneumon": 1632,
      "implant": 1633,
      "single": 1634,
      "ms": 1635,
      "pancre": 1636,
      "hepatic": 1637,
      "angi": 1638,
      "aban": 1639,
      "ptom": 1640,
      "mptom": 1641,
      "pass": 1642,
      "pher": 1643,
      "peripher": 1644,
      "peripheral": 1645,
      "conazole": 1646,
      "uncomplicated": 1647,
      "aseptic": 1648,
      "regular": 1649,
      "rene": 1650,
      "ischem": 1651,
      "bypass": 1652,
      "fluconazole": 1653,
      "neuropathy": 1654,
      "116": 1655,
      "topenia": 1656,
      "index": 1657,
      "methylprednisolone": 1658,
      "ceph": 1659,
      "metfor": 1660,
      "metformin": 1661,
      "myco": 1662,
      "bar": 1663,
      "stem": 1664,
      "glucoph": 1665,
      "glucophage": 1666,
      "pedi": 1667,
      "pediatric": 1668,
      "code": 1669,
      "dom": 1670,
      "codeine": 1671,
      "vi": 1672,
      "ischemic": 1673,
      "cir": 1674,
      "nia": 1675,
      "epilepsy": 1676,
      "norep": 1677,
      "norepinephrine": 1678,
      "kast": 1679,
      "lukast": 1680,
      "dal": 1681,
      "fall": 1682,
      "ight": 1683,
      "monte": 1684,
      "montelukast": 1685,
      "121": 1686,
      "pedal": 1687,
      "127": 1688,
      "tablet": 1689,
      "del": 1690,
      "apy": 1691,
      "esophagitis": 1692,
      "117": 1693,
      "partum": 1694,
      "phenyt": 1695,
      "phenytoin": 1696,
      "mo": 1697,
      "hydroc": 1698,
      "hr": 1699,
      "dig": 1700,
      "foot": 1701,
      "right": 1702,
      "oxin": 1703,
      "118": 1704,
      "digoxin": 1705,
      "intract": 1706,
      "intractable": 1707,
      "5g": 1708,
      "avir": 1709,
      "osin": 1710,
      "325mg": 1711,
      "lamotr": 1712,
      "lamotrig": 1713,
      "lamotrigine": 1714,
      "147": 1715,
      "chloraseptic": 1716,
      "caine": 1717,
      "ampic": 1718,
      "ampicillin": 1719,
      "mycophenol": 1720,
      "mycophenolate": 1721,
      "ist": 1722,
      "myoc": 1723,
      "mod": 1724,
      "126": 1725,
      "ari": 1726,
      "teri": 1727,
      "pure": 1728,
      "neuro": 1729,
      "dys": 1730,
      "160": 1731,
      "cess": 1732,
      "myocardial": 1733,
      "05": 1734,
      "oid": 1735,
      "cyclo": 1736,
      "tim": 1737,
      "timolol": 1738,
      "ft": 1739,
      "ptyl": 1740,
      "ptyline": 1741,
      "left": 1742,
      "umatic": 1743,
      "ofetil": 1744,
      "male": 1745,
      "fate": 1746,
      "ylate": 1747,
      "line": 1748,
      "peridone": 1749,
      "odt": 1750,
      "prote": 1751,
      "ax": 1752,
      "joint": 1753,
      "maj": 1754,
      "major": 1755,
      "abdom": 1756,
      "abdominal": 1757,
      "otherapy": 1758,
      "leu": 1759,
      "region": 1760,
      "calcitr": 1761,
      "calcitriol": 1762,
      "cholestero": 1763,
      "suc": 1764,
      "antepartum": 1765,
      "lemia": 1766,
      "hypercholestero": 1767,
      "hypercholesterolemia": 1768,
      "119": 1769,
      "omycin": 1770,
      "lum": 1771,
      "transport": 1772,
      "clonidine": 1773,
      "pneumonia": 1774,
      "bus": 1775,
      "family": 1776,
      "azosin": 1777,
      "enema": 1778,
      "maleate": 1779,
      "122": 1780,
      "methad": 1781,
      "methadone": 1782,
      "system": 1783,
      "rail": 1784,
      "ris": 1785,
      "railway": 1786,
      "pregab": 1787,
      "pregabalin": 1788,
      "ality": 1789,
      "molality": 1790,
      "drugs": 1791,
      "syst": 1792,
      "ina": 1793,
      "symptom": 1794,
      "ery": 1795,
      "midazolam": 1796,
      "protein": 1797,
      "prostate": 1798,
      "4000": 1799,
      "idi": 1800,
      "sucral": 1801,
      "sucralfate": 1802,
      "systolic": 1803,
      "abs": 1804,
      "sartan": 1805,
      "risperidone": 1806,
      "mofetil": 1807,
      "skin": 1808,
      "oplasty": 1809,
      "angioplasty": 1810,
      "mu": 1811,
      "sp": 1812,
      "1200": 1813,
      "organism": 1814,
      "148": 1815,
      "ies": 1816,
      "tre": 1817,
      "fen": 1818,
      "side": 1819,
      "124": 1820,
      "123": 1821,
      "presence": 1822,
      "valsartan": 1823,
      "be": 1824,
      "cathe": 1825,
      "lung": 1826,
      "phyt": 1827,
      "oxal": 1828,
      "ipine": 1829,
      "seve": 1830,
      "dri": 1831,
      "odrine": 1832,
      "midodrine": 1833,
      "ained": 1834,
      "itracin": 1835,
      "bacitracin": 1836,
      "bre": 1837,
      "ione": 1838,
      "chemotherapy": 1839,
      "intestinal": 1840,
      "driver": 1841,
      "sites": 1842,
      "sust": 1843,
      "sustained": 1844,
      "oarding": 1845,
      "boarding": 1846,
      "alight": 1847,
      "alighting": 1848,
      "gener": 1849,
      "1250": 1850,
      "ual": 1851,
      "angina": 1852,
      "pathy": 1853,
      "hypo": 1854,
      "chest": 1855,
      "onad": 1856,
      "abscess": 1857,
      "air": 1858,
      "old": 1859,
      "divalpro": 1860,
      "pector": 1861,
      "divalproex": 1862,
      "pectoris": 1863,
      "phytonad": 1864,
      "phytonadione": 1865,
      "oxalate": 1866,
      "prometh": 1867,
      "promethazine": 1868,
      "att": 1869,
      "sore": 1870,
      "amp": 1871,
      "respir": 1872,
      "merop": 1873,
      "meropenem": 1874,
      "180": 1875,
      "thrombocy": 1876,
      "escitalopram": 1877,
      "clin": 1878,
      "imazole": 1879,
      "atropine": 1880,
      "mission": 1881,
      "alte": 1882,
      "ente": 1883,
      "benzap": 1884,
      "cyclobenzap": 1885,
      "cyclobenzaprine": 1886,
      "hydrobromide": 1887,
      "ysis": 1888,
      "rhosis": 1889,
      "cirrhosis": 1890,
      "vis": 1891,
      "remission": 1892,
      "vul": 1893,
      "external": 1894,
      "aneous": 1895,
      "const": 1896,
      "anus": 1897,
      "oarth": 1898,
      "caphos": 1899,
      "caphosol": 1900,
      "hypotension": 1901,
      "osteoarth": 1902,
      "devic": 1903,
      "adder": 1904,
      "bron": 1905,
      "bronch": 1906,
      "respiratory": 1907,
      "orphan": 1908,
      "fe": 1909,
      "ipation": 1910,
      "constipation": 1911,
      "dextrometh": 1912,
      "dextromethorphan": 1913,
      "occ": 1914,
      "cla": 1915,
      "kne": 1916,
      "specific": 1917,
      "atova": 1918,
      "quone": 1919,
      "atovaquone": 1920,
      "lopathy": 1921,
      "medic": 1922,
      "viral": 1923,
      "local": 1924,
      "ga": 1925,
      "absence": 1926,
      "catheter": 1927,
      "intestine": 1928,
      "extrem": 1929,
      "ities": 1930,
      "aort": 1931,
      "bone": 1932,
      "149": 1933,
      "mes": 1934,
      "alpr": 1935,
      "alprazolam": 1936,
      "coli": 1937,
      "jet": 1938,
      "urojet": 1939,
      "cept": 1940,
      "deficit": 1941,
      "1c": 1942,
      "a1c": 1943,
      "arth": 1944,
      "dam": 1945,
      "tus": 1946,
      "mye": 1947,
      "thol": 1948,
      "menthol": 1949,
      "apix": 1950,
      "apixaban": 1951,
      "bet": 1952,
      "osmolality": 1953,
      "hyponat": 1954,
      "hyponatremia": 1955,
      "dor": 1956,
      "vy": 1957,
      "sub": 1958,
      "ves": 1959,
      "nonspecific": 1960,
      "utaneous": 1961,
      "tu": 1962,
      "losis": 1963,
      "severe": 1964,
      "sulb": 1965,
      "paroxetine": 1966,
      "sulbactam": 1967,
      "migraine": 1968,
      "sed": 1969,
      "rotic": 1970,
      "50ml": 1971,
      "zil": 1972,
      "iron": 1973,
      "nif": 1974,
      "alcoholic": 1975,
      "nifed": 1976,
      "oil": 1977,
      "triam": 1978,
      "nifedipine": 1979,
      "240": 1980,
      "metab": 1981,
      "dibu": 1982,
      "dibucaine": 1983,
      "semia": 1984,
      "breast": 1985,
      "und": 1986,
      "comple": 1987,
      "thrombocytopenia": 1988,
      "ocoronary": 1989,
      "aortocoronary": 1990,
      "xin": 1991,
      "acer": 1992,
      "atherosclerotic": 1993,
      "colo": 1994,
      "altepl": 1995,
      "alteplase": 1996,
      "lim": 1997,
      "gout": 1998,
      "ivered": 1999,
      "delivered": 2000,
      "wo": 2001,
      "oma": 2002,
      "polymy": 2003,
      "accidents": 2004,
      "ention": 2005,
      "back": 2006,
      "abine": 2007,
      "transient": 2008,
      "clotr": 2009,
      "clotrimazole": 2010,
      "coccus": 2011,
      "polyneuropathy": 2012,
      "amoxic": 2013,
      "amoxicillin": 2014,
      "ins": 2015,
      "azepine": 2016,
      "indirect": 2017,
      "rhe": 2018,
      "leuk": 2019,
      "meperid": 2020,
      "meperidine": 2021,
      "enosis": 2022,
      "stenosis": 2023,
      "present": 2024,
      "cell": 2025,
      "fex": 2026,
      "fexof": 2027,
      "fexofen": 2028,
      "fexofenadine": 2029,
      "general": 2030,
      "procedures": 2031,
      "limb": 2032,
      "cutaneous": 2033,
      "heavy": 2034,
      "cat": 2035,
      "220": 2036,
      "lofen": 2037,
      "generalized": 2038,
      "localized": 2039,
      "caff": 2040,
      "adi": 2041,
      "litis": 2042,
      "nod": 2043,
      "presenting": 2044,
      "onide": 2045,
      "omega": 2046,
      "piro": 2047,
      "itri": 2048,
      "amitri": 2049,
      "amitriptyline": 2050,
      "neurological": 2051,
      "butalb": 2052,
      "butalbital": 2053,
      "cellu": 2054,
      "alysis": 2055,
      "nat": 2056,
      "idual": 2057,
      "residual": 2058,
      "ylcy": 2059,
      "cellulitis": 2060,
      "sup": 2061,
      "injur": 2062,
      "tia": 2063,
      "1600": 2064,
      "occurre": 2065,
      "occurrence": 2066,
      "steine": 2067,
      "device": 2068,
      "acetylcy": 2069,
      "mupiro": 2070,
      "acetylcysteine": 2071,
      "mupirocin": 2072,
      "deficits": 2073,
      "olone": 2074,
      "hydrocodone": 2075,
      "knee": 2076,
      "175": 2077,
      "attack": 2078,
      "osteop": 2079,
      "coll": 2080,
      "lumin": 2081,
      "percutaneous": 2082,
      "translumin": 2083,
      "transluminal": 2084,
      "orosis": 2085,
      "osteoporosis": 2086,
      "fis": 2087,
      "bmi": 2088,
      "zolamide": 2089,
      "upper": 2090,
      "vessel": 2091,
      "dehydr": 2092,
      "gang": 2093,
      "piprazole": 2094,
      "dehydration": 2095,
      "aripiprazole": 2096,
      "bladder": 2097,
      "lium": 2098,
      "yllium": 2099,
      "psyllium": 2100,
      "clear": 2101,
      "clindam": 2102,
      "clindamycin": 2103,
      "internal": 2104,
      "bri": 2105,
      "tet": 2106,
      "tetanus": 2107,
      "clearance": 2108,
      "baclofen": 2109,
      "diph": 2110,
      "ost": 2111,
      "bi": 2112,
      "placed": 2113,
      "fish": 2114,
      "tox": 2115,
      "ts": 2116,
      "dorzolamide": 2117,
      "gangrene": 2118,
      "derm": 2119,
      "whether": 2120,
      "complex": 2121,
      "affect": 2122,
      "iting": 2123,
      "tuss": 2124,
      "pertuss": 2125,
      "polymyxin": 2126,
      "vom": 2127,
      "ache": 2128,
      "nause": 2129,
      "nausea": 2130,
      "brimon": 2131,
      "brimonidine": 2132,
      "ju": 2133,
      "amate": 2134,
      "venile": 2135,
      "juvenile": 2136,
      "inc": 2137,
      "acellu": 2138,
      "pede": 2139,
      "strian": 2140,
      "diphtox": 2141,
      "acellular": 2142,
      "pedestrian": 2143,
      "pressure": 2144,
      "riv": 2145,
      "erate": 2146,
      "acidosis": 2147,
      "dema": 2148,
      "d5ns": 2149,
      "done": 2150,
      "cyst": 2151,
      "pezil": 2152,
      "donepezil": 2153,
      "adacel": 2154,
      "toxic": 2155,
      "large": 2156,
      "152": 2157,
      "sit": 2158,
      "osteoarthrosis": 2159,
      "agic": 2160,
      "hemorrhagic": 2161,
      "heal": 2162,
      "lorat": 2163,
      "loratadine": 2164,
      "fle": 2165,
      "iramate": 2166,
      "topiramate": 2167,
      "amax": 2168,
      "topamax": 2169,
      "icillin": 2170,
      "suff": 2171,
      "fil": 2172,
      "imal": 2173,
      "otics": 2174,
      "moderate": 2175,
      "loss": 2176,
      "insuff": 2177,
      "insuffic": 2178,
      "ycardi": 2179,
      "ycardia": 2180,
      "gia": 2181,
      "151": 2182,
      "insufficiency": 2183,
      "tru": 2184,
      "ten": 2185,
      "preser": 2186,
      "barium": 2187,
      "traumatic": 2188,
      "cephal": 2189,
      "acetonide": 2190,
      "idopa": 2191,
      "carbidopa": 2192,
      "aphy": 2193,
      "dap": 2194,
      "syr": 2195,
      "cinolone": 2196,
      "triamcinolone": 2197,
      "153": 2198,
      "outside": 2199,
      "levod": 2200,
      "levodopa": 2201,
      "arteri": 2202,
      "lay": 2203,
      "multip": 2204,
      "animal": 2205,
      "pancreatitis": 2206,
      "multiple": 2207,
      "ak": 2208,
      "perit": 2209,
      "gro": 2210,
      "readi": 2211,
      "dist": 2212,
      "tub": 2213,
      "procedural": 2214,
      "mental": 2215,
      "preserv": 2216,
      "level": 2217,
      "aw": 2218,
      "postprocedural": 2219,
      "162": 2220,
      "delay": 2221,
      "replaced": 2222,
      "airway": 2223,
      "ept": 2224,
      "staphy": 2225,
      "staphylo": 2226,
      "hor": 2227,
      "haz": 2228,
      "pas": 2229,
      "sin": 2230,
      "add": 2231,
      "cadd": 2232,
      "154": 2233,
      "delayed": 2234,
      "etin": 2235,
      "pant": 2236,
      "dialysis": 2237,
      "450": 2238,
      "rt": 2239,
      "radi": 2240,
      "wel": 2241,
      "edema": 2242,
      "staphylococcus": 2243,
      "da": 2244,
      "opat": 2245,
      "sty": 2246,
      "posthemorrhagic": 2247,
      "acrile": 2248,
      "polacrile": 2249,
      "polacrilex": 2250,
      "yn": 2251,
      "rhea": 2252,
      "vulan": 2253,
      "clavulan": 2254,
      "ger": 2255,
      "elev": 2256,
      "io": 2257,
      "gli": 2258,
      "ofo": 2259,
      "ycline": 2260,
      "neomycin": 2261,
      "head": 2262,
      "ria": 2263,
      "tenofo": 2264,
      "lution": 2265,
      "related": 2266,
      "senger": 2267,
      "passenger": 2268,
      "155": 2269,
      "solution": 2270,
      "ble": 2271,
      "alfa": 2272,
      "idal": 2273,
      "creon": 2274,
      "aut": 2275,
      "pyr": 2276,
      "arrhea": 2277,
      "diarrhea": 2278,
      "cous": 2279,
      "1300": 2280,
      "cepha": 2281,
      "asis": 2282,
      "lori": 2283,
      "closed": 2284,
      "zan": 2285,
      "tenofovir": 2286,
      "tizan": 2287,
      "tizanidine": 2288,
      "det": 2289,
      "ving": 2290,
      "din": 2291,
      "viscous": 2292,
      "epinephrine": 2293,
      "cerv": 2294,
      "glyco": 2295,
      "train": 2296,
      "11000": 2297,
      "dexme": 2298,
      "omidine": 2299,
      "detomidine": 2300,
      "dexmedetomidine": 2301,
      "hyposmolality": 2302,
      "symptoms": 2303,
      "fluo": 2304,
      "except": 2305,
      "clavulanic": 2306,
      "idone": 2307,
      "cardiomy": 2308,
      "health": 2309,
      "156": 2310,
      "troc": 2311,
      "sco": 2312,
      "extremities": 2313,
      "we": 2314,
      "tach": 2315,
      "urb": 2316,
      "disturb": 2317,
      "oxybut": 2318,
      "ynin": 2319,
      "oxybutynin": 2320,
      "exin": 2321,
      "cephalexin": 2322,
      "glycopyr": 2323,
      "glycopyrrol": 2324,
      "glycopyrrolate": 2325,
      "kle": 2326,
      "aor": 2327,
      "aortic": 2328,
      "open": 2329,
      "inhalation": 2330,
      "por": 2331,
      "nodes": 2332,
      "hazar": 2333,
      "unable": 2334,
      "asia": 2335,
      "hazards": 2336,
      "hypertrop": 2337,
      "hypertrophy": 2338,
      "apse": 2339,
      "epo": 2340,
      "epoetin": 2341,
      "ococcus": 2342,
      "captop": 2343,
      "fever": 2344,
      "med": 2345,
      "strept": 2346,
      "tachycardia": 2347,
      "late": 2348,
      "piz": 2349,
      "encepha": 2350,
      "lospor": 2351,
      "nu": 2352,
      "crrt": 2353,
      "luts": 2354,
      "glipiz": 2355,
      "glipizide": 2356,
      "tamine": 2357,
      "ress": 2358,
      "ez": 2359,
      "157": 2360,
      "seps": 2361,
      "sepsis": 2362,
      "cul": 2363,
      "ids": 2364,
      "bation": 2365,
      "polar": 2366,
      "exacer": 2367,
      "exacerbation": 2368,
      "bipolar": 2369,
      "ocin": 2370,
      "trition": 2371,
      "nutrition": 2372,
      "hypox": 2373,
      "arteries": 2374,
      "158": 2375,
      "bronchus": 2376,
      "encephalopathy": 2377,
      "eding": 2378,
      "sinus": 2379,
      "ness": 2380,
      "bleeding": 2381,
      "throm": 2382,
      "itral": 2383,
      "ison": 2384,
      "oden": 2385,
      "mitral": 2386,
      "ibe": 2387,
      "etim": 2388,
      "ezetim": 2389,
      "ezetimibe": 2390,
      "opress": 2391,
      "static": 2392,
      "cic": 2393,
      "dinitrate": 2394,
      "waf": 2395,
      "opressin": 2396,
      "ias": 2397,
      "ites": 2398,
      "ciclo": 2399,
      "peritone": 2400,
      "occur": 2401,
      "occurring": 2402,
      "ascites": 2403,
      "from": 2404,
      "pyri": 2405,
      "ciclovir": 2406,
      "dolol": 2407,
      "suic": 2408,
      "calori": 2409,
      "159": 2410,
      "streptococcus": 2411,
      "metabolism": 2412,
      "usion": 2413,
      "colon": 2414,
      "erythrom": 2415,
      "erythromycin": 2416,
      "lactic": 2417,
      "nadolol": 2418,
      "ceti": 2419,
      "cyclospor": 2420,
      "cyclosporine": 2421,
      "vomiting": 2422,
      "cetiri": 2423,
      "inflam": 2424,
      "inflamm": 2425,
      "cetirizine": 2426,
      "ject": 2427,
      "unction": 2428,
      "object": 2429,
      "ganciclovir": 2430,
      "pran": 2431,
      "hydroxide": 2432,
      "propran": 2433,
      "propranolol": 2434,
      "myelo": 2435,
      "captopril": 2436,
      "immunos": 2437,
      "uppressive": 2438,
      "immunosuppressive": 2439,
      "opathy": 2440,
      "igm": 2441,
      "upt": 2442,
      "spinal": 2443,
      "duct": 2444,
      "170": 2445,
      "vin": 2446,
      "pac": 2447,
      "indu": 2448,
      "dent": 2449,
      "otide": 2450,
      "161": 2451,
      "emtric": 2452,
      "octre": 2453,
      "octreotide": 2454,
      "dental": 2455,
      "225": 2456,
      "emtricit": 2457,
      "opi": 2458,
      "coagulation": 2459,
      "udine": 2460,
      "induced": 2461,
      "pirone": 2462,
      "buspirone": 2463,
      "mesylate": 2464,
      "complicating": 2465,
      "medical": 2466,
      "hip": 2467,
      "inopathy": 2468,
      "retinopathy": 2469,
      "iance": 2470,
      "doxyc": 2471,
      "doxycycline": 2472,
      "icin": 2473,
      "tis": 2474,
      "hycl": 2475,
      "hyclate": 2476,
      "compliance": 2477,
      "noncompliance": 2478,
      "upant": 2479,
      "occupant": 2480,
      "amil": 2481,
      "havi": 2482,
      "behavi": 2483,
      "bile": 2484,
      "disturbance": 2485,
      "verap": 2486,
      "stit": 2487,
      "polamine": 2488,
      "scopolamine": 2489,
      "septic": 2490,
      "rox": 2491,
      "ho": 2492,
      "163": 2493,
      "tissu": 2494,
      "mac": 2495,
      "emtricitabine": 2496,
      "8000": 2497,
      "lith": 2498,
      "ulus": 2499,
      "verapamil": 2500,
      "verte": 2501,
      "operative": 2502,
      "hernia": 2503,
      "165": 2504,
      "osus": 2505,
      "retention": 2506,
      "cos": 2507,
      "164": 2508,
      "cont": 2509,
      "ainosus": 2510,
      "migrainosus": 2511,
      "zinc": 2512,
      "astat": 2513,
      "cepastat": 2514,
      "doxazosin": 2515,
      "kal": 2516,
      "pos": 2517,
      "uous": 2518,
      "ution": 2519,
      "hydrocerin": 2520,
      "chic": 2521,
      "stitution": 2522,
      "calculus": 2523,
      "colchic": 2524,
      "colchicine": 2525,
      "institution": 2526,
      "april": 2527,
      "rheumatic": 2528,
      "situ": 2529,
      "aure": 2530,
      "methicillin": 2531,
      "aureus": 2532,
      "inflammatory": 2533,
      "lusion": 2534,
      "fluoride": 2535,
      "colitis": 2536,
      "fleet": 2537,
      "166": 2538,
      "ie": 2539,
      "fol": 2540,
      "preg": 2541,
      "ceftaz": 2542,
      "idime": 2543,
      "ceftazidime": 2544,
      "azone": 2545,
      "dif": 2546,
      "br": 2547,
      "168": 2548,
      "applic": 2549,
      "enteritis": 2550,
      "digestive": 2551,
      "omnia": 2552,
      "continuous": 2553,
      "iga": 2554,
      "insomnia": 2555,
      "tomycin": 2556,
      "daptomycin": 2557,
      "postoperative": 2558,
      "pregnan": 2559,
      "tuber": 2560,
      "pregnancy": 2561,
      "collapse": 2562,
      "nonmotor": 2563,
      "morb": 2564,
      "morbid": 2565,
      "167": 2566,
      "steroids": 2567,
      "diver": 2568,
      "divertic": 2569,
      "malnutrition": 2570,
      "applicable": 2571,
      "dine": 2572,
      "suicidal": 2573,
      "glydo": 2574,
      "effusion": 2575,
      "gastr": 2576,
      "portal": 2577,
      "genic": 2578,
      "kalemia": 2579,
      "romb": 2580,
      "rat": 2581,
      "nap": 2582,
      "day": 2583,
      "tain": 2584,
      "antith": 2585,
      "ventric": 2586,
      "two": 2587,
      "pancreas": 2588,
      "antithromb": 2589,
      "169": 2590,
      "ratio": 2591,
      "acaine": 2592,
      "ventricular": 2593,
      "antiplatelet": 2594,
      "injury": 2595,
      "oxaban": 2596,
      "ivacaine": 2597,
      "ulosis": 2598,
      "self": 2599,
      "rivar": 2600,
      "achie": 2601,
      "rivaroxaban": 2602,
      "having": 2603,
      "achieved": 2604,
      "grast": 2605,
      "prost": 2606,
      "filgrast": 2607,
      "filgrastim": 2608,
      "171": 2609,
      "aqu": 2610,
      "pital": 2611,
      "trac": 2612,
      "ization": 2613,
      "aker": 2614,
      "172": 2615,
      "doxine": 2616,
      "pyridoxine": 2617,
      "ung": 2618,
      "tropine": 2619,
      "benztropine": 2620,
      "dement": 2621,
      "dementia": 2622,
      "hospital": 2623,
      "emaker": 2624,
      "valganciclovir": 2625,
      "well": 2626,
      "follow": 2627,
      "vas": 2628,
      "pacemaker": 2629,
      "173": 2630,
      "cystitis": 2631,
      "lamiv": 2632,
      "uria": 2633,
      "lamivudine": 2634,
      "leukemia": 2635,
      "three": 2636,
      "withdr": 2637,
      "withdraw": 2638,
      "withdrawal": 2639,
      "occlusion": 2640,
      "inter": 2641,
      "dermoplast": 2642,
      "d5lr": 2643,
      "hypop": 2644,
      "2500": 2645,
      "stom": 2646,
      "174": 2647,
      "ime": 2648,
      "dwell": 2649,
      "plasia": 2650,
      "less": 2651,
      "following": 2652,
      "fix": 2653,
      "cervical": 2654,
      "176": 2655,
      "daily": 2656,
      "asol": 2657,
      "lip": 2658,
      "betasol": 2659,
      "medication": 2660,
      "eled": 2661,
      "wheeled": 2662,
      "clobetasol": 2663,
      "deliver": 2664,
      "delivery": 2665,
      "ysmal": 2666,
      "parox": 2667,
      "paroxysmal": 2668,
      "chia": 2669,
      "fem": 2670,
      "875": 2671,
      "carri": 2672,
      "odefic": 2673,
      "immunodefic": 2674,
      "sch": 2675,
      "station": 2676,
      "lithium": 2677,
      "immunodeficiency": 2678,
      "stationary": 2679,
      "resus": 2680,
      "citate": 2681,
      "resuscitate": 2682,
      "opioid": 2683,
      "alc": 2684,
      "inv": 2685,
      "ciga": 2686,
      "rettes": 2687,
      "cigarettes": 2688,
      "calorie": 2689,
      "177": 2690,
      "rectal": 2691,
      "psych": 2692,
      "oxyt": 2693,
      "fixed": 2694,
      "rhythmias": 2695,
      "oxytocin": 2696,
      "patho": 2697,
      "pel": 2698,
      "178": 2699,
      "bacteri": 2700,
      "nortri": 2701,
      "nortriptyline": 2702,
      "oxcarb": 2703,
      "hetic": 2704,
      "06": 2705,
      "oxcarbazepine": 2706,
      "roqu": 2707,
      "179": 2708,
      "resist": 2709,
      "lumbar": 2710,
      "elevation": 2711,
      "algia": 2712,
      "fludro": 2713,
      "fludrocortisone": 2714,
      "ungin": 2715,
      "schiz": 2716,
      "atment": 2717,
      "treatment": 2718,
      "infect": 2719,
      "rest": 2720,
      "dysrhythmias": 2721,
      "igmine": 2722,
      "gram": 2723,
      "solid": 2724,
      "acalc": 2725,
      "cinacalc": 2726,
      "cinacalcet": 2727,
      "bup": 2728,
      "cheri": 2729,
      "escheri": 2730,
      "escherichia": 2731,
      "ophthal": 2732,
      "rus": 2733,
      "bupivacaine": 2734,
      "chloroqu": 2735,
      "chloroquine": 2736,
      "aphor": 2737,
      "aquaphor": 2738,
      "accidental": 2739,
      "anod": 2740,
      "extranod": 2741,
      "extranodal": 2742,
      "obtain": 2743,
      "190": 2744,
      "roxen": 2745,
      "naproxen": 2746,
      "vasopressin": 2747,
      "resis": 2748,
      "obarb": 2749,
      "hydroxychloroquine": 2750,
      "181": 2751,
      "affective": 2752,
      "obarbital": 2753,
      "lau": 2754,
      "laucoma": 2755,
      "cen": 2756,
      "183": 2757,
      "duoden": 2758,
      "entam": 2759,
      "radiation": 2760,
      "ophthalmic": 2761,
      "glaucoma": 2762,
      "aresis": 2763,
      "hiv": 2764,
      "brovascular": 2765,
      "cerebrovascular": 2766,
      "185": 2767,
      "partial": 2768,
      "stress": 2769,
      "idate": 2770,
      "phenobarbital": 2771,
      "182": 2772,
      "ges": 2773,
      "levels": 2774,
      "ping": 2775,
      "ardipine": 2776,
      "nicardipine": 2777,
      "iii": 2778,
      "function": 2779,
      "yri": 2780,
      "ateral": 2781,
      "genital": 2782,
      "potassemia": 2783,
      "hyperpotassemia": 2784,
      "184": 2785,
      "mus": 2786,
      "surg": 2787,
      "186": 2788,
      "188": 2789,
      "ock": 2790,
      "itary": 2791,
      "sis": 2792,
      "187": 2793,
      "mesal": 2794,
      "nec": 2795,
      "bor": 2796,
      "hemorrhoid": 2797,
      "def": 2798,
      "varic": 2799,
      "assemia": 2800,
      "surgery": 2801,
      "tegr": 2802,
      "cture": 2803,
      "mesalamine": 2804,
      "rupt": 2805,
      "wound": 2806,
      "chine": 2807,
      "machine": 2808,
      "uth": 2809,
      "mouth": 2810,
      "lycemia": 2811,
      "terazosin": 2812,
      "mother": 2813,
      "myelopathy": 2814,
      "forms": 2815,
      "sonide": 2816,
      "examin": 2817,
      "250ml": 2818,
      "polysty": 2819,
      "polystyrene": 2820,
      "sulfonate": 2821,
      "pleural": 2822,
      "desonide": 2823,
      "189": 2824,
      "cholecystitis": 2825,
      "examination": 2826,
      "tegravir": 2827,
      "hies": 2828,
      "behavioral": 2829,
      "192": 2830,
      "org": 2831,
      "organs": 2832,
      "stomy": 2833,
      "ivir": 2834,
      "vitamins": 2835,
      "antithrombotics": 2836,
      "antiplatelets": 2837,
      "afungin": 2838,
      "193": 2839,
      "micafungin": 2840,
      "194": 2841,
      "3000": 2842,
      "oxylate": 2843,
      "diphenoxylate": 2844,
      "leukocy": 2845,
      "191": 2846,
      "09": 2847,
      "ler": 2848,
      "lymphoma": 2849,
      "stomach": 2850,
      "gentam": 2851,
      "gentamicin": 2852,
      "ted": 2853,
      "yclomine": 2854,
      "dicyclomine": 2855,
      "196": 2856,
      "ada": 2857,
      "ankle": 2858,
      "195": 2859,
      "vada": 2860,
      "truvada": 2861,
      "alapril": 2862,
      "enalapril": 2863,
      "pancy": 2864,
      "pancytopenia": 2865,
      "varices": 2866,
      "198": 2867,
      "vo": 2868,
      "methylphen": 2869,
      "methylphenidate": 2870,
      "arthritis": 2871,
      "dron": 2872,
      "cas": 2873,
      "hypoxemia": 2874,
      "sions": 2875,
      "197": 2876,
      "spond": 2877,
      "dyst": 2878,
      "olazone": 2879,
      "metolazone": 2880,
      "headache": 2881,
      "ideation": 2882,
      "block": 2883,
      "orth": 2884,
      "set": 2885,
      "ents": 2886,
      "prism": 2887,
      "intra": 2888,
      "asate": 2889,
      "prismasate": 2890,
      "203": 2891,
      "hymic": 2892,
      "pse": 2893,
      "ortho": 2894,
      "opathies": 2895,
      "epileptic": 2896,
      "irradiation": 2897,
      "uterus": 2898,
      "amphe": 2899,
      "199": 2900,
      "360": 2901,
      "oxazepam": 2902,
      "arthropathy": 2903,
      "bacterial": 2904,
      "brain": 2905,
      "dysthymic": 2906,
      "gastrointestinal": 2907,
      "amphetamine": 2908,
      "xil": 2909,
      "stck": 2910,
      "anast": 2911,
      "omosis": 2912,
      "anastomosis": 2913,
      "carbam": 2914,
      "entero": 2915,
      "nephropathy": 2916,
      "carbamazepine": 2917,
      "320": 2918,
      "fos": 2919,
      "igh": 2920,
      "necrosis": 2921,
      "perfor": 2922,
      "bot": 2923,
      "esophagus": 2924,
      "perforation": 2925,
      "phys": 2926,
      "vole": 2927,
      "hypovole": 2928,
      "ner": 2929,
      "otassemia": 2930,
      "hypopotassemia": 2931,
      "08": 2932,
      "202": 2933,
      "201": 2934,
      "extremity": 2935,
      "1334": 2936,
      "210": 2937,
      "204": 2938,
      "modified": 2939,
      "home": 2940,
      "utation": 2941,
      "205": 2942,
      "atro": 2943,
      "neoral": 2944,
      "ground": 2945,
      "ubic": 2946,
      "hypovolemia": 2947,
      "spondy": 2948,
      "ubicin": 2949,
      "pal": 2950,
      "poison": 2951,
      "poisoning": 2952,
      "background": 2953,
      "amputation": 2954,
      "abin": 2955,
      "aller": 2956,
      "dronabin": 2957,
      "dronabinol": 2958,
      "lacos": 2959,
      "lacosamide": 2960,
      "ious": 2961,
      "affecting": 2962,
      "ined": 2963,
      "206": 2964,
      "oside": 2965,
      "ces": 2966,
      "tosis": 2967,
      "ta": 2968,
      "cardiomyopathies": 2969,
      "207": 2970,
      "etop": 2971,
      "etoposide": 2972,
      "mec": 2973,
      "metabolic": 2974,
      "mecli": 2975,
      "meclizine": 2976,
      "onavir": 2977,
      "ritonavir": 2978,
      "nephritis": 2979,
      "chol": 2980,
      "208": 2981,
      "yel": 2982,
      "209": 2983,
      "324": 2984,
      "cand": 2985,
      "rate": 2986,
      "212": 2987,
      "pod": 2988,
      "cefpod": 2989,
      "diverticulosis": 2990,
      "cefpodox": 2991,
      "667": 2992,
      "natal": 2993,
      "cefpodoxime": 2994,
      "25g": 2995,
      "xetil": 2996,
      "proxetil": 2997,
      "gastrop": 2998,
      "gastroparesis": 2999,
      "injuring": 3000,
      "500ml": 3001,
      "oate": 3002,
      "smal": 3003,
      "small": 3004,
      "contine": 3005,
      "orubicin": 3006,
      "incontine": 3007,
      "211": 3008,
      "oly": 3009,
      "supp": 3010,
      "proto": 3011,
      "legia": 3012,
      "gic": 3013,
      "protocol": 3014,
      "hemip": 3015,
      "2400": 3016,
      "hyperg": 3017,
      "aminase": 3018,
      "ldh": 3019,
      "transaminase": 3020,
      "prenatal": 3021,
      "recurrent": 3022,
      "casset": 3023,
      "cassette": 3024,
      "incontinence": 3025,
      "septicemia": 3026,
      "ram": 3027,
      "scal": 3028,
      "azoline": 3029,
      "resistant": 3030,
      "215": 3031,
      "214": 3032,
      "213": 3033,
      "bo": 3034,
      "myalgia": 3035,
      "neck": 3036,
      "idential": 3037,
      "residential": 3038,
      "shock": 3039,
      "vein": 3040,
      "group": 3041,
      "sequ": 3042,
      "hyperkalemia": 3043,
      "hydrochloride": 3044,
      "217": 3045,
      "224": 3046,
      "aneur": 3047,
      "aneurys": 3048,
      "aneurysm": 3049,
      "thy": 3050,
      "elitis": 3051,
      "216": 3052,
      "infectious": 3053,
      "chan": 3054,
      "zolid": 3055,
      "07": 3056,
      "gastritis": 3057,
      "linezolid": 3058,
      "hyperplasia": 3059,
      "neost": 3060,
      "neostigmine": 3061,
      "vor": 3062,
      "vire": 3063,
      "idiopat": 3064,
      "idiopathic": 3065,
      "diffic": 3066,
      "culin": 3067,
      "tuberculin": 3068,
      "fluid": 3069,
      "218": 3070,
      "azop": 3071,
      "budesonide": 3072,
      "ard": 3073,
      "thal": 3074,
      "prostatic": 3075,
      "duodenum": 3076,
      "infections": 3077,
      "cope": 3078,
      "syncope": 3079,
      "sil": 3080,
      "dysph": 3081,
      "over": 3082,
      "025": 3083,
      "rheum": 3084,
      "222": 3085,
      "carrier": 3086,
      "bronchitis": 3087,
      "219": 3088,
      "des": 3089,
      "ale": 3090,
      "221": 3091,
      "mar": 3092,
      "lesion": 3093,
      "invol": 3094,
      "rectum": 3095,
      "iro": 3096,
      "atoid": 3097,
      "rheumatoid": 3098,
      "arm": 3099,
      "spondylosis": 3100,
      "sho": 3101,
      "223": 3102,
      "sci": 3103,
      "finding": 3104,
      "fac": 3105,
      "fc": 3106,
      "motorcycle": 3107,
      "omatic": 3108,
      "pelvic": 3109,
      "vorin": 3110,
      "zon": 3111,
      "isamide": 3112,
      "zonisamide": 3113,
      "nafc": 3114,
      "nafcillin": 3115,
      "pathological": 3116,
      "born": 3117,
      "iniro": 3118,
      "ropiniro": 3119,
      "ropinirole": 3120,
      "osel": 3121,
      "oseltam": 3122,
      "clozapine": 3123,
      "oseltamivir": 3124,
      "480": 3125,
      "agen": 3126,
      "profile": 3127,
      "ulder": 3128,
      "shoulder": 3129,
      "fat": 3130,
      "cardiomyopathy": 3131,
      "yellow": 3132,
      "mem": 3133,
      "doxorubicin": 3134,
      "covorin": 3135,
      "prosthetic": 3136,
      "program": 3137,
      "wafer": 3138,
      "230": 3139,
      "375": 3140,
      "oxymet": 3141,
      "lacer": 3142,
      "laceration": 3143,
      "oxymetazoline": 3144,
      "226": 3145,
      "ipe": 3146,
      "voric": 3147,
      "280": 3148,
      "voriconazole": 3149,
      "peritoneum": 3150,
      "agia": 3151,
      "agents": 3152,
      "circul": 3153,
      "alone": 3154,
      "243": 3155,
      "subst": 3156,
      "ostomy": 3157,
      "peritoneal": 3158,
      "ka": 3159,
      "350": 3160,
      "omas": 3161,
      "leucovorin": 3162,
      "hemat": 3163,
      "leukocytosis": 3164,
      "hematuria": 3165,
      "omyelitis": 3166,
      "pick": 3167,
      "prophy": 3168,
      "truck": 3169,
      "227": 3170,
      "228": 3171,
      "anted": 3172,
      "systemic": 3173,
      "planted": 3174,
      "gall": 3175,
      "chemo": 3176,
      "gallbladder": 3177,
      "excel": 3178,
      "neutrop": 3179,
      "neutropenia": 3180,
      "ritalin": 3181,
      "dysphagia": 3182,
      "pseud": 3183,
      "transplanted": 3184,
      "229": 3185,
      "operations": 3186,
      "232": 3187,
      "tissues": 3188,
      "live": 3189,
      "234": 3190,
      "ey": 3191,
      "betamethasone": 3192,
      "lymphomas": 3193,
      "deg": 3194,
      "degree": 3195,
      "acic": 3196,
      "xole": 3197,
      "pramipe": 3198,
      "pramipexole": 3199,
      "bago": 3200,
      "lumbago": 3201,
      "ances": 3202,
      "cord": 3203,
      "ramine": 3204,
      "cholesty": 3205,
      "cholestyramine": 3206,
      "orthostatic": 3207,
      "prazosin": 3208,
      "ni": 3209,
      "athi": 3210,
      "oprine": 3211,
      "azathi": 3212,
      "azathioprine": 3213,
      "plan": 3214,
      "231": 3215,
      "bra": 3216,
      "load": 3217,
      "defect": 3218,
      "bul": 3219,
      "backache": 3220,
      "ofib": 3221,
      "glybu": 3222,
      "irium": 3223,
      "delirium": 3224,
      "glyburide": 3225,
      "235": 3226,
      "collagen": 3227,
      "yridine": 3228,
      "table": 3229,
      "pen": 3230,
      "233": 3231,
      "bacte": 3232,
      "phenazop": 3233,
      "phenazopyridine": 3234,
      "collagenase": 3235,
      "bilateral": 3236,
      "oconazole": 3237,
      "ketoconazole": 3238,
      "bari": 3239,
      "bariatric": 3240,
      "implan": 3241,
      "implantable": 3242,
      "defibrill": 3243,
      "fenofib": 3244,
      "automatic": 3245,
      "defibrillator": 3246,
      "cocaine": 3247,
      "gastric": 3248,
      "can": 3249,
      "osteomyelitis": 3250,
      "fenofibrate": 3251,
      "trex": 3252,
      "strid": 3253,
      "osteoarthritis": 3254,
      "cis": 3255,
      "236": 3256,
      "circulatory": 3257,
      "quadr": 3258,
      "quadrant": 3259,
      "hype": 3260,
      "again": 3261,
      "against": 3262,
      "bes": 3263,
      "238": 3264,
      "bacteremia": 3265,
      "ump": 3266,
      "fore": 3267,
      "ositis": 3268,
      "ras": 3269,
      "clostrid": 3270,
      "clostridium": 3271,
      "239": 3272,
      "memantine": 3273,
      "hyperglycemia": 3274,
      "nerv": 3275,
      "difficile": 3276,
      "ori": 3277,
      "ule": 3278,
      "ulcerative": 3279,
      "veins": 3280,
      "237": 3281,
      "attention": 3282,
      "elix": 3283,
      "elixir": 3284,
      "thigh": 3285,
      "clinical": 3286,
      "ov": 3287,
      "cyt": 3288,
      "tter": 3289,
      "flutter": 3290,
      "glo": 3291,
      "thyroid": 3292,
      "once": 3293,
      "priming": 3294,
      "cart": 3295,
      "nit": 3296,
      "iatro": 3297,
      "iatrogenic": 3298,
      "comb": 3299,
      "crist": 3300,
      "vincrist": 3301,
      "vincristine": 3302,
      "ilage": 3303,
      "cartilage": 3304,
      "than": 3305,
      "asy": 3306,
      "macular": 3307,
      "tol": 3308,
      "goly": 3309,
      "tely": 3310,
      "myositis": 3311,
      "golytely": 3312,
      "242": 3313,
      "idiasis": 3314,
      "test": 3315,
      "antoin": 3316,
      "room": 3317,
      "ferric": 3318,
      "umet": 3319,
      "mild": 3320,
      "hypog": 3321,
      "245": 3322,
      "244": 3323,
      "alen": 3324,
      "04": 3325,
      "241": 3326,
      "candidiasis": 3327,
      "nonrheumatic": 3328,
      "dronate": 3329,
      "alendronate": 3330,
      "si": 3331,
      "chlorthal": 3332,
      "chlorthalidone": 3333,
      "posttraumatic": 3334,
      "disc": 3335,
      "246": 3336,
      "ue": 3337,
      "naltrex": 3338,
      "naltrexone": 3339,
      "azolamide": 3340,
      "oncovin": 3341,
      "mptomatic": 3342,
      "asymptomatic": 3343,
      "hered": 3344,
      "ophre": 3345,
      "schizophre": 3346,
      "eye": 3347,
      "both": 3348,
      "glutamine": 3349,
      "247": 3350,
      "hereditary": 3351,
      "fibro": 3352,
      "rupture": 3353,
      "come": 3354,
      "vag": 3355,
      "parts": 3356,
      "parat": 3357,
      "vertebra": 3358,
      "dermatitis": 3359,
      "outcome": 3360,
      "1400": 3361,
      "rot": 3362,
      "liveborn": 3363,
      "female": 3364,
      "go": 3365,
      "nitrof": 3366,
      "suscept": 3367,
      "nitrofur": 3368,
      "nitrofurantoin": 3369,
      "tissue": 3370,
      "249": 3371,
      "antib": 3372,
      "hyperos": 3373,
      "ocarb": 3374,
      "phenazine": 3375,
      "amol": 3376,
      "methocarb": 3377,
      "methocarbamol": 3378,
      "pers": 3379,
      "persist": 3380,
      "255": 3381,
      "hemiplegia": 3382,
      "hyos": 3383,
      "248": 3384,
      "onic": 3385,
      "hyoscy": 3386,
      "hyoscyamine": 3387,
      "sleeping": 3388,
      "gastroenteritis": 3389,
      "ication": 3390,
      "antibi": 3391,
      "elevated": 3392,
      "persistent": 3393,
      "claud": 3394,
      "claudication": 3395,
      "intoxic": 3396,
      "intoxication": 3397,
      "251": 3398,
      "supple": 3399,
      "oxygen": 3400,
      "supplemental": 3401,
      "mechan": 3402,
      "260": 3403,
      "ula": 3404,
      "aly": 3405,
      "adrenal": 3406,
      "priv": 3407,
      "253": 3408,
      "private": 3409,
      "convul": 3410,
      "iter": 3411,
      "254": 3412,
      "252": 3413,
      "weight": 3414,
      "odine": 3415,
      "schizophrenia": 3416,
      "form": 3417,
      "terodine": 3418,
      "tolterodine": 3419,
      "thor": 3420,
      "scale": 3421,
      "special": 3422,
      "hypernat": 3423,
      "prep": 3424,
      "hyperosmolality": 3425,
      "hypernatremia": 3426,
      "anide": 3427,
      "acetazolamide": 3428,
      "rac": 3429,
      "ible": 3430,
      "hyperparat": 3431,
      "hyperparathyroidism": 3432,
      "rod": 3433,
      "prom": 3434,
      "256": 3435,
      "regional": 3436,
      "natural": 3437,
      "used": 3438,
      "vertebral": 3439,
      "ological": 3440,
      "hypoxia": 3441,
      "258": 3442,
      "hemorrhoids": 3443,
      "ano": 3444,
      "toe": 3445,
      "movi": 3446,
      "row": 3447,
      "moviprep": 3448,
      "bumet": 3449,
      "bumetanide": 3450,
      "findings": 3451,
      "chlorprom": 3452,
      "chlorpromazine": 3453,
      "arabine": 3454,
      "dle": 3455,
      "intrac": 3456,
      "physical": 3457,
      "lack": 3458,
      "aphr": 3459,
      "agm": 3460,
      "diaphr": 3461,
      "susceptible": 3462,
      "diaphragm": 3463,
      "goiter": 3464,
      "fact": 3465,
      "259": 3466,
      "penicillin": 3467,
      "uta": 3468,
      "lastic": 3469,
      "neurogenic": 3470,
      "nervous": 3471,
      "270": 3472,
      "food": 3473,
      "marrow": 3474,
      "257": 3475,
      "ureter": 3476,
      "mechanical": 3477,
      "262": 3478,
      "261": 3479,
      "ptan": 3480,
      "conj": 3481,
      "valproic": 3482,
      "dop": 3483,
      "dopamine": 3484,
      "consci": 3485,
      "nab": 3486,
      "raltegravir": 3487,
      "atriptan": 3488,
      "gelcla": 3489,
      "gelclair": 3490,
      "conscious": 3491,
      "oci": 3492,
      "aph": 3493,
      "awa": 3494,
      "diaphragmatic": 3495,
      "sum": 3496,
      "factor": 3497,
      "angitis": 3498,
      "mix": 3499,
      "itt": 3500,
      "vement": 3501,
      "acd": 3502,
      "syndromes": 3503,
      "cholangitis": 3504,
      "anal": 3505,
      "263": 3506,
      "chil": 3507,
      "overload": 3508,
      "265": 3509,
      "264": 3510,
      "consciousness": 3511,
      "zole": 3512,
      "ures": 3513,
      "vaccin": 3514,
      "pneumonitis": 3515,
      "mood": 3516,
      "terene": 3517,
      "triamterene": 3518,
      "mixed": 3519,
      "267": 3520,
      "266": 3521,
      "heel": 3522,
      "imen": 3523,
      "regimen": 3524,
      "ell": 3525,
      "bowel": 3526,
      "sumatriptan": 3527,
      "ogen": 3528,
      "intervertebral": 3529,
      "liding": 3530,
      "sliding": 3531,
      "ionized": 3532,
      "ociated": 3533,
      "zipr": 3534,
      "asidone": 3535,
      "ziprasidone": 3536,
      "degener": 3537,
      "terone": 3538,
      "268": 3539,
      "diz": 3540,
      "ziness": 3541,
      "dizziness": 3542,
      "associated": 3543,
      "gid": 3544,
      "diness": 3545,
      "giddiness": 3546,
      "01": 3547,
      "cvic": 3548,
      "cvicu": 3549,
      "gem": 3550,
      "bir": 3551,
      "irrit": 3552,
      "activ": 3553,
      "birth": 3554,
      "mer": 3555,
      "concen": 3556,
      "auto": 3557,
      "phosphamide": 3558,
      "cyclophosphamide": 3559,
      "odu": 3560,
      "awaiting": 3561,
      "concentrate": 3562,
      "trozole": 3563,
      "implants": 3564,
      "myeloma": 3565,
      "nonalcoholic": 3566,
      "vomit": 3567,
      "epilepticus": 3568,
      "devices": 3569,
      "03": 3570,
      "concentrated": 3571,
      "272": 3572,
      "ulitis": 3573,
      "275": 3574,
      "macro": 3575,
      "methotr": 3576,
      "igue": 3577,
      "allergy": 3578,
      "fatigue": 3579,
      "abnormality": 3580,
      "methotrex": 3581,
      "methotrexate": 3582,
      "central": 3583,
      "269": 3584,
      "kness": 3585,
      "itor": 3586,
      "idence": 3587,
      "irritable": 3588,
      "calcemia": 3589,
      "restless": 3590,
      "ammag": 3591,
      "271": 3592,
      "fist": 3593,
      "deep": 3594,
      "fistula": 3595,
      "lipase": 3596,
      "eryt": 3597,
      "pancrelipase": 3598,
      "docardial": 3599,
      "akness": 3600,
      "weakness": 3601,
      "sirolimus": 3602,
      "otid": 3603,
      "273": 3604,
      "residence": 3605,
      "institutional": 3606,
      "md": 3607,
      "scle": 3608,
      "suben": 3609,
      "subendocardial": 3610,
      "ust": 3611,
      "bling": 3612,
      "274": 3613,
      "hydroxyurea": 3614,
      "combined": 3615,
      "carotid": 3616,
      "strain": 3617,
      "pump": 3618,
      "276": 3619,
      "pren": 3620,
      "cervix": 3621,
      "orphine": 3622,
      "bupren": 3623,
      "buprenorphine": 3624,
      "trip": 3625,
      "disopro": 3626,
      "disoproxil": 3627,
      "slip": 3628,
      "umbling": 3629,
      "stumbling": 3630,
      "tripping": 3631,
      "slipping": 3632,
      "mono": 3633,
      "viread": 3634,
      "meges": 3635,
      "musc": 3636,
      "megestrol": 3637,
      "trimes": 3638,
      "trimester": 3639,
      "uspid": 3640,
      "tricuspid": 3641,
      "290": 3642,
      "child": 3643,
      "adj": 3644,
      "cannab": 3645,
      "cannabis": 3646,
      "adhe": 3647,
      "277": 3648,
      "subsequ": 3649,
      "subsequent": 3650,
      "enterococcus": 3651,
      "278": 3652,
      "fuse": 3653,
      "ke": 3654,
      "ustment": 3655,
      "adjustment": 3656,
      "multivitamin": 3657,
      "lax": 3658,
      "rex": 3659,
      "oneph": 3660,
      "dysfunction": 3661,
      "onephrosis": 3662,
      "diffuse": 3663,
      "bid": 3664,
      "pus": 3665,
      "epin": 3666,
      "doxepin": 3667,
      "degeneration": 3668,
      "b32": 3669,
      "rity": 3670,
      "monohyd": 3671,
      "k2": 3672,
      "macrobid": 3673,
      "abil": 3674,
      "ifiable": 3675,
      "classifiable": 3676,
      "imp": 3677,
      "stair": 3678,
      "stairs": 3679,
      "levalbuterol": 3680,
      "tuberc": 3681,
      "peptic": 3682,
      "bun": 3683,
      "ren": 3684,
      "cough": 3685,
      "personality": 3686,
      "angiopathy": 3687,
      "bran": 3688,
      "inil": 3689,
      "esis": 3690,
      "aconazole": 3691,
      "branch": 3692,
      "constru": 3693,
      "niacin": 3694,
      "ise": 3695,
      "erythemato": 3696,
      "methylnaltrexone": 3697,
      "279": 3698,
      "cytarabine": 3699,
      "dar": 3700,
      "myeloid": 3701,
      "grafts": 3702,
      "700": 3703,
      "tubular": 3704,
      "oaffective": 3705,
      "schizoaffective": 3706,
      "bundle": 3707,
      "dextroamphetamine": 3708,
      "legs": 3709,
      "asleep": 3710,
      "unavir": 3711,
      "darunavir": 3712,
      "dur": 3713,
      "excess": 3714,
      "methimazole": 3715,
      "medications": 3716,
      "larg": 3717,
      "anoma": 3718,
      "atrac": 3719,
      "urium": 3720,
      "cisatrac": 3721,
      "cisatracurium": 3722,
      "besylate": 3723,
      "iary": 3724,
      "283": 3725,
      "valacyclovir": 3726,
      "b22": 3727,
      "k4": 3728,
      "omic": 3729,
      "281": 3730,
      "means": 3731,
      "contus": 3732,
      "contusion": 3733,
      "tran": 3734,
      "modaf": 3735,
      "sone": 3736,
      "dapsone": 3737,
      "lost": 3738,
      "biliary": 3739,
      "coid": 3740,
      "hemorrhoidal": 3741,
      "02": 3742,
      "convulsions": 3743,
      "adhesions": 3744,
      "modafinil": 3745,
      "lary": 3746,
      "orig": 3747,
      "ileostomy": 3748,
      "abnormalities": 3749,
      "origin": 3750,
      "fibrozil": 3751,
      "gemfibrozil": 3752,
      "calcit": 3753,
      "pected": 3754,
      "posaconazole": 3755,
      "labor": 3756,
      "trachea": 3757,
      "ath": 3758,
      "lic": 3759,
      "immune": 3760,
      "immunization": 3761,
      "ovary": 3762,
      "gay": 3763,
      "bengay": 3764,
      "intr": 3765,
      "ileus": 3766,
      "285": 3767,
      "282": 3768,
      "melanoma": 3769,
      "sclerosis": 3770,
      "hematoma": 3771,
      "herpe": 3772,
      "lect": 3773,
      "suspected": 3774,
      "episod": 3775,
      "hous": 3776,
      "organisms": 3777,
      "housing": 3778,
      "hydronephrosis": 3779,
      "vari": 3780,
      "vaccination": 3781,
      "sic": 3782,
      "bos": 3783,
      "structure": 3784,
      "acral": 3785,
      "lumbos": 3786,
      "lumbosacral": 3787,
      "quin": 3788,
      "meg": 3789,
      "ek": 3790,
      "corti": 3791,
      "dipro": 3792,
      "need": 3793,
      "aise": 3794,
      "lutegravir": 3795,
      "malaise": 3796,
      "dolutegravir": 3797,
      "thoracic": 3798,
      "severity": 3799,
      "episodic": 3800,
      "284": 3801,
      "sensit": 3802,
      "neoplastic": 3803,
      "logic": 3804,
      "vessels": 3805,
      "dian": 3806,
      "dy": 3807,
      "activity": 3808,
      "postinfection": 3809,
      "odenitis": 3810,
      "gastrodu": 3811,
      "gastroduodenitis": 3812,
      "involving": 3813,
      "indian": 3814,
      "alas": 3815,
      "alaska": 3816,
      "287": 3817,
      "omon": 3818,
      "eth": 3819,
      "sof": 3820,
      "286": 3821,
      "astic": 3822,
      "estr": 3823,
      "sot": 3824,
      "sotalol": 3825,
      "2mg": 3826,
      "construction": 3827,
      "tobram": 3828,
      "tobramycin": 3829,
      "psori": 3830,
      "face": 3831,
      "alcoholism": 3832,
      "den": 3833,
      "glucocorti": 3834,
      "onin": 3835,
      "opium": 3836,
      "289": 3837,
      "ew": 3838,
      "hypokalemia": 3839,
      "cies": 3840,
      "cavir": 3841,
      "entecavir": 3842,
      "288": 3843,
      "lumine": 3844,
      "meglumine": 3845,
      "imod": 3846,
      "975": 3847,
      "zoate": 3848,
      "diatri": 3849,
      "gastrovi": 3850,
      "diatrizoate": 3851,
      "gastroview": 3852,
      "seiz": 3853,
      "fosphenytoin": 3854,
      "seizures": 3855,
      "thyrot": 3856,
      "polyps": 3857,
      "inant": 3858,
      "epigastric": 3859,
      "colonic": 3860,
      "midfoot": 3861,
      "ict": 3862,
      "iencies": 3863,
      "lei": 3864,
      "trial": 3865,
      "3200": 3866,
      "1700": 3867,
      "bulin": 3868,
      "bit": 3869,
      "mopressin": 3870,
      "desmopressin": 3871,
      "king": 3872,
      "antibiotics": 3873,
      "nimod": 3874,
      "nimodipine": 3875,
      "292": 3876,
      "deficiencies": 3877,
      "291": 3878,
      "aring": 3879,
      "restrain": 3880,
      "gastrostomy": 3881,
      "substances": 3882,
      "childbirth": 3883,
      "pur": 3884,
      "293": 3885,
      "pression": 3886,
      "ux": 3887,
      "lobe": 3888,
      "gl": 3889,
      "fluocin": 3890,
      "colostomy": 3891,
      "compression": 3892,
      "294": 3893,
      "prophylactic": 3894,
      "sensitization": 3895,
      "desensitization": 3896,
      "ele": 3897,
      "1800": 3898,
      "subacute": 3899,
      "sple": 3900,
      "1100": 3901,
      "delta": 3902,
      "pneumoniae": 3903,
      "hearing": 3904,
      "296": 3905,
      "dena": 3906,
      "sildena": 3907,
      "295": 3908,
      "cortical": 3909,
      "sildenafil": 3910,
      "congenital": 3911,
      "letal": 3912,
      "odial": 3913,
      "odialysis": 3914,
      "hemodialysis": 3915,
      "oventricular": 3916,
      "atrioventricular": 3917,
      "auton": 3918,
      "muscle": 3919,
      "perphenazine": 3920,
      "active": 3921,
      "av": 3922,
      "valproate": 3923,
      "psychotic": 3924,
      "ulation": 3925,
      "bur": 3926,
      "tics": 3927,
      "physe": 3928,
      "arthrod": 3929,
      "arthrodesis": 3930,
      "zation": 3931,
      "ipant": 3932,
      "icipant": 3933,
      "participant": 3934,
      "herpes": 3935,
      "emphyse": 3936,
      "297": 3937,
      "acavir": 3938,
      "abacavir": 3939,
      "298": 3940,
      "airment": 3941,
      "impairment": 3942,
      "autonomic": 3943,
      "dab": 3944,
      "glarg": 3945,
      "glargine": 3946,
      "tak": 3947,
      "gait": 3948,
      "femur": 3949,
      "isis": 3950,
      "ls": 3951,
      "perine": 3952,
      "medicinal": 3953,
      "crisis": 3954,
      "emphysema": 3955,
      "paraly": 3956,
      "paralytic": 3957,
      "299": 3958,
      "salic": 3959,
      "infat": 3960,
      "calcife": 3961,
      "calciferol": 3962,
      "2200": 3963,
      "lymphoid": 3964,
      "infatab": 3965,
      "hyperactivity": 3966,
      "pin": 3967,
      "erupt": 3968,
      "eruption": 3969,
      "altered": 3970,
      "log": 3971,
      "ae": 3972,
      "andi": 3973,
      "302": 3974,
      "rib": 3975,
      "ranial": 3976,
      "lupus": 3977,
      "301": 3978,
      "ximab": 3979,
      "globulin": 3980,
      "soft": 3981,
      "taper": 3982,
      "atran": 3983,
      "salicylate": 3984,
      "ete": 3985,
      "inoc": 3986,
      "ercalciferol": 3987,
      "doxercalciferol": 3988,
      "nodule": 3989,
      "inoculation": 3990,
      "igatran": 3991,
      "dabigatran": 3992,
      "xilate": 3993,
      "etexilate": 3994,
      "days": 3995,
      "fir": 3996,
      "chair": 3997,
      "psychosis": 3998,
      "pit": 3999,
      "vomitus": 4000,
      "rab": 4001,
      "anas": 4002,
      "aicin": 4003,
      "capsaicin": 4004,
      "contact": 4005,
      "330": 4006,
      "8mg": 4007,
      "fibrosis": 4008,
      "erythematosus": 4009,
      "310": 4010,
      "ogenic": 4011,
      "anastrozole": 4012,
      "thym": 4013,
      "pseudomon": 4014,
      "pseudomonas": 4015,
      "bismu": 4016,
      "bismuth": 4017,
      "304": 4018,
      "ipril": 4019,
      "during": 4020,
      "303": 4021,
      "monone": 4022,
      "ocyte": 4023,
      "itant": 4024,
      "aprep": 4025,
      "aprepitant": 4026,
      "cilost": 4027,
      "carried": 4028,
      "mononeu": 4029,
      "rabbit": 4030,
      "thymocyte": 4031,
      "rett": 4032,
      "barrett": 4033,
      "cilostazol": 4034,
      "gammag": 4035,
      "subsalicylate": 4036,
      "behavior": 4037,
      "gammagard": 4038,
      "relor": 4039,
      "ideations": 4040,
      "305": 4041,
      "azid": 4042,
      "nontoxic": 4043,
      "dorsal": 4044,
      "thir": 4045,
      "306": 4046,
      "rive": 4047,
      "thrive": 4048,
      "third": 4049,
      "309": 4050,
      "intracranial": 4051,
      "chew": 4052,
      "leb": 4053,
      "nar": 4054,
      "pathologic": 4055,
      "afen": 4056,
      "fi": 4057,
      "agrelor": 4058,
      "ticagrelor": 4059,
      "lion": 4060,
      "diverticulitis": 4061,
      "rifam": 4062,
      "agit": 4063,
      "craft": 4064,
      "watercraft": 4065,
      "tuberculosis": 4066,
      "ind": 4067,
      "lebitis": 4068,
      "chewable": 4069,
      "gran": 4070,
      "rifampin": 4071,
      "onam": 4072,
      "aztre": 4073,
      "aztreonam": 4074,
      "ulos": 4075,
      "iazid": 4076,
      "sto": 4077,
      "isoniazid": 4078,
      "0625": 4079,
      "308": 4080,
      "pseudo": 4081,
      "perineal": 4082,
      "307": 4083,
      "ments": 4084,
      "psoriasis": 4085,
      "gkin": 4086,
      "hod": 4087,
      "hodgkin": 4088,
      "dipyri": 4089,
      "damole": 4090,
      "dipyridamole": 4091,
      "initis": 4092,
      "million": 4093,
      "foreign": 4094,
      "machines": 4095,
      "litazone": 4096,
      "keletal": 4097,
      "312": 4098,
      "500mg": 4099,
      "negative": 4100,
      "311": 4101,
      "sens": 4102,
      "carcin": 4103,
      "tum": 4104,
      "stool": 4105,
      "mononeuritis": 4106,
      "polyc": 4107,
      "itic": 4108,
      "taken": 4109,
      "internally": 4110,
      "itory": 4111,
      "iological": 4112,
      "nf": 4113,
      "paralysis": 4114,
      "asitic": 4115,
      "onium": 4116,
      "pri": 4117,
      "first": 4118,
      "calories": 4119,
      "silver": 4120,
      "involvement": 4121,
      "super": 4122,
      "tumor": 4123,
      "temazepam": 4124,
      "focal": 4125,
      "perium": 4126,
      "displacement": 4127,
      "313": 4128,
      "retro": 4129,
      "places": 4130,
      "otonic": 4131,
      "xopen": 4132,
      "xopenex": 4133,
      "gestation": 4134,
      "parasitic": 4135,
      "315": 4136,
      "them": 4137,
      "themia": 4138,
      "laxis": 4139,
      "elchair": 4140,
      "wheelchair": 4141,
      "afoate": 4142,
      "xinafoate": 4143,
      "314": 4144,
      "salmon": 4145,
      "calcitonin": 4146,
      "substance": 4147,
      "hypoglycemia": 4148,
      "physiological": 4149,
      "fond": 4150,
      "aparinux": 4151,
      "fondaparinux": 4152,
      "remo": 4153,
      "inemia": 4154,
      "mmun": 4155,
      "sandi": 4156,
      "mmune": 4157,
      "sandimmune": 4158,
      "removal": 4159,
      "prophylaxis": 4160,
      "musculos": 4161,
      "musculoskeletal": 4162,
      "short": 4163,
      "elling": 4164,
      "swelling": 4165,
      "interm": 4166,
      "ittent": 4167,
      "intermittent": 4168,
      "nx": 4169,
      "unil": 4170,
      "unilateral": 4171,
      "wall": 4172,
      "317": 4173,
      "vol": 4174,
      "sequel": 4175,
      "gland": 4176,
      "cv": 4177,
      "noninfectious": 4178,
      "gar": 4179,
      "cain": 4180,
      "cvl": 4181,
      "tering": 4182,
      "puer": 4183,
      "cells": 4184,
      "319": 4185,
      "sulfadi": 4186,
      "sulfadiazine": 4187,
      "saline": 4188,
      "terization": 4189,
      "catheterization": 4190,
      "unk": 4191,
      "defined": 4192,
      "localization": 4193,
      "lan": 4194,
      "trunk": 4195,
      "solitary": 4196,
      "pelvis": 4197,
      "luding": 4198,
      "igmoid": 4199,
      "wa": 4200,
      "crew": 4201,
      "retroperitoneum": 4202,
      "ature": 4203,
      "parap": 4204,
      "prol": 4205,
      "ciwa": 4206,
      "flecain": 4207,
      "flecainide": 4208,
      "epid": 4209,
      "ulceration": 4210,
      "316": 4211,
      "emias": 4212,
      "fet": 4213,
      "318": 4214,
      "nd": 4215,
      "onitis": 4216,
      "resul": 4217,
      "ostat": 4218,
      "rad": 4219,
      "ataz": 4220,
      "snd": 4221,
      "sndz": 4222,
      "radic": 4223,
      "defects": 4224,
      "blind": 4225,
      "blindness": 4226,
      "anavir": 4227,
      "ella": 4228,
      "sugar": 4229,
      "atazanavir": 4230,
      "uximab": 4231,
      "peric": 4232,
      "aphasia": 4233,
      "333": 4234,
      "iac": 4235,
      "endoc": 4236,
      "ipramine": 4237,
      "felodipine": 4238,
      "isotonic": 4239,
      "oglitazone": 4240,
      "pioglitazone": 4241,
      "nz": 4242,
      "efa": 4243,
      "virenz": 4244,
      "efavirenz": 4245,
      "321": 4246,
      "conjug": 4247,
      "eld": 4248,
      "field": 4249,
      "puerperium": 4250,
      "expos": 4251,
      "exposure": 4252,
      "ear": 4253,
      "lyce": 4254,
      "prilo": 4255,
      "323": 4256,
      "alka": 4257,
      "aract": 4258,
      "cataract": 4259,
      "xostat": 4260,
      "buxostat": 4261,
      "febuxostat": 4262,
      "pun": 4263,
      "trache": 4264,
      "phe": 4265,
      "puncture": 4266,
      "suppos": 4267,
      "complete": 4268,
      "mesna": 4269,
      "visual": 4270,
      "primidone": 4271,
      "suppository": 4272,
      "subc": 4273,
      "nos": 4274,
      "fosaprepitant": 4275,
      "ladder": 4276,
      "322": 4277,
      "anemias": 4278,
      "rituximab": 4279,
      "coliosis": 4280,
      "elec": 4281,
      "d10": 4282,
      "d10w": 4283,
      "plas": 4284,
      "falling": 4285,
      "breath": 4286,
      "1900": 4287,
      "tuck": 4288,
      "intermediate": 4289,
      "cro": 4290,
      "ional": 4291,
      "prilocaine": 4292,
      "326": 4293,
      "pilo": 4294,
      "rash": 4295,
      "yme": 4296,
      "tucks": 4297,
      "ophil": 4298,
      "below": 4299,
      "340": 4300,
      "rls": 4301,
      "prem": 4302,
      "curonium": 4303,
      "admin": 4304,
      "another": 4305,
      "pru": 4306,
      "antadine": 4307,
      "radiological": 4308,
      "alkalosis": 4309,
      "328": 4310,
      "odular": 4311,
      "inodular": 4312,
      "iliz": 4313,
      "dorsalgia": 4314,
      "nitrate": 4315,
      "inflic": 4316,
      "mannit": 4317,
      "inflicted": 4318,
      "mannitol": 4319,
      "dominant": 4320,
      "strict": 4321,
      "fluoro": 4322,
      "cardio": 4323,
      "prurit": 4324,
      "amantadine": 4325,
      "cardiovascular": 4326,
      "ilizers": 4327,
      "legal": 4328,
      "quinapril": 4329,
      "quilizers": 4330,
      "tranquilizers": 4331,
      "because": 4332,
      "stren": 4333,
      "327": 4334,
      "peritonitis": 4335,
      "nontraumatic": 4336,
      "shortness": 4337,
      "rexia": 4338,
      "refer": 4339,
      "referable": 4340,
      "329": 4341,
      "intrahepatic": 4342,
      "hand": 4343,
      "cent": 4344,
      "625": 4345,
      "resistance": 4346,
      "fluocinonide": 4347,
      "polymyalgia": 4348,
      "rheumatica": 4349,
      "glycerin": 4350,
      "proges": 4351,
      "progesterone": 4352,
      "pine": 4353,
      "plasma": 4354,
      "allergic": 4355,
      "sive": 4356,
      "agitans": 4357,
      "ovari": 4358,
      "mening": 4359,
      "stri": 4360,
      "border": 4361,
      "carpine": 4362,
      "pilocarpine": 4363,
      "331": 4364,
      "horacic": 4365,
      "phary": 4366,
      "tincture": 4367,
      "borderline": 4368,
      "tle": 4369,
      "supps": 4370,
      "hed": 4371,
      "amino": 4372,
      "cosyn": 4373,
      "tropin": 4374,
      "cosyntropin": 4375,
      "athoracic": 4376,
      "intrathoracic": 4377,
      "rinone": 4378,
      "opening": 4379,
      "facial": 4380,
      "arch": 4381,
      "alo": 4382,
      "narc": 4383,
      "cav": 4384,
      "postsurgical": 4385,
      "simple": 4386,
      "ladders": 4387,
      "nutritional": 4388,
      "nip": 4389,
      "premature": 4390,
      "limbs": 4391,
      "332": 4392,
      "int": 4393,
      "334": 4394,
      "thanum": 4395,
      "lanthanum": 4396,
      "imer": 4397,
      "adminis": 4398,
      "milrinone": 4399,
      "epidural": 4400,
      "junction": 4401,
      "ogens": 4402,
      "antip": 4403,
      "tax": 4404,
      "sm": 4405,
      "rese": 4406,
      "brad": 4407,
      "acids": 4408,
      "anomal": 4409,
      "ephed": 4410,
      "uma": 4411,
      "toes": 4412,
      "trauma": 4413,
      "ephedrine": 4414,
      "ines": 4415,
      "forearm": 4416,
      "research": 4417,
      "compar": 4418,
      "comparison": 4419,
      "gesic": 4420,
      "analgesic": 4421,
      "medicines": 4422,
      "pres": 4423,
      "bradycardia": 4424,
      "336": 4425,
      "autolog": 4426,
      "orm": 4427,
      "intel": 4428,
      "pseudoephedrine": 4429,
      "oxif": 4430,
      "estrogens": 4431,
      "ficial": 4432,
      "superficial": 4433,
      "ull": 4434,
      "conjugated": 4435,
      "bottle": 4436,
      "tig": 4437,
      "alz": 4438,
      "cavity": 4439,
      "autologous": 4440,
      "calculi": 4441,
      "olazine": 4442,
      "ranolazine": 4443,
      "synt": 4444,
      "synthetic": 4445,
      "heimer": 4446,
      "alzheimer": 4447,
      "serum": 4448,
      "administering": 4449,
      "inkle": 4450,
      "sprinkle": 4451,
      "sprinkles": 4452,
      "fetal": 4453,
      "stricture": 4454,
      "osigmoid": 4455,
      "335": 4456,
      "week": 4457,
      "weeks": 4458,
      "cele": 4459,
      "omyoma": 4460,
      "leiomyoma": 4461,
      "ketoacidosis": 4462,
      "ky": 4463,
      "anorexia": 4464,
      "medica": 4465,
      "requ": 4466,
      "ting": 4467,
      "recent": 4468,
      "339": 4469,
      "338": 4470,
      "most": 4471,
      "atosis": 4472,
      "citabine": 4473,
      "dofetil": 4474,
      "ased": 4475,
      "adderall": 4476,
      "dofetilide": 4477,
      "337": 4478,
      "hypn": 4479,
      "hypercalcemia": 4480,
      "infective": 4481,
      "disrupt": 4482,
      "depres": 4483,
      "depressed": 4484,
      "disruption": 4485,
      "flex": 4486,
      "abilities": 4487,
      "tracheostomy": 4488,
      "incis": 4489,
      "incisional": 4490,
      "postpartum": 4491,
      "rectosigmoid": 4492,
      "mesis": 4493,
      "storm": 4494,
      "valves": 4495,
      "lectual": 4496,
      "thyrotoxic": 4497,
      "intellectual": 4498,
      "carcinoma": 4499,
      "disabilities": 4500,
      "disturbances": 4501,
      "ophilia": 4502,
      "7500": 4503,
      "benzocaine": 4504,
      "clob": 4505,
      "341": 4506,
      "via": 4507,
      "epip": 4508,
      "azam": 4509,
      "clobazam": 4510,
      "342": 4511,
      "medicaments": 4512,
      "eosin": 4513,
      "sarcoid": 4514,
      "hypocalcemia": 4515,
      "epipen": 4516,
      "sarcoidosis": 4517,
      "streng": 4518,
      "alter": 4519,
      "850": 4520,
      "strength": 4521,
      "cervicalgia": 4522,
      "narcotics": 4523,
      "opiate": 4524,
      "magnesemia": 4525,
      "perox": 4526,
      "ida": 4527,
      "343": 4528,
      "horax": 4529,
      "pericard": 4530,
      "othorax": 4531,
      "coids": 4532,
      "indo": 4533,
      "345": 4534,
      "peroxide": 4535,
      "methacin": 4536,
      "indomethacin": 4537,
      "autoimmune": 4538,
      "antithrombotic": 4539,
      "volum": 4540,
      "acil": 4541,
      "versus": 4542,
      "sensation": 4543,
      "sulfasal": 4544,
      "344": 4545,
      "sulfasalazine": 4546,
      "supra": 4547,
      "supraventricular": 4548,
      "section": 4549,
      "plastic": 4550,
      "ema": 4551,
      "rhinitis": 4552,
      "ert": 4553,
      "testos": 4554,
      "hypomagnesemia": 4555,
      "entional": 4556,
      "intentional": 4557,
      "rior": 4558,
      "testosterone": 4559,
      "mucos": 4560,
      "346": 4561,
      "vertebrae": 4562,
      "uracil": 4563,
      "granule": 4564,
      "sickle": 4565,
      "copic": 4566,
      "radiotherapy": 4567,
      "leukocytopenia": 4568,
      "stigmine": 4569,
      "scalp": 4570,
      "granules": 4571,
      "troph": 4572,
      "analo": 4573,
      "gues": 4574,
      "glucocorticoids": 4575,
      "analogues": 4576,
      "frequ": 4577,
      "under": 4578,
      "pyrido": 4579,
      "pyridostigmine": 4580,
      "symb": 4581,
      "apro": 4582,
      "ptal": 4583,
      "ito": 4584,
      "347": 4585,
      "clarit": 4586,
      "349": 4587,
      "348": 4588,
      "ont": 4589,
      "enterocolitis": 4590,
      "pye": 4591,
      "toprol": 4592,
      "dysplastic": 4593,
      "myelodysplastic": 4594,
      "phritis": 4595,
      "lonephritis": 4596,
      "pyelonephritis": 4597,
      "obut": 4598,
      "dobut": 4599,
      "spleen": 4600,
      "dobutamine": 4601,
      "larynx": 4602,
      "platin": 4603,
      "sinusitis": 4604,
      "alteration": 4605,
      "2100": 4606,
      "fri": 4607,
      "ystic": 4608,
      "polycystic": 4609,
      "ption": 4610,
      "372": 4611,
      "film": 4612,
      "anomalies": 4613,
      "dural": 4614,
      "deform": 4615,
      "namen": 4616,
      "temi": 4617,
      "nstemi": 4618,
      "namenda": 4619,
      "orption": 4620,
      "absorption": 4621,
      "ives": 4622,
      "subcutaneous": 4623,
      "diag": 4624,
      "hal": 4625,
      "ysplasia": 4626,
      "arrest": 4627,
      "micro": 4628,
      "bacil": 4629,
      "angiod": 4630,
      "angiodysplasia": 4631,
      "subdural": 4632,
      "xy": 4633,
      "lessness": 4634,
      "homelessness": 4635,
      "pedic": 4636,
      "ulsion": 4637,
      "emulsion": 4638,
      "nipple": 4639,
      "352": 4640,
      "ulfate": 4641,
      "bisulfate": 4642,
      "lump": 4643,
      "fluphenazine": 4644,
      "ere": 4645,
      "striking": 4646,
      "celiac": 4647,
      "bacillus": 4648,
      "357": 4649,
      "edl": 4650,
      "nder": 4651,
      "änder": 4652,
      "eosinophilia": 4653,
      "friedl": 4654,
      "friedländer": 4655,
      "thrombocythemia": 4656,
      "septal": 4657,
      "obia": 4658,
      "harm": 4659,
      "354": 4660,
      "353": 4661,
      "fing": 4662,
      "mucositis": 4663,
      "uteri": 4664,
      "351": 4665,
      "hypertroph": 4666,
      "hypertrophic": 4667,
      "restraint": 4668,
      "icort": 4669,
      "355": 4670,
      "symbicort": 4671,
      "are": 4672,
      "glomer": 4673,
      "2600": 4674,
      "356": 4675,
      "hemiparesis": 4676,
      "ason": 4677,
      "3300": 4678,
      "pras": 4679,
      "2800": 4680,
      "ambis": 4681,
      "antidi": 4682,
      "ross": 4683,
      "ambisome": 4684,
      "gross": 4685,
      "iperidone": 4686,
      "paliperidone": 4687,
      "esomeprazole": 4688,
      "suicide": 4689,
      "358": 4690,
      "ugrel": 4691,
      "prasugrel": 4692,
      "trem": 4693,
      "tremor": 4694,
      "neoplasms": 4695,
      "1mg": 4696,
      "factors": 4697,
      "pent": 4698,
      "high": 4699,
      "sciatic": 4700,
      "volume": 4701,
      "senile": 4702,
      "ventil": 4703,
      "orthopedic": 4704,
      "noncollision": 4705,
      "tt": 4706,
      "healing": 4707,
      "xi": 4708,
      "therapy": 4709,
      "dos": 4710,
      "apenem": 4711,
      "ertapenem": 4712,
      "hn": 4713,
      "desco": 4714,
      "descovy": 4715,
      "including": 4716,
      "hematopo": 4717,
      "ietic": 4718,
      "hematopoietic": 4719,
      "tricor": 4720,
      "renone": 4721,
      "gtt": 4722,
      "380": 4723,
      "biological": 4724,
      "359": 4725,
      "candidal": 4726,
      "letion": 4727,
      "370": 4728,
      "into": 4729,
      "kins": 4730,
      "dakins": 4731,
      "ub": 4732,
      "ound": 4733,
      "fluorouracil": 4734,
      "estra": 4735,
      "igan": 4736,
      "sciatica": 4737,
      "365": 4738,
      "oraph": 4739,
      "agoraph": 4740,
      "underdos": 4741,
      "agoraphobia": 4742,
      "underdosing": 4743,
      "ami": 4744,
      "enzyme": 4745,
      "crohn": 4746,
      "diol": 4747,
      "ventral": 4748,
      "2700": 4749,
      "pylori": 4750,
      "estradiol": 4751,
      "zom": 4752,
      "displaced": 4753,
      "420": 4754,
      "osa": 4755,
      "host": 4756,
      "lerenone": 4757,
      "eplerenone": 4758,
      "palsy": 4759,
      "udoc": 4760,
      "pseudoc": 4761,
      "pseudocyst": 4762,
      "vida": 4763,
      "anoid": 4764,
      "elder": 4765,
      "2300": 4766,
      "igra": 4767,
      "paranoid": 4768,
      "elderly": 4769,
      "igravida": 4770,
      "butt": 4771,
      "inavir": 4772,
      "iect": 4773,
      "bronchiect": 4774,
      "bronchiectasis": 4775,
      "opiates": 4776,
      "buttock": 4777,
      "2900": 4778,
      "depletion": 4779,
      "movement": 4780,
      "same": 4781,
      "362": 4782,
      "hromycin": 4783,
      "clarithromycin": 4784,
      "3400": 4785,
      "ureth": 4786,
      "cosis": 4787,
      "uinal": 4788,
      "inguinal": 4789,
      "medro": 4790,
      "medroxy": 4791,
      "hypophy": 4792,
      "ramipril": 4793,
      "medroxyprogesterone": 4794,
      "lopinavir": 4795,
      "alafen": 4796,
      "bell": 4797,
      "burn": 4798,
      "366": 4799,
      "vox": 4800,
      "postinflammatory": 4801,
      "steps": 4802,
      "aorta": 4803,
      "367": 4804,
      "zomib": 4805,
      "thria": 4806,
      "363": 4807,
      "sarthria": 4808,
      "dysarthria": 4809,
      "3100": 4810,
      "omeg": 4811,
      "361": 4812,
      "1ml": 4813,
      "25mg": 4814,
      "ecz": 4815,
      "ries": 4816,
      "eczema": 4817,
      "uretics": 4818,
      "ered": 4819,
      "etra": 4820,
      "restraints": 4821,
      "inib": 4822,
      "paraplegia": 4823,
      "proxim": 4824,
      "virine": 4825,
      "etravirine": 4826,
      "proximal": 4827,
      "stomatitis": 4828,
      "omegaly": 4829,
      "cretion": 4830,
      "200mg": 4831,
      "pharyng": 4832,
      "node": 4833,
      "368": 4834,
      "conne": 4835,
      "decitabine": 4836,
      "hesis": 4837,
      "prosthesis": 4838,
      "antibiotic": 4839,
      "paste": 4840,
      "agent": 4841,
      "364": 4842,
      "molol": 4843,
      "rocuronium": 4844,
      "esmolol": 4845,
      "betwe": 4846,
      "between": 4847,
      "blu": 4848,
      "base": 4849,
      "connective": 4850,
      "pneumothorax": 4851,
      "vision": 4852,
      "wal": 4853,
      "neurohypophy": 4854,
      "neurohypophysis": 4855,
      "pruritic": 4856,
      "gency": 4857,
      "373": 4858,
      "glucocorticoid": 4859,
      "24hr": 4860,
      "formation": 4861,
      "ulonephritis": 4862,
      "glomerulonephritis": 4863,
      "fluvox": 4864,
      "stump": 4865,
      "371": 4866,
      "369": 4867,
      "trav": 4868,
      "fluvoxamine": 4869,
      "lymphatic": 4870,
      "lap": 4871,
      "sk": 4872,
      "spont": 4873,
      "spontaneous": 4874,
      "ulopathy": 4875,
      "emic": 4876,
      "cac": 4877,
      "hexia": 4878,
      "cachexia": 4879,
      "blue": 4880,
      "ban": 4881,
      "radiculopathy": 4882,
      "theop": 4883,
      "after": 4884,
      "theophyl": 4885,
      "bilical": 4886,
      "icular": 4887,
      "bulinemia": 4888,
      "topical": 4889,
      "3600": 4890,
      "results": 4891,
      "lovastatin": 4892,
      "tezomib": 4893,
      "bortezomib": 4894,
      "3500": 4895,
      "hemate": 4896,
      "hematemesis": 4897,
      "choline": 4898,
      "orab": 4899,
      "orabase": 4900,
      "theophylline": 4901,
      "ophlebitis": 4902,
      "thrombophlebitis": 4903,
      "390": 4904,
      "leukin": 4905,
      "neuritis": 4906,
      "flo": 4907,
      "umbilical": 4908,
      "enlarge": 4909,
      "agement": 4910,
      "enlargement": 4911,
      "aldes": 4912,
      "chond": 4913,
      "374": 4914,
      "aldesleukin": 4915,
      "erebral": 4916,
      "obid": 4917,
      "lithobid": 4918,
      "intracerebral": 4919,
      "itch": 4920,
      "hypertonic": 4921,
      "reason": 4922,
      "lycemic": 4923,
      "kyphos": 4924,
      "genito": 4925,
      "genitourinary": 4926,
      "pad": 4927,
      "axil": 4928,
      "ovarian": 4929,
      "ua": 4930,
      "ray": 4931,
      "gouty": 4932,
      "dden": 4933,
      "atives": 4934,
      "378": 4935,
      "ifos": 4936,
      "famide": 4937,
      "ifosfamide": 4938,
      "witch": 4939,
      "hazel": 4940,
      "hypercoagul": 4941,
      "hypercoagulable": 4942,
      "naud": 4943,
      "raynaud": 4944,
      "management": 4945,
      "oatrial": 4946,
      "sinoatrial": 4947,
      "diuretics": 4948,
      "microorganisms": 4949,
      "sudden": 4950,
      "stitial": 4951,
      "376": 4952,
      "interstitial": 4953,
      "abras": 4954,
      "abrasion": 4955,
      "lymphe": 4956,
      "lymphedema": 4957,
      "hypercap": 4958,
      "balance": 4959,
      "hypercapnia": 4960,
      "cog": 4961,
      "lyceride": 4962,
      "iazepine": 4963,
      "odiazepine": 4964,
      "recept": 4965,
      "benzodiazepine": 4966,
      "endome": 4967,
      "scoliosis": 4968,
      "bat": 4969,
      "hypoglycemic": 4970,
      "ogram": 4971,
      "dwelling": 4972,
      "injection": 4973,
      "ampo": 4974,
      "shampo": 4975,
      "shampoo": 4976,
      "les": 4977,
      "accidentally": 4978,
      "pari": 4979,
      "receptor": 4980,
      "377": 4981,
      "nerve": 4982,
      "electroc": 4983,
      "nac": 4984,
      "sequelae": 4985,
      "irbes": 4986,
      "ekg": 4987,
      "ecg": 4988,
      "ardiogram": 4989,
      "electrocardiogram": 4990,
      "endocrine": 4991,
      "381": 4992,
      "385": 4993,
      "palpit": 4994,
      "palpitations": 4995,
      "379": 4996,
      "irbesartan": 4997,
      "fur": 4998,
      "indwelling": 4999,
      "nitive": 5000,
      "cognitive": 5001,
      "720": 5002,
      "fibromyalgia": 5003,
      "cephalus": 5004,
      "monoc": 5005,
      "ketamine": 5006,
      "carbamide": 5007,
      "pericardium": 5008,
      "tib": 5009,
      "lonal": 5010,
      "monoclonal": 5011,
      "phlebitis": 5012,
      "384": 5013,
      "gre": 5014,
      "morgan": 5015,
      "pinal": 5016,
      "mirabil": 5017,
      "proteus": 5018,
      "morganii": 5019,
      "mirabilis": 5020,
      "bed": 5021,
      "trait": 5022,
      "hydrocephalus": 5023,
      "zid": 5024,
      "ovudine": 5025,
      "vaginal": 5026,
      "zidovudine": 5027,
      "oxid": 5028,
      "minoxid": 5029,
      "minoxidil": 5030,
      "stoma": 5031,
      "epistax": 5032,
      "epistaxis": 5033,
      "oxi": 5034,
      "nacl": 5035,
      "ifer": 5036,
      "sedative": 5037,
      "hypnotic": 5038,
      "dens": 5039,
      "oprus": 5040,
      "nitroprus": 5041,
      "nitroprusside": 5042,
      "terbin": 5043,
      "stre": 5044,
      "zos": 5045,
      "iferative": 5046,
      "thyrotoxi": 5047,
      "thyrotoxicosis": 5048,
      "afine": 5049,
      "terbinafine": 5050,
      "386": 5051,
      "acting": 5052,
      "hemop": 5053,
      "ocort": 5054,
      "retin": 5055,
      "analgesics": 5056,
      "ifibat": 5057,
      "eptifibat": 5058,
      "eptifibatide": 5059,
      "duodenal": 5060,
      "noid": 5061,
      "tysis": 5062,
      "hemoptysis": 5063,
      "ambut": 5064,
      "ethambut": 5065,
      "ethambutol": 5066,
      "387": 5067,
      "exipril": 5068,
      "moexipril": 5069,
      "hct": 5070,
      "memb": 5071,
      "382": 5072,
      "hallu": 5073,
      "sprain": 5074,
      "nas": 5075,
      "mexi": 5076,
      "ophy": 5077,
      "letine": 5078,
      "mexiletine": 5079,
      "383": 5080,
      "isti": 5081,
      "aid": 5082,
      "change": 5083,
      "relapse": 5084,
      "zoster": 5085,
      "ill": 5086,
      "2001": 5087,
      "finger": 5088,
      "restasis": 5089,
      "misoprost": 5090,
      "misoprostol": 5091,
      "abd": 5092,
      "noninflammatory": 5093,
      "arg": 5094,
      "phenaseptic": 5095,
      "tretin": 5096,
      "mepi": 5097,
      "glimepi": 5098,
      "tretinoin": 5099,
      "glimepiride": 5100,
      "388": 5101,
      "hctz": 5102,
      "dermato": 5103,
      "distal": 5104,
      "muscular": 5105,
      "olar": 5106,
      "dissection": 5107,
      "purpur": 5108,
      "olig": 5109,
      "ade": 5110,
      "vagina": 5111,
      "blastic": 5112,
      "splen": 5113,
      "sec": 5114,
      "ylcholine": 5115,
      "kine": 5116,
      "succinylcholine": 5117,
      "lubi": 5118,
      "prostone": 5119,
      "lubiprostone": 5120,
      "oxifen": 5121,
      "tamoxifen": 5122,
      "391": 5123,
      "kinson": 5124,
      "ency": 5125,
      "hallucin": 5126,
      "mallei": 5127,
      "cut": 5128,
      "fatty": 5129,
      "amy": 5130,
      "purpura": 5131,
      "yre": 5132,
      "antipyre": 5133,
      "ylline": 5134,
      "oxifylline": 5135,
      "pentoxifylline": 5136,
      "389": 5137,
      "ducts": 5138,
      "amni": 5139,
      "subar": 5140,
      "achnoid": 5141,
      "subarachnoid": 5142,
      "icu": 5143,
      "captopurine": 5144,
      "mercaptopurine": 5145,
      "hemo": 5146,
      "bones": 5147,
      "pon": 5148,
      "dyskine": 5149,
      "dyskinesia": 5150,
      "stud": 5151,
      "ura": 5152,
      "study": 5153,
      "prolapse": 5154,
      "density": 5155,
      "loid": 5156,
      "apex": 5157,
      "ocycline": 5158,
      "minocycline": 5159,
      "mirapex": 5160,
      "atelect": 5161,
      "dication": 5162,
      "atelectasis": 5163,
      "rever": 5164,
      "sequela": 5165,
      "adren": 5166,
      "arditis": 5167,
      "letrozole": 5168,
      "congest": 5169,
      "congestion": 5170,
      "contrain": 5171,
      "contraindication": 5172,
      "spas": 5173,
      "vulva": 5174,
      "based": 5175,
      "ove": 5176,
      "enic": 5177,
      "movements": 5178,
      "spe": 5179,
      "enterostomy": 5180,
      "atinib": 5181,
      "functional": 5182,
      "395": 5183,
      "myeloblastic": 5184,
      "multinodular": 5185,
      "topenic": 5186,
      "thrombocytopenic": 5187,
      "393": 5188,
      "frequency": 5189,
      "membran": 5190,
      "arterial": 5191,
      "394": 5192,
      "antin": 5193,
      "396": 5194,
      "itting": 5195,
      "ocortical": 5196,
      "adrenocortical": 5197,
      "fitting": 5198,
      "ulous": 5199,
      "398": 5200,
      "397": 5201,
      "lobulinemia": 5202,
      "ammaglobulinemia": 5203,
      "oplatin": 5204,
      "malabsorption": 5205,
      "carboplatin": 5206,
      "secretion": 5207,
      "410": 5208,
      "hallucinations": 5209,
      "oxazole": 5210,
      "sulfamethoxazole": 5211,
      "ech": 5212,
      "ostium": 5213,
      "iramine": 5214,
      "pheniramine": 5215,
      "ace": 5216,
      "undum": 5217,
      "secundum": 5218,
      "othy": 5219,
      "ronine": 5220,
      "liothy": 5221,
      "liothyronine": 5222,
      "suria": 5223,
      "extra": 5224,
      "uterine": 5225,
      "parkinson": 5226,
      "penicillins": 5227,
      "lumigan": 5228,
      "tend": 5229,
      "392": 5230,
      "teritis": 5231,
      "manic": 5232,
      "cereb": 5233,
      "ocytic": 5234,
      "mone": 5235,
      "rophosphate": 5236,
      "inex": 5237,
      "imipramine": 5238,
      "skull": 5239,
      "speech": 5240,
      "pep": 5241,
      "ropat": 5242,
      "hyperglyceride": 5243,
      "hyperglyceridemia": 5244,
      "polysaccharides": 5245,
      "pyogenic": 5246,
      "aden": 5247,
      "vig": 5248,
      "steato": 5249,
      "uda": 5250,
      "convulsive": 5251,
      "certain": 5252,
      "399": 5253,
      "ja": 5254,
      "dysuria": 5255,
      "fec": 5256,
      "feces": 5257,
      "undic": 5258,
      "6000": 5259,
      "reversal": 5260,
      "jaundic": 5261,
      "jaundice": 5262,
      "aftercare": 5263,
      "diclofen": 5264,
      "diclofenac": 5265,
      "osine": 5266,
      "multigravida": 5267,
      "humer": 5268,
      "3800": 5269,
      "macrod": 5270,
      "uninodular": 5271,
      "ribs": 5272,
      "macrodantin": 5273,
      "humerus": 5274,
      "nash": 5275,
      "steatohepatitis": 5276,
      "stable": 5277,
      "mur": 5278,
      "unct": 5279,
      "hypogammaglobulinemia": 5280,
      "unctiv": 5281,
      "atroban": 5282,
      "argatroban": 5283,
      "methamine": 5284,
      "var": 5285,
      "401": 5286,
      "usal": 5287,
      "iene": 5288,
      "conjunctiv": 5289,
      "mens": 5290,
      "402": 5291,
      "muc": 5292,
      "new": 5293,
      "404": 5294,
      "mucinex": 5295,
      "408": 5296,
      "onna": 5297,
      "best": 5298,
      "ruptured": 5299,
      "30mg": 5300,
      "adonna": 5301,
      "belladonna": 5302,
      "newborn": 5303,
      "eal": 5304,
      "gam": 5305,
      "pnea": 5306,
      "splenomegaly": 5307,
      "noninfective": 5308,
      "olytic": 5309,
      "405": 5310,
      "ecycline": 5311,
      "tigecycline": 5312,
      "fluno": 5313,
      "calci": 5314,
      "sicca": 5315,
      "verted": 5316,
      "flunomide": 5317,
      "triene": 5318,
      "potriene": 5319,
      "calcipotriene": 5320,
      "nex": 5321,
      "converted": 5322,
      "axilla": 5323,
      "hemolytic": 5324,
      "nail": 5325,
      "amyloid": 5326,
      "409": 5327,
      "pulmonale": 5328,
      "hepato": 5329,
      "rote": 5330,
      "further": 5331,
      "fasc": 5332,
      "403": 5333,
      "polyp": 5334,
      "lena": 5335,
      "aminoc": 5336,
      "list": 5337,
      "romatosis": 5338,
      "cyclist": 5339,
      "endocarditis": 5340,
      "great": 5341,
      "tibia": 5342,
      "melena": 5343,
      "xib": 5344,
      "cardiogenic": 5345,
      "leflunomide": 5346,
      "dysplasia": 5347,
      "oscopic": 5348,
      "hormone": 5349,
      "sacral": 5350,
      "407": 5351,
      "simplex": 5352,
      "profound": 5353,
      "carboxy": 5354,
      "itive": 5355,
      "loride": 5356,
      "amiloride": 5357,
      "read": 5358,
      "reading": 5359,
      "aminocapro": 5360,
      "ytic": 5361,
      "carboxyhemoglobin": 5362,
      "systems": 5363,
      "440": 5364,
      "olysis": 5365,
      "tigo": 5366,
      "ominant": 5367,
      "hid": 5368,
      "glyce": 5369,
      "glycerophosphate": 5370,
      "aminocaproic": 5371,
      "bsi": 5372,
      "klebsi": 5373,
      "klebsiella": 5374,
      "413": 5375,
      "gle": 5376,
      "incident": 5377,
      "house": 5378,
      "ictal": 5379,
      "lamictal": 5380,
      "eme": 5381,
      "lon": 5382,
      "thalassemia": 5383,
      "unstable": 5384,
      "ory": 5385,
      "deformities": 5386,
      "415": 5387,
      "aria": 5388,
      "spasm": 5389,
      "bility": 5390,
      "polisti": 5391,
      "polistirex": 5392,
      "nitine": 5393,
      "411": 5394,
      "opht": 5395,
      "estrogen": 5396,
      "nsaid": 5397,
      "steroidal": 5398,
      "fluocinolone": 5399,
      "duodenitis": 5400,
      "b12": 5401,
      "xen": 5402,
      "406": 5403,
      "425": 5404,
      "liq": 5405,
      "4500": 5406,
      "pap": 5407,
      "tb": 5408,
      "coxib": 5409,
      "methemoglobin": 5410,
      "meninges": 5411,
      "celecoxib": 5412,
      "disac": 5413,
      "radiculitis": 5414,
      "ses": 5415,
      "412": 5416,
      "430": 5417,
      "arteritis": 5418,
      "anuria": 5419,
      "tendon": 5420,
      "liga": 5421,
      "cil": 5422,
      "nonruptured": 5423,
      "tar": 5424,
      "aroscopic": 5425,
      "laparoscopic": 5426,
      "oliguria": 5427,
      "levoc": 5428,
      "structures": 5429,
      "phytosis": 5430,
      "dermatophytosis": 5431,
      "full": 5432,
      "3700": 5433,
      "delusion": 5434,
      "protamine": 5435,
      "walking": 5436,
      "nov": 5437,
      "levocar": 5438,
      "oline": 5439,
      "powered": 5440,
      "levocarnitine": 5441,
      "proliferative": 5442,
      "414": 5443,
      "kyphoscoliosis": 5444,
      "diagno": 5445,
      "resulting": 5446,
      "excessive": 5447,
      "truation": 5448,
      "menstruation": 5449,
      "vertigo": 5450,
      "rist": 5451,
      "uct": 5452,
      "wrist": 5453,
      "bacteria": 5454,
      "omegalo": 5455,
      "cytomegalo": 5456,
      "emp": 5457,
      "pneumococcus": 5458,
      "rial": 5459,
      "cue": 5460,
      "rescue": 5461,
      "qt": 5462,
      "triosis": 5463,
      "endometriosis": 5464,
      "iplatin": 5465,
      "oxaliplatin": 5466,
      "paraprote": 5467,
      "rhabd": 5468,
      "omyolysis": 5469,
      "rhabdomyolysis": 5470,
      "alve": 5471,
      "418": 5472,
      "nodular": 5473,
      "sess": 5474,
      "pa": 5475,
      "strophy": 5476,
      "tuberculous": 5477,
      "calcitol": 5478,
      "paricalcitol": 5479,
      "rospinal": 5480,
      "cerebrospinal": 5481,
      "417": 5482,
      "cytomegaloviral": 5483,
      "fusion": 5484,
      "onamide": 5485,
      "sulfonamide": 5486,
      "ropivacaine": 5487,
      "sulfonamides": 5488,
      "insic": 5489,
      "neuromuscular": 5490,
      "ry": 5491,
      "pof": 5492,
      "caspof": 5493,
      "caspofungin": 5494,
      "deve": 5495,
      "hexol": 5496,
      "iohexol": 5497,
      "develop": 5498,
      "latuda": 5499,
      "jun": 5500,
      "428": 5501,
      "amyloidosis": 5502,
      "421": 5503,
      "mpat": 5504,
      "immunotherapy": 5505,
      "coor": 5506,
      "coordin": 5507,
      "position": 5508,
      "urtic": 5509,
      "imip": 5510,
      "delusional": 5511,
      "cephalospor": 5512,
      "urticaria": 5513,
      "cilastatin": 5514,
      "imipenem": 5515,
      "cesare": 5516,
      "cesarean": 5517,
      "cipit": 5518,
      "416": 5519,
      "primari": 5520,
      "primarily": 5521,
      "novitis": 5522,
      "pend": 5523,
      "append": 5524,
      "exc": 5525,
      "leptic": 5526,
      "oactive": 5527,
      "difficult": 5528,
      "nel": 5529,
      "bacter": 5530,
      "422": 5531,
      "419": 5532,
      "coordination": 5533,
      "3900": 5534,
      "426": 5535,
      "heli": 5536,
      "troch": 5537,
      "positive": 5538,
      "atan": 5539,
      "atories": 5540,
      "inflammatories": 5541,
      "nervosa": 5542,
      "iab": 5543,
      "moxif": 5544,
      "ronate": 5545,
      "anest": 5546,
      "angio": 5547,
      "iabp": 5548,
      "phal": 5549,
      "moxifloxacin": 5550,
      "460": 5551,
      "itra": 5552,
      "424": 5553,
      "luras": 5554,
      "dextran": 5555,
      "lurasidone": 5556,
      "anterior": 5557,
      "invo": 5558,
      "423": 5559,
      "precerebral": 5560,
      "incidents": 5561,
      "viaflo": 5562,
      "427": 5563,
      "vious": 5564,
      "hane": 5565,
      "previous": 5566,
      "axel": 5567,
      "bethane": 5568,
      "bethanechol": 5569,
      "rica": 5570,
      "ligament": 5571,
      "sero": 5572,
      "cystic": 5573,
      "amniotic": 5574,
      "lyrica": 5575,
      "trig": 5576,
      "bicitra": 5577,
      "ility": 5578,
      "compul": 5579,
      "obsess": 5580,
      "seroma": 5581,
      "compulsive": 5582,
      "obsessive": 5583,
      "icitis": 5584,
      "precipit": 5585,
      "anteric": 5586,
      "appendicitis": 5587,
      "trochanteric": 5588,
      "umps": 5589,
      "abetic": 5590,
      "antidiabetic": 5591,
      "ythemia": 5592,
      "disori": 5593,
      "entation": 5594,
      "polycythemia": 5595,
      "disorientation": 5596,
      "cation": 5597,
      "neuroleptic": 5598,
      "opioids": 5599,
      "contents": 5600,
      "434": 5601,
      "ofunction": 5602,
      "hypofunction": 5603,
      "transfusion": 5604,
      "dyspep": 5605,
      "urethral": 5606,
      "dyspepsia": 5607,
      "iline": 5608,
      "nexium": 5609,
      "aple": 5610,
      "cisplatin": 5611,
      "burs": 5612,
      "lunt": 5613,
      "enalaprilat": 5614,
      "involunt": 5615,
      "involuntary": 5616,
      "pros": 5617,
      "micros": 5618,
      "phase": 5619,
      "alveolar": 5620,
      "acam": 5621,
      "prosate": 5622,
      "acamprosate": 5623,
      "psychoactive": 5624,
      "429": 5625,
      "onset": 5626,
      "fric": 5627,
      "friction": 5628,
      "excluding": 5629,
      "identified": 5630,
      "432": 5631,
      "431": 5632,
      "liative": 5633,
      "palliative": 5634,
      "angioedema": 5635,
      "436": 5636,
      "entangle": 5637,
      "entanglement": 5638,
      "calf": 5639,
      "iolytic": 5640,
      "anxiolytic": 5641,
      "lymphocytic": 5642,
      "433": 5643,
      "sele": 5644,
      "drain": 5645,
      "creased": 5646,
      "precipitous": 5647,
      "urgency": 5648,
      "ventilator": 5649,
      "travatan": 5650,
      "neuroleptics": 5651,
      "lipt": 5652,
      "gra": 5653,
      "beta": 5654,
      "microscopic": 5655,
      "organic": 5656,
      "437": 5657,
      "pam": 5658,
      "ischemia": 5659,
      "down": 5660,
      "highway": 5661,
      "435": 5662,
      "yr": 5663,
      "nosis": 5664,
      "tumors": 5665,
      "diagnosis": 5666,
      "cytosis": 5667,
      "je": 5668,
      "ullary": 5669,
      "decreased": 5670,
      "100000": 5671,
      "propri": 5672,
      "inap": 5673,
      "streptococcal": 5674,
      "propriate": 5675,
      "inappropriate": 5676,
      "mater": 5677,
      "medullary": 5678,
      "ventilation": 5679,
      "maternal": 5680,
      "etom": 5681,
      "etomidate": 5682,
      "itinib": 5683,
      "eine": 5684,
      "caffeine": 5685,
      "uncertain": 5686,
      "above": 5687,
      "rub": 5688,
      "agran": 5689,
      "rubella": 5690,
      "cum": 5691,
      "idar": 5692,
      "asthen": 5693,
      "ulocytosis": 5694,
      "paraproteinemia": 5695,
      "agranulocytosis": 5696,
      "myasthen": 5697,
      "chondro": 5698,
      "tw": 5699,
      "cobacter": 5700,
      "helicobacter": 5701,
      "drainage": 5702,
      "antipyretics": 5703,
      "idronate": 5704,
      "pamidronate": 5705,
      "anol": 5706,
      "unintentional": 5707,
      "gravis": 5708,
      "myasthenia": 5709,
      "438": 5710,
      "extrinsic": 5711,
      "latex": 5712,
      "pentam": 5713,
      "pentamidine": 5714,
      "ropathic": 5715,
      "442": 5716,
      "papain": 5717,
      "alut": 5718,
      "alutamide": 5719,
      "ym": 5720,
      "axolol": 5721,
      "betaxolol": 5722,
      "hypoventilation": 5723,
      "504": 5724,
      "ovaries": 5725,
      "439": 5726,
      "brex": 5727,
      "chotics": 5728,
      "sychotics": 5729,
      "desipramine": 5730,
      "antipsychotics": 5731,
      "asbest": 5732,
      "loy": 5733,
      "location": 5734,
      "avapro": 5735,
      "dyspnea": 5736,
      "loyment": 5737,
      "linide": 5738,
      "dislocation": 5739,
      "erythematous": 5740,
      "uretic": 5741,
      "antidiuretic": 5742,
      "placent": 5743,
      "employment": 5744,
      "eyel": 5745,
      "unemployment": 5746,
      "443": 5747,
      "vecuronium": 5748,
      "litaxel": 5749,
      "paclitaxel": 5750,
      "follic": 5751,
      "vera": 5752,
      "difficulty": 5753,
      "racepinephrine": 5754,
      "propafen": 5755,
      "propafenone": 5756,
      "oro": 5757,
      "tube": 5758,
      "pruritus": 5759,
      "470": 5760,
      "loric": 5761,
      "meas": 5762,
      "ence": 5763,
      "445": 5764,
      "dilated": 5765,
      "urogenital": 5766,
      "hb": 5767,
      "sig": 5768,
      "441": 5769,
      "signs": 5770,
      "toph": 5771,
      "boat": 5772,
      "ze": 5773,
      "infe": 5774,
      "sympat": 5775,
      "aero": 5776,
      "vocal": 5777,
      "1750": 5778,
      "corpus": 5779,
      "1950": 5780,
      "enol": 5781,
      "epoprost": 5782,
      "spondylol": 5783,
      "epoprostenol": 5784,
      "loxacillin": 5785,
      "dicloxacillin": 5786,
      "darabine": 5787,
      "fludarabine": 5788,
      "ethanol": 5789,
      "early": 5790,
      "ker": 5791,
      "qvar": 5792,
      "666": 5793,
      "icon": 5794,
      "nond": 5795,
      "449": 5796,
      "combivir": 5797,
      "stic": 5798,
      "anticon": 5799,
      "vuls": 5800,
      "anticonvuls": 5801,
      "shaft": 5802,
      "455": 5803,
      "proble": 5804,
      "daun": 5805,
      "nondominant": 5806,
      "446": 5807,
      "asper": 5808,
      "exa": 5809,
      "ranexa": 5810,
      "membranes": 5811,
      "neural": 5812,
      "otropic": 5813,
      "psychotropic": 5814,
      "444": 5815,
      "electrol": 5816,
      "conjunctivitis": 5817,
      "adenosine": 5818,
      "potence": 5819,
      "impotence": 5820,
      "cords": 5821,
      "celebrex": 5822,
      "jejun": 5823,
      "ev": 5824,
      "ophilu": 5825,
      "ophilus": 5826,
      "measles": 5827,
      "pharyngitis": 5828,
      "mumps": 5829,
      "448": 5830,
      "stream": 5831,
      "451": 5832,
      "eyes": 5833,
      "gil": 5834,
      "eyelid": 5835,
      "openings": 5836,
      "vigil": 5837,
      "sedatives": 5838,
      "hypnotics": 5839,
      "456": 5840,
      "etoc": 5841,
      "imul": 5842,
      "isthe": 5843,
      "venetoc": 5844,
      "spondylolisthe": 5845,
      "venetoclax": 5846,
      "spondylolisthesis": 5847,
      "hepatorenal": 5848,
      "pharyngeal": 5849,
      "reasons": 5850,
      "daunorubicin": 5851,
      "blis": 5852,
      "ribavir": 5853,
      "taxol": 5854,
      "ipid": 5855,
      "ilial": 5856,
      "familial": 5857,
      "neuroendocrine": 5858,
      "testicular": 5859,
      "vaccinations": 5860,
      "itril": 5861,
      "irrig": 5862,
      "453": 5863,
      "antihypertensive": 5864,
      "respon": 5865,
      "sacub": 5866,
      "sacubitril": 5867,
      "umab": 5868,
      "oz": 5869,
      "ators": 5870,
      "ned": 5871,
      "provigil": 5872,
      "447": 5873,
      "infusion": 5874,
      "alax": 5875,
      "miralax": 5876,
      "regions": 5877,
      "ribavirin": 5878,
      "hfa": 5879,
      "tromethamine": 5880,
      "menopa": 5881,
      "bloodstream": 5882,
      "rance": 5883,
      "adva": 5884,
      "intraple": 5885,
      "intrapleural": 5886,
      "advair": 5887,
      "olerance": 5888,
      "myfor": 5889,
      "tl": 5890,
      "ru": 5891,
      "atures": 5892,
      "chromatosis": 5893,
      "hemochromatosis": 5894,
      "problems": 5895,
      "features": 5896,
      "myfortic": 5897,
      "molyn": 5898,
      "vaginitis": 5899,
      "cromolyn": 5900,
      "520": 5901,
      "ful": 5902,
      "neuralgia": 5903,
      "540": 5904,
      "fel": 5905,
      "pressants": 5906,
      "mit": 5907,
      "response": 5908,
      "grav": 5909,
      "454": 5910,
      "452": 5911,
      "hair": 5912,
      "frequent": 5913,
      "unstage": 5914,
      "paced": 5915,
      "unstageable": 5916,
      "any": 5917,
      "ceftar": 5918,
      "menopausal": 5919,
      "ceftaroline": 5920,
      "desit": 5921,
      "desitin": 5922,
      "diet": 5923,
      "ystal": 5924,
      "iliac": 5925,
      "omal": 5926,
      "459": 5927,
      "apone": 5928,
      "syrup": 5929,
      "acapone": 5930,
      "aglinide": 5931,
      "entacapone": 5932,
      "brom": 5933,
      "repaglinide": 5934,
      "aer": 5935,
      "hesia": 5936,
      "symptomatic": 5937,
      "monitor": 5938,
      "caused": 5939,
      "icar": 5940,
      "monitoring": 5941,
      "som": 5942,
      "benicar": 5943,
      "466": 5944,
      "meningitis": 5945,
      "strum": 5946,
      "cision": 5947,
      "decision": 5948,
      "anticonvulsants": 5949,
      "490": 5950,
      "457": 5951,
      "pharynx": 5952,
      "diazep": 5953,
      "chlordiazep": 5954,
      "chlordiazepoxide": 5955,
      "458": 5956,
      "sex": 5957,
      "cus": 5958,
      "while": 5959,
      "ocial": 5960,
      "asmus": 5961,
      "marasmus": 5962,
      "4400": 5963,
      "475": 5964,
      "ited": 5965,
      "fascia": 5966,
      "eskal": 5967,
      "eskalith": 5968,
      "4100": 5969,
      "464": 5970,
      "proteinuria": 5971,
      "instrum": 5972,
      "diplop": 5973,
      "diplopia": 5974,
      "ton": 5975,
      "phic": 5976,
      "atrophic": 5977,
      "hypost": 5978,
      "more": 5979,
      "hypostasis": 5980,
      "467": 5981,
      "limited": 5982,
      "clavulanate": 5983,
      "carcinoid": 5984,
      "461": 5985,
      "yte": 5986,
      "respiration": 5987,
      "elbo": 5988,
      "elbow": 5989,
      "462": 5990,
      "ending": 5991,
      "cose": 5992,
      "diagnostic": 5993,
      "mesartan": 5994,
      "olmesartan": 5995,
      "varicose": 5996,
      "ecl": 5997,
      "ampsia": 5998,
      "eclampsia": 5999,
      "herpesviral": 6000,
      "463": 6001,
      "stro": 6002,
      "yphen": 6003,
      "idyl": 6004,
      "hexyphen": 6005,
      "anges": 6006,
      "trihexyphen": 6007,
      "azopt": 6008,
      "trihexyphenidyl": 6009,
      "gum": 6010,
      "urethra": 6011,
      "produ": 6012,
      "pleura": 6013,
      "glands": 6014,
      "thorax": 6015,
      "emer": 6016,
      "emergency": 6017,
      "sexual": 6018,
      "states": 6019,
      "ellipt": 6020,
      "painful": 6021,
      "felb": 6022,
      "metholone": 6023,
      "fluorometholone": 6024,
      "uitary": 6025,
      "pituitary": 6026,
      "aplastic": 6027,
      "femoral": 6028,
      "oropharyngeal": 6029,
      "ellipta": 6030,
      "artment": 6031,
      "anky": 6032,
      "iplost": 6033,
      "romiplost": 6034,
      "pyloric": 6035,
      "romiplostim": 6036,
      "vehicles": 6037,
      "stane": 6038,
      "exeme": 6039,
      "exemestane": 6040,
      "bath": 6041,
      "extrahepatic": 6042,
      "retinal": 6043,
      "4200": 6044,
      "benzo": 6045,
      "eating": 6046,
      "thre": 6047,
      "valerate": 6048,
      "465": 6049,
      "fomycin": 6050,
      "fosfomycin": 6051,
      "fractures": 6052,
      "twin": 6053,
      "gens": 6054,
      "469": 6055,
      "rux": 6056,
      "ruxol": 6057,
      "atened": 6058,
      "irrigation": 6059,
      "tlcl": 6060,
      "threatened": 6061,
      "granulo": 6062,
      "damage": 6063,
      "fron": 6064,
      "micron": 6065,
      "front": 6066,
      "combin": 6067,
      "middle": 6068,
      "ulum": 6069,
      "stroke": 6070,
      "pangest": 6071,
      "ides": 6072,
      "finamide": 6073,
      "mycosis": 6074,
      "rufinamide": 6075,
      "tun": 6076,
      "itu": 6077,
      "propoxy": 6078,
      "intertrochanteric": 6079,
      "phene": 6080,
      "propoxyphene": 6081,
      "unolol": 6082,
      "levob": 6083,
      "levobunolol": 6084,
      "inosa": 6085,
      "uginosa": 6086,
      "pseudomallei": 6087,
      "aeruginosa": 6088,
      "antr": 6089,
      "468": 6090,
      "inhib": 6091,
      "lateral": 6092,
      "dietary": 6093,
      "bicalutamide": 6094,
      "psoriatic": 6095,
      "pangestyme": 6096,
      "duration": 6097,
      "micronized": 6098,
      "onia": 6099,
      "476": 6100,
      "bod": 6101,
      "inosis": 6102,
      "letri": 6103,
      "calcinosis": 6104,
      "imatinib": 6105,
      "carpal": 6106,
      "veletri": 6107,
      "memory": 6108,
      "edarone": 6109,
      "ista": 6110,
      "dronedarone": 6111,
      "aspergil": 6112,
      "aspergillosis": 6113,
      "fal": 6114,
      "abl": 6115,
      "chlorpheniramine": 6116,
      "travoprost": 6117,
      "naph": 6118,
      "inamide": 6119,
      "atonin": 6120,
      "melatonin": 6121,
      "inferior": 6122,
      "evista": 6123,
      "472": 6124,
      "ruxolitinib": 6125,
      "insulins": 6126,
      "operating": 6127,
      "micort": 6128,
      "pulmicort": 6129,
      "pericarditis": 6130,
      "471": 6131,
      "474": 6132,
      "chondrocalcinosis": 6133,
      "naphazoline": 6134,
      "antide": 6135,
      "allergens": 6136,
      "malfunction": 6137,
      "pyraz": 6138,
      "cancer": 6139,
      "tan": 6140,
      "reth": 6141,
      "around": 6142,
      "positional": 6143,
      "pyrazinamide": 6144,
      "473": 6145,
      "stimul": 6146,
      "assa": 6147,
      "deformity": 6148,
      "azepril": 6149,
      "benazepril": 6150,
      "electrolyte": 6151,
      "rid": 6152,
      "forming": 6153,
      "lock": 6154,
      "teric": 6155,
      "enlarg": 6156,
      "testis": 6157,
      "benzoyl": 6158,
      "enlarged": 6159,
      "560": 6160,
      "foam": 6161,
      "ethac": 6162,
      "optic": 6163,
      "astine": 6164,
      "tunnel": 6165,
      "usa": 6166,
      "viaflex": 6167,
      "ynovitis": 6168,
      "osynovitis": 6169,
      "tenosynovitis": 6170,
      "assault": 6171,
      "von": 6172,
      "specification": 6173,
      "wy": 6174,
      "lewy": 6175,
      "bodies": 6176,
      "kep": 6177,
      "inhibitor": 6178,
      "keppra": 6179,
      "rout": 6180,
      "routine": 6181,
      "483": 6182,
      "decan": 6183,
      "decanoate": 6184,
      "ymes": 6185,
      "enzymes": 6186,
      "inhibitors": 6187,
      "ref": 6188,
      "nase": 6189,
      "ening": 6190,
      "agitation": 6191,
      "restlessness": 6192,
      "nonfamilial": 6193,
      "tolerance": 6194,
      "vio": 6195,
      "radius": 6196,
      "street": 6197,
      "pasm": 6198,
      "478": 6199,
      "lot": 6200,
      "apap": 6201,
      "astin": 6202,
      "myopathy": 6203,
      "tophi": 6204,
      "alph": 6205,
      "noreth": 6206,
      "antivir": 6207,
      "antiviral": 6208,
      "uch": 6209,
      "ffered": 6210,
      "buffered": 6211,
      "gastrojejun": 6212,
      "gastrojejunal": 6213,
      "purpo": 6214,
      "pop": 6215,
      "etze": 6216,
      "ospasm": 6217,
      "tietze": 6218,
      "481": 6219,
      "lite": 6220,
      "umb": 6221,
      "nonabsorption": 6222,
      "dornase": 6223,
      "poplite": 6224,
      "popliteal": 6225,
      "sely": 6226,
      "proben": 6227,
      "ecid": 6228,
      "angioma": 6229,
      "purposely": 6230,
      "probenecid": 6231,
      "qual": 6232,
      "fibula": 6233,
      "combinations": 6234,
      "479": 6235,
      "norethin": 6236,
      "ymous": 6237,
      "486": 6238,
      "norethindr": 6239,
      "aura": 6240,
      "cardia": 6241,
      "tension": 6242,
      "mobility": 6243,
      "murmur": 6244,
      "caries": 6245,
      "pack": 6246,
      "485": 6247,
      "477": 6248,
      "aug": 6249,
      "otitis": 6250,
      "cephalosporin": 6251,
      "2250": 6252,
      "retino": 6253,
      "norethindrone": 6254,
      "ected": 6255,
      "methylene": 6256,
      "hidrosis": 6257,
      "ozo": 6258,
      "488": 6259,
      "ptine": 6260,
      "myelitis": 6261,
      "kacin": 6262,
      "break": 6263,
      "amikacin": 6264,
      "484": 6265,
      "aque": 6266,
      "asbestos": 6267,
      "breakdown": 6268,
      "arcoma": 6269,
      "hyperhidrosis": 6270,
      "495": 6271,
      "umetone": 6272,
      "nabumetone": 6273,
      "mant": 6274,
      "mantle": 6275,
      "mycoses": 6276,
      "hes": 6277,
      "deriv": 6278,
      "varicella": 6279,
      "riptine": 6280,
      "ocriptine": 6281,
      "bromocriptine": 6282,
      "off": 6283,
      "presentation": 6284,
      "sure": 6285,
      "pancreatic": 6286,
      "derivatives": 6287,
      "hc": 6288,
      "tex": 6289,
      "xenogenic": 6290,
      "neuropathic": 6291,
      "rgic": 6292,
      "hemangioma": 6293,
      "482": 6294,
      "trace": 6295,
      "bacteriuria": 6296,
      "thyroiditis": 6297,
      "thumb": 6298,
      "struck": 6299,
      "gi": 6300,
      "eve": 6301,
      "jan": 6302,
      "version": 6303,
      "mate": 6304,
      "vap": 6305,
      "cole": 6306,
      "triazolam": 6307,
      "material": 6308,
      "suppur": 6309,
      "emir": 6310,
      "levemir": 6311,
      "524": 6312,
      "493": 6313,
      "lg": 6314,
      "gastroesophageal": 6315,
      "clev": 6316,
      "idipine": 6317,
      "gemcitabine": 6318,
      "quinidine": 6319,
      "clevidipine": 6320,
      "bif": 6321,
      "spine": 6322,
      "mopathy": 6323,
      "dystrophy": 6324,
      "gammopathy": 6325,
      "infected": 6326,
      "antidepressants": 6327,
      "pf": 6328,
      "kitt": 6329,
      "ethyl": 6330,
      "quadriple": 6331,
      "burkitt": 6332,
      "497": 6333,
      "tetrac": 6334,
      "ofla": 6335,
      "anarth": 6336,
      "midex": 6337,
      "arimidex": 6338,
      "tophus": 6339,
      "anarthria": 6340,
      "489": 6341,
      "sick": 6342,
      "510": 6343,
      "oflavin": 6344,
      "angle": 6345,
      "492": 6346,
      "brin": 6347,
      "circum": 6348,
      "anesthesia": 6349,
      "alog": 6350,
      "fice": 6351,
      "humalog": 6352,
      "remesis": 6353,
      "hyperemesis": 6354,
      "idarum": 6355,
      "gravidarum": 6356,
      "atra": 6357,
      "transretino": 6358,
      "quadriplegia": 6359,
      "transretinoic": 6360,
      "ose": 6361,
      "agonist": 6362,
      "riboflavin": 6363,
      "thio": 6364,
      "arsen": 6365,
      "supervision": 6366,
      "ovenous": 6367,
      "pca": 6368,
      "arteriovenous": 6369,
      "ylitis": 6370,
      "cing": 6371,
      "homon": 6372,
      "losing": 6373,
      "ureteral": 6374,
      "ankylosing": 6375,
      "arsenic": 6376,
      "homonymous": 6377,
      "wil": 6378,
      "ara": 6379,
      "road": 6380,
      "trioxide": 6381,
      "pericardial": 6382,
      "487": 6383,
      "agonists": 6384,
      "499": 6385,
      "clom": 6386,
      "minor": 6387,
      "elements": 6388,
      "product": 6389,
      "clomipramine": 6390,
      "scar": 6391,
      "ocular": 6392,
      "bim": 6393,
      "atoprost": 6394,
      "oth": 6395,
      "rition": 6396,
      "mictu": 6397,
      "primigravida": 6398,
      "placenta": 6399,
      "bimatoprost": 6400,
      "micturition": 6401,
      "aromatic": 6402,
      "nsr": 6403,
      "charid": 6404,
      "brand": 6405,
      "disaccharide": 6406,
      "disaccharid": 6407,
      "disaccharidase": 6408,
      "496": 6409,
      "491": 6410,
      "exist": 6411,
      "tetracycline": 6412,
      "existing": 6413,
      "genetic": 6414,
      "660": 6415,
      "chemical": 6416,
      "trand": 6417,
      "olapril": 6418,
      "viok": 6419,
      "trandolapril": 6420,
      "contract": 6421,
      "haler": 6422,
      "fab": 6423,
      "ercing": 6424,
      "piercing": 6425,
      "sympath": 6426,
      "gue": 6427,
      "spondylitis": 6428,
      "cutting": 6429,
      "rgics": 6430,
      "tongue": 6431,
      "flat": 6432,
      "heumatic": 6433,
      "omide": 6434,
      "idomide": 6435,
      "area": 6436,
      "selective": 6437,
      "jection": 6438,
      "yle": 6439,
      "rejection": 6440,
      "opyr": 6441,
      "disopyr": 6442,
      "disopyramide": 6443,
      "502": 6444,
      "methasone": 6445,
      "clomethasone": 6446,
      "beclomethasone": 6447,
      "nature": 6448,
      "das": 6449,
      "combo": 6450,
      "phalan": 6451,
      "494": 6452,
      "felbamate": 6453,
      "conf": 6454,
      "combigan": 6455,
      "irheumatic": 6456,
      "antirheumatic": 6457,
      "mented": 6458,
      "jug": 6459,
      "union": 6460,
      "505": 6461,
      "antis": 6462,
      "jugular": 6463,
      "515": 6464,
      "augmented": 6465,
      "incomplete": 6466,
      "conduct": 6467,
      "raden": 6468,
      "hidraden": 6469,
      "hidradenitis": 6470,
      "loop": 6471,
      "iling": 6472,
      "ceiling": 6473,
      "follicular": 6474,
      "bisop": 6475,
      "antisocial": 6476,
      "514": 6477,
      "rtia": 6478,
      "inertia": 6479,
      "thrombin": 6480,
      "dipropionate": 6481,
      "beat": 6482,
      "513": 6483,
      "postmenopausal": 6484,
      "10000": 6485,
      "antagonists": 6486,
      "unde": 6487,
      "nevir": 6488,
      "utin": 6489,
      "infanti": 6490,
      "ascending": 6491,
      "nevirapine": 6492,
      "infantile": 6493,
      "cran": 6494,
      "rifab": 6495,
      "rifabutin": 6496,
      "isop": 6497,
      "atax": 6498,
      "astigmine": 6499,
      "rivastigmine": 6500,
      "501": 6501,
      "andro": 6502,
      "intrapelvic": 6503,
      "uses": 6504,
      "developmental": 6505,
      "antirheumatics": 6506,
      "508": 6507,
      "pleur": 6508,
      "giant": 6509,
      "reno": 6510,
      "sinuses": 6511,
      "rider": 6512,
      "urotic": 6513,
      "termined": 6514,
      "angione": 6515,
      "undetermined": 6516,
      "angioneurotic": 6517,
      "rain": 6518,
      "terrain": 6519,
      "malform": 6520,
      "malformations": 6521,
      "525": 6522,
      "entering": 6523,
      "ureteric": 6524,
      "melphalan": 6525,
      "hiccough": 6526,
      "meningococcal": 6527,
      "walk": 6528,
      "4600": 6529,
      "period": 6530,
      "bisoprolol": 6531,
      "ptosis": 6532,
      "506": 6533,
      "urge": 6534,
      "apsed": 6535,
      "cab": 6536,
      "fingers": 6537,
      "counsel": 6538,
      "development": 6539,
      "counseling": 6540,
      "lactam": 6541,
      "503": 6542,
      "quate": 6543,
      "prediabetes": 6544,
      "rilp": 6545,
      "objects": 6546,
      "tinib": 6547,
      "tubu": 6548,
      "collapsed": 6549,
      "trigem": 6550,
      "511": 6551,
      "lopi": 6552,
      "chori": 6553,
      "diphthe": 6554,
      "orifice": 6555,
      "fallopi": 6556,
      "rilpivir": 6557,
      "fallopian": 6558,
      "507": 6559,
      "dasatinib": 6560,
      "cardiomegaly": 6561,
      "diphtheria": 6562,
      "chial": 6563,
      "509": 6564,
      "hour": 6565,
      "rilpivirine": 6566,
      "tubulo": 6567,
      "contracture": 6568,
      "trigeminal": 6569,
      "rynic": 6570,
      "ethacrynic": 6571,
      "498": 6572,
      "acarb": 6573,
      "brachial": 6574,
      "blistex": 6575,
      "640": 6576,
      "extract": 6577,
      "loxifen": 6578,
      "raloxifen": 6579,
      "raloxifene": 6580,
      "kyphosis": 6581,
      "quinine": 6582,
      "sport": 6583,
      "healed": 6584,
      "rasag": 6585,
      "viokase": 6586,
      "eous": 6587,
      "ineural": 6588,
      "orineural": 6589,
      "sensorineural": 6590,
      "vian": 6591,
      "lavian": 6592,
      "subclavian": 6593,
      "hemoperitoneum": 6594,
      "tec": 6595,
      "herpetic": 6596,
      "mect": 6597,
      "ivermect": 6598,
      "ivermectin": 6599,
      "q10": 6600,
      "eruct": 6601,
      "eructation": 6602,
      "4300": 6603,
      "517": 6604,
      "518": 6605,
      "dan": 6606,
      "main": 6607,
      "postabl": 6608,
      "bathroom": 6609,
      "rasagiline": 6610,
      "postablative": 6611,
      "580": 6612,
      "unqual": 6613,
      "intraperitoneal": 6614,
      "unqualified": 6615,
      "glass": 6616,
      "osbu": 6617,
      "pubis": 6618,
      "sofosbu": 6619,
      "circumst": 6620,
      "sofosbuvir": 6621,
      "chills": 6622,
      "granulom": 6623,
      "homic": 6624,
      "pletal": 6625,
      "trium": 6626,
      "homicidal": 6627,
      "lebrand": 6628,
      "willebrand": 6629,
      "sigmoid": 6630,
      "uz": 6631,
      "changes": 6632,
      "actra": 6633,
      "menactra": 6634,
      "everolimus": 6635,
      "4800": 6636,
      "semin": 6637,
      "dissemin": 6638,
      "multi": 6639,
      "disseminated": 6640,
      "gal": 6641,
      "maxil": 6642,
      "ulence": 6643,
      "flatulence": 6644,
      "516": 6645,
      "mito": 6646,
      "emophilus": 6647,
      "haemophilus": 6648,
      "chondrial": 6649,
      "mitochondrial": 6650,
      "thiothi": 6651,
      "xene": 6652,
      "thiothixene": 6653,
      "seleg": 6654,
      "cramp": 6655,
      "feet": 6656,
      "selegiline": 6657,
      "alpha": 6658,
      "maxillary": 6659,
      "reflex": 6660,
      "overlap": 6661,
      "519": 6662,
      "sarcoma": 6663,
      "stimulant": 6664,
      "530": 6665,
      "jaw": 6666,
      "malformation": 6667,
      "causes": 6668,
      "odystrophy": 6669,
      "extraction": 6670,
      "beats": 6671,
      "crystal": 6672,
      "erma": 6673,
      "tolvap": 6674,
      "pariet": 6675,
      "instrument": 6676,
      "tolvaptan": 6677,
      "523": 6678,
      "ionate": 6679,
      "common": 6680,
      "insipid": 6681,
      "insipidus": 6682,
      "dt": 6683,
      "envir": 6684,
      "tendons": 6685,
      "brinzolamide": 6686,
      "environ": 6687,
      "ctomy": 6688,
      "nonproliferative": 6689,
      "ony": 6690,
      "512": 6691,
      "liximab": 6692,
      "infliximab": 6693,
      "nonunion": 6694,
      "antipyretic": 6695,
      "sebor": 6696,
      "isthm": 6697,
      "repe": 6698,
      "isthmus": 6699,
      "unste": 6700,
      "adiness": 6701,
      "unsteadiness": 6702,
      "azel": 6703,
      "forehead": 6704,
      "olytics": 6705,
      "alasia": 6706,
      "aspiration": 6707,
      "achalasia": 6708,
      "ortion": 6709,
      "648": 6710,
      "utinib": 6711,
      "ylar": 6712,
      "rheic": 6713,
      "androgel": 6714,
      "seborrheic": 6715,
      "ulators": 6716,
      "temozo": 6717,
      "temozolo": 6718,
      "tadine": 6719,
      "heptadine": 6720,
      "proheptadine": 6721,
      "cyproheptadine": 6722,
      "refusal": 6723,
      "521": 6724,
      "teeth": 6725,
      "azelastine": 6726,
      "tine": 6727,
      "tampon": 6728,
      "bursitis": 6729,
      "tamponade": 6730,
      "inement": 6731,
      "confinement": 6732,
      "poor": 6733,
      "temozolomide": 6734,
      "526": 6735,
      "cop": 6736,
      "orbital": 6737,
      "rutinib": 6738,
      "537": 6739,
      "dial": 6740,
      "osterior": 6741,
      "aerogen": 6742,
      "keratosis": 6743,
      "nails": 6744,
      "wegener": 6745,
      "restor": 6746,
      "illness": 6747,
      "granulomatosis": 6748,
      "apical": 6749,
      "balsal": 6750,
      "environmental": 6751,
      "icam": 6752,
      "omnip": 6753,
      "antiepileptic": 6754,
      "omnipaque": 6755,
      "urination": 6756,
      "syringes": 6757,
      "522": 6758,
      "types": 6759,
      "intras": 6760,
      "restorative": 6761,
      "532": 6762,
      "mast": 6763,
      "defib": 6764,
      "balsalazide": 6765,
      "fung": 6766,
      "oides": 6767,
      "intub": 6768,
      "mote": 6769,
      "fungoides": 6770,
      "cu": 6771,
      "hermia": 6772,
      "ibrutinib": 6773,
      "fecal": 6774,
      "diverticulum": 6775,
      "circulating": 6776,
      "531": 6777,
      "pyrimethamine": 6778,
      "bite": 6779,
      "hypothermia": 6780,
      "intraspinal": 6781,
      "actin": 6782,
      "circumstances": 6783,
      "prena": 6784,
      "galant": 6785,
      "mediastin": 6786,
      "floor": 6787,
      "mediastinum": 6788,
      "sorb": 6789,
      "ertion": 6790,
      "moterol": 6791,
      "methazolamide": 6792,
      "anesthetic": 6793,
      "amne": 6794,
      "passive": 6795,
      "7000": 6796,
      "process": 6797,
      "variable": 6798,
      "aired": 6799,
      "strains": 6800,
      "impaired": 6801,
      "sprains": 6802,
      "529": 6803,
      "wth": 6804,
      "amox": 6805,
      "precor": 6806,
      "nephrotic": 6807,
      "growth": 6808,
      "crystals": 6809,
      "precordial": 6810,
      "amprena": 6811,
      "fosamprena": 6812,
      "fosamprenavir": 6813,
      "coc": 6814,
      "ectasia": 6815,
      "enthes": 6816,
      "galantamine": 6817,
      "535": 6818,
      "transverse": 6819,
      "570": 6820,
      "536": 6821,
      "adenitis": 6822,
      "unidentified": 6823,
      "grade": 6824,
      "paration": 6825,
      "rexertion": 6826,
      "overexertion": 6827,
      "leolar": 6828,
      "imalleolar": 6829,
      "benzodiazepines": 6830,
      "copper": 6831,
      "exe": 6832,
      "545": 6833,
      "admission": 6834,
      "arization": 6835,
      "iatric": 6836,
      "nur": 6837,
      "regulators": 6838,
      "psychiatric": 6839,
      "lifest": 6840,
      "neur": 6841,
      "acea": 6842,
      "exelon": 6843,
      "nursing": 6844,
      "lifestyle": 6845,
      "depol": 6846,
      "afenib": 6847,
      "bursae": 6848,
      "depolarization": 6849,
      "empy": 6850,
      "phosarcoma": 6851,
      "lymphosarcoma": 6852,
      "empyema": 6853,
      "iomyelitis": 6854,
      "poliomyelitis": 6855,
      "facility": 6856,
      "degenerative": 6857,
      "533": 6858,
      "enthesopathy": 6859,
      "zone": 6860,
      "cephalosporins": 6861,
      "538": 6862,
      "6500": 6863,
      "flexhaler": 6864,
      "copa": 6865,
      "leak": 6866,
      "ethylsuccinate": 6867,
      "coccy": 6868,
      "vil": 6869,
      "rosacea": 6870,
      "pernic": 6871,
      "valtrex": 6872,
      "pernicious": 6873,
      "cuff": 6874,
      "534": 6875,
      "bild": 6876,
      "rotator": 6877,
      "stribild": 6878,
      "vigamox": 6879,
      "5400": 6880,
      "527": 6881,
      "periodont": 6882,
      "methy": 6883,
      "myoclon": 6884,
      "fire": 6885,
      "myoclonus": 6886,
      "ialler": 6887,
      "antialler": 6888,
      "antieme": 6889,
      "antiallergic": 6890,
      "antiemetic": 6891,
      "fissure": 6892,
      "ulf": 6893,
      "iasis": 6894,
      "iva": 6895,
      "guage": 6896,
      "language": 6897,
      "grand": 6898,
      "ataxia": 6899,
      "544": 6900,
      "620": 6901,
      "539": 6902,
      "oles": 6903,
      "lichen": 6904,
      "zy": 6905,
      "busulf": 6906,
      "busulfan": 6907,
      "igen": 6908,
      "formoterol": 6909,
      "549": 6910,
      "stent": 6911,
      "rination": 6912,
      "defibrination": 6913,
      "ulna": 6914,
      "fort": 6915,
      "touch": 6916,
      "anesthetics": 6917,
      "aco": 6918,
      "pionate": 6919,
      "char": 6920,
      "cypionate": 6921,
      "flextouch": 6922,
      "antigen": 6923,
      "ngeal": 6924,
      "coccal": 6925,
      "staphylococcal": 6926,
      "6400": 6927,
      "arism": 6928,
      "itarism": 6929,
      "opic": 6930,
      "ldopa": 6931,
      "555": 6932,
      "hypopitu": 6933,
      "methyldopa": 6934,
      "hypopituitarism": 6935,
      "680": 6936,
      "fibromatosis": 6937,
      "excretion": 6938,
      "iodine": 6939,
      "amb": 6940,
      "asvir": 6941,
      "528": 6942,
      "ondylar": 6943,
      "adreno": 6944,
      "adrenoreceptor": 6945,
      "d3": 6946,
      "26mg": 6947,
      "24mg": 6948,
      "546": 6949,
      "542": 6950,
      "556": 6951,
      "femara": 6952,
      "utility": 6953,
      "frontal": 6954,
      "uvia": 6955,
      "oxantr": 6956,
      "543": 6957,
      "548": 6958,
      "mitoxantr": 6959,
      "januvia": 6960,
      "mitoxantrone": 6961,
      "630": 6962,
      "crot": 6963,
      "mechanism": 6964,
      "ucon": 6965,
      "isav": 6966,
      "azonium": 6967,
      "fixation": 6968,
      "uconazonium": 6969,
      "isavuconazonium": 6970,
      "zyr": 6971,
      "psa": 6972,
      "zyrtec": 6973,
      "lidin": 6974,
      "oderma": 6975,
      "proct": 6976,
      "ophary": 6977,
      "bulk": 6978,
      "uropathy": 6979,
      "oblastic": 6980,
      "575": 6981,
      "omen": 6982,
      "score": 6983,
      "anomaly": 6984,
      "rum": 6985,
      "oprol": 6986,
      "oproliferative": 6987,
      "est": 6988,
      "pov": 6989,
      "4700": 6990,
      "activated": 6991,
      "590": 6992,
      "atol": 6993,
      "odynia": 6994,
      "povidone": 6995,
      "influenzae": 6996,
      "hood": 6997,
      "childhood": 6998,
      "epidid": 6999,
      "lidinium": 7000,
      "pty": 7001,
      "empty": 7002,
      "membranous": 7003,
      "psychophy": 7004,
      "thoraco": 7005,
      "psychophys": 7006,
      "ohydr": 7007,
      "stemi": 7008,
      "bitartrate": 7009,
      "abortion": 7010,
      "synovitis": 7011,
      "renergics": 7012,
      "bree": 7013,
      "afib": 7014,
      "ropathies": 7015,
      "breech": 7016,
      "610": 7017,
      "intram": 7018,
      "anoxic": 7019,
      "547": 7020,
      "pirox": 7021,
      "intramural": 7022,
      "proair": 7023,
      "552": 7024,
      "amnios": 7025,
      "media": 7026,
      "atrophy": 7027,
      "reconstru": 7028,
      "avi": 7029,
      "roc": 7030,
      "osteodystrophy": 7031,
      "support": 7032,
      "maravi": 7033,
      "maraviroc": 7034,
      "rival": 7035,
      "arrival": 7036,
      "flucyt": 7037,
      "murmurs": 7038,
      "flucytosine": 7039,
      "department": 7040,
      "hypertonicity": 7041,
      "istic": 7042,
      "553": 7043,
      "don": 7044,
      "osum": 7045,
      "tubal": 7046,
      "real": 7047,
      "chain": 7048,
      "lant": 7049,
      "554": 7050,
      "undiagno": 7051,
      "carisop": 7052,
      "rodol": 7053,
      "undiagnosed": 7054,
      "carisoprodol": 7055,
      "vim": 7056,
      "lantus": 7057,
      "541": 7058,
      "lenal": 7059,
      "palmit": 7060,
      "lenalidomide": 7061,
      "palmitate": 7062,
      "posterior": 7063,
      "isoimmunization": 7064,
      "famciclovir": 7065,
      "anaero": 7066,
      "separation": 7067,
      "anaerobes": 7068,
      "indap": 7069,
      "metidine": 7070,
      "cimetidine": 7071,
      "557": 7072,
      "indapamide": 7073,
      "561": 7074,
      "559": 7075,
      "585": 7076,
      "ologic": 7077,
      "uri": 7078,
      "leng": 7079,
      "net": 7080,
      "apartment": 7081,
      "carnet": 7082,
      "foscarnet": 7083,
      "agenesis": 7084,
      "5800": 7085,
      "558": 7086,
      "overlapping": 7087,
      "corpo": 7088,
      "mt": 7089,
      "004": 7090,
      "extracorpo": 7091,
      "suppurative": 7092,
      "extracorporeal": 7093,
      "ilis": 7094,
      "neglect": 7095,
      "spina": 7096,
      "bifida": 7097,
      "chitis": 7098,
      "orchitis": 7099,
      "565": 7100,
      "567": 7101,
      "571": 7102,
      "rhesus": 7103,
      "ibility": 7104,
      "anaphy": 7105,
      "aging": 7106,
      "imaging": 7107,
      "iglitazone": 7108,
      "rosiglitazone": 7109,
      "immunological": 7110,
      "lla": 7111,
      "penis": 7112,
      "alis": 7113,
      "ensin": 7114,
      "autistic": 7115,
      "vasive": 7116,
      "odil": 7117,
      "vasodil": 7118,
      "vasodilators": 7119,
      "rent": 7120,
      "linz": 7121,
      "conjugate": 7122,
      "prostat": 7123,
      "overweight": 7124,
      "linzess": 7125,
      "prostatitis": 7126,
      "aud": 7127,
      "ett": 7128,
      "leuprol": 7129,
      "abdomen": 7130,
      "auditory": 7131,
      "leuprolide": 7132,
      "hema": 7133,
      "erg": 7134,
      "551": 7135,
      "5200": 7136,
      "ocele": 7137,
      "follicles": 7138,
      "being": 7139,
      "ophilic": 7140,
      "562": 7141,
      "9000": 7142,
      "ricase": 7143,
      "buricase": 7144,
      "rasburicase": 7145,
      "rap": 7146,
      "urology": 7147,
      "gastroentero": 7148,
      "idarubicin": 7149,
      "supporting": 7150,
      "gastroenterology": 7151,
      "olipid": 7152,
      "tabs": 7153,
      "conversion": 7154,
      "phospholipid": 7155,
      "antiphospholipid": 7156,
      "shortening": 7157,
      "cysts": 7158,
      "kap": 7159,
      "cry": 7160,
      "strenuous": 7161,
      "contrac": 7162,
      "563": 7163,
      "tag": 7164,
      "vit": 7165,
      "psin": 7166,
      "contracept": 7167,
      "568": 7168,
      "itol": 7169,
      "desc": 7170,
      "ypsin": 7171,
      "itrypsin": 7172,
      "antitrypsin": 7173,
      "pervasive": 7174,
      "osi": 7175,
      "lysis": 7176,
      "ferent": 7177,
      "kaposi": 7178,
      "lesions": 7179,
      "stu": 7180,
      "morphologic": 7181,
      "bular": 7182,
      "anterol": 7183,
      "erythema": 7184,
      "emptying": 7185,
      "crosis": 7186,
      "onecrosis": 7187,
      "feron": 7188,
      "osteonecrosis": 7189,
      "interferon": 7190,
      "566": 7191,
      "573": 7192,
      "umec": 7193,
      "zed": 7194,
      "exter": 7195,
      "infectives": 7196,
      "ledip": 7197,
      "dies": 7198,
      "comfort": 7199,
      "2668": 7200,
      "clavic": 7201,
      "vesic": 7202,
      "encephalo": 7203,
      "studies": 7204,
      "ledipasvir": 7205,
      "5100": 7206,
      "588": 7207,
      "ki": 7208,
      "salt": 7209,
      "clavicle": 7210,
      "5500": 7211,
      "vitr": 7212,
      "itative": 7213,
      "intrauterine": 7214,
      "chorionic": 7215,
      "encephal": 7216,
      "novol": 7217,
      "novolin": 7218,
      "clor": 7219,
      "hit": 7220,
      "otsub": 7221,
      "takotsub": 7222,
      "materials": 7223,
      "amnesia": 7224,
      "takotsubo": 7225,
      "season": 7226,
      "obste": 7227,
      "broad": 7228,
      "intraoperative": 7229,
      "577": 7230,
      "istin": 7231,
      "propyl": 7232,
      "pancrease": 7233,
      "sorbitol": 7234,
      "contraceptive": 7235,
      "encephalitis": 7236,
      "six": 7237,
      "sacrum": 7238,
      "574": 7239,
      "predominant": 7240,
      "applicator": 7241,
      "572": 7242,
      "ilding": 7243,
      "colistin": 7244,
      "articular": 7245,
      "building": 7246,
      "preservision": 7247,
      "selen": 7248,
      "nef": 7249,
      "diamniotic": 7250,
      "perature": 7251,
      "temperature": 7252,
      "genesis": 7253,
      "dysgenesis": 7254,
      "anoro": 7255,
      "umeclidinium": 7256,
      "olus": 7257,
      "atar": 7258,
      "eltro": 7259,
      "emot": 7260,
      "vulvo": 7261,
      "tachy": 7262,
      "vulvovaginitis": 7263,
      "564": 7264,
      "selenium": 7265,
      "nefazodone": 7266,
      "ange": 7267,
      "dysphonia": 7268,
      "susceptibility": 7269,
      "tachypnea": 7270,
      "isol": 7271,
      "concus": 7272,
      "aliski": 7273,
      "concussion": 7274,
      "aliskiren": 7275,
      "594": 7276,
      "ico": 7277,
      "sut": 7278,
      "impaction": 7279,
      "tinea": 7280,
      "reconstructive": 7281,
      "opag": 7282,
      "azepate": 7283,
      "mbopag": 7284,
      "schizophrenic": 7285,
      "fetus": 7286,
      "clorazepate": 7287,
      "eltrombopag": 7288,
      "zen": 7289,
      "temporal": 7290,
      "axillary": 7291,
      "psychological": 7292,
      "tags": 7293,
      "hss": 7294,
      "atoform": 7295,
      "nihss": 7296,
      "somatoform": 7297,
      "anaphylactic": 7298,
      "ya": 7299,
      "olate": 7300,
      "trifluo": 7301,
      "cyclopent": 7302,
      "globulinemia": 7303,
      "macroglobulinemia": 7304,
      "trifluoperazine": 7305,
      "cyclopentolate": 7306,
      "569": 7307,
      "576": 7308,
      "smo": 7309,
      "utes": 7310,
      "capsu": 7311,
      "graf": 7312,
      "metatar": 7313,
      "dipotassium": 7314,
      "589": 7315,
      "soma": 7316,
      "lotinib": 7317,
      "so4": 7318,
      "vitreous": 7319,
      "hydrin": 7320,
      "5600": 7321,
      "eh": 7322,
      "asen": 7323,
      "univ": 7324,
      "cecum": 7325,
      "sacro": 7326,
      "lers": 7327,
      "danlos": 7328,
      "ehlers": 7329,
      "hing": 7330,
      "uric": 7331,
      "dequate": 7332,
      "inadequate": 7333,
      "rev": 7334,
      "hydrocele": 7335,
      "ersal": 7336,
      "blister": 7337,
      "universal": 7338,
      "serous": 7339,
      "cardiospasm": 7340,
      "drenergics": 7341,
      "lotem": 7342,
      "lens": 7343,
      "oglobulin": 7344,
      "iadrenergics": 7345,
      "antiadrenergics": 7346,
      "retained": 7347,
      "bedroom": 7348,
      "sympatholytics": 7349,
      "lotemax": 7350,
      "6200": 7351,
      "za": 7352,
      "syno": 7353,
      "tinnit": 7354,
      "immunoglobulin": 7355,
      "gamma": 7356,
      "synovial": 7357,
      "tinnitus": 7358,
      "593": 7359,
      "578": 7360,
      "flum": 7361,
      "scre": 7362,
      "uncle": 7363,
      "coq10": 7364,
      "583": 7365,
      "596": 7366,
      "constitu": 7367,
      "cystostomy": 7368,
      "greater": 7369,
      "sympathetic": 7370,
      "repeated": 7371,
      "constituents": 7372,
      "rystal": 7373,
      "nanoc": 7374,
      "605": 7375,
      "lized": 7376,
      "rystallized": 7377,
      "nanocrystallized": 7378,
      "thiosulfate": 7379,
      "metatarsal": 7380,
      "pristi": 7381,
      "nonpsychotic": 7382,
      "pristiq": 7383,
      "nose": 7384,
      "5300": 7385,
      "592": 7386,
      "dry": 7387,
      "uter": 7388,
      "lig": 7389,
      "polyarthropathy": 7390,
      "ezing": 7391,
      "ymo": 7392,
      "protopic": 7393,
      "substit": 7394,
      "activities": 7395,
      "582": 7396,
      "gase": 7397,
      "lute": 7398,
      "ages": 7399,
      "groin": 7400,
      "lial": 7401,
      "outer": 7402,
      "agmus": 7403,
      "sulfide": 7404,
      "periapical": 7405,
      "nystagmus": 7406,
      "587": 7407,
      "ala": 7408,
      "wheezing": 7409,
      "nonsurgical": 7410,
      "neurologic": 7411,
      "parkinsonism": 7412,
      "afo": 7413,
      "ligation": 7414,
      "579": 7415,
      "basal": 7416,
      "postural": 7417,
      "asbestosis": 7418,
      "screening": 7419,
      "arthropathic": 7420,
      "claritin": 7421,
      "periodontitis": 7422,
      "cobic": 7423,
      "capsule": 7424,
      "cobicist": 7425,
      "oas": 7426,
      "pla": 7427,
      "pneumoc": 7428,
      "psoas": 7429,
      "olones": 7430,
      "izumab": 7431,
      "systane": 7432,
      "tdap": 7433,
      "talc": 7434,
      "sedated": 7435,
      "tenofov": 7436,
      "endometrium": 7437,
      "asenapine": 7438,
      "tritis": 7439,
      "dichorionic": 7440,
      "pate": 7441,
      "ulnar": 7442,
      "2c": 7443,
      "chal": 7444,
      "persons": 7445,
      "oligohydr": 7446,
      "oligohydramnios": 7447,
      "alf": 7448,
      "urces": 7449,
      "602": 7450,
      "posed": 7451,
      "vest": 7452,
      "atripla": 7453,
      "medium": 7454,
      "revlim": 7455,
      "pyonephrosis": 7456,
      "lycerides": 7457,
      "triglycerides": 7458,
      "acarbose": 7459,
      "revlimid": 7460,
      "derange": 7461,
      "hyperosmol": 7462,
      "581": 7463,
      "habil": 7464,
      "rehabil": 7465,
      "omime": 7466,
      "heartburn": 7467,
      "hours": 7468,
      "piroxicam": 7469,
      "rehabilitative": 7470,
      "orom": 7471,
      "ival": 7472,
      "temporom": 7473,
      "andibular": 7474,
      "temporomandibular": 7475,
      "595": 7476,
      "584": 7477,
      "tts": 7478,
      "canal": 7479,
      "crypt": 7480,
      "hemothorax": 7481,
      "dexameth": 7482,
      "cemia": 7483,
      "frag": 7484,
      "thiouracil": 7485,
      "pleurodynia": 7486,
      "propylthiouracil": 7487,
      "740": 7488,
      "prograf": 7489,
      "gon": 7490,
      "gestational": 7491,
      "glomerular": 7492,
      "ymitis": 7493,
      "epididymitis": 7494,
      "597": 7495,
      "erect": 7496,
      "hyperuri": 7497,
      "postherpetic": 7498,
      "myelofibrosis": 7499,
      "aceous": 7500,
      "tophaceous": 7501,
      "uzosin": 7502,
      "alfuzosin": 7503,
      "erectile": 7504,
      "hyperuricemia": 7505,
      "612": 7506,
      "econazole": 7507,
      "lipos": 7508,
      "sixth": 7509,
      "novo": 7510,
      "copaxone": 7511,
      "seasonal": 7512,
      "novolog": 7513,
      "volumen": 7514,
      "noc": 7515,
      "rofib": 7516,
      "tirofib": 7517,
      "four": 7518,
      "cobicistat": 7519,
      "tirofiban": 7520,
      "oalveolar": 7521,
      "loadenitis": 7522,
      "ider": 7523,
      "cefto": 7524,
      "sialoadenitis": 7525,
      "lozane": 7526,
      "pneumonopathies": 7527,
      "parietoalveolar": 7528,
      "ceftolozane": 7529,
      "591": 7530,
      "ilar": 7531,
      "lipoma": 7532,
      "thoracoabdominal": 7533,
      "598": 7534,
      "iscus": 7535,
      "601": 7536,
      "meniscus": 7537,
      "ging": 7538,
      "amic": 7539,
      "hydantoin": 7540,
      "lymphoblastic": 7541,
      "actinic": 7542,
      "derangement": 7543,
      "instruments": 7544,
      "670": 7545,
      "ropod": 7546,
      "antim": 7547,
      "arthropod": 7548,
      "coccyx": 7549,
      "death": 7550,
      "compart": 7551,
      "6700": 7552,
      "bronchospasm": 7553,
      "loading": 7554,
      "compartment": 7555,
      "675": 7556,
      "acetab": 7557,
      "ticlop": 7558,
      "4900": 7559,
      "space": 7560,
      "completed": 7561,
      "ticlopidine": 7562,
      "otec": 7563,
      "impel": 7564,
      "adural": 7565,
      "extradural": 7566,
      "impella": 7567,
      "acia": 7568,
      "clot": 7569,
      "reness": 7570,
      "len": 7571,
      "myel": 7572,
      "awareness": 7573,
      "586": 7574,
      "asphy": 7575,
      "otensin": 7576,
      "dimen": 7577,
      "olecran": 7578,
      "ivary": 7579,
      "salivary": 7580,
      "angiotensin": 7581,
      "ethin": 7582,
      "conjunctival": 7583,
      "intubated": 7584,
      "hydrinate": 7585,
      "dimenhydrinate": 7586,
      "olecranon": 7587,
      "607": 7588,
      "denies": 7589,
      "adip": 7590,
      "osity": 7591,
      "igning": 7592,
      "joints": 7593,
      "feigning": 7594,
      "polymyositis": 7595,
      "onychia": 7596,
      "otecan": 7597,
      "adiposity": 7598,
      "dha": 7599,
      "tary": 7600,
      "vation": 7601,
      "ibular": 7602,
      "rytary": 7603,
      "vestibular": 7604,
      "604": 7605,
      "606": 7606,
      "dysmetabolic": 7607,
      "xiation": 7608,
      "asphyxiation": 7609,
      "6600": 7610,
      "zof": 7611,
      "teg": 7612,
      "insulinemia": 7613,
      "capsul": 7614,
      "izing": 7615,
      "hypoinsulinemia": 7616,
      "functions": 7617,
      "scleros": 7618,
      "myelin": 7619,
      "dome": 7620,
      "retol": 7621,
      "tegretol": 7622,
      "iled": 7623,
      "failed": 7624,
      "tooth": 7625,
      "identity": 7626,
      "kinking": 7627,
      "ethinyl": 7628,
      "zofran": 7629,
      "arity": 7630,
      "scap": 7631,
      "bictegr": 7632,
      "panhypopituitarism": 7633,
      "bictegrav": 7634,
      "venom": 7635,
      "sidewalk": 7636,
      "respirator": 7637,
      "lac": 7638,
      "viii": 7639,
      "ics": 7640,
      "hyperal": 7641,
      "eosinophilic": 7642,
      "960": 7643,
      "atonic": 7644,
      "menor": 7645,
      "petr": 7646,
      "ivity": 7647,
      "catatonic": 7648,
      "sensitivity": 7649,
      "cted": 7650,
      "neal": 7651,
      "corneal": 7652,
      "norwalk": 7653,
      "intervent": 7654,
      "sympathomime": 7655,
      "externa": 7656,
      "ources": 7657,
      "ocation": 7658,
      "bilic": 7659,
      "resources": 7660,
      "syncyt": 7661,
      "suffocation": 7662,
      "acetabulum": 7663,
      "syncytial": 7664,
      "599": 7665,
      "inph": 7666,
      "demyelin": 7667,
      "iff": 7668,
      "examic": 7669,
      "throid": 7670,
      "5700": 7671,
      "51mg": 7672,
      "49mg": 7673,
      "tranexamic": 7674,
      "tibial": 7675,
      "623": 7676,
      "exoc": 7677,
      "resp": 7678,
      "equ": 7679,
      "inotecan": 7680,
      "irinotecan": 7681,
      "608": 7682,
      "pyoderma": 7683,
      "opharyngeal": 7684,
      "exocrine": 7685,
      "760": 7686,
      "anhydr": 7687,
      "preterm": 7688,
      "carbonic": 7689,
      "vilanterol": 7690,
      "anhydrase": 7691,
      "ingest": 7692,
      "somn": 7693,
      "ingestion": 7694,
      "isy": 7695,
      "accid": 7696,
      "conver": 7697,
      "omet": 7698,
      "loxapine": 7699,
      "parest": 7700,
      "pleurisy": 7701,
      "scrot": 7702,
      "venomous": 7703,
      "ared": 7704,
      "ginal": 7705,
      "obser": 7706,
      "nonvenomous": 7707,
      "angiitis": 7708,
      "marginal": 7709,
      "990": 7710,
      "arterioles": 7711,
      "variants": 7712,
      "caberg": 7713,
      "proctitis": 7714,
      "observation": 7715,
      "cabergoline": 7716,
      "609": 7717,
      "scrotum": 7718,
      "690": 7719,
      "odart": 7720,
      "pkg": 7721,
      "avodart": 7722,
      "635": 7723,
      "603": 7724,
      "medial": 7725,
      "sacs": 7726,
      "vesicare": 7727,
      "demyelinating": 7728,
      "somnole": 7729,
      "626": 7730,
      "stav": 7731,
      "neuronitis": 7732,
      "vimpat": 7733,
      "stavudine": 7734,
      "618": 7735,
      "6300": 7736,
      "cup": 7737,
      "elax": 7738,
      "arthrosis": 7739,
      "periumbilic": 7740,
      "narcotic": 7741,
      "somnolence": 7742,
      "ef": 7743,
      "ativa": 7744,
      "ili": 7745,
      "albu": 7746,
      "ocytosis": 7747,
      "sensory": 7748,
      "suppurativa": 7749,
      "graded": 7750,
      "lenge": 7751,
      "challenge": 7752,
      "613": 7753,
      "oplegia": 7754,
      "ograp": 7755,
      "calculous": 7756,
      "diazide": 7757,
      "iadiazide": 7758,
      "benzoth": 7759,
      "perineum": 7760,
      "skelax": 7761,
      "phalanges": 7762,
      "ographic": 7763,
      "iadiazides": 7764,
      "benzothiadiazides": 7765,
      "skelaxin": 7766,
      "mph": 7767,
      "pemph": 7768,
      "hypersensitivity": 7769,
      "pemphig": 7770,
      "633": 7771,
      "iopharyngeal": 7772,
      "num": 7773,
      "mesen": 7774,
      "100ml": 7775,
      "condu": 7776,
      "salate": 7777,
      "salsalate": 7778,
      "craniopharyngeal": 7779,
      "rgon": 7780,
      "within": 7781,
      "genvo": 7782,
      "hylergon": 7783,
      "methylergon": 7784,
      "ovine": 7785,
      "hepatopulmonary": 7786,
      "areds": 7787,
      "genvoya": 7788,
      "methylergonovine": 7789,
      "kw": 7790,
      "imia": 7791,
      "polyneuritis": 7792,
      "inhaled": 7793,
      "bulimia": 7794,
      "614": 7795,
      "momet": 7796,
      "glut": 7797,
      "mometasone": 7798,
      "ulfir": 7799,
      "disulfir": 7800,
      "disulfiram": 7801,
      "634": 7802,
      "bival": 7803,
      "atum": 7804,
      "oscle": 7805,
      "irudin": 7806,
      "iba": 7807,
      "cornea": 7808,
      "bivalirudin": 7809,
      "hero": 7810,
      "droperidol": 7811,
      "liposomal": 7812,
      "gain": 7813,
      "mé": 7814,
      "rf": 7815,
      "ère": 7816,
      "retic": 7817,
      "cholelith": 7818,
      "nière": 7819,
      "merrf": 7820,
      "ménière": 7821,
      "cholelithiasis": 7822,
      "ileum": 7823,
      "athione": 7824,
      "glutathione": 7825,
      "brivar": 7826,
      "brivaracetam": 7827,
      "cava": 7828,
      "vena": 7829,
      "risentan": 7830,
      "ambrisentan": 7831,
      "patella": 7832,
      "biot": 7833,
      "bas": 7834,
      "clotting": 7835,
      "616": 7836,
      "riz": 7837,
      "access": 7838,
      "falls": 7839,
      "overactive": 7840,
      "bimalleolar": 7841,
      "subserous": 7842,
      "hemophilus": 7843,
      "aglipt": 7844,
      "quam": 7845,
      "antif": 7846,
      "drp": 7847,
      "gangren": 7848,
      "bleomycin": 7849,
      "agliptin": 7850,
      "gangrenosum": 7851,
      "pouch": 7852,
      "6900": 7853,
      "comm": 7854,
      "butolol": 7855,
      "ungal": 7856,
      "antifungal": 7857,
      "615": 7858,
      "squam": 7859,
      "peg": 7860,
      "malle": 7861,
      "nondisplaced": 7862,
      "ystosis": 7863,
      "thrombophilia": 7864,
      "cerebel": 7865,
      "colest": 7866,
      "pneumocystosis": 7867,
      "squamous": 7868,
      "slow": 7869,
      "metal": 7870,
      "629": 7871,
      "645": 7872,
      "950": 7873,
      "xus": 7874,
      "tres": 7875,
      "plexus": 7876,
      "psychophysical": 7877,
      "zenpep": 7878,
      "malleolus": 7879,
      "tresiba": 7880,
      "dacarb": 7881,
      "diss": 7882,
      "dacarbazine": 7883,
      "calcified": 7884,
      "perianal": 7885,
      "c5": 7886,
      "nalbu": 7887,
      "phine": 7888,
      "perpetr": 7889,
      "radiographic": 7890,
      "dye": 7891,
      "hyperosmolarity": 7892,
      "nalbuphine": 7893,
      "perpetrator": 7894,
      "nias": 7895,
      "vesico": 7896,
      "niaspan": 7897,
      "611": 7898,
      "acebutolol": 7899,
      "phalanx": 7900,
      "617": 7901,
      "lous": 7902,
      "trel": 7903,
      "supr": 7904,
      "probi": 7905,
      "antiarteri": 7906,
      "osclerotic": 7907,
      "heroin": 7908,
      "antiarteriosclerotic": 7909,
      "hormones": 7910,
      "placentae": 7911,
      "sclerosing": 7912,
      "632": 7913,
      "gress": 7914,
      "aprac": 7915,
      "acetic": 7916,
      "lasia": 7917,
      "655": 7918,
      "desvenlafaxine": 7919,
      "lonidine": 7920,
      "gressive": 7921,
      "apraclonidine": 7922,
      "risk": 7923,
      "621": 7924,
      "oesophageal": 7925,
      "polydip": 7926,
      "pannic": 7927,
      "polydipsia": 7928,
      "panniculitis": 7929,
      "624": 7930,
      "rhythmia": 7931,
      "cauda": 7932,
      "iodide": 7933,
      "equina": 7934,
      "622": 7935,
      "631": 7936,
      "ave": 7937,
      "ucle": 7938,
      "trin": 7939,
      "lur": 7940,
      "stiff": 7941,
      "1875": 7942,
      "mononucle": 7943,
      "mononucleosis": 7944,
      "pig": 7945,
      "vater": 7946,
      "ampul": 7947,
      "enzalutamide": 7948,
      "neuromyelitis": 7949,
      "junel": 7950,
      "optica": 7951,
      "converting": 7952,
      "ampulla": 7953,
      "619": 7954,
      "electr": 7955,
      "predominantly": 7956,
      "atopic": 7957,
      "acne": 7958,
      "calcane": 7959,
      "erlotinib": 7960,
      "665": 7961,
      "vorti": 7962,
      "slur": 7963,
      "unar": 7964,
      "slurred": 7965,
      "commun": 7966,
      "lialda": 7967,
      "pigment": 7968,
      "citr": 7969,
      "fight": 7970,
      "kg": 7971,
      "pical": 7972,
      "wl": 7973,
      "lymphoproliferative": 7974,
      "brawl": 7975,
      "ociative": 7976,
      "dissociative": 7977,
      "vortioxetine": 7978,
      "unarmed": 7979,
      "ching": 7980,
      "hiking": 7981,
      "passages": 7982,
      "marching": 7983,
      "electrode": 7984,
      "myopathies": 7985,
      "assist": 7986,
      "radial": 7987,
      "pemphigoid": 7988,
      "fl": 7989,
      "atous": 7990,
      "salping": 7991,
      "652": 7992,
      "adequate": 7993,
      "fascicular": 7994,
      "probiotic": 7995,
      "nasone": 7996,
      "utero": 7997,
      "tera": 7998,
      "extrapy": 7999,
      "ramidal": 8000,
      "adhesive": 8001,
      "uzumab": 8002,
      "leakage": 8003,
      "salpingitis": 8004,
      "nasonex": 8005,
      "extrapyramidal": 8006,
      "bicondylar": 8007,
      "lying": 8008,
      "uterovaginal": 8009,
      "ridex": 8010,
      "peridex": 8011,
      "aspart": 8012,
      "osteitis": 8013,
      "4mg": 8014,
      "phant": 8015,
      "gummy": 8016,
      "phantom": 8017,
      "627": 8018,
      "unex": 8019,
      "brief": 8020,
      "gamunex": 8021,
      "thae": 8022,
      "lipo": 8023,
      "aphthae": 8024,
      "6100": 8025,
      "636": 8026,
      "lactaid": 8027,
      "blastine": 8028,
      "monoplegia": 8029,
      "vesical": 8030,
      "vinblastine": 8031,
      "iated": 8032,
      "vulus": 8033,
      "promine": 8034,
      "ylcypromine": 8035,
      "tranylcypromine": 8036,
      "pindolol": 8037,
      "volvulus": 8038,
      "ferentiated": 8039,
      "prin": 8040,
      "oxyl": 8041,
      "levoxyl": 8042,
      "pd": 8043,
      "mega": 8044,
      "asthmatic": 8045,
      "isolated": 8046,
      "trim": 8047,
      "osteron": 8048,
      "communic": 8049,
      "dosteron": 8050,
      "chymo": 8051,
      "ene": 8052,
      "ecchymo": 8053,
      "cystocele": 8054,
      "deformans": 8055,
      "granuloma": 8056,
      "dosteronism": 8057,
      "ecchymoses": 8058,
      "bine": 8059,
      "trast": 8060,
      "opho": 8061,
      "pyrexia": 8062,
      "trastuzumab": 8063,
      "muro": 8064,
      "incom": 8065,
      "asts": 8066,
      "thymus": 8067,
      "incr": 8068,
      "itabine": 8069,
      "icamide": 8070,
      "pecitabine": 8071,
      "shape": 8072,
      "capecitabine": 8073,
      "gene": 8074,
      "vacizumab": 8075,
      "tropicamide": 8076,
      "plantar": 8077,
      "649": 8078,
      "dysmenor": 8079,
      "bevacizumab": 8080,
      "turia": 8081,
      "parietal": 8082,
      "nocturia": 8083,
      "incruse": 8084,
      "dysmenorrhea": 8085,
      "social": 8086,
      "rimal": 8087,
      "udcup": 8088,
      "miscell": 8089,
      "gravid": 8090,
      "miscellaneous": 8091,
      "hemarthrosis": 8092,
      "lyme": 8093,
      "644": 8094,
      "646": 8095,
      "hyperaldosteronism": 8096,
      "neigh": 8097,
      "verbal": 8098,
      "max": 8099,
      "neighbor": 8100,
      "725": 8101,
      "fascial": 8102,
      "tuberous": 8103,
      "ification": 8104,
      "628": 8105,
      "iri": 8106,
      "sc": 8107,
      "641": 8108,
      "pyothorax": 8109,
      "encephalomyelitis": 8110,
      "ote": 8111,
      "coenzyme": 8112,
      "malpresentation": 8113,
      "induction": 8114,
      "jejunum": 8115,
      "substitutes": 8116,
      "fragilis": 8117,
      "lacrimal": 8118,
      "ardiac": 8119,
      "boro": 8120,
      "intracardiac": 8121,
      "avastin": 8122,
      "prior": 8123,
      "domeboro": 8124,
      "neighboring": 8125,
      "639": 8126,
      "depressants": 8127,
      "osomal": 8128,
      "chiari": 8129,
      "coria": 8130,
      "642": 8131,
      "velban": 8132,
      "dantr": 8133,
      "ken": 8134,
      "aniso": 8135,
      "olene": 8136,
      "adnex": 8137,
      "flexpen": 8138,
      "dantrolene": 8139,
      "anisocoria": 8140,
      "adnexa": 8141,
      "oopho": 8142,
      "trimalleolar": 8143,
      "sebac": 8144,
      "novel": 8145,
      "parathyroid": 8146,
      "oophoritis": 8147,
      "sebaceous": 8148,
      "atac": 8149,
      "polyarticular": 8150,
      "neurofibromatosis": 8151,
      "gingiv": 8152,
      "peginterferon": 8153,
      "flaccid": 8154,
      "natol": 8155,
      "sulind": 8156,
      "donnatol": 8157,
      "sulindac": 8158,
      "yclitis": 8159,
      "docyclitis": 8160,
      "prev": 8161,
      "malar": 8162,
      "pathies": 8163,
      "taren": 8164,
      "voltaren": 8165,
      "iridocyclitis": 8166,
      "ino": 8167,
      "664": 8168,
      "tail": 8169,
      "ulosarcoma": 8170,
      "reticulosarcoma": 8171,
      "cerebellar": 8172,
      "hematological": 8173,
      "arat": 8174,
      "acetamide": 8175,
      "sulfacetamide": 8176,
      "nonconvulsive": 8177,
      "661": 8178,
      "smoke": 8179,
      "fif": 8180,
      "ik": 8181,
      "chanti": 8182,
      "coal": 8183,
      "cataple": 8184,
      "narcole": 8185,
      "kwik": 8186,
      "chantix": 8187,
      "cataplexy": 8188,
      "narcolepsy": 8189,
      "kwikpen": 8190,
      "calcaneus": 8191,
      "fifth": 8192,
      "rili": 8193,
      "antid": 8194,
      "sterili": 8195,
      "benzoate": 8196,
      "659": 8197,
      "ascicular": 8198,
      "portion": 8199,
      "sterilization": 8200,
      "zmetal": 8201,
      "only": 8202,
      "closure": 8203,
      "anger": 8204,
      "emotional": 8205,
      "capsulitis": 8206,
      "prinzmetal": 8207,
      "cranial": 8208,
      "descending": 8209,
      "accessory": 8210,
      "637": 8211,
      "bud": 8212,
      "lera": 8213,
      "ptld": 8214,
      "tracheitis": 8215,
      "sympathomimetic": 8216,
      "budd": 8217,
      "780": 8218,
      "attera": 8219,
      "afi": 8220,
      "strattera": 8221,
      "metax": 8222,
      "672": 8223,
      "pertussis": 8224,
      "sutures": 8225,
      "casts": 8226,
      "acar": 8227,
      "metacar": 8228,
      "parasy": 8229,
      "niture": 8230,
      "cholinergics": 8231,
      "furniture": 8232,
      "mpath": 8233,
      "parasympath": 8234,
      "distr": 8235,
      "jak": 8236,
      "aclot": 8237,
      "linaclot": 8238,
      "primaqu": 8239,
      "intestino": 8240,
      "doxil": 8241,
      "products": 8242,
      "chorio": 8243,
      "metaxalone": 8244,
      "distress": 8245,
      "linaclotide": 8246,
      "primaquine": 8247,
      "intestinovesical": 8248,
      "638": 8249,
      "d20": 8250,
      "kit": 8251,
      "maste": 8252,
      "eno": 8253,
      "ammon": 8254,
      "opt": 8255,
      "mandi": 8256,
      "drip": 8257,
      "d20w": 8258,
      "mastectomy": 8259,
      "ammonium": 8260,
      "715": 8261,
      "sor": 8262,
      "agabine": 8263,
      "tiagabine": 8264,
      "dulera": 8265,
      "parame": 8266,
      "glycogen": 8267,
      "jakafi": 8268,
      "ipol": 8269,
      "lpf": 8270,
      "ake": 8271,
      "colestipol": 8272,
      "ham": 8273,
      "hypersplen": 8274,
      "histi": 8275,
      "651": 8276,
      "654": 8277,
      "bactrim": 8278,
      "sorafenib": 8279,
      "hypersplenism": 8280,
      "hypoparat": 8281,
      "hypoparathyroidism": 8282,
      "2a": 8283,
      "710": 8284,
      "hans": 8285,
      "langer": 8286,
      "unds": 8287,
      "hydroureter": 8288,
      "periocular": 8289,
      "653": 8290,
      "5900": 8291,
      "sitagliptin": 8292,
      "danazol": 8293,
      "conduction": 8294,
      "pouchitis": 8295,
      "langerhans": 8296,
      "7200": 8297,
      "ambul": 8298,
      "dtp": 8299,
      "dtap": 8300,
      "aveeno": 8301,
      "gir": 8302,
      "thrombotic": 8303,
      "spastic": 8304,
      "lipom": 8305,
      "ophthalm": 8306,
      "dura": 8307,
      "paresthesia": 8308,
      "sa": 8309,
      "ions": 8310,
      "transcervical": 8311,
      "656": 8312,
      "stimulants": 8313,
      "6800": 8314,
      "ira": 8315,
      "rhythmic": 8316,
      "ysrhythmic": 8317,
      "643": 8318,
      "mucosa": 8319,
      "antidysrhythmic": 8320,
      "umen": 8321,
      "multivit": 8322,
      "blic": 8323,
      "public": 8324,
      "sevelam": 8325,
      "mycobacteria": 8326,
      "gaseous": 8327,
      "840": 8328,
      "662": 8329,
      "663": 8330,
      "few": 8331,
      "colesevelam": 8332,
      "scapula": 8333,
      "a2": 8334,
      "debility": 8335,
      "acal": 8336,
      "pecia": 8337,
      "1350": 8338,
      "phob": 8339,
      "omalacia": 8340,
      "phobias": 8341,
      "atre": 8342,
      "atresia": 8343,
      "658": 8344,
      "tonsil": 8345,
      "glycogenosis": 8346,
      "cet": 8347,
      "eg": 8348,
      "arrhythmias": 8349,
      "teal": 8350,
      "azac": 8351,
      "genteal": 8352,
      "clumps": 8353,
      "postnasal": 8354,
      "welchol": 8355,
      "megaly": 8356,
      "1050": 8357,
      "tel": 8358,
      "felbatol": 8359,
      "671": 8360,
      "humira": 8361,
      "tracheoesophageal": 8362,
      "fourth": 8363,
      "mandible": 8364,
      "730": 8365,
      "none": 8366,
      "inner": 8367,
      "named": 8368,
      "bronchop": 8369,
      "bifascicular": 8370,
      "relax": 8371,
      "abdu": 8372,
      "dexil": 8373,
      "cevi": 8374,
      "curb": 8375,
      "meline": 8376,
      "venere": 8377,
      "647": 8378,
      "relaxants": 8379,
      "dexilant": 8380,
      "cevimeline": 8381,
      "peten": 8382,
      "asting": 8383,
      "geal": 8384,
      "mesenteritis": 8385,
      "incompeten": 8386,
      "incompetence": 8387,
      "cid": 8388,
      "hesit": 8389,
      "ancy": 8390,
      "cho": 8391,
      "veill": 8392,
      "surveill": 8393,
      "hespan": 8394,
      "hesitancy": 8395,
      "surveillance": 8396,
      "itentan": 8397,
      "rob": 8398,
      "801": 8399,
      "macitentan": 8400,
      "indus": 8401,
      "melox": 8402,
      "rected": 8403,
      "icrob": 8404,
      "nels": 8405,
      "infert": 8406,
      "corrected": 8407,
      "myocarditis": 8408,
      "channels": 8409,
      "laxatives": 8410,
      "phenel": 8411,
      "antimicrob": 8412,
      "lipoid": 8413,
      "azacitidine": 8414,
      "venereal": 8415,
      "meloxicam": 8416,
      "infertility": 8417,
      "phenelzine": 8418,
      "antimicrobial": 8419,
      "dress": 8420,
      "appen": 8421,
      "antipr": 8422,
      "gender": 8423,
      "appendi": 8424,
      "681": 8425,
      "7300": 8426,
      "flow": 8427,
      "tiga": 8428,
      "ritic": 8429,
      "cold": 8430,
      "autosomal": 8431,
      "gestrel": 8432,
      "overflow": 8433,
      "administr": 8434,
      "microangiopathy": 8435,
      "zytiga": 8436,
      "interventional": 8437,
      "tone": 8438,
      "mecon": 8439,
      "aryl": 8440,
      "progressive": 8441,
      "alopecia": 8442,
      "twins": 8443,
      "parametritis": 8444,
      "meconium": 8445,
      "dilu": 8446,
      "ideline": 8447,
      "antil": 8448,
      "guideline": 8449,
      "nephritic": 8450,
      "guidelines": 8451,
      "7400": 8452,
      "c7": 8453,
      "lia": 8454,
      "atony": 8455,
      "ultra": 8456,
      "astomal": 8457,
      "chronicus": 8458,
      "657": 8459,
      "parastomal": 8460,
      "inine": 8461,
      "trical": 8462,
      "otemp": 8463,
      "mediast": 8464,
      "ipemic": 8465,
      "arginine": 8466,
      "frontotemp": 8467,
      "obstetric": 8468,
      "girdle": 8469,
      "dressing": 8470,
      "appendix": 8471,
      "antilipemic": 8472,
      "frontotemporal": 8473,
      "2ml": 8474,
      "7600": 8475,
      "880": 8476,
      "discomfort": 8477,
      "salagen": 8478,
      "669": 8479,
      "682": 8480,
      "subtrochanteric": 8481,
      "bleph": 8482,
      "carin": 8483,
      "hot": 8484,
      "seven": 8485,
      "ror": 8486,
      "amaryl": 8487,
      "ercis": 8488,
      "satiety": 8489,
      "caloric": 8490,
      "exercis": 8491,
      "mias": 8492,
      "689": 8493,
      "electrolytic": 8494,
      "administration": 8495,
      "clus": 8496,
      "sign": 8497,
      "reprodu": 8498,
      "sect": 8499,
      "oculo": 8500,
      "ivolol": 8501,
      "nebivolol": 8502,
      "forte": 8503,
      "distension": 8504,
      "metacarpal": 8505,
      "signific": 8506,
      "reproductive": 8507,
      "oculomotor": 8508,
      "wart": 8509,
      "enzamide": 8510,
      "obenzamide": 8511,
      "trimethobenzamide": 8512,
      "685": 8513,
      "synthroid": 8514,
      "underlying": 8515,
      "obstetrical": 8516,
      "citracal": 8517,
      "imat": 8518,
      "impac": 8519,
      "exced": 8520,
      "syph": 8521,
      "butrin": 8522,
      "wellbutrin": 8523,
      "respimat": 8524,
      "impacted": 8525,
      "excedrin": 8526,
      "blow": 8527,
      "acondylar": 8528,
      "supracondylar": 8529,
      "brile": 8530,
      "ytics": 8531,
      "etta": 8532,
      "molytics": 8533,
      "antimus": 8534,
      "anticholinergics": 8535,
      "febrile": 8536,
      "dystonia": 8537,
      "spasmolytics": 8538,
      "zonegran": 8539,
      "parasympatholytics": 8540,
      "carinics": 8541,
      "antimuscarinics": 8542,
      "otozo": 8543,
      "inemias": 8544,
      "acular": 8545,
      "excit": 8546,
      "pomal": 8547,
      "paraproteinemias": 8548,
      "antiprotozo": 8549,
      "antiprotozoal": 8550,
      "excitation": 8551,
      "zaf": 8552,
      "insect": 8553,
      "irlukast": 8554,
      "otalgia": 8555,
      "peral": 8556,
      "679": 8557,
      "puerperal": 8558,
      "phere": 8559,
      "zafirlukast": 8560,
      "enil": 8561,
      "itraconazole": 8562,
      "minera": 8563,
      "674": 8564,
      "vault": 8565,
      "viremia": 8566,
      "695": 8567,
      "ster": 8568,
      "soda": 8569,
      "adal": 8570,
      "phospho": 8571,
      "mucous": 8572,
      "enteropathy": 8573,
      "ganglia": 8574,
      "atacand": 8575,
      "688": 8576,
      "6pd": 8577,
      "g6pd": 8578,
      "ryn": 8579,
      "seafo": 8580,
      "roflum": 8581,
      "ilast": 8582,
      "adoles": 8583,
      "sides": 8584,
      "blockers": 8585,
      "ethacryn": 8586,
      "significant": 8587,
      "seafood": 8588,
      "roflumilast": 8589,
      "ethacrynate": 8590,
      "diluent": 8591,
      "7100": 8592,
      "ked": 8593,
      "skeletal": 8594,
      "trame": 8595,
      "roides": 8596,
      "687": 8597,
      "bacteroides": 8598,
      "trametinib": 8599,
      "ea": 8600,
      "saluretics": 8601,
      "677": 8602,
      "retroperitoneal": 8603,
      "intolerance": 8604,
      "exercise": 8605,
      "sternum": 8606,
      "693": 8607,
      "lv": 8608,
      "htlv": 8609,
      "detach": 8610,
      "cushing": 8611,
      "intubation": 8612,
      "gammaked": 8613,
      "770": 8614,
      "fas": 8615,
      "mob": 8616,
      "rafenib": 8617,
      "hemoph": 8618,
      "reupt": 8619,
      "otifen": 8620,
      "otonin": 8621,
      "une": 8622,
      "agocytic": 8623,
      "prov": 8624,
      "previa": 8625,
      "97mg": 8626,
      "103mg": 8627,
      "serotonin": 8628,
      "705": 8629,
      "ketotifen": 8630,
      "dabrafenib": 8631,
      "hemophagocytic": 8632,
      "reuptake": 8633,
      "hemis": 8634,
      "cost": 8635,
      "676": 8636,
      "crus": 8637,
      "arthropathies": 8638,
      "rizatriptan": 8639,
      "costal": 8640,
      "sb": 8641,
      "eljan": 8642,
      "glob": 8643,
      "donnatal": 8644,
      "eljanz": 8645,
      "titive": 8646,
      "agan": 8647,
      "henamine": 8648,
      "methenamine": 8649,
      "neuropathies": 8650,
      "684": 8651,
      "alphagan": 8652,
      "repetitive": 8653,
      "ambulatory": 8654,
      "fasci": 8655,
      "745": 8656,
      "xeljanz": 8657,
      "intrinsic": 8658,
      "detachment": 8659,
      "692": 8660,
      "7800": 8661,
      "ivel": 8662,
      "nad": 8663,
      "comtan": 8664,
      "1979": 8665,
      "domperidone": 8666,
      "ostimul": 8667,
      "psychostimul": 8668,
      "channel": 8669,
      "factit": 8670,
      "furuncle": 8671,
      "provider": 8672,
      "hemisphere": 8673,
      "fasciitis": 8674,
      "gloss": 8675,
      "liv": 8676,
      "zumab": 8677,
      "nest": 8678,
      "udative": 8679,
      "668": 8680,
      "solost": 8681,
      "requip": 8682,
      "symbolic": 8683,
      "refre": 8684,
      "713": 8685,
      "itz": 8686,
      "agam": 8687,
      "azenil": 8688,
      "permeth": 8689,
      "maladjustment": 8690,
      "706": 8691,
      "tree": 8692,
      "flumazenil": 8693,
      "syphilis": 8694,
      "mobitz": 8695,
      "permethrin": 8696,
      "zel": 8697,
      "cocin": 8698,
      "igotine": 8699,
      "omatitis": 8700,
      "vancocin": 8701,
      "bcr": 8702,
      "ostomatitis": 8703,
      "rotigotine": 8704,
      "splenic": 8705,
      "antipar": 8706,
      "false": 8707,
      "coccygeal": 8708,
      "sacrococcygeal": 8709,
      "gingivostomatitis": 8710,
      "696": 8711,
      "tide": 8712,
      "amph": 8713,
      "abir": 8714,
      "aterone": 8715,
      "sargram": 8716,
      "686": 8717,
      "pulse": 8718,
      "tuzumab": 8719,
      "ostim": 8720,
      "descended": 8721,
      "warts": 8722,
      "abiraterone": 8723,
      "sargramostim": 8724,
      "dut": 8725,
      "hir": 8726,
      "yrop": 8727,
      "henone": 8728,
      "hepagam": 8729,
      "cerumen": 8730,
      "butyrop": 8731,
      "lymphadenitis": 8732,
      "breo": 8733,
      "chondrocostal": 8734,
      "seventh": 8735,
      "dutasteride": 8736,
      "butyrophenone": 8737,
      "820": 8738,
      "inolones": 8739,
      "ulin": 8740,
      "gestin": 8741,
      "roquinolones": 8742,
      "quinolones": 8743,
      "solostar": 8744,
      "716": 8745,
      "econ": 8746,
      "flor": 8747,
      "n1979": 8748,
      "pak": 8749,
      "loma": 8750,
      "lunest": 8751,
      "regn1979": 8752,
      "mies": 8753,
      "lunesta": 8754,
      "t12": 8755,
      "locorti": 8756,
      "onor": 8757,
      "lyte": 8758,
      "cyste": 8759,
      "phenothi": 8760,
      "ented": 8761,
      "industrial": 8762,
      "mineralocorti": 8763,
      "onorgestrel": 8764,
      "phenothiazine": 8765,
      "694": 8766,
      "propionic": 8767,
      "motorcyclist": 8768,
      "hypovolemic": 8769,
      "pilon": 8770,
      "arava": 8771,
      "drops": 8772,
      "piri": 8773,
      "701": 8774,
      "attacks": 8775,
      "papil": 8776,
      "ankylosis": 8777,
      "pomalidomide": 8778,
      "economic": 8779,
      "860": 8780,
      "amn": 8781,
      "704": 8782,
      "ectop": 8783,
      "673": 8784,
      "otroph": 8785,
      "dysrhythmia": 8786,
      "cence": 8787,
      "factitious": 8788,
      "691": 8789,
      "evan": 8790,
      "desartan": 8791,
      "apri": 8792,
      "702": 8793,
      "parcopa": 8794,
      "pregnant": 8795,
      "mustine": 8796,
      "candesartan": 8797,
      "incidental": 8798,
      "evans": 8799,
      "rbe": 8800,
      "idra": 8801,
      "flushing": 8802,
      "clof": 8803,
      "myrbe": 8804,
      "703": 8805,
      "triq": 8806,
      "inflammation": 8807,
      "incontinent": 8808,
      "renovascular": 8809,
      "communicating": 8810,
      "myrbetriq": 8811,
      "736": 8812,
      "rilu": 8813,
      "carmustine": 8814,
      "byetta": 8815,
      "cholecyste": 8816,
      "septicemias": 8817,
      "pentobarbital": 8818,
      "histiocytosis": 8819,
      "riluzole": 8820,
      "cholecystectomy": 8821,
      "724": 8822,
      "polyuria": 8823,
      "similar": 8824,
      "pulpal": 8825,
      "glycosides": 8826,
      "ridine": 8827,
      "fluridine": 8828,
      "levonorgestrel": 8829,
      "trifluridine": 8830,
      "sensations": 8831,
      "712": 8832,
      "eul": 8833,
      "nib": 8834,
      "dieul": 8835,
      "stock": 8836,
      "torti": 8837,
      "fovir": 8838,
      "myelopathies": 8839,
      "intertrig": 8840,
      "adefovir": 8841,
      "afoy": 8842,
      "stiffness": 8843,
      "dieulafoy": 8844,
      "torticollis": 8845,
      "intertrigo": 8846,
      "nate": 8847,
      "ampy": 8848,
      "gastroenteropathy": 8849,
      "complera": 8850,
      "intraocular": 8851,
      "fosinopril": 8852,
      "conjunctiva": 8853,
      "hepatomegaly": 8854,
      "otrophic": 8855,
      "683": 8856,
      "732": 8857,
      "790": 8858,
      "bb": 8859,
      "trile": 8860,
      "necrot": 8861,
      "azox": 8862,
      "lix": 8863,
      "300mg": 8864,
      "678": 8865,
      "rectocele": 8866,
      "humulin": 8867,
      "difficulties": 8868,
      "ectopic": 8869,
      "necrotizing": 8870,
      "marf": 8871,
      "utr": 8872,
      "error": 8873,
      "7700": 8874,
      "carbuncle": 8875,
      "teriparat": 8876,
      "hippur": 8877,
      "prempro": 8878,
      "keratitis": 8879,
      "pigmentary": 8880,
      "glossitis": 8881,
      "marfan": 8882,
      "teriparatide": 8883,
      "hippurate": 8884,
      "698": 8885,
      "aty": 8886,
      "aner": 8887,
      "etaner": 8888,
      "prolong": 8889,
      "malposition": 8890,
      "myotonic": 8891,
      "loads": 8892,
      "sacroili": 8893,
      "refresh": 8894,
      "etanercept": 8895,
      "prolonged": 8896,
      "sacroiliitis": 8897,
      "ovir": 8898,
      "spiri": 8899,
      "polyarteritis": 8900,
      "spiriva": 8901,
      "trual": 8902,
      "sening": 8903,
      "treprost": 8904,
      "intellix": 8905,
      "menstrual": 8906,
      "treprostinil": 8907,
      "697": 8908,
      "726": 8909,
      "byst": 8910,
      "fid": 8911,
      "osening": 8912,
      "sir": 8913,
      "loosening": 8914,
      "apr": 8915,
      "urate": 8916,
      "sprinte": 8917,
      "omicin": 8918,
      "axomicin": 8919,
      "anomalous": 8920,
      "strictive": 8921,
      "emotions": 8922,
      "trileptal": 8923,
      "bystolic": 8924,
      "fidaxomicin": 8925,
      "sirs": 8926,
      "sprintec": 8927,
      "765": 8928,
      "heat": 8929,
      "708": 8930,
      "paronychia": 8931,
      "intraventricular": 8932,
      "palmar": 8933,
      "ick": 8934,
      "tetr": 8935,
      "asperger": 8936,
      "vilazodone": 8937,
      "hammer": 8938,
      "728": 8939,
      "731": 8940,
      "xe": 8941,
      "debro": 8942,
      "its": 8943,
      "percent": 8944,
      "torsion": 8945,
      "astelin": 8946,
      "atypical": 8947,
      "debrox": 8948,
      "722": 8949,
      "810": 8950,
      "wise": 8951,
      "azile": 8952,
      "shar": 8953,
      "otherwise": 8954,
      "polyarthritis": 8955,
      "sexualism": 8956,
      "lichenification": 8957,
      "azilect": 8958,
      "cens": 8959,
      "1480": 8960,
      "imosis": 8961,
      "gummies": 8962,
      "abducens": 8963,
      "ktar": 8964,
      "thymic": 8965,
      "vite": 8966,
      "lote": 8967,
      "intus": 8968,
[...]
