{
  "version": "1.0",
  "truncation": null,
  "padding": null,
  "added_tokens": [
    {
      "id": 0,
      "content": "<s>",
      "single_word": false,
      "lstrip": false,
      "rstrip": false,
      "normalized": false,
      "special": true
    },
    {
      "id": 1,
      "content": "</s>",
      "single_word": false,
      "lstrip": false,
      "rstrip": false,
      "normalized": false,
      "special": true
    },
    {
      "id": 2,
      "content": "PAD",
      "single_word": false,
      "lstrip": false,
      "rstrip": false,
      "normalized": false,
      "special": true
    },
    {
      "id": 3,
      "content": "UNK",
      "single_word": false,
      "lstrip": false,
      "rstrip": false,
      "normalized": false,
      "special": true
    },
    {
      "id": 4,
      "content": "$",
      "single_word": false,
      "lstrip": false,
      "rstrip": false,
      "normalized": false,
      "special": true
    }
  ],
  "normalizer": {
    "type": "Sequence",
    "normalizers": [
      {
        "type": "Lowercase"
      }
    ]
  },
  "pre_tokenizer": {
    "type": "Sequence",
    "pretokenizers": [
      {
        "type": "Whitespace"
      },
      {
        "type": "Punctuation",
        "behavior": "Isolated"
      }
    ]
  },
  "post_processor": {
    "type": "BertProcessing",
    "sep": [
      "</s>",
      1
    ],
    "cls": [
      "<s>",
      0
    ]
  },
  "decoder": null,
  "model": {
    "type": "BPE",
    "dropout": null,
    "unk_token": "UNK",
    "continuing_subword_prefix": null,
    "end_of_word_suffix": null,
    "fuse_unk": false,
    "vocab": {
      "<s>": 0,
      "</s>": 1,
      "PAD": 2,
      "UNK": 3,
      "$": 4,
      "!": 5,
      "\"": 6,
      "#": 7,
      "%": 8,
      "&": 9,
      "'": 10,
      "(": 11,
      ")": 12,
      "*": 13,
      "+": 14,
      ",": 15,
      "-": 16,
      ".": 17,
      "/": 18,
      "0": 19,
      "1": 20,
      "2": 21,
      "3": 22,
      "4": 23,
      "5": 24,
      "6": 25,
      "7": 26,
      "8": 27,
      "9": 28,
      ":": 29,
      ";": 30,
      "<": 31,
      "=": 32,
      ">": 33,
      "?": 34,
      "[": 35,
      "\\": 36,
      "_": 37,
      "`": 38,
      "a": 39,
      "b": 40,
      "c": 41,
      "d": 42,
      "e": 43,
      "f": 44,
      "g": 45,
      "h": 46,
      "i": 47,
      "j": 48,
      "k": 49,
      "l": 50,
      "m": 51,
      "n": 52,
      "o": 53,
      "p": 54,
      "q": 55,
      "r": 56,
      "s": 57,
      "t": 58,
      "u": 59,
      "v": 60,
      "w": 61,
      "x": 62,
      "y": 63,
      "z": 64,
      "{": 65,
      "}": 66,
      "°": 67,
      "µ": 68,
      "â": 69,
      "–": 70,
      "”": 71,
      "pa": 72,
      "pad": 73,
      "lo": 74,
      "od": 75,
      "he": 76,
      "hem": 77,
      "blo": 78,
      "blood": 79,
      "tr": 80,
      "mg": 81,
      "at": 82,
      "in": 83,
      "is": 84,
      "chem": 85,
      "try": 86,
      "istry": 87,
      "chemistry": 88,
      "me": 89,
      "um": 90,
      "ium": 91,
      "00": 92,
      "meq": 93,
      "dl": 94,
      "de": 95,
      "ate": 96,
      "on": 97,
      "ri": 98,
      "ta": 99,
      "ato": 100,
      "hemato": 101,
      "gy": 102,
      "logy": 103,
      "hematology": 104,
      "ca": 105,
      "ml": 106,
      "ch": 107,
      "ine": 108,
      "se": 109,
      "ni": 110,
      "sod": 111,
      "lu": 112,
      "re": 113,
      "sodium": 114,
      "chlo": 115,
      "ride": 116,
      "10": 117,
      "chloride": 118,
      "co": 119,
      "ota": 120,
      "le": 121,
      "ac": 122,
      "sium": 123,
      "og": 124,
      "ul": 125,
      "50": 126,
      "100": 127,
      "en": 128,
      "ro": 129,
      "glu": 130,
      "pota": 131,
      "potas": 132,
      "potassium": 133,
      "ga": 134,
      "an": 135,
      "cal": 136,
      "nt": 137,
      "bi": 138,
      "di": 139,
      "pl": 140,
      "12": 141,
      "onate": 142,
      "te": 143,
      "bin": 144,
      "calc": 145,
      "ra": 146,
      "atin": 147,
      "op": 148,
      "40": 149,
      "gluco": 150,
      "ol": 151,
      "calcium": 152,
      "glucose": 153,
      "flu": 154,
      "rin": 155,
      "ne": 156,
      "20": 157,
      "25": 158,
      "ag": 159,
      "13": 160,
      "ogen": 161,
      "rit": 162,
      "car": 163,
      "nit": 164,
      "crit": 165,
      "tota": 166,
      "total": 167,
      "hy": 168,
      "carb": 169,
      "carbonate": 170,
      "unit": 171,
      "cre": 172,
      "one": 173,
      "nitr": 174,
      "15": 175,
      "al": 176,
      "let": 177,
      "hematocrit": 178,
      "atinine": 179,
      "creatinine": 180,
      "atelet": 181,
      "platelet": 182,
      "rea": 183,
      "bicarbonate": 184,
      "urea": 185,
      "nitrogen": 186,
      "lobin": 187,
      "hemog": 188,
      "hemoglobin": 189,
      "ani": 190,
      "11": 191,
      "sh": 192,
      "tam": 193,
      "flush": 194,
      "gap": 195,
      "anion": 196,
      "sul": 197,
      "cou": 198,
      "count": 199,
      "d2": 200,
      "ti": 201,
      "30": 202,
      "d5": 203,
      "dv": 204,
      "500": 205,
      "ace": 206,
      "tamin": 207,
      "78": 208,
      "19": 209,
      "nan": 210,
      "1000": 211,
      "wh": 212,
      "dz": 213,
      "gm": 214,
      "14": 215,
      "hen": 216,
      "sp": 217,
      "d4": 218,
      "li": 219,
      "bag": 220,
      "parin": 221,
      "gas": 222,
      "dex": 223,
      "mo": 224,
      "vi": 225,
      "th": 226,
      "ole": 227,
      "do": 228,
      "hyd": 229,
      "heparin": 230,
      "tro": 231,
      "ph": 232,
      "ar": 233,
      "sulf": 234,
      "yc": 235,
      "dextro": 236,
      "90": 237,
      "mi": 238,
      "dextrose": 239,
      "ite": 240,
      "white": 241,
      "raz": 242,
      "us": 243,
      "80": 244,
      "sulfate": 245,
      "pt": 246,
      "acetamin": 247,
      "acetaminop": 248,
      "acetaminophen": 249,
      "lac": 250,
      "na": 251,
      "81": 252,
      "rine": 253,
      "az": 254,
      "60": 255,
      "17": 256,
      "mag": 257,
      "magne": 258,
      "29": 259,
      "inr": 260,
      "d3": 261,
      "ox": 262,
      "tab": 263,
      "ap": 264,
      "va": 265,
      "24": 266,
      "trate": 267,
      "magnesium": 268,
      "id": 269,
      "ru": 270,
      "lact": 271,
      "urine": 272,
      "ase": 273,
      "bili": 274,
      "rubin": 275,
      "bilirubin": 276,
      "d7": 277,
      "23": 278,
      "alb": 279,
      "18": 280,
      "27": 281,
      "d78": 282,
      "lactate": 283,
      "neb": 284,
      "doc": 285,
      "docus": 286,
      "docusate": 287,
      "dk": 288,
      "am": 289,
      "28": 290,
      "mm": 291,
      "tron": 292,
      "mmol": 293,
      "pro": 294,
      "16": 295,
      "d27": 296,
      "sen": 297,
      "dr": 298,
      "senna": 299,
      "5000": 300,
      "86": 301,
      "200": 302,
      "49": 303,
      "odone": 304,
      "rph": 305,
      "mide": 306,
      "si": 307,
      "33": 308,
      "650": 309,
      "hydro": 310,
      "sulin": 311,
      "insulin": 312,
      "85": 313,
      "bp": 314,
      "ge": 315,
      "morph": 316,
      "os": 317,
      "st": 318,
      "ond": 319,
      "lol": 320,
      "ondan": 321,
      "ondanse": 322,
      "ondansetron": 323,
      "ic": 324,
      "razole": 325,
      "99": 326,
      "la": 327,
      "met": 328,
      "22": 329,
      "89": 330,
      "yl": 331,
      "250": 332,
      "83": 333,
      "45": 334,
      "epa": 335,
      "vitamin": 336,
      "26": 337,
      "70": 338,
      "oxyc": 339,
      "gluc": 340,
      "gluconate": 341,
      "rol": 342,
      "moti": 343,
      "ral": 344,
      "statin": 345,
      "meth": 346,
      "su": 347,
      "terol": 348,
      "400": 349,
      "df": 350,
      "oxycodone": 351,
      "de8": 352,
      "epam": 353,
      "et": 354,
      "qu": 355,
      "spi": 356,
      "d6": 357,
      "vac": 358,
      "spr": 359,
      "ment": 360,
      "79": 361,
      "mc": 362,
      "mcg": 363,
      "pol": 364,
      "d40": 365,
      "opro": 366,
      "rele": 367,
      "release": 368,
      "iso": 369,
      "31": 370,
      "dn": 371,
      "im": 372,
      "poly": 373,
      "21": 374,
      "pra": 375,
      "cag": 376,
      "glucag": 377,
      "glucagon": 378,
      "appl": 379,
      "umin": 380,
      "96": 381,
      "51": 382,
      "vastatin": 383,
      "pi": 384,
      "albu": 385,
      "albuterol": 386,
      "aspi": 387,
      "aspirin": 388,
      "oprolol": 389,
      "metoprolol": 390,
      "150": 391,
      "units": 392,
      "d4019": 393,
      "ste": 394,
      "75": 395,
      "cine": 396,
      "osmoti": 397,
      "osmotic": 398,
      "vaccine": 399,
      "tar": 400,
      "tartrate": 401,
      "325": 402,
      "enz": 403,
      "93": 404,
      "dg": 405,
      "95": 406,
      "vial": 407,
      "lev": 408,
      "82": 409,
      "medi": 410,
      "loraz": 411,
      "lorazepam": 412,
      "onco": 413,
      "91": 414,
      "dv5": 415,
      "and": 416,
      "140": 417,
      "immedi": 418,
      "immediate": 419,
      "ad": 420,
      "pe": 421,
      "ci": 422,
      "phen": 423,
      "gel": 424,
      "ly": 425,
      "morphone": 426,
      "hydromorphone": 427,
      "98": 428,
      "vale": 429,
      "valent": 430,
      "repl": 431,
      "acement": 432,
      "oncology": 433,
      "replacement": 434,
      "rile": 435,
      "fa": 436,
      "ce": 437,
      "caine": 438,
      "albumin": 439,
      "sterile": 440,
      "ater": 441,
      "water": 442,
      "dj": 443,
      "whole": 444,
      "bis": 445,
      "fen": 446,
      "rica": 447,
      "ycin": 448,
      "rican": 449,
      "bisac": 450,
      "bisacod": 451,
      "bisacodyl": 452,
      "col": 453,
      "oprazole": 454,
      "did": 455,
      "dila": 456,
      "udid": 457,
      "dilaudid": 458,
      "lido": 459,
      "lidocaine": 460,
      "dc": 461,
      "sol": 462,
      "mycin": 463,
      "mp": 464,
      "d57": 465,
      "ns": 466,
      "ld": 467,
      "rogen": 468,
      "iu": 469,
      "dehyd": 470,
      "rogenase": 471,
      "dehydrogenase": 472,
      "thm": 473,
      "rhy": 474,
      "rhythm": 475,
      "soln": 476,
      "300": 477,
      "temp": 478,
      "pain": 479,
      "mul": 480,
      "hear": 481,
      "2s": 482,
      "dbp": 483,
      "o2s": 484,
      "sbp": 485,
      "respr": 486,
      "heartrate": 487,
      "o2sat": 488,
      "resprate": 489,
      "32": 490,
      "enza": 491,
      "multi": 492,
      "influ": 493,
      "influenza": 494,
      "vir": 495,
      "multivitamin": 496,
      "38": 497,
      "41": 498,
      "gly": 499,
      "pu": 500,
      "multivitamins": 501,
      "000": 502,
      "39": 503,
      "dy": 504,
      "pant": 505,
      "pantoprazole": 506,
      "of": 507,
      "trop": 508,
      "dd6": 509,
      "azole": 510,
      "lox": 511,
      "fre": 512,
      "free": 513,
      "oral": 514,
      "dm": 515,
      "clo": 516,
      "tri": 517,
      "sone": 518,
      "mine": 519,
      "d0": 520,
      "ot": 521,
      "36": 522,
      "ethy": 523,
      "lene": 524,
      "ome": 525,
      "glycol": 526,
      "polyethy": 527,
      "polyethylene": 528,
      "cef": 529,
      "d30": 530,
      "104": 531,
      "d276": 532,
      "morphine": 533,
      "opri": 534,
      "prazole": 535,
      "71": 536,
      "uro": 537,
      "ff": 538,
      "tin": 539,
      "tropium": 540,
      "103": 541,
      "pre": 542,
      "d28": 543,
      "dz8": 544,
      "dv586": 545,
      "59": 546,
      "semide": 547,
      "omeprazole": 548,
      "69": 549,
      "72": 550,
      "139": 551,
      "sw": 552,
      "xine": 553,
      "dine": 554,
      "dt": 555,
      "care": 556,
      "rop": 557,
      "puff": 558,
      "d530": 559,
      "furo": 560,
      "furosemide": 561,
      "42": 562,
      "sal": 563,
      "138": 564,
      "97": 565,
      "tch": 566,
      "van": 567,
      "vanco": 568,
      "vancomycin": 569,
      "isin": 570,
      "ical": 571,
      "patch": 572,
      "pho": 573,
      "inh": 574,
      "acid": 575,
      "critical": 576,
      "idine": 577,
      "ator": 578,
      "atorvastatin": 579,
      "chlor": 580,
      "d99": 581,
      "102": 582,
      "125": 583,
      "oco": 584,
      "di10": 585,
      "pine": 586,
      "35": 587,
      "sph": 588,
      "phosph": 589,
      "ipra": 590,
      "ipratropium": 591,
      "dv15": 592,
      "101": 593,
      "d2724": 594,
      "34": 595,
      "or": 596,
      "d25": 597,
      "137": 598,
      "sin": 599,
      "92": 600,
      "ringe": 601,
      "acin": 602,
      "105": 603,
      "bro": 604,
      "isone": 605,
      "141": 606,
      "94": 607,
      "gab": 608,
      "d53081": 609,
      "d20": 610,
      "62": 611,
      "110": 612,
      "hyro": 613,
      "drop": 614,
      "bromide": 615,
      "levot": 616,
      "levothyro": 617,
      "levothyroxine": 618,
      "eti": 619,
      "af": 620,
      "predn": 621,
      "de78": 622,
      "600": 623,
      "tan": 624,
      "083": 625,
      "bu": 626,
      "tica": 627,
      "flutica": 628,
      "fluticasone": 629,
      "suc": 630,
      "84": 631,
      "d285": 632,
      "quad": 633,
      "rivalent": 634,
      "quadrivalent": 635,
      "il": 636,
      "37": 637,
      "susp": 638,
      "136": 639,
      "dv45": 640,
      "61": 641,
      "dv4": 642,
      "loxacin": 643,
      "opril": 644,
      "106": 645,
      "diphen": 646,
      "52": 647,
      "ow": 648,
      "ide": 649,
      "dz878": 650,
      "68": 651,
      "ramine": 652,
      "apen": 653,
      "gabapen": 654,
      "gabapentin": 655,
      "ale": 656,
      "apine": 657,
      "d42": 658,
      "liqu": 659,
      "liquid": 660,
      "47": 661,
      "ame": 662,
      "american": 663,
      "sion": 664,
      "dz87891": 665,
      "blac": 666,
      "african": 667,
      "black": 668,
      "d780": 669,
      "219": 670,
      "ension": 671,
      "suspension": 672,
      "diphenhyd": 673,
      "diphenhydramine": 674,
      "yclo": 675,
      "olic": 676,
      "folic": 677,
      "de785": 678,
      "con": 679,
      "oin": 680,
      "ccal": 681,
      "142": 682,
      "ococcal": 683,
      "pne": 684,
      "pneum": 685,
      "pneumococcal": 686,
      "76": 687,
      "db": 688,
      "spry": 689,
      "449": 690,
      "43": 691,
      "lisin": 692,
      "lisinopril": 693,
      "propi": 694,
      "phosphate": 695,
      "min": 696,
      "iv": 697,
      "112": 698,
      "cin": 699,
      "135": 700,
      "ameth": 701,
      "d45": 702,
      "simeth": 703,
      "icone": 704,
      "simethicone": 705,
      "sme": 706,
      "smear": 707,
      "thi": 708,
      "dk219": 709,
      "d19": 710,
      "419": 711,
      "azodone": 712,
      "trazodone": 713,
      "119": 714,
      "tram": 715,
      "azine": 716,
      "d25000": 717,
      "em": 718,
      "tion": 719,
      "74": 720,
      "109": 721,
      "107": 722,
      "111": 723,
      "dy9": 724,
      "d427": 725,
      "lin": 726,
      "d311": 727,
      "war": 728,
      "farin": 729,
      "warfarin": 730,
      "band": 731,
      "bands": 732,
      "dipine": 733,
      "sar": 734,
      "dz7": 735,
      "phrine": 736,
      "dz86": 737,
      "di4": 738,
      "prednisone": 739,
      "df3": 740,
      "di25": 741,
      "ser": 742,
      "800": 743,
      "amine": 744,
      "dv1582": 745,
      "ex": 746,
      "phos": 747,
      "ptch": 748,
      "taz": 749,
      "sy": 750,
      "65": 751,
      "xa": 752,
      "conazole": 753,
      "bc": 754,
      "wbc": 755,
      "lus": 756,
      "plus": 757,
      "x5": 758,
      "mini": 759,
      "aler": 760,
      "87": 761,
      "thro": 762,
      "inhaler": 763,
      "d70": 764,
      "hydrox": 765,
      "46": 766,
      "d300": 767,
      "da": 768,
      "88": 769,
      "floxacin": 770,
      "d56": 771,
      "hp": 772,
      "er": 773,
      "dz9": 774,
      "cipro": 775,
      "ciprofloxacin": 776,
      "hpf": 777,
      "propionate": 778,
      "sim": 779,
      "motidine": 780,
      "famotidine": 781,
      "simvastatin": 782,
      "fentan": 783,
      "fentanyl": 784,
      "108": 785,
      "nasal": 786,
      "virus": 787,
      "73": 788,
      "134": 789,
      "df329": 790,
      "prop": 791,
      "dz790": 792,
      "54": 793,
      "mil": 794,
      "143": 795,
      "d42731": 796,
      "oint": 797,
      "pheny": 798,
      "dv12": 799,
      "909": 800,
      "x5a": 801,
      "ifen": 802,
      "ua": 803,
      "bac": 804,
      "ici": 805,
      "citrate": 806,
      "aparin": 807,
      "razine": 808,
      "ifene": 809,
      "prochlor": 810,
      "perazine": 811,
      "prochlorperazine": 812,
      "cl": 813,
      "rinse": 814,
      "gua": 815,
      "guaifene": 816,
      "guaifenesin": 817,
      "cap": 818,
      "ax": 819,
      "der": 820,
      "acyclo": 821,
      "acyclovir": 822,
      "de9": 823,
      "66": 824,
      "pow": 825,
      "powder": 826,
      "1401": 827,
      "d4280": 828,
      "enox": 829,
      "enoxaparin": 830,
      "metron": 831,
      "idazole": 832,
      "metronidazole": 833,
      "lodipine": 834,
      "ated": 835,
      "hydral": 836,
      "hydralazine": 837,
      "azol": 838,
      "ranit": 839,
      "ranitidine": 840,
      "rs": 841,
      "amlodipine": 842,
      "lactated": 843,
      "ringers": 844,
      "990": 845,
      "hex": 846,
      "cor": 847,
      "oph": 848,
      "d2449": 849,
      "811": 850,
      "thiamine": 851,
      "d41401": 852,
      "illin": 853,
      "ulated": 854,
      "calculated": 855,
      "ofol": 856,
      "propofol": 857,
      "df419": 858,
      "ophth": 859,
      "chlorhex": 860,
      "chlorhexidine": 861,
      "390": 862,
      "loz": 863,
      "d790": 864,
      "tif": 865,
      "d58": 866,
      "d2859": 867,
      "d04": 868,
      "dz79": 869,
      "d493": 870,
      "syringe": 871,
      "sia": 872,
      "milk": 873,
      "magnesia": 874,
      "tear": 875,
      "xl": 876,
      "artif": 877,
      "icial": 878,
      "artificial": 879,
      "adol": 880,
      "tramadol": 881,
      "ointment": 882,
      "tal": 883,
      "yce": 884,
      "lyce": 885,
      "pk": 886,
      "dz85": 887,
      "pkt": 888,
      "pram": 889,
      "cita": 890,
      "lopram": 891,
      "133": 892,
      "citalopram": 893,
      "lope": 894,
      "acet": 895,
      "succin": 896,
      "d428": 897,
      "dg47": 898,
      "lycerin": 899,
      "tra": 900,
      "triax": 901,
      "ceftriax": 902,
      "ceftriaxone": 903,
      "cy": 904,
      "hcl": 905,
      "etine": 906,
      "d733": 907,
      "tine": 908,
      "succinate": 909,
      "d5849": 910,
      "d3051": 911,
      "oglycerin": 912,
      "nitroglycerin": 913,
      "d30000": 914,
      "no": 915,
      "63": 916,
      "130": 917,
      "pic": 918,
      "dv5861": 919,
      "race": 920,
      "189": 921,
      "di50": 922,
      "331": 923,
      "lose": 924,
      "ulose": 925,
      "lactulose": 926,
      "959": 927,
      "polyvalent": 928,
      "leveti": 929,
      "racetam": 930,
      "levetiracetam": 931,
      "alumin": 932,
      "aluminum": 933,
      "be": 934,
      "neu": 935,
      "77": 936,
      "750": 937,
      "144": 938,
      "neutra": 939,
      "ds": 940,
      "ny": 941,
      "dz867": 942,
      "dis": 943,
      "nystatin": 944,
      "d250": 945,
      "179": 946,
      "sr": 947,
      "un": 948,
      "for": 949,
      "de0": 950,
      "64": 951,
      "meterol": 952,
      "salmeterol": 953,
      "de878": 954,
      "di2510": 955,
      "dv5811": 956,
      "132": 957,
      "mon": 958,
      "dk5": 959,
      "53": 960,
      "1500": 961,
      "ten": 962,
      "trimeth": 963,
      "phenyle": 964,
      "phenylephrine": 965,
      "trimethopri": 966,
      "trimethoprim": 967,
      "sulfameth": 968,
      "epi": 969,
      "asone": 970,
      "cream": 971,
      "disk": 972,
      "diskus": 973,
      "ur": 974,
      "zol": 975,
      "mineral": 976,
      "sac": 977,
      "d5990": 978,
      "d35": 979,
      "lone": 980,
      "cha": 981,
      "900": 982,
      "saccha": 983,
      "120": 984,
      "polysaccha": 985,
      "polysaccharide": 986,
      "teg": 987,
      "129": 988,
      "cefepi": 989,
      "cefepime": 990,
      "dg89": 991,
      "oclo": 992,
      "metoclo": 993,
      "pramide": 994,
      "metoclopramide": 995,
      "bactam": 996,
      "chl": 997,
      "lotion": 998,
      "210": 999,
      "minerals": 1000,
      "d070": 1001,
      "benz": 1002,
      "dd": 1003,
      "nico": 1004,
      "nicotine": 1005,
      "sarna": 1006,
      "dexameth": 1007,
      "de9331": 1008,
      "d5w": 1009,
      "tears": 1010,
      "dexamethasone": 1011,
      "losin": 1012,
      "tamsu": 1013,
      "tamsulosin": 1014,
      "dv1251": 1015,
      "44": 1016,
      "ec": 1017,
      "789": 1018,
      "nic": 1019,
      "pid": 1020,
      "rec": 1021,
      "rel": 1022,
      "dz5": 1023,
      "fer": 1024,
      "d49390": 1025,
      "dr0": 1026,
      "dz7901": 1027,
      "othe": 1028,
      "other": 1029,
      "his": 1030,
      "latin": 1031,
      "panic": 1032,
      "hispanic": 1033,
      "latino": 1034,
      "de93": 1035,
      "cefazol": 1036,
      "cefazolin": 1037,
      "131": 1038,
      "67": 1039,
      "ogrel": 1040,
      "clopid": 1041,
      "clopidogrel": 1042,
      "cort": 1043,
      "d55": 1044,
      "ami": 1045,
      "d338": 1046,
      "145": 1047,
      "2ns": 1048,
      "to": 1049,
      "d278": 1050,
      "tegr": 1051,
      "ating": 1052,
      "disin": 1053,
      "tegrating": 1054,
      "disintegrating": 1055,
      "now": 1056,
      "unk": 1057,
      "nown": 1058,
      "unknown": 1059,
      "enem": 1060,
      "de119": 1061,
      "fla": 1062,
      "gyl": 1063,
      "flagyl": 1064,
      "rous": 1065,
      "ferrous": 1066,
      "113": 1067,
      "dn179": 1068,
      "de039": 1069,
      "cortisone": 1070,
      "de11": 1071,
      "miconazole": 1072,
      "dz68": 1073,
      "beta": 1074,
      "58": 1075,
      "val": 1076,
      "d2761": 1077,
      "dv5867": 1078,
      "dv49": 1079,
      "queti": 1080,
      "quetiapine": 1081,
      "de6": 1082,
      "dj45": 1083,
      "791": 1084,
      "451": 1085,
      "56": 1086,
      "dv10": 1087,
      "48": 1088,
      "dz794": 1089,
      "rinol": 1090,
      "allo": 1091,
      "purinol": 1092,
      "allopurinol": 1093,
      "throat": 1094,
      "dil": 1095,
      "tral": 1096,
      "per": 1097,
      "fum": 1098,
      "arate": 1099,
      "fumarate": 1100,
      "sertral": 1101,
      "sertraline": 1102,
      "dilti": 1103,
      "diltiaz": 1104,
      "ded": 1105,
      "diltiazem": 1106,
      "sartan": 1107,
      "spir": 1108,
      "exten": 1109,
      "extended": 1110,
      "thromycin": 1111,
      "direc": 1112,
      "direct": 1113,
      "dy929": 1114,
      "eto": 1115,
      "amin": 1116,
      "859": 1117,
      "55": 1118,
      "280": 1119,
      "azepam": 1120,
      "114": 1121,
      "df17": 1122,
      "d2720": 1123,
      "dh": 1124,
      "d327": 1125,
      "sodi": 1126,
      "ursodi": 1127,
      "ursodiol": 1128,
      "el": 1129,
      "dv125": 1130,
      "succ": 1131,
      "keto": 1132,
      "d32723": 1133,
      "2000": 1134,
      "hyl": 1135,
      "d7870": 1136,
      "ma": 1137,
      "239": 1138,
      "cepa": 1139,
      "dd649": 1140,
      "d996": 1141,
      "zapine": 1142,
      "predniso": 1143,
      "prednisolone": 1144,
      "mel": 1145,
      "chloro": 1146,
      "dj45909": 1147,
      "bal": 1148,
      "de849": 1149,
      "methyl": 1150,
      "180": 1151,
      "d26": 1152,
      "121": 1153,
      "mid": 1154,
      "ibu": 1155,
      "profen": 1156,
      "ibuprofen": 1157,
      "ocobal": 1158,
      "cyan": 1159,
      "ocobalamin": 1160,
      "cyanocobalamin": 1161,
      "d33829": 1162,
      "115": 1163,
      "acetate": 1164,
      "d724": 1165,
      "teon": 1166,
      "ramel": 1167,
      "ramelteon": 1168,
      "d496": 1169,
      "zepam": 1170,
      "nazepam": 1171,
      "clonazepam": 1172,
      "ramide": 1173,
      "rid": 1174,
      "cyclo": 1175,
      "57": 1176,
      "hydrocortisone": 1177,
      "diazepam": 1178,
      "pinephrine": 1179,
      "dz6": 1180,
      "loperamide": 1181,
      "ofloxacin": 1182,
      "601": 1183,
      "levofloxacin": 1184,
      "dem": 1185,
      "pidem": 1186,
      "zolpidem": 1187,
      "asi": 1188,
      "olan": 1189,
      "olanzapine": 1190,
      "asian": 1191,
      "picc": 1192,
      "rolac": 1193,
      "ketorolac": 1194,
      "de879": 1195,
      "d518": 1196,
      "dz95": 1197,
      "809": 1198,
      "dt451": 1199,
      "160": 1200,
      "dz86718": 1201,
      "oxide": 1202,
      "d78791": 1203,
      "dg4733": 1204,
      "di489": 1205,
      "d15": 1206,
      "dz5111": 1207,
      "df17210": 1208,
      "d33": 1209,
      "cat": 1210,
      "339": 1211,
      "de871": 1212,
      "659": 1213,
      "dline": 1214,
      "midline": 1215,
      "ultram": 1216,
      "dc78": 1217,
      "d27651": 1218,
      "509": 1219,
      "inser": 1220,
      "tions": 1221,
      "insertions": 1222,
      "116": 1223,
      "d2875": 1224,
      "mir": 1225,
      "d486": 1226,
      "phosphor": 1227,
      "phosphorus": 1228,
      "dy92": 1229,
      "acillin": 1230,
      "act": 1231,
      "tazo": 1232,
      "tazobactam": 1233,
      "ve": 1234,
      "tazapine": 1235,
      "mirtazapine": 1236,
      "actone": 1237,
      "onol": 1238,
      "spironol": 1239,
      "spironolactone": 1240,
      "d73300": 1241,
      "dv4582": 1242,
      "piper": 1243,
      "piperacillin": 1244,
      "118": 1245,
      "dt451x5a": 1246,
      "d56400": 1247,
      "dj449": 1248,
      "azide": 1249,
      "azi": 1250,
      "128": 1251,
      "azithromycin": 1252,
      "chlorothi": 1253,
      "arone": 1254,
      "chlorothiazide": 1255,
      "146": 1256,
      "neg": 1257,
      "maa": 1258,
      "maalox": 1259,
      "labeta": 1260,
      "labetalol": 1261,
      "odarone": 1262,
      "amiodarone": 1263,
      "ona": 1264,
      "amide": 1265,
      "onat": 1266,
      "xim": 1267,
      "110mcg": 1268,
      "d707": 1269,
      "d68": 1270,
      "nolol": 1271,
      "dz7902": 1272,
      "toin": 1273,
      "hydrochlorothiazide": 1274,
      "168": 1275,
      "dy83": 1276,
      "reg": 1277,
      "atenolol": 1278,
      "dv0": 1279,
      "ular": 1280,
      "cepacol": 1281,
      "di4891": 1282,
      "df10": 1283,
      "d729": 1284,
      "regular": 1285,
      "as": 1286,
      "zine": 1287,
      "caphos": 1288,
      "caphosol": 1289,
      "dg8929": 1290,
      "hum": 1291,
      "benzonat": 1292,
      "benzonatate": 1293,
      "fluconazole": 1294,
      "human": 1295,
      "di8": 1296,
      "501": 1297,
      "ans": 1298,
      "so": 1299,
      "d412": 1300,
      "550": 1301,
      "05": 1302,
      "de669": 1303,
      "d27800": 1304,
      "ss": 1305,
      "methylprednisolone": 1306,
      "dn390": 1307,
      "d715": 1308,
      "181": 1309,
      "dv85": 1310,
      "149": 1311,
      "enge": 1312,
      "lozenge": 1313,
      "rifa": 1314,
      "dk59": 1315,
      "dd7": 1316,
      "d345": 1317,
      "d788": 1318,
      "dk5900": 1319,
      "ridine": 1320,
      "ray": 1321,
      "spray": 1322,
      "ir": 1323,
      "ontin": 1324,
      "148": 1325,
      "oxycontin": 1326,
      "ximin": 1327,
      "rifaximin": 1328,
      "409": 1329,
      "otropium": 1330,
      "tiotropium": 1331,
      "dv436": 1332,
      "tic": 1333,
      "di110": 1334,
      "oxetine": 1335,
      "127": 1336,
      "d5715": 1337,
      "jel": 1338,
      "jelly": 1339,
      "db96": 1340,
      "lans": 1341,
      "fluoxetine": 1342,
      "lansoprazole": 1343,
      "dt8": 1344,
      "dc9": 1345,
      "de8798": 1346,
      "126": 1347,
      "d2768": 1348,
      "117": 1349,
      "ha": 1350,
      "d34": 1351,
      "ridol": 1352,
      "dj9": 1353,
      "122": 1354,
      "losartan": 1355,
      "loperidol": 1356,
      "haloperidol": 1357,
      "dr7": 1358,
      "d44": 1359,
      "pravastatin": 1360,
      "metho": 1361,
      "bupropi": 1362,
      "bupropion": 1363,
      "hydroxy": 1364,
      "xxa": 1365,
      "861": 1366,
      "bar": 1367,
      "dox": 1368,
      "1400": 1369,
      "mdi": 1370,
      "ptic": 1371,
      "147": 1372,
      "dy922": 1373,
      "lat": 1374,
      "dv5866": 1375,
      "dg4700": 1376,
      "dy92230": 1377,
      "dc8": 1378,
      "d296": 1379,
      "5g": 1380,
      "dose": 1381,
      "dv87": 1382,
      "dv8741": 1383,
      "lr": 1384,
      "d78061": 1385,
      "dd696": 1386,
      "dd62": 1387,
      "190": 1388,
      "197": 1389,
      "phenol": 1390,
      "oprost": 1391,
      "d288": 1392,
      "bital": 1393,
      "dz96": 1394,
      "mepe": 1395,
      "meperidine": 1396,
      "ka": 1397,
      "ban": 1398,
      "dk3": 1399,
      "d69": 1400,
      "chlora": 1401,
      "di6": 1402,
      "septic": 1403,
      "chloraseptic": 1404,
      "adine": 1405,
      "182": 1406,
      "221": 1407,
      "810": 1408,
      "123": 1409,
      "005": 1410,
      "d00": 1411,
      "de8497": 1412,
      "dz80": 1413,
      "dc79": 1414,
      "d20280": 1415,
      "dk70": 1416,
      "dy92239": 1417,
      "py": 1418,
      "d42789": 1419,
      "oni": 1420,
      "d49": 1421,
      "phenytoin": 1422,
      "dv100": 1423,
      "01": 1424,
      "my": 1425,
      "ampic": 1426,
      "azolam": 1427,
      "ampicillin": 1428,
      "781": 1429,
      "imazole": 1430,
      "cr": 1431,
      "201": 1432,
      "d2809": 1433,
      "nore": 1434,
      "dm5": 1435,
      "220": 1436,
      "es": 1437,
      "124": 1438,
      "latan": 1439,
      "latanoprost": 1440,
      "bic": 1441,
      "d28800": 1442,
      "midazolam": 1443,
      "fate": 1444,
      "xaban": 1445,
      "ven": 1446,
      "d78701": 1447,
      "dv1254": 1448,
      "282": 1449,
      "xr": 1450,
      "di7": 1451,
      "d600": 1452,
      "d20500": 1453,
      "dv16": 1454,
      "dk76": 1455,
      "norepinephrine": 1456,
      "dv103": 1457,
      "luka": 1458,
      "lukast": 1459,
      "ter": 1460,
      "d60000": 1461,
      "d78959": 1462,
      "dz90": 1463,
      "dv4581": 1464,
      "ascor": 1465,
      "ascorbic": 1466,
      "telukast": 1467,
      "montelukast": 1468,
      "1250": 1469,
      "du": 1470,
      "240": 1471,
      "241": 1472,
      "orbi": 1473,
      "d5771": 1474,
      "d40390": 1475,
      "d112": 1476,
      "170": 1477,
      "dulox": 1478,
      "sl": 1479,
      "duloxetine": 1480,
      "di3": 1481,
      "isos": 1482,
      "enema": 1483,
      "isosorbi": 1484,
      "isosorbide": 1485,
      "dz8673": 1486,
      "sucral": 1487,
      "sucralfate": 1488,
      "a1": 1489,
      "onide": 1490,
      "dilol": 1491,
      "carve": 1492,
      "carvedilol": 1493,
      "dz86711": 1494,
      "dv153": 1495,
      "de876": 1496,
      "d2762": 1497,
      "venla": 1498,
      "venlafa": 1499,
      "venlafaxine": 1500,
      "di252": 1501,
      "fluo": 1502,
      "dv5865": 1503,
      "tablet": 1504,
      "oxin": 1505,
      "dig": 1506,
      "digoxin": 1507,
      "de43": 1508,
      "dk6": 1509,
      "odt": 1510,
      "d07054": 1511,
      "254": 1512,
      "dd70": 1513,
      "merop": 1514,
      "meropenem": 1515,
      "ed": 1516,
      "183": 1517,
      "d5712": 1518,
      "clotr": 1519,
      "clotrimazole": 1520,
      "gine": 1521,
      "de83": 1522,
      "1200": 1523,
      "atova": 1524,
      "quone": 1525,
      "atovaquone": 1526,
      "289": 1527,
      "methad": 1528,
      "mu": 1529,
      "dd728": 1530,
      "rosu": 1531,
      "rosuvastatin": 1532,
      "methadone": 1533,
      "184": 1534,
      "dl0": 1535,
      "401": 1536,
      "d36": 1537,
      "indirect": 1538,
      "188": 1539,
      "phy": 1540,
      "phyt": 1541,
      "phytona": 1542,
      "phytonadi": 1543,
      "phytonadione": 1544,
      "d346": 1545,
      "molol": 1546,
      "etil": 1547,
      "de872": 1548,
      "d41400": 1549,
      "mus": 1550,
      "valpro": 1551,
      "d536": 1552,
      "dk9": 1553,
      "roli": 1554,
      "rolimus": 1555,
      "d5859": 1556,
      "d5770": 1557,
      "dv104": 1558,
      "d3004": 1559,
      "dz955": 1560,
      "410": 1561,
      "hol": 1562,
      "845": 1563,
      "dw": 1564,
      "dz683": 1565,
      "dk766": 1566,
      "ina": 1567,
      "d453": 1568,
      "151": 1569,
      "tropine": 1570,
      "ptyl": 1571,
      "triptyl": 1572,
      "triptyline": 1573,
      "syl": 1574,
      "d2851": 1575,
      "a1c": 1576,
      "d5723": 1577,
      "d7904": 1578,
      "d7890": 1579,
      "159": 1580,
      "dr740": 1581,
      "d3572": 1582,
      "dj189": 1583,
      "contin": 1584,
      "ms": 1585,
      "praz": 1586,
      "d5119": 1587,
      "d29": 1588,
      "alte": 1589,
      "di480": 1590,
      "oxal": 1591,
      "altepl": 1592,
      "alteplase": 1593,
      "dg40": 1594,
      "152": 1595,
      "cla": 1596,
      "dz858": 1597,
      "dr5": 1598,
      "d34590": 1599,
      "timolol": 1600,
      "d34690": 1601,
      "04": 1602,
      "prometh": 1603,
      "promethazine": 1604,
      "de860": 1605,
      "dg6": 1606,
      "d71590": 1607,
      "steride": 1608,
      "fina": 1609,
      "255": 1610,
      "609": 1611,
      "finasteride": 1612,
      "eine": 1613,
      "d2749": 1614,
      "d7907": 1615,
      "dn400": 1616,
      "line": 1617,
      "sulbactam": 1618,
      "db19": 1619,
      "d28860": 1620,
      "dv6": 1621,
      "oxalate": 1622,
      "380": 1623,
      "db95": 1624,
      "270": 1625,
      "dc7": 1626,
      "dg93": 1627,
      "d78052": 1628,
      "d440": 1629,
      "d562": 1630,
      "162": 1631,
      "tac": 1632,
      "de5": 1633,
      "321": 1634,
      "dm79": 1635,
      "tacrolimus": 1636,
      "dd509": 1637,
      "den": 1638,
      "male": 1639,
      "maleate": 1640,
      "502": 1641,
      "9181": 1642,
      "formin": 1643,
      "metformin": 1644,
      "rphan": 1645,
      "185": 1646,
      "d7070": 1647,
      "dextrometho": 1648,
      "dextromethorphan": 1649,
      "glucoph": 1650,
      "age": 1651,
      "dz966": 1652,
      "glucophage": 1653,
      "rat": 1654,
      "vo": 1655,
      "xin": 1656,
      "alin": 1657,
      "pregab": 1658,
      "pregabalin": 1659,
      "ep": 1660,
      "d42832": 1661,
      "tamine": 1662,
      "sore": 1663,
      "dk74": 1664,
      "hr": 1665,
      "cod": 1666,
      "dy84": 1667,
      "d4168": 1668,
      "piro": 1669,
      "889": 1670,
      "codeine": 1671,
      "cle": 1672,
      "dd6959": 1673,
      "dz99": 1674,
      "621": 1675,
      "dental": 1676,
      "fluoride": 1677,
      "d00845": 1678,
      "259": 1679,
      "myco": 1680,
      "mupiro": 1681,
      "fil": 1682,
      "mupirocin": 1683,
      "phenolate": 1684,
      "mycophenolate": 1685,
      "mononi": 1686,
      "oxy": 1687,
      "mononitrate": 1688,
      "dy9200": 1689,
      "syr": 1690,
      "vin": 1691,
      "troc": 1692,
      "hydroxyzine": 1693,
      "lamo": 1694,
      "lamotri": 1695,
      "lamotrigine": 1696,
      "atropine": 1697,
      "ance": 1698,
      "d4589": 1699,
      "209": 1700,
      "d305": 1701,
      "dr50": 1702,
      "sti": 1703,
      "jet": 1704,
      "urojet": 1705,
      "5mg": 1706,
      "escitalopram": 1707,
      "barium": 1708,
      "222": 1709,
      "clear": 1710,
      "173": 1711,
      "clearance": 1712,
      "hydroxide": 1713,
      "dv4986": 1714,
      "dr197": 1715,
      "50ml": 1716,
      "d294": 1717,
      "dd72829": 1718,
      "cathe": 1719,
      "catheter": 1720,
      "951": 1721,
      "481": 1722,
      "readi": 1723,
      "d719": 1724,
      "d438": 1725,
      "olam": 1726,
      "alpraz": 1727,
      "alprazolam": 1728,
      "di959": 1729,
      "d78060": 1730,
      "caff": 1731,
      "dm4": 1732,
      "d200": 1733,
      "d5762": 1734,
      "d238": 1735,
      "dj4": 1736,
      "d16": 1737,
      "d7245": 1738,
      "9902": 1739,
      "d07070": 1740,
      "dy838": 1741,
      "ion": 1742,
      "dv1255": 1743,
      "338": 1744,
      "d79902": 1745,
      "dopa": 1746,
      "202": 1747,
      "de8788": 1748,
      "154": 1749,
      "mof": 1750,
      "dv8": 1751,
      "mofetil": 1752,
      "nidine": 1753,
      "de1165": 1754,
      "490": 1755,
      "clonidine": 1756,
      "d1985": 1757,
      "d78702": 1758,
      "153": 1759,
      "dr6": 1760,
      "d535": 1761,
      "d53": 1762,
      "09": 1763,
      "mede": 1764,
      "dexmede": 1765,
      "dexmedeto": 1766,
      "midine": 1767,
      "dexmedetomidine": 1768,
      "omycin": 1769,
      "butal": 1770,
      "taine": 1771,
      "butalbital": 1772,
      "aprine": 1773,
      "benzaprine": 1774,
      "cyclobenzaprine": 1775,
      "sus": 1776,
      "tained": 1777,
      "sustained": 1778,
      "dg893": 1779,
      "dd4": 1780,
      "175": 1781,
      "d787": 1782,
      "dr5081": 1783,
      "de861": 1784,
      "dy92009": 1785,
      "vis": 1786,
      "d25060": 1787,
      "api": 1788,
      "apixaban": 1789,
      "rox": 1790,
      "161": 1791,
      "de9320": 1792,
      "d2639": 1793,
      "d78820": 1794,
      "d303": 1795,
      "d30500": 1796,
      "phe": 1797,
      "d78659": 1798,
      "di5032": 1799,
      "mod": 1800,
      "de87": 1801,
      "triam": 1802,
      "dv4365": 1803,
      "di27": 1804,
      "dz66": 1805,
      "db3": 1806,
      "831": 1807,
      "592": 1808,
      "309": 1809,
      "des": 1810,
      "tor": 1811,
      "1818": 1812,
      "dv1581": 1813,
      "dd61818": 1814,
      "902": 1815,
      "dr4": 1816,
      "d27801": 1817,
      "dz951": 1818,
      "829": 1819,
      "dj9601": 1820,
      "de94": 1821,
      "dj96": 1822,
      "osin": 1823,
      "d42822": 1824,
      "ylcy": 1825,
      "211": 1826,
      "menthol": 1827,
      "d51881": 1828,
      "acetylcy": 1829,
      "acetylcyste": 1830,
      "acetylcysteine": 1831,
      "d7840": 1832,
      "d1120": 1833,
      "155": 1834,
      "mox": 1835,
      "d03": 1836,
      "cous": 1837,
      "viscous": 1838,
      "d2880": 1839,
      "450": 1840,
      "de46": 1841,
      "dm810": 1842,
      "dr13": 1843,
      "d5ns": 1844,
      "325mg": 1845,
      "stim": 1846,
      "valsartan": 1847,
      "d4241": 1848,
      "dd5": 1849,
      "d7242": 1850,
      "gra": 1851,
      "411": 1852,
      "baclo": 1853,
      "baclofen": 1854,
      "d2767": 1855,
      "epinephrine": 1856,
      "d3659": 1857,
      "213": 1858,
      "801": 1859,
      "tre": 1860,
      "d1977": 1861,
      "dr112": 1862,
      "dr0902": 1863,
      "db1920": 1864,
      "d28419": 1865,
      "8510": 1866,
      "d20300": 1867,
      "dv4589": 1868,
      "156": 1869,
      "dr000": 1870,
      "d29680": 1871,
      "d1970": 1872,
      "158": 1873,
      "ris": 1874,
      "d28529": 1875,
      "869": 1876,
      "dy848": 1877,
      "dz94": 1878,
      "d5180": 1879,
      "filgra": 1880,
      "filgrastim": 1881,
      "dv4364": 1882,
      "top": 1883,
      "284": 1884,
      "d79092": 1885,
      "d27652": 1886,
      "249": 1887,
      "fex": 1888,
      "ofen": 1889,
      "d4240": 1890,
      "fexofen": 1891,
      "fexofenadine": 1892,
      "preser": 1893,
      "d995": 1894,
      "creon": 1895,
      "divalpro": 1896,
      "divalproex": 1897,
      "parox": 1898,
      "paroxetine": 1899,
      "zil": 1900,
      "oil": 1901,
      "dg92": 1902,
      "dg40909": 1903,
      "dl9": 1904,
      "749": 1905,
      "fe": 1906,
      "d6826": 1907,
      "cadd": 1908,
      "amitriptyline": 1909,
      "olone": 1910,
      "dv4282": 1911,
      "cinolone": 1912,
      "d4254": 1913,
      "amox": 1914,
      "midod": 1915,
      "midodrine": 1916,
      "amoxic": 1917,
      "preserv": 1918,
      "amoxicillin": 1919,
      "dz681": 1920,
      "dv4983": 1921,
      "dz23": 1922,
      "ram": 1923,
      "torsemide": 1924,
      "tabine": 1925,
      "dg629": 1926,
      "d45621": 1927,
      "capt": 1928,
      "d78900": 1929,
      "dy8": 1930,
      "d28803": 1931,
      "da419": 1932,
      "006": 1933,
      "231": 1934,
      "dm255": 1935,
      "ble": 1936,
      "dz006": 1937,
      "dn189": 1938,
      "hydrobromide": 1939,
      "d73390": 1940,
      "dr9": 1941,
      "di129": 1942,
      "osi": 1943,
      "tenof": 1944,
      "225": 1945,
      "de559": 1946,
      "d309": 1947,
      "d28522": 1948,
      "dz853": 1949,
      "214": 1950,
      "df0": 1951,
      "d78321": 1952,
      "tenofo": 1953,
      "d2841": 1954,
      "di8510": 1955,
      "d5363": 1956,
      "194": 1957,
      "de8342": 1958,
      "d7823": 1959,
      "dk7": 1960,
      "d4439": 1961,
      "lution": 1962,
      "tiz": 1963,
      "157": 1964,
      "238": 1965,
      "solution": 1966,
      "una": 1967,
      "d569": 1968,
      "d50": 1969,
      "de8339": 1970,
      "dd709": 1971,
      "triamcinolone": 1972,
      "tenofovir": 1973,
      "fle": 1974,
      "acetonide": 1975,
      "d99592": 1976,
      "dv1046": 1977,
      "d7140": 1978,
      "d56210": 1979,
      "169": 1980,
      "707": 1981,
      "lorat": 1982,
      "dz9221": 1983,
      "loratadine": 1984,
      "df43": 1985,
      "dt380": 1986,
      "orine": 1987,
      "sporine": 1988,
      "cyclosporine": 1989,
      "dq": 1990,
      "dv5869": 1991,
      "d0389": 1992,
      "171": 1993,
      "d459": 1994,
      "pyri": 1995,
      "opa": 1996,
      "glyco": 1997,
      "dm19": 1998,
      "ation": 1999,
      "d42833": 2000,
      "dm109": 2001,
      "de6601": 2002,
      "nicar": 2003,
      "bri": 2004,
      "541": 2005,
      "d6930": 2006,
      "d7291": 2007,
      "dv1083": 2008,
      "dv707": 2009,
      "d56409": 2010,
      "rrol": 2011,
      "pyrrol": 2012,
      "glycopyrrol": 2013,
      "glycopyrrolate": 2014,
      "208": 2015,
      "dr188": 2016,
      "186": 2017,
      "carbi": 2018,
      "dd638": 2019,
      "carbidopa": 2020,
      "dv4501": 2021,
      "de8780": 2022,
      "captopril": 2023,
      "aze": 2024,
      "dg43": 2025,
      "dm1990": 2026,
      "de875": 2027,
      "178": 2028,
      "lium": 2029,
      "psyl": 2030,
      "psyllium": 2031,
      "d78650": 2032,
      "d5070": 2033,
      "odopa": 2034,
      "levodopa": 2035,
      "di5033": 2036,
      "dor": 2037,
      "d5761": 2038,
      "tazol": 2039,
      "max": 2040,
      "069": 2041,
      "d3569": 2042,
      "ini": 2043,
      "gmine": 2044,
      "d99859": 2045,
      "leu": 2046,
      "440": 2047,
      "dam": 2048,
      "164": 2049,
      "clin": 2050,
      "ran": 2051,
      "dr65": 2052,
      "nicardipine": 2053,
      "di693": 2054,
      "dz923": 2055,
      "modi": 2056,
      "damycin": 2057,
      "clindamycin": 2058,
      "de930": 2059,
      "gin": 2060,
      "prox": 2061,
      "d585": 2062,
      "d4011": 2063,
      "163": 2064,
      "done": 2065,
      "zolamide": 2066,
      "nalox": 2067,
      "d99591": 2068,
      "iram": 2069,
      "naloxone": 2070,
      "but": 2071,
      "dt4": 2072,
      "dd630": 2073,
      "azepine": 2074,
      "topiram": 2075,
      "topiramate": 2076,
      "d04104": 2077,
      "165": 2078,
      "191": 2079,
      "pamax": 2080,
      "topamax": 2081,
      "dv160": 2082,
      "res": 2083,
      "dz850": 2084,
      "d289": 2085,
      "ycline": 2086,
      "d3383": 2087,
      "itr": 2088,
      "de8490": 2089,
      "pezil": 2090,
      "dz85828": 2091,
      "donepezil": 2092,
      "ungin": 2093,
      "dk7031": 2094,
      "d2760": 2095,
      "dolol": 2096,
      "d2853": 2097,
      "dt380x5a": 2098,
      "dorzolamide": 2099,
      "dr339": 2100,
      "di951": 2101,
      "bacitr": 2102,
      "bacitracin": 2103,
      "monidine": 2104,
      "d30981": 2105,
      "brimonidine": 2106,
      "172": 2107,
      "dz9981": 2108,
      "dv130": 2109,
      "d4580": 2110,
      "dk8": 2111,
      "bicin": 2112,
      "nadolol": 2113,
      "oside": 2114,
      "etop": 2115,
      "etoposide": 2116,
      "dv4572": 2117,
      "oc": 2118,
      "yn": 2119,
      "dc787": 2120,
      "d2500": 2121,
      "d45981": 2122,
      "d51889": 2123,
      "166": 2124,
      "ridone": 2125,
      "peridone": 2126,
      "d7850": 2127,
      "omega": 2128,
      "fis": 2129,
      "fish": 2130,
      "d49320": 2131,
      "d596": 2132,
      "d038": 2133,
      "899": 2134,
      "de870": 2135,
      "dg43909": 2136,
      "dr1310": 2137,
      "d415": 2138,
      "271": 2139,
      "d17": 2140,
      "xxxa": 2141,
      "d20400": 2142,
      "cerin": 2143,
      "288": 2144,
      "rubicin": 2145,
      "hydrocerin": 2146,
      "167": 2147,
      "d80": 2148,
      "dr10": 2149,
      "d45829": 2150,
      "402": 2151,
      "db9620": 2152,
      "day": 2153,
      "barbital": 2154,
      "d1983": 2155,
      "pheno": 2156,
      "de7800": 2157,
      "di5022": 2158,
      "812": 2159,
      "gan": 2160,
      "risperidone": 2161,
      "319": 2162,
      "224": 2163,
      "d70703": 2164,
      "vul": 2165,
      "clavul": 2166,
      "d99674": 2167,
      "phenobarbital": 2168,
      "de8782": 2169,
      "dd6481": 2170,
      "emtr": 2171,
      "tide": 2172,
      "emtrici": 2173,
      "d599": 2174,
      "d49121": 2175,
      "d333": 2176,
      "da0": 2177,
      "pyrido": 2178,
      "oxybut": 2179,
      "ynin": 2180,
      "oxybutynin": 2181,
      "234": 2182,
      "851": 2183,
      "ylate": 2184,
      "dr109": 2185,
      "fungin": 2186,
      "cafungin": 2187,
      "micafungin": 2188,
      "d785": 2189,
      "anidine": 2190,
      "tizanidine": 2191,
      "dz9181": 2192,
      "d042": 2193,
      "1300": 2194,
      "952": 2195,
      "198": 2196,
      "d567": 2197,
      "de112": 2198,
      "lay": 2199,
      "delay": 2200,
      "delayed": 2201,
      "203": 2202,
      "dj90": 2203,
      "fleet": 2204,
      "dv1588": 2205,
      "250ml": 2206,
      "d78720": 2207,
      "ing": 2208,
      "nife": 2209,
      "dk7469": 2210,
      "fi": 2211,
      "emtricitabine": 2212,
      "trex": 2213,
      "d18": 2214,
      "ril": 2215,
      "nifedipine": 2216,
      "dr110": 2217,
      "dv462": 2218,
      "503": 2219,
      "de8770": 2220,
      "ceti": 2221,
      "489": 2222,
      "ptomycin": 2223,
      "dl89": 2224,
      "otide": 2225,
      "treotide": 2226,
      "octreotide": 2227,
      "daptomycin": 2228,
      "cetiri": 2229,
      "cetirizine": 2230,
      "ery": 2231,
      "erythromycin": 2232,
      "dv4586": 2233,
      "174": 2234,
      "269": 2235,
      "unable": 2236,
      "02": 2237,
      "dk831": 2238,
      "d2689": 2239,
      "anic": 2240,
      "clavulanic": 2241,
      "301": 2242,
      "waf": 2243,
      "252": 2244,
      "d48": 2245,
      "dz781": 2246,
      "176": 2247,
      "ab": 2248,
      "dm549": 2249,
      "df319": 2250,
      "dk3189": 2251,
      "ib": 2252,
      "2500": 2253,
      "251": 2254,
      "299": 2255,
      "de1140": 2256,
      "195": 2257,
      "0001": 2258,
      "tigmine": 2259,
      "d410": 2260,
      "ostigmine": 2261,
      "neostigmine": 2262,
      "de8889": 2263,
      "d1550": 2264,
      "192": 2265,
      "dz98": 2266,
      "d73313": 2267,
      "06": 2268,
      "orubicin": 2269,
      "doxorubicin": 2270,
      "187": 2271,
      "dk3184": 2272,
      "212": 2273,
      "riva": 2274,
      "dc9200": 2275,
      "glydo": 2276,
      "dm545": 2277,
      "dc7951": 2278,
      "buspir": 2279,
      "buspirone": 2280,
      "480": 2281,
      "d5718": 2282,
      "dz93": 2283,
      "177": 2284,
      "d79": 2285,
      "d2752": 2286,
      "dr509": 2287,
      "dr51": 2288,
      "lex": 2289,
      "desonide": 2290,
      "283": 2291,
      "232": 2292,
      "dz9049": 2293,
      "cic": 2294,
      "dk72": 2295,
      "dj98": 2296,
      "de8781": 2297,
      "rab": 2298,
      "proto": 2299,
      "protocol": 2300,
      "d5601": 2301,
      "stat": 2302,
      "dd684": 2303,
      "ciclo": 2304,
      "199": 2305,
      "df1010": 2306,
      "193": 2307,
      "d5533": 2308,
      "codone": 2309,
      "ycycline": 2310,
      "hydrocodone": 2311,
      "doxycycline": 2312,
      "hycl": 2313,
      "hyclate": 2314,
      "ciclovir": 2315,
      "d2930": 2316,
      "dj3": 2317,
      "d8": 2318,
      "cepastat": 2319,
      "dv1005": 2320,
      "d41519": 2321,
      "d295": 2322,
      "nor": 2323,
      "vacaine": 2324,
      "d2753": 2325,
      "pivacaine": 2326,
      "dc8339": 2327,
      "opres": 2328,
      "opressin": 2329,
      "229": 2330,
      "dt828": 2331,
      "d99685": 2332,
      "vera": 2333,
      "da4": 2334,
      "vorin": 2335,
      "d5559": 2336,
      "gl": 2337,
      "verapa": 2338,
      "inhal": 2339,
      "inhalation": 2340,
      "verapamil": 2341,
      "sel": 2342,
      "roxaban": 2343,
      "d7802": 2344,
      "rivaroxaban": 2345,
      "ganciclovir": 2346,
      "25g": 2347,
      "500ml": 2348,
      "atri": 2349,
      "covorin": 2350,
      "d999": 2351,
      "glutamine": 2352,
      "dime": 2353,
      "dz76": 2354,
      "d27669": 2355,
      "di739": 2356,
      "dk75": 2357,
      "d28749": 2358,
      "pp": 2359,
      "supp": 2360,
      "phale": 2361,
      "cephale": 2362,
      "cephalexin": 2363,
      "d43": 2364,
      "leucovorin": 2365,
      "d53550": 2366,
      "dt36": 2367,
      "inc": 2368,
      "olol": 2369,
      "455": 2370,
      "dk7290": 2371,
      "08": 2372,
      "idime": 2373,
      "ceftaz": 2374,
      "ceftazidime": 2375,
      "d36201": 2376,
      "vori": 2377,
      "voriconazole": 2378,
      "d560": 2379,
      "vu": 2380,
      "701": 2381,
      "d04149": 2382,
      "d78079": 2383,
      "zinc": 2384,
      "230": 2385,
      "d70715": 2386,
      "d30390": 2387,
      "4000": 2388,
      "dk57": 2389,
      "dz7682": 2390,
      "420": 2391,
      "206": 2392,
      "d7295": 2393,
      "d349": 2394,
      "mesal": 2395,
      "istine": 2396,
      "cristine": 2397,
      "vincristine": 2398,
      "carbam": 2399,
      "df4310": 2400,
      "262": 2401,
      "350": 2402,
      "df112": 2403,
      "205": 2404,
      "d9": 2405,
      "dc85": 2406,
      "aqu": 2407,
      "amp": 2408,
      "d7821": 2409,
      "dv441": 2410,
      "d42732": 2411,
      "248": 2412,
      "mesalamine": 2413,
      "sylate": 2414,
      "ari": 2415,
      "d5641": 2416,
      "betasol": 2417,
      "di0": 2418,
      "196": 2419,
      "242": 2420,
      "clobetasol": 2421,
      "dd689": 2422,
      "aqua": 2423,
      "d7837": 2424,
      "comp": 2425,
      "de8859": 2426,
      "bupivacaine": 2427,
      "pyridoxine": 2428,
      "phor": 2429,
      "aquaphor": 2430,
      "d30393": 2431,
      "dz9114": 2432,
      "dh409": 2433,
      "218": 2434,
      "dv163": 2435,
      "pheni": 2436,
      "228": 2437,
      "chemo": 2438,
      "de27": 2439,
      "dv850": 2440,
      "281": 2441,
      "dt86": 2442,
      "oncovin": 2443,
      "001": 2444,
      "d348": 2445,
      "233": 2446,
      "d59": 2447,
      "sty": 2448,
      "man": 2449,
      "complex": 2450,
      "vudine": 2451,
      "dz720": 2452,
      "dr6521": 2453,
      "dro": 2454,
      "dk7460": 2455,
      "d25002": 2456,
      "d511": 2457,
      "320": 2458,
      "dz9484": 2459,
      "d29181": 2460,
      "propran": 2461,
      "piprazole": 2462,
      "leep": 2463,
      "310": 2464,
      "io": 2465,
      "propranolol": 2466,
      "258": 2467,
      "cil": 2468,
      "204": 2469,
      "542": 2470,
      "d3485": 2471,
      "de1122": 2472,
      "dv4579": 2473,
      "dm069": 2474,
      "d47": 2475,
      "aripiprazole": 2476,
      "cu": 2477,
      "818": 2478,
      "dz800": 2479,
      "d78552": 2480,
      "tru": 2481,
      "d53789": 2482,
      "fludro": 2483,
      "fludrocortisone": 2484,
      "dz8546": 2485,
      "dz6841": 2486,
      "de8499": 2487,
      "226": 2488,
      "cillin": 2489,
      "d78830": 2490,
      "tu": 2491,
      "oxylate": 2492,
      "diphenoxylate": 2493,
      "d286": 2494,
      "vada": 2495,
      "truvada": 2496,
      "gli": 2497,
      "dc8338": 2498,
      "d78039": 2499,
      "875": 2500,
      "07": 2501,
      "302": 2502,
      "xx": 2503,
      "dz874": 2504,
      "budesonide": 2505,
      "dv433": 2506,
      "d2536": 2507,
      "d716": 2508,
      "688": 2509,
      "df1021": 2510,
      "d793": 2511,
      "375": 2512,
      "di130": 2513,
      "264": 2514,
      "wi": 2515,
      "ds0": 2516,
      "dj6": 2517,
      "dk7030": 2518,
      "di70": 2519,
      "di824": 2520,
      "dc34": 2521,
      "839": 2522,
      "d5722": 2523,
      "d79029": 2524,
      "d42823": 2525,
      "d2662": 2526,
      "dr78": 2527,
      "dv442": 2528,
      "360": 2529,
      "dk29": 2530,
      "binol": 2531,
      "drona": 2532,
      "dronabinol": 2533,
      "263": 2534,
      "lami": 2535,
      "dn183": 2536,
      "de115": 2537,
      "d5609": 2538,
      "d20501": 2539,
      "rabine": 2540,
      "d28850": 2541,
      "dv6284": 2542,
      "dv08": 2543,
      "602": 2544,
      "207": 2545,
      "d0414": 2546,
      "d33394": 2547,
      "dr7881": 2548,
      "dz89": 2549,
      "d5280": 2550,
      "d5768": 2551,
      "d30391": 2552,
      "ez": 2553,
      "223": 2554,
      "mibe": 2555,
      "etimibe": 2556,
      "ezetimibe": 2557,
      "colch": 2558,
      "icine": 2559,
      "colchicine": 2560,
      "dv1272": 2561,
      "d7812": 2562,
      "dh5": 2563,
      "d34982": 2564,
      "d4928": 2565,
      "de9342": 2566,
      "dv1082": 2567,
      "d0417": 2568,
      "d041": 2569,
      "d23875": 2570,
      "dz9884": 2571,
      "dk80": 2572,
      "d0413": 2573,
      "d04111": 2574,
      "d2800": 2575,
      "d20410": 2576,
      "fos": 2577,
      "cel": 2578,
      "d593": 2579,
      "phenid": 2580,
      "db370": 2581,
      "215": 2582,
      "polymy": 2583,
      "polymyxin": 2584,
      "235": 2585,
      "dz7982": 2586,
      "d5853": 2587,
      "di350": 2588,
      "dt85": 2589,
      "d5569": 2590,
      "icin": 2591,
      "april": 2592,
      "dj690": 2593,
      "d7862": 2594,
      "dz950": 2595,
      "dj441": 2596,
      "d2763": 2597,
      "dk861": 2598,
      "d11": 2599,
      "009": 2600,
      "d433": 2601,
      "216": 2602,
      "217": 2603,
      "lamivudine": 2604,
      "278": 2605,
      "dv851": 2606,
      "dc786": 2607,
      "di2720": 2608,
      "ob": 2609,
      "excel": 2610,
      "227": 2611,
      "dy832": 2612,
      "dd618": 2613,
      "tegra": 2614,
      "nortriptyline": 2615,
      "d519": 2616,
      "d1976": 2617,
      "d728": 2618,
      "d90": 2619,
      "df05": 2620,
      "961": 2621,
      "dm797": 2622,
      "1600": 2623,
      "quine": 2624,
      "dr627": 2625,
      "d997": 2626,
      "di5023": 2627,
      "dj9811": 2628,
      "di45": 2629,
      "dv454": 2630,
      "dk86": 2631,
      "df0390": 2632,
      "d60": 2633,
      "d5lr": 2634,
      "di340": 2635,
      "d51919": 2636,
      "rectal": 2637,
      "tein": 2638,
      "methylphenid": 2639,
      "methylphenidate": 2640,
      "d04112": 2641,
      "dicyclo": 2642,
      "dicyclomine": 2643,
      "calci": 2644,
      "db9689": 2645,
      "290": 2646,
      "d05": 2647,
      "dl975": 2648,
      "dv173": 2649,
      "253": 2650,
      "piz": 2651,
      "di272": 2652,
      "amphe": 2653,
      "261": 2654,
      "246": 2655,
      "cli": 2656,
      "chloroquine": 2657,
      "tegravir": 2658,
      "glipiz": 2659,
      "amphetamine": 2660,
      "de440": 2661,
      "dv4502": 2662,
      "glipizide": 2663,
      "dz8249": 2664,
      "protein": 2665,
      "243": 2666,
      "vas": 2667,
      "d25541": 2668,
      "vasopressin": 2669,
      "valganciclovir": 2670,
      "gelcla": 2671,
      "gelclair": 2672,
      "hydroxychloroquine": 2673,
      "di26": 2674,
      "dc83": 2675,
      "oate": 2676,
      "naprox": 2677,
      "naproxen": 2678,
      "245": 2679,
      "dv600": 2680,
      "dy920": 2681,
      "dr001": 2682,
      "uth": 2683,
      "mouth": 2684,
      "dr791": 2685,
      "d6822": 2686,
      "d99931": 2687,
      "d34830": 2688,
      "dr079": 2689,
      "sco": 2690,
      "d78906": 2691,
      "260": 2692,
      "5090": 2693,
      "d5589": 2694,
      "dv1011": 2695,
      "polamine": 2696,
      "scopolamine": 2697,
      "d78909": 2698,
      "dz952": 2699,
      "da047": 2700,
      "03": 2701,
      "dk4": 2702,
      "d7824": 2703,
      "cvi": 2704,
      "cvicu": 2705,
      "db952": 2706,
      "di81": 2707,
      "272": 2708,
      "df1120": 2709,
      "605": 2710,
      "dz803": 2711,
      "d27542": 2712,
      "373": 2713,
      "neoral": 2714,
      "set": 2715,
      "901": 2716,
      "cas": 2717,
      "sette": 2718,
      "cassette": 2719,
      "tain": 2720,
      "modifi": 2721,
      "obtain": 2722,
      "modified": 2723,
      "8x5a": 2724,
      "d730": 2725,
      "291": 2726,
      "dc9000": 2727,
      "pri": 2728,
      "dv09": 2729,
      "303": 2730,
      "d60001": 2731,
      "oxcarb": 2732,
      "oxcarbazepine": 2733,
      "d59654": 2734,
      "oxi": 2735,
      "de222": 2736,
      "dz16": 2737,
      "d28411": 2738,
      "trexate": 2739,
      "methotrexate": 2740,
      "di482": 2741,
      "dk12": 2742,
      "8580": 2743,
      "d19889": 2744,
      "dd701": 2745,
      "d53085": 2746,
      "cos": 2747,
      "244": 2748,
      "dr338": 2749,
      "di471": 2750,
      "dd89": 2751,
      "lacos": 2752,
      "lacosamide": 2753,
      "da04": 2754,
      "236": 2755,
      "low": 2756,
      "dv8801": 2757,
      "sinus": 2758,
      "with": 2759,
      "dr0789": 2760,
      "yel": 2761,
      "yellow": 2762,
      "dz7984": 2763,
      "dk7581": 2764,
      "di2699": 2765,
      "enal": 2766,
      "de106": 2767,
      "cyta": 2768,
      "237": 2769,
      "dt80": 2770,
      "d7856": 2771,
      "dm480": 2772,
      "dv1302": 2773,
      "de116": 2774,
      "entam": 2775,
      "naf": 2776,
      "cytarabine": 2777,
      "dt402": 2778,
      "d41071": 2779,
      "di509": 2780,
      "nafcillin": 2781,
      "cohol": 2782,
      "alcohol": 2783,
      "dr531": 2784,
      "azosin": 2785,
      "doxazosin": 2786,
      "d43889": 2787,
      "dr29": 2788,
      "d5789": 2789,
      "de9308": 2790,
      "256": 2791,
      "tami": 2792,
      "d25080": 2793,
      "2800": 2794,
      "d7804": 2795,
      "dr911": 2796,
      "293": 2797,
      "dd61810": 2798,
      "osel": 2799,
      "tamivir": 2800,
      "oseltamivir": 2801,
      "d249": 2802,
      "dn401": 2803,
      "xil": 2804,
      "dra": 2805,
      "wal": 2806,
      "db182": 2807,
      "withdra": 2808,
      "withdrawal": 2809,
      "dk921": 2810,
      "903": 2811,
      "dl03": 2812,
      "d6961": 2813,
      "dv1204": 2814,
      "dg936": 2815,
      "dr634": 2816,
      "257": 2817,
      "di95": 2818,
      "d30503": 2819,
      "273": 2820,
      "dm54": 2821,
      "279": 2822,
      "dz590": 2823,
      "d29420": 2824,
      "wa": 2825,
      "d369": 2826,
      "d99688": 2827,
      "285": 2828,
      "318": 2829,
      "mecli": 2830,
      "dini": 2831,
      "dinitrate": 2832,
      "cavir": 2833,
      "di214": 2834,
      "d04185": 2835,
      "dz993": 2836,
      "d20288": 2837,
      "d57420": 2838,
      "d9966": 2839,
      "dz87440": 2840,
      "dr600": 2841,
      "rene": 2842,
      "de8498": 2843,
      "dm8580": 2844,
      "700": 2845,
      "ratio": 2846,
      "dk56": 2847,
      "ton": 2848,
      "d78097": 2849,
      "dt402x5a": 2850,
      "332": 2851,
      "324": 2852,
      "de10": 2853,
      "d9974": 2854,
      "d5781": 2855,
      "d71941": 2856,
      "d452": 2857,
      "d3899": 2858,
      "d515": 2859,
      "247": 2860,
      "d591": 2861,
      "zolid": 2862,
      "d78009": 2863,
      "linezolid": 2864,
      "d4271": 2865,
      "dd539": 2866,
      "d7806": 2867,
      "dc7931": 2868,
      "dx5": 2869,
      "dx58": 2870,
      "d70722": 2871,
      "d795": 2872,
      "d5845": 2873,
      "de890": 2874,
      "298": 2875,
      "nimodi": 2876,
      "1052": 2877,
      "nimodipine": 2878,
      "dz4": 2879,
      "dc220": 2880,
      "d2869": 2881,
      "dr55": 2882,
      "dz8619": 2883,
      "d52801": 2884,
      "gar": 2885,
      "dr918": 2886,
      "d5772": 2887,
      "de1142": 2888,
      "d1962": 2889,
      "dz801": 2890,
      "meclizine": 2891,
      "d72989": 2892,
      "d3559": 2893,
      "491": 2894,
      "dk830": 2895,
      "de1151": 2896,
      "cis": 2897,
      "d45341": 2898,
      "de9352": 2899,
      "oxyme": 2900,
      "dronate": 2901,
      "tazoline": 2902,
      "oxymetazoline": 2903,
      "dg25": 2904,
      "dg9340": 2905,
      "dl031": 2906,
      "d24900": 2907,
      "dw19": 2908,
      "rita": 2909,
      "teraz": 2910,
      "terazosin": 2911,
      "ritalin": 2912,
      "d99812": 2913,
      "carbamazepine": 2914,
      "pex": 2915,
      "dv4987": 2916,
      "zed": 2917,
      "265": 2918,
      "neomycin": 2919,
      "275": 2920,
      "rt": 2921,
      "d33818": 2922,
      "dv161": 2923,
      "d2948": 2924,
      "dz931": 2925,
      "d56211": 2926,
      "dd469": 2927,
      "da0472": 2928,
      "de8792": 2929,
      "dv1052": 2930,
      "d78609": 2931,
      "dz7952": 2932,
      "dk521": 2933,
      "oxime": 2934,
      "pod": 2935,
      "cefpod": 2936,
      "dk94": 2937,
      "cefpodoxime": 2938,
      "d99811": 2939,
      "proxetil": 2940,
      "d29410": 2941,
      "str": 2942,
      "tol": 2943,
      "d56981": 2944,
      "pos": 2945,
      "d1961": 2946,
      "fo": 2947,
      "onized": 2948,
      "d39": 2949,
      "441": 2950,
      "d07032": 2951,
      "idone": 2952,
      "gol": 2953,
      "dv1301": 2954,
      "d553": 2955,
      "ritona": 2956,
      "ritonavir": 2957,
      "gentam": 2958,
      "gentamicin": 2959,
      "df17200": 2960,
      "d79311": 2961,
      "d56722": 2962,
      "db961": 2963,
      "d478": 2964,
      "653": 2965,
      "dr45": 2966,
      "d7906": 2967,
      "d71690": 2968,
      "780": 2969,
      "dk567": 2970,
      "dg2581": 2971,
      "df12": 2972,
      "843": 2973,
      "prep": 2974,
      "di255": 2975,
      "267": 2976,
      "3000": 2977,
      "enalapril": 2978,
      "dv0980": 2979,
      "di429": 2980,
      "d799": 2981,
      "dr32": 2982,
      "crrt": 2983,
      "acon": 2984,
      "yte": 2985,
      "8381": 2986,
      "de8809": 2987,
      "dl97": 2988,
      "dg8": 2989,
      "movi": 2990,
      "moviprep": 2991,
      "dz21": 2992,
      "ding": 2993,
      "d27952": 2994,
      "d5778": 2995,
      "dc7989": 2996,
      "sca": 2997,
      "scale": 2998,
      "aconazole": 2999,
      "312": 3000,
      "dr42": 3001,
      "de780": 3002,
      "di878": 3003,
      "dr569": 3004,
      "golyte": 3005,
      "golytely": 3006,
      "sli": 3007,
      "266": 3008,
      "ionized": 3009,
      "sliding": 3010,
      "dr64": 3011,
      "dz85118": 3012,
      "d1629": 3013,
      "pan": 3014,
      "de9478": 3015,
      "268": 3016,
      "d794": 3017,
      "353": 3018,
      "832": 3019,
      "wafer": 3020,
      "acetazol": 3021,
      "acetazolamide": 3022,
      "ily": 3023,
      "daily": 3024,
      "dg9": 3025,
      "dk5903": 3026,
      "d30501": 3027,
      "025": 3028,
      "dr21": 3029,
      "d7210": 3030,
      "d4414": 3031,
      "sleep": 3032,
      "dl270": 3033,
      "dv1009": 3034,
      "dz932": 3035,
      "posaconazole": 3036,
      "argine": 3037,
      "glargine": 3038,
      "dk760": 3039,
      "d99659": 3040,
      "d78901": 3041,
      "d725": 3042,
      "lith": 3043,
      "chole": 3044,
      "df4": 3045,
      "d786": 3046,
      "dg620": 3047,
      "dc9201": 3048,
      "dz85038": 3049,
      "d3320": 3050,
      "d23871": 3051,
      "dk85": 3052,
      "dk529": 3053,
      "dj95": 3054,
      "dy831": 3055,
      "styramine": 3056,
      "cholestyramine": 3057,
      "di472": 3058,
      "dm3": 3059,
      "d99749": 3060,
      "dd473": 3061,
      "df11": 3062,
      "dv443": 3063,
      "d43310": 3064,
      "292": 3065,
      "dy830": 3066,
      "d5711": 3067,
      "df10239": 3068,
      "dl03116": 3069,
      "ump": 3070,
      "de538": 3071,
      "dv4571": 3072,
      "d51189": 3073,
      "dv0481": 3074,
      "d579": 3075,
      "d340": 3076,
      "d6929": 3077,
      "di49": 3078,
      "d20502": 3079,
      "d72400": 3080,
      "dt82868": 3081,
      "dt814": 3082,
      "dr739": 3083,
      "dr45851": 3084,
      "274": 3085,
      "d75": 3086,
      "d25061": 3087,
      "277": 3088,
      "d1": 3089,
      "d4148": 3090,
      "une": 3091,
      "d5680": 3092,
      "d4139": 3093,
      "di82": 3094,
      "dk5909": 3095,
      "d2630": 3096,
      "d56089": 3097,
      "dk449": 3098,
      "d7240": 3099,
      "role": 3100,
      "dc92": 3101,
      "ropini": 3102,
      "ropinirole": 3103,
      "mesylate": 3104,
      "950": 3105,
      "prami": 3106,
      "phosphamide": 3107,
      "cyclophosphamide": 3108,
      "333": 3109,
      "pexole": 3110,
      "pramipexole": 3111,
      "db9561": 3112,
      "dv427": 3113,
      "d49322": 3114,
      "azop": 3115,
      "d5920": 3116,
      "d25050": 3117,
      "tant": 3118,
      "412": 3119,
      "dt814xxa": 3120,
      "d30401": 3121,
      "mmune": 3122,
      "de873": 3123,
      "d261": 3124,
      "db1910": 3125,
      "2270": 3126,
      "dj398": 3127,
      "dt82868a": 3128,
      "dw18": 3129,
      "dr410": 3130,
      "san": 3131,
      "dk2270": 3132,
      "15a": 3133,
      "276": 3134,
      "d135": 3135,
      "apre": 3136,
      "dv1051": 3137,
      "zon": 3138,
      "isamide": 3139,
      "d2874": 3140,
      "zonisamide": 3141,
      "meman": 3142,
      "memantine": 3143,
      "dj9621": 3144,
      "dv5863": 3145,
      "d0088": 3146,
      "d33819": 3147,
      "dw19xxxa": 3148,
      "df14": 3149,
      "d7820": 3150,
      "pitant": 3151,
      "aprepitant": 3152,
      "dj439": 3153,
      "de2740": 3154,
      "alen": 3155,
      "alendronate": 3156,
      "dimmune": 3157,
      "dx58xxxa": 3158,
      "sandimmune": 3159,
      "d7994": 3160,
      "di4892": 3161,
      "dt455": 3162,
      "4281": 3163,
      "d70714": 3164,
      "db181": 3165,
      "dv1209": 3166,
      "dz96653": 3167,
      "dl03115": 3168,
      "dz85820": 3169,
      "ketoconazole": 3170,
      "ente": 3171,
      "d4659": 3172,
      "mac": 3173,
      "once": 3174,
      "lithium": 3175,
      "d58381": 3176,
      "dz79899": 3177,
      "dk5090": 3178,
      "trac": 3179,
      "ytoin": 3180,
      "henytoin": 3181,
      "sphenytoin": 3182,
      "fosphenytoin": 3183,
      "ben": 3184,
      "ath": 3185,
      "d1623": 3186,
      "dc7800": 3187,
      "d52800": 3188,
      "d6827": 3189,
      "d20050": 3190,
      "391": 3191,
      "sleeping": 3192,
      "di826": 3193,
      "dn170": 3194,
      "d7830": 3195,
      "d4940": 3196,
      "d1570": 3197,
      "dr05": 3198,
      "286": 3199,
      "nat": 3200,
      "510": 3201,
      "dv422": 3202,
      "d30560": 3203,
      "dd801": 3204,
      "mes": 3205,
      "entecavir": 3206,
      "taper": 3207,
      "methasone": 3208,
      "dv440": 3209,
      "de8786": 3210,
      "de113": 3211,
      "dt50": 3212,
      "df10129": 3213,
      "dz87": 3214,
      "megl": 3215,
      "umine": 3216,
      "meglumine": 3217,
      "days": 3218,
      "d27541": 3219,
      "dz96641": 3220,
      "ew": 3221,
      "zoate": 3222,
      "diatri": 3223,
      "gastro": 3224,
      "view": 3225,
      "diatrizoate": 3226,
      "gastroview": 3227,
      "330": 3228,
      "dv4281": 3229,
      "uran": 3230,
      "d2867": 3231,
      "nitrof": 3232,
      "nitrofuran": 3233,
      "nitrofurantoin": 3234,
      "dopamine": 3235,
      "d28981": 3236,
      "pancre": 3237,
      "fat": 3238,
      "d53010": 3239,
      "2210": 3240,
      "d30301": 3241,
      "dv1271": 3242,
      "dz6823": 3243,
      "dt865": 3244,
      "di4581": 3245,
      "d71945": 3246,
      "rate": 3247,
      "ck": 3248,
      "dg20": 3249,
      "308": 3250,
      "caps": 3251,
      "df1290": 3252,
      "hydroxyurea": 3253,
      "de11649": 3254,
      "uta": 3255,
      "iop": 3256,
      "sil": 3257,
      "valproic": 3258,
      "odine": 3259,
      "pen": 3260,
      "de11621": 3261,
      "459": 3262,
      "d7100": 3263,
      "levalbuterol": 3264,
      "287": 3265,
      "dv4573": 3266,
      "dv420": 3267,
      "d1551": 3268,
      "yridine": 3269,
      "azath": 3270,
      "ioprine": 3271,
      "azathioprine": 3272,
      "dv463": 3273,
      "d078": 3274,
      "304": 3275,
      "d6823": 3276,
      "bra": 3277,
      "d25063": 3278,
      "dd500": 3279,
      "phenazop": 3280,
      "phenazopyridine": 3281,
      "dc9202": 3282,
      "de9289": 3283,
      "d3310": 3284,
      "295": 3285,
      "d72402": 3286,
      "294": 3287,
      "d46": 3288,
      "d7847": 3289,
      "dc7801": 3290,
      "d5793": 3291,
      "dz96651": 3292,
      "d0549": 3293,
      "d2113": 3294,
      "dy92238": 3295,
      "platin": 3296,
      "d53019": 3297,
      "atrac": 3298,
      "urium": 3299,
      "ximab": 3300,
      "cisatrac": 3301,
      "cisatracurium": 3302,
      "besylate": 3303,
      "lix": 3304,
      "352": 3305,
      "748": 3306,
      "xd": 3307,
      "amino": 3308,
      "ver": 3309,
      "nal": 3310,
      "363": 3311,
      "d444": 3312,
      "de80": 3313,
      "421": 3314,
      "dn319": 3315,
      "terodine": 3316,
      "pr": 3317,
      "342": 3318,
      "d99682": 3319,
      "dc6": 3320,
      "d31401": 3321,
      "dz6843": 3322,
      "tolterodine": 3323,
      "dc772": 3324,
      "di952": 3325,
      "d150": 3326,
      "dv1042": 3327,
      "di872": 3328,
      "d25062": 3329,
      "dc250": 3330,
      "dz8505": 3331,
      "d27950": 3332,
      "db20": 3333,
      "dc5": 3334,
      "d3970": 3335,
      "d6989": 3336,
      "elix": 3337,
      "elixir": 3338,
      "dj069": 3339,
      "975": 3340,
      "d185": 3341,
      "813": 3342,
      "pase": 3343,
      "lipase": 3344,
      "d29620": 3345,
      "onam": 3346,
      "aztre": 3347,
      "aztreonam": 3348,
      "dl7": 3349,
      "d44023": 3350,
      "1100": 3351,
      "dh54": 3352,
      "d78057": 3353,
      "pancrelipase": 3354,
      "dz940": 3355,
      "dz933": 3356,
      "dv8541": 3357,
      "511": 3358,
      "528": 3359,
      "311": 3360,
      "d07030": 3361,
      "370": 3362,
      "d27650": 3363,
      "dk9189": 3364,
      "296": 3365,
      "d4538": 3366,
      "sota": 3367,
      "sotalol": 3368,
      "d71946": 3369,
      "dj910": 3370,
      "d42830": 3371,
      "les": 3372,
      "sulfa": 3373,
      "d78829": 3374,
      "d43820": 3375,
      "dh9": 3376,
      "ptan": 3377,
      "zole": 3378,
      "valproate": 3379,
      "de8351": 3380,
      "di714": 3381,
      "6a": 3382,
      "d7213": 3383,
      "dz860": 3384,
      "dk2970": 3385,
      "dl299": 3386,
      "d5939": 3387,
      "d0785": 3388,
      "4290": 3389,
      "gamm": 3390,
      "gamma": 3391,
      "gestr": 3392,
      "dz6842": 3393,
      "raltegravir": 3394,
      "fosaprepitant": 3395,
      "d3558": 3396,
      "dz981": 3397,
      "bid": 3398,
      "glybu": 3399,
      "d4571": 3400,
      "d04119": 3401,
      "glyburide": 3402,
      "sate": 3403,
      "betamethasone": 3404,
      "d7919": 3405,
      "dv641": 3406,
      "dk5190": 3407,
      "dm86": 3408,
      "d1890": 3409,
      "lax": 3410,
      "d2883": 3411,
      "atriptan": 3412,
      "d3441": 3413,
      "de11319": 3414,
      "nitol": 3415,
      "mannitol": 3416,
      "d59970": 3417,
      "603": 3418,
      "dz6822": 3419,
      "valacyclovir": 3420,
      "de9305": 3421,
      "dc7802": 3422,
      "dv1007": 3423,
      "702": 3424,
      "403": 3425,
      "dz6820": 3426,
      "ulin": 3427,
      "dk64": 3428,
      "d431": 3429,
      "d7905": 3430,
      "dy9289": 3431,
      "gard": 3432,
      "d85": 3433,
      "megestr": 3434,
      "megestrol": 3435,
      "dr53": 3436,
      "tran": 3437,
      "trozole": 3438,
      "313": 3439,
      "sn": 3440,
      "mesna": 3441,
      "sndz": 3442,
      "d4829": 3443,
      "dk0": 3444,
      "de7": 3445,
      "azone": 3446,
      "gammagard": 3447,
      "dv1006": 3448,
      "dz95810": 3449,
      "oproxil": 3450,
      "disoproxil": 3451,
      "dextroamphetamine": 3452,
      "olazone": 3453,
      "metolazone": 3454,
      "read": 3455,
      "viread": 3456,
      "di9581": 3457,
      "dg8918": 3458,
      "297": 3459,
      "d7231": 3460,
      "d25040": 3461,
      "sum": 3462,
      "d5790": 3463,
      "d1179": 3464,
      "dd3": 3465,
      "fenof": 3466,
      "bupre": 3467,
      "bupreno": 3468,
      "rphine": 3469,
      "d695": 3470,
      "buprenorphine": 3471,
      "731": 3472,
      "306": 3473,
      "1a": 3474,
      "d292": 3475,
      "d51181": 3476,
      "329": 3477,
      "de104": 3478,
      "dt45515a": 3479,
      "dt83": 3480,
      "d737": 3481,
      "sumatriptan": 3482,
      "dz96652": 3483,
      "ibrate": 3484,
      "fenofibrate": 3485,
      "trexone": 3486,
      "naltrexone": 3487,
      "db965": 3488,
      "triol": 3489,
      "calcitriol": 3490,
      "d30183": 3491,
      "tobra": 3492,
      "dk632": 3493,
      "dd72819": 3494,
      "dv1551": 3495,
      "dz907": 3496,
      "dz944": 3497,
      "dz515": 3498,
      "tobramycin": 3499,
      "d575": 3500,
      "tonic": 3501,
      "de8352": 3502,
      "pris": 3503,
      "d29590": 3504,
      "dm6": 3505,
      "di69354": 3506,
      "d4239": 3507,
      "dj8": 3508,
      "d78062": 3509,
      "dk589": 3510,
      "799": 3511,
      "kin": 3512,
      "d533": 3513,
      "dz6824": 3514,
      "onium": 3515,
      "d4550": 3516,
      "382": 3517,
      "prazosin": 3518,
      "dr1013": 3519,
      "dj84": 3520,
      "d71536": 3521,
      "hyos": 3522,
      "hyoscy": 3523,
      "d2766": 3524,
      "hyoscyamine": 3525,
      "d3071": 3526,
      "uximab": 3527,
      "x6a": 3528,
      "340": 3529,
      "thal": 3530,
      "dn13": 3531,
      "dc509": 3532,
      "d86": 3533,
      "305": 3534,
      "d7455": 3535,
      "d29690": 3536,
      "322": 3537,
      "chlorthal": 3538,
      "chlorthalidone": 3539,
      "d5780": 3540,
      "962": 3541,
      "d36250": 3542,
      "d30400": 3543,
      "dl409": 3544,
      "di65": 3545,
      "844": 3546,
      "846": 3547,
      "d03842": 3548,
      "d78605": 3549,
      "rituximab": 3550,
      "d30550": 3551,
      "dm46": 3552,
      "asleep": 3553,
      "mer": 3554,
      "prisma": 3555,
      "prismasate": 3556,
      "dh35": 3557,
      "d1628": 3558,
      "dm796": 3559,
      "dv168": 3560,
      "dz6830": 3561,
      "dk1230": 3562,
      "d434": 3563,
      "dj9809": 3564,
      "dz808": 3565,
      "d4739": 3566,
      "969": 3567,
      "umps": 3568,
      "307": 3569,
      "dr0600": 3570,
      "methocarbam": 3571,
      "methocarbamol": 3572,
      "d5368": 3573,
      "d87": 3574,
      "infat": 3575,
      "infatab": 3576,
      "d95": 3577,
      "ren": 3578,
      "d2989": 3579,
      "d20190": 3580,
      "mono": 3581,
      "d2440": 3582,
      "lar": 3583,
      "dk922": 3584,
      "dr29810": 3585,
      "monohyd": 3586,
      "di428": 3587,
      "de8796": 3588,
      "d7843": 3589,
      "clumps": 3590,
      "315": 3591,
      "dy842": 3592,
      "gay": 3593,
      "bengay": 3594,
      "dy92234": 3595,
      "dz6837": 3596,
      "dd89811": 3597,
      "macro": 3598,
      "d70719": 3599,
      "d44024": 3600,
      "d2819": 3601,
      "d9971": 3602,
      "7989": 3603,
      "d5738": 3604,
      "macrobid": 3605,
      "d49392": 3606,
      "d59971": 3607,
      "agen": 3608,
      "dc771": 3609,
      "d0416": 3610,
      "d53390": 3611,
      "dt368x5a": 3612,
      "lutegravir": 3613,
      "dolutegravir": 3614,
      "2400": 3615,
      "df19": 3616,
      "ric": 3617,
      "314": 3618,
      "dv444": 3619,
      "dv4972": 3620,
      "d30001": 3621,
      "d7102": 3622,
      "dr8": 3623,
      "df1011": 3624,
      "dr319": 3625,
      "dr4701": 3626,
      "dv5812": 3627,
      "d1749": 3628,
      "rh": 3629,
      "11000": 3630,
      "381": 3631,
      "lor": 3632,
      "do99": 3633,
      "939": 3634,
      "dar": 3635,
      "inil": 3636,
      "1800": 3637,
      "2mg": 3638,
      "che": 3639,
      "acrile": 3640,
      "polacrile": 3641,
      "polacrilex": 3642,
      "unavir": 3643,
      "darunavir": 3644,
      "fluoro": 3645,
      "dz6832": 3646,
      "epin": 3647,
      "dv13": 3648,
      "doxepin": 3649,
      "ux": 3650,
      "464": 3651,
      "d34831": 3652,
      "dr6520": 3653,
      "d3694": 3654,
      "d2721": 3655,
      "d5303": 3656,
      "211a": 3657,
      "dj811": 3658,
      "316": 3659,
      "fond": 3660,
      "ferric": 3661,
      "fondaparin": 3662,
      "fondaparinux": 3663,
      "lagen": 3664,
      "collagen": 3665,
      "collagenase": 3666,
      "benztropine": 3667,
      "323": 3668,
      "d319": 3669,
      "782": 3670,
      "dj0": 3671,
      "d44020": 3672,
      "d27900": 3673,
      "d20020": 3674,
      "317": 3675,
      "dz96642": 3676,
      "dc91": 3677,
      "dk1231": 3678,
      "relor": 3679,
      "de1065": 3680,
      "d07044": 3681,
      "dr748": 3682,
      "polysty": 3683,
      "dg3": 3684,
      "dz86010": 3685,
      "polystyrene": 3686,
      "sulfonate": 3687,
      "361": 3688,
      "df209": 3689,
      "1700": 3690,
      "d30590": 3691,
      "dj9691": 3692,
      "d4779": 3693,
      "d4111": 3694,
      "wable": 3695,
      "chewable": 3696,
      "d3331": 3697,
      "2100": 3698,
      "9001": 3699,
      "de806": 3700,
      "di5030": 3701,
      "ticag": 3702,
      "self": 3703,
      "ticagrelor": 3704,
      "d99731": 3705,
      "dz6831": 3706,
      "d4561": 3707,
      "modaf": 3708,
      "vitamins": 3709,
      "prom": 3710,
      "methimazole": 3711,
      "oid": 3712,
      "dg7": 3713,
      "eth": 3714,
      "d3314": 3715,
      "chlorprom": 3716,
      "chlorpromazine": 3717,
      "hemor": 3718,
      "rhoid": 3719,
      "hemorrhoid": 3720,
      "hemorrhoidal": 3721,
      "modafinil": 3722,
      "328": 3723,
      "mip": 3724,
      "dz6825": 3725,
      "dw0": 3726,
      "d4430": 3727,
      "dap": 3728,
      "dz807": 3729,
      "d45382": 3730,
      "891": 3731,
      "methylnaltrexone": 3732,
      "df0280": 3733,
      "dz915": 3734,
      "df909": 3735,
      "d736": 3736,
      "d99664": 3737,
      "336": 3738,
      "dv4975": 3739,
      "dz958": 3740,
      "883": 3741,
      "dl033": 3742,
      "dz85528": 3743,
      "dz9119": 3744,
      "dv180": 3745,
      "tub": 3746,
      "dk920": 3747,
      "dipro": 3748,
      "838": 3749,
      "uronium": 3750,
      "dz6821": 3751,
      "d72981": 3752,
      "dy833": 3753,
      "di5020": 3754,
      "df418": 3755,
      "acids": 3756,
      "348": 3757,
      "dm478": 3758,
      "d209": 3759,
      "d1991": 3760,
      "dy836": 3761,
      "dt361": 3762,
      "d45182": 3763,
      "326": 3764,
      "medicat": 3765,
      "ciwa": 3766,
      "medication": 3767,
      "d45342": 3768,
      "dapsone": 3769,
      "hylax": 3770,
      "prophylax": 3771,
      "prophylaxis": 3772,
      "niacin": 3773,
      "lion": 3774,
      "million": 3775,
      "d43411": 3776,
      "335": 3777,
      "d3669": 3778,
      "98a": 3779,
      "dv1043": 3780,
      "dk8590": 3781,
      "d70705": 3782,
      "di86": 3783,
      "di447": 3784,
      "d42831": 3785,
      "di080": 3786,
      "dr471": 3787,
      "de8783": 3788,
      "d1561": 3789,
      "di21": 3790,
      "dz6835": 3791,
      "7999": 3792,
      "di21a1": 3793,
      "x0": 3794,
      "dv17": 3795,
      "open": 3796,
      "xopen": 3797,
      "d3384": 3798,
      "xopenex": 3799,
      "hyper": 3800,
      "dt361x5a": 3801,
      "358": 3802,
      "sensi": 3803,
      "d4568": 3804,
      "d7300": 3805,
      "d7921": 3806,
      "343": 3807,
      "dz9861": 3808,
      "dz8572": 3809,
      "d56081": 3810,
      "d590": 3811,
      "de85": 3812,
      "d2410": 3813,
      "d29281": 3814,
      "dr4182": 3815,
      "dl97519": 3816,
      "dz8701": 3817,
      "334": 3818,
      "dt80211a": 3819,
      "tization": 3820,
      "lide": 3821,
      "369": 3822,
      "dl97529": 3823,
      "dr1011": 3824,
      "desensi": 3825,
      "d5570": 3826,
      "desensitization": 3827,
      "opium": 3828,
      "terene": 3829,
      "triamterene": 3830,
      "d28489": 3831,
      "dv453": 3832,
      "de103": 3833,
      "dn182": 3834,
      "di313": 3835,
      "etin": 3836,
      "d1173": 3837,
      "dc92z": 3838,
      "dc9110": 3839,
      "dl76": 3840,
      "df1020": 3841,
      "30xa": 3842,
      "dc259": 3843,
      "d3576": 3844,
      "dr1312": 3845,
      "d7243": 3846,
      "dr8271": 3847,
      "2200": 3848,
      "d9982": 3849,
      "dz930": 3850,
      "dr26": 3851,
      "d426": 3852,
      "oxazepam": 3853,
      "dm485": 3854,
      "dr40": 3855,
      "dz934": 3856,
      "dz85850": 3857,
      "890": 3858,
      "d5693": 3859,
      "d7810": 3860,
      "d1830": 3861,
      "d2738": 3862,
      "x5s": 3863,
      "df39": 3864,
      "dk7200": 3865,
      "dz6827": 3866,
      "327": 3867,
      "376": 3868,
      "db9562": 3869,
      "d532": 3870,
      "7611": 3871,
      "dr040": 3872,
      "d44021": 3873,
      "d4263": 3874,
      "dk209": 3875,
      "932": 3876,
      "d71596": 3877,
      "d45381": 3878,
      "dy846": 3879,
      "azid": 3880,
      "d5728": 3881,
      "dz91": 3882,
      "988": 3883,
      "354": 3884,
      "da4151": 3885,
      "383": 3886,
      "dv1079": 3887,
      "dm4800": 3888,
      "d04109": 3889,
      "isoni": 3890,
      "db957": 3891,
      "isoniazid": 3892,
      "dz8551": 3893,
      "de162": 3894,
      "d6960": 3895,
      "948": 3896,
      "sub": 3897,
      "d43491": 3898,
      "trans": 3899,
      "di890": 3900,
      "dy92019": 3901,
      "590": 3902,
      "dv1087": 3903,
      "dv1749": 3904,
      "374": 3905,
      "d07999": 3906,
      "dk8020": 3907,
      "d34839": 3908,
      "d78907": 3909,
      "963": 3910,
      "mal": 3911,
      "d5121": 3912,
      "dg4730": 3913,
      "amb": 3914,
      "saline": 3915,
      "tadine": 3916,
      "d79001": 3917,
      "d5716": 3918,
      "8110": 3919,
      "dv166": 3920,
      "meta": 3921,
      "422": 3922,
      "dm542": 3923,
      "dw1830xa": 3924,
      "acil": 3925,
      "uracil": 3926,
      "dk8689": 3927,
      "mbi": 3928,
      "d7892": 3929,
      "8mg": 3930,
      "citabine": 3931,
      "dd721": 3932,
      "da084": 3933,
      "1189": 3934,
      "368": 3935,
      "dr7611": 3936,
      "di420": 3937,
      "d96": 3938,
      "dt81": 3939,
      "349": 3940,
      "392": 3941,
      "d57142": 3942,
      "dz6834": 3943,
      "d20283": 3944,
      "di97": 3945,
      "898": 3946,
      "d7813": 3947,
      "408": 3948,
      "429": 3949,
      "341": 3950,
      "men": 3951,
      "conj": 3952,
      "344": 3953,
      "dz953": 3954,
      "d55320": 3955,
      "d73679": 3956,
      "5a": 3957,
      "dz87820": 3958,
      "d4556": 3959,
      "337": 3960,
      "d5720": 3961,
      "dg9341": 3962,
      "cv": 3963,
      "famp": 3964,
      "d5184": 3965,
      "347": 3966,
      "d0380": 3967,
      "di081": 3968,
      "d72210": 3969,
      "d2713": 3970,
      "d51884": 3971,
      "quin": 3972,
      "cvl": 3973,
      "d1579": 3974,
      "tle": 3975,
      "dk651": 3976,
      "bot": 3977,
      "dk5730": 3978,
      "d4404": 3979,
      "d365": 3980,
      "d41189": 3981,
      "d25001": 3982,
      "d20510": 3983,
      "salic": 3984,
      "351": 3985,
      "dz6828": 3986,
      "d1978": 3987,
      "prog": 3988,
      "culin": 3989,
      "clozapine": 3990,
      "erculin": 3991,
      "stigmine": 3992,
      "tuberculin": 3993,
      "d1987": 3994,
      "de1043": 3995,
      "bottle": 3996,
      "rifamp": 3997,
      "rifampin": 3998,
      "d20200": 3999,
      "dj45901": 4000,
      "d72887": 4001,
      "de1143": 4002,
      "dm7989": 4003,
      "d78904": 4004,
      "356": 4005,
      "df411": 4006,
      "bismu": 4007,
      "384": 4008,
      "bismuth": 4009,
      "gatran": 4010,
      "bigatran": 4011,
      "d42781": 4012,
      "dabigatran": 4013,
      "d42821": 4014,
      "ete": 4015,
      "xilate": 4016,
      "subsalic": 4017,
      "etexilate": 4018,
      "de041": 4019,
      "dy7": 4020,
      "dd6489": 4021,
      "dd57": 4022,
      "dz6829": 4023,
      "453": 4024,
      "nf": 4025,
      "afoate": 4026,
      "xinafoate": 4027,
      "d726": 4028,
      "df102": 4029,
      "dk7040": 4030,
      "isome": 4031,
      "ambisome": 4032,
      "di5": 4033,
      "1900": 4034,
      "dz170": 4035,
      "d93": 4036,
      "de869": 4037,
      "subsalicylate": 4038,
      "fibro": 4039,
      "ifos": 4040,
      "famide": 4041,
      "dc61": 4042,
      "di25110": 4043,
      "ifosfamide": 4044,
      "d56969": 4045,
      "d0539": 4046,
      "d262": 4047,
      "d29570": 4048,
      "667": 4049,
      "d359": 4050,
      "dz90710": 4051,
      "345": 4052,
      "452": 4053,
      "d30520": 4054,
      "dz6836": 4055,
      "db954": 4056,
      "d11284": 4057,
      "d9092": 4058,
      "mopressin": 4059,
      "desmopressin": 4060,
      "d56723": 4061,
      "881": 4062,
      "dr300": 4063,
      "d7078": 4064,
      "508": 4065,
      "anas": 4066,
      "dr451": 4067,
      "d99932": 4068,
      "dz8711": 4069,
      "dr161": 4070,
      "d64": 4071,
      "dv1351": 4072,
      "dj159": 4073,
      "611": 4074,
      "dr7989": 4075,
      "377": 4076,
      "di9589": 4077,
      "dv1642": 4078,
      "gem": 4079,
      "357": 4080,
      "chol": 4081,
      "dv1261": 4082,
      "d5550": 4083,
      "dk660": 4084,
      "de10319": 4085,
      "dj9602": 4086,
      "ug": 4087,
      "acel": 4088,
      "dj440": 4089,
      "dz8674": 4090,
      "anastrozole": 4091,
      "d2764": 4092,
      "dr5383": 4093,
      "fibrozil": 4094,
      "gemfibrozil": 4095,
      "d386": 4096,
      "fluorouracil": 4097,
      "d379": 4098,
      "d03849": 4099,
      "dv8542": 4100,
      "cen": 4101,
      "393": 4102,
      "89xa": 4103,
      "dk318": 4104,
      "359": 4105,
      "d79431": 4106,
      "355": 4107,
      "372": 4108,
      "dn1330": 4109,
      "di9": 4110,
      "df410": 4111,
      "d2731": 4112,
      "tuck": 4113,
      "decitabine": 4114,
      "d78652": 4115,
      "620": 4116,
      "syn": 4117,
      "tropin": 4118,
      "dv4577": 4119,
      "dc221": 4120,
      "tucks": 4121,
      "d514": 4122,
      "d37": 4123,
      "406": 4124,
      "cain": 4125,
      "dn200": 4126,
      "dc3490": 4127,
      "d78841": 4128,
      "inv": 4129,
      "emul": 4130,
      "emulsion": 4131,
      "d9961": 4132,
      "d362": 4133,
      "d20282": 4134,
      "cosyn": 4135,
      "cosyntropin": 4136,
      "sm": 4137,
      "d5289": 4138,
      "calciton": 4139,
      "calcitonin": 4140,
      "dk649": 4141,
      "d27951": 4142,
      "salmon": 4143,
      "783": 4144,
      "viaf": 4145,
      "d44422": 4146,
      "d28521": 4147,
      "d55321": 4148,
      "d78093": 4149,
      "ive": 4150,
      "df10229": 4151,
      "dz6826": 4152,
      "788": 4153,
      "d7955": 4154,
      "625": 4155,
      "dz6838": 4156,
      "d570": 4157,
      "dz6833": 4158,
      "d53190": 4159,
      "d28959": 4160,
      "d3484": 4161,
      "ctu": 4162,
      "442": 4163,
      "d4592": 4164,
      "feti": 4165,
      "dofeti": 4166,
      "dl022": 4167,
      "dofetilide": 4168,
      "tinctu": 4169,
      "tincture": 4170,
      "chine": 4171,
      "ming": 4172,
      "machine": 4173,
      "priming": 4174,
      "d28731": 4175,
      "nide": 4176,
      "dg894": 4177,
      "dv167": 4178,
      "346": 4179,
      "de1121": 4180,
      "dk5790": 4181,
      "concen": 4182,
      "de790": 4183,
      "concentrate": 4184,
      "bumeta": 4185,
      "bumetanide": 4186,
      "concentrated": 4187,
      "locaine": 4188,
      "2700": 4189,
      "d4821": 4190,
      "dv113": 4191,
      "flecain": 4192,
      "dk5660": 4193,
      "flecainide": 4194,
      "d053": 4195,
      "dv452": 4196,
      "dz8543": 4197,
      "prilocaine": 4198,
      "dt40": 4199,
      "dd472": 4200,
      "d7881": 4201,
      "dg35": 4202,
      "dv1201": 4203,
      "di69": 4204,
      "dg0": 4205,
      "dz8571": 4206,
      "dz9081": 4207,
      "ant": 4208,
      "roc": 4209,
      "dm190": 4210,
      "dz905": 4211,
      "d34290": 4212,
      "8220": 4213,
      "dt8131": 4214,
      "d25051": 4215,
      "dt501": 4216,
      "natal": 4217,
      "di69398": 4218,
      "dv64": 4219,
      "dj948": 4220,
      "epipen": 4221,
      "dm845": 4222,
      "362": 4223,
      "de1152": 4224,
      "dw010": 4225,
      "d1963": 4226,
      "dz980": 4227,
      "dr7303": 4228,
      "dk648": 4229,
      "dena": 4230,
      "365": 4231,
      "sildena": 4232,
      "sildenafil": 4233,
      "sirolimus": 4234,
      "d99832": 4235,
      "antadine": 4236,
      "amantadine": 4237,
      "dz8542": 4238,
      "d78903": 4239,
      "nitrate": 4240,
      "d70707": 4241,
      "dt8131xa": 4242,
      "dh9190": 4243,
      "dz5309": 4244,
      "dl5": 4245,
      "glycerin": 4246,
      "d73730": 4247,
      "808": 4248,
      "1mg": 4249,
      "371": 4250,
      "dk269": 4251,
      "d42842": 4252,
      "dz8042": 4253,
      "dk222": 4254,
      "d7318": 4255,
      "dq211": 4256,
      "dz87442": 4257,
      "di071": 4258,
      "aicin": 4259,
      "capsaicin": 4260,
      "d9986": 4261,
      "378": 4262,
      "db964": 4263,
      "dk750": 4264,
      "d170": 4265,
      "di69351": 4266,
      "470": 4267,
      "vag": 4268,
      "d2252": 4269,
      "dv4976": 4270,
      "d4370": 4271,
      "dr042": 4272,
      "ys": 4273,
      "d6489": 4274,
      "dz806": 4275,
      "dh3530": 4276,
      "d42843": 4277,
      "di330": 4278,
      "d4210": 4279,
      "d51883": 4280,
      "dc20": 4281,
      "ell": 4282,
      "d290": 4283,
      "d78194": 4284,
      "dc7889": 4285,
      "pyridostigmine": 4286,
      "d443": 4287,
      "alfa": 4288,
      "dk900": 4289,
      "d30300": 4290,
      "dv140": 4291,
      "dm353": 4292,
      "de8784": 4293,
      "tax": 4294,
      "dn30": 4295,
      "364": 4296,
      "d7048": 4297,
      "dw010xxa": 4298,
      "tem": 4299,
      "dv1003": 4300,
      "prenatal": 4301,
      "d5362": 4302,
      "supps": 4303,
      "3a": 4304,
      "d4871": 4305,
      "604": 4306,
      "dy92129": 4307,
      "dh548": 4308,
      "temazepam": 4309,
      "dz96643": 4310,
      "dg8194": 4311,
      "d5852": 4312,
      "d1972": 4313,
      "dl978": 4314,
      "8000": 4315,
      "leukin": 4316,
      "dr350": 4317,
      "di871": 4318,
      "dm17": 4319,
      "d73342": 4320,
      "dr159": 4321,
      "dk7010": 4322,
      "indi": 4323,
      "alas": 4324,
      "native": 4325,
      "indian": 4326,
      "alaska": 4327,
      "d78951": 4328,
      "d69589": 4329,
      "aldes": 4330,
      "aldesleukin": 4331,
      "di248": 4332,
      "dk259": 4333,
      "d79551": 4334,
      "dz3a": 4335,
      "dr180": 4336,
      "d70721": 4337,
      "d5650": 4338,
      "opr": 4339,
      "1ml": 4340,
      "peni": 4341,
      "dz6839": 4342,
      "d566": 4343,
      "dr630": 4344,
      "d2866": 4345,
      "dj849": 4346,
      "dc8330": 4347,
      "normal": 4348,
      "x1a": 4349,
      "db3781": 4350,
      "neph": 4351,
      "phenazine": 4352,
      "d5552": 4353,
      "d25013": 4354,
      "rocaps": 4355,
      "d04186": 4356,
      "nephrocaps": 4357,
      "dd6832": 4358,
      "rinone": 4359,
      "d7866": 4360,
      "4200": 4361,
      "d4162": 4362,
      "dv5862": 4363,
      "d7098": 4364,
      "dwell": 4365,
      "di671": 4366,
      "399": 4367,
      "d5779": 4368,
      "d07071": 4369,
      "sugar": 4370,
      "d25082": 4371,
      "df1110": 4372,
      "d20302": 4373,
      "520": 4374,
      "zo": 4375,
      "dg8220": 4376,
      "d2920": 4377,
      "dr200": 4378,
      "dv1041": 4379,
      "dr570": 4380,
      "de118": 4381,
      "crys": 4382,
      "crystal": 4383,
      "gran": 4384,
      "dn39": 4385,
      "di4510": 4386,
      "d52809": 4387,
      "silver": 4388,
      "dr310": 4389,
      "d20401": 4390,
      "d78451": 4391,
      "milrinone": 4392,
      "dj9600": 4393,
      "dv6441": 4394,
      "dv1552": 4395,
      "389": 4396,
      "vy": 4397,
      "dk918": 4398,
      "dk652": 4399,
      "dv5864": 4400,
      "de9479": 4401,
      "ana": 4402,
      "2300": 4403,
      "seve": 4404,
      "conjug": 4405,
      "tox": 4406,
      "367": 4407,
      "d1625": 4408,
      "d70724": 4409,
      "x9": 4410,
      "los": 4411,
      "d1960": 4412,
      "sidone": 4413,
      "dj479": 4414,
      "large": 4415,
      "platelets": 4416,
      "lamer": 4417,
      "sevelamer": 4418,
      "d57451": 4419,
      "12a": 4420,
      "7500": 4421,
      "739": 4422,
      "diazine": 4423,
      "sulfadiazine": 4424,
      "d53560": 4425,
      "ds065": 4426,
      "802": 4427,
      "d99662": 4428,
      "supposi": 4429,
      "d3379": 4430,
      "d4264": 4431,
      "d3079": 4432,
      "d429": 4433,
      "dd89813": 4434,
      "d7885": 4435,
      "dm25561": 4436,
      "ural": 4437,
      "pramine": 4438,
      "tory": 4439,
      "dk5720": 4440,
      "suppository": 4441,
      "dm4806": 4442,
      "386": 4443,
      "d71535": 4444,
      "epid": 4445,
      "esomeprazole": 4446,
      "epidural": 4447,
      "de1169": 4448,
      "midone": 4449,
      "primidone": 4450,
      "da4189": 4451,
      "366": 4452,
      "d3371": 4453,
      "d78760": 4454,
      "penicillin": 4455,
      "cilos": 4456,
      "d2189": 4457,
      "sprin": 4458,
      "387": 4459,
      "benzo": 4460,
      "d10": 4461,
      "dj309": 4462,
      "d9975": 4463,
      "esmolol": 4464,
      "dt825": 4465,
      "d43811": 4466,
      "dm25551": 4467,
      "dk7011": 4468,
      "dc49": 4469,
      "rocuronium": 4470,
      "icu": 4471,
      "d20210": 4472,
      "dz8589": 4473,
      "dl89152": 4474,
      "de7849": 4475,
      "d3363": 4476,
      "df603": 4477,
      "dl309": 4478,
      "2190": 4479,
      "dz8541": 4480,
      "dv0254": 4481,
      "ds7": 4482,
      "dl03311": 4483,
      "de9444": 4484,
      "quinapril": 4485,
      "dv667": 4486,
      "dv0259": 4487,
      "d7948": 4488,
      "dk754": 4489,
      "di442": 4490,
      "d2858": 4491,
      "454": 4492,
      "dn141": 4493,
      "crystals": 4494,
      "cilostazol": 4495,
      "dr590": 4496,
      "rex": 4497,
      "dm0": 4498,
      "d72190": 4499,
      "dg8191": 4500,
      "sulfasal": 4501,
      "dd6851": 4502,
      "load": 4503,
      "d5373": 4504,
      "d5305": 4505,
      "df1410": 4506,
      "sulfasalazine": 4507,
      "di481": 4508,
      "dc8332": 4509,
      "efa": 4510,
      "viren": 4511,
      "d3682": 4512,
      "efaviren": 4513,
      "efavirenz": 4514,
      "d5695": 4515,
      "dz7401": 4516,
      "dg95": 4517,
      "ules": 4518,
      "granules": 4519,
      "d5531": 4520,
      "kles": 4521,
      "acd": 4522,
      "sprinkles": 4523,
      "d25200": 4524,
      "d4588": 4525,
      "dc3412": 4526,
      "estr": 4527,
      "df1190": 4528,
      "hro": 4529,
      "dk838": 4530,
      "476": 4531,
      "dk429": 4532,
      "film": 4533,
      "d4660": 4534,
      "di864": 4535,
      "isotonic": 4536,
      "dz79891": 4537,
      "di5031": 4538,
      "d4142": 4539,
      "de874": 4540,
      "xxxd": 4541,
      "dj918": 4542,
      "dc3411": 4543,
      "db379": 4544,
      "d2572": 4545,
      "d2384": 4546,
      "di7300": 4547,
      "dg3184": 4548,
      "dj9622": 4549,
      "d59972": 4550,
      "d10w": 4551,
      "dm213": 4552,
      "d5733": 4553,
      "d53290": 4554,
      "dv1279": 4555,
      "458": 4556,
      "ala": 4557,
      "di8500": 4558,
      "3200": 4559,
      "dm7": 4560,
      "test": 4561,
      "rever": 4562,
      "d3439": 4563,
      "reversal": 4564,
      "396": 4565,
      "dipyri": 4566,
      "mole": 4567,
      "d3688": 4568,
      "damole": 4569,
      "dipyridamole": 4570,
      "2a": 4571,
      "dz450": 4572,
      "d2513": 4573,
      "carbo": 4574,
      "d5370": 4575,
      "di495": 4576,
      "d70713": 4577,
      "d5856": 4578,
      "tretin": 4579,
      "dk30": 4580,
      "dc9100": 4581,
      "tretinoin": 4582,
      "df259": 4583,
      "dm84": 4584,
      "dt424": 4585,
      "dc8599": 4586,
      "dh538": 4587,
      "dm170": 4588,
      "d78064": 4589,
      "dt451x5s": 4590,
      "379": 4591,
      "tinib": 4592,
      "d2512": 4593,
      "dm4802": 4594,
      "385": 4595,
      "ke": 4596,
      "dr030": 4597,
      "431": 4598,
      "dz1621": 4599,
      "dr066": 4600,
      "d462": 4601,
      "ataz": 4602,
      "di96": 4603,
      "clarit": 4604,
      "di82c": 4605,
      "404": 4606,
      "side": 4607,
      "nitropr": 4608,
      "usside": 4609,
      "dt508x5a": 4610,
      "dj8410": 4611,
      "nitroprusside": 4612,
      "d57450": 4613,
      "d34510": 4614,
      "850": 4615,
      "dz833": 4616,
      "d3453": 4617,
      "di712": 4618,
      "d5185": 4619,
      "d4140": 4620,
      "388": 4621,
      "di25119": 4622,
      "de273": 4623,
      "dr609": 4624,
      "dd735": 4625,
      "605a": 4626,
      "11a": 4627,
      "83xa": 4628,
      "anavir": 4629,
      "atazanavir": 4630,
      "b32": 4631,
      "neonat": 4632,
      "neonatal": 4633,
      "dk8309": 4634,
      "3400": 4635,
      "dj95851": 4636,
      "dt40605a": 4637,
      "k2": 4638,
      "dv554": 4639,
      "di341": 4640,
      "anti": 4641,
      "d27788": 4642,
      "498": 4643,
      "d3090": 4644,
      "d53540": 4645,
      "de441": 4646,
      "dr2681": 4647,
      "d27803": 4648,
      "512": 4649,
      "xs": 4650,
      "plant": 4651,
      "transplant": 4652,
      "program": 4653,
      "estrogen": 4654,
      "pse": 4655,
      "d5307": 4656,
      "d1707": 4657,
      "dt45": 4658,
      "0625": 4659,
      "x0a": 4660,
      "po": 4661,
      "dv0382": 4662,
      "levo": 4663,
      "estrogens": 4664,
      "d57410": 4665,
      "dl979": 4666,
      "hypertonic": 4667,
      "dv446": 4668,
      "dz89421": 4669,
      "d29040": 4670,
      "dk439": 4671,
      "iste": 4672,
      "dl024": 4673,
      "choline": 4674,
      "conjugated": 4675,
      "dv551": 4676,
      "d70712": 4677,
      "atide": 4678,
      "d74": 4679,
      "606": 4680,
      "d59080": 4681,
      "d7135": 4682,
      "499": 4683,
      "473": 4684,
      "433": 4685,
      "dm7981": 4686,
      "felodipine": 4687,
      "905": 4688,
      "dr0602": 4689,
      "d1122": 4690,
      "dz95820": 4691,
      "de883": 4692,
      "511a": 4693,
      "d70709": 4694,
      "500mg": 4695,
      "tifib": 4696,
      "dr578": 4697,
      "eptifib": 4698,
      "eptifibatide": 4699,
      "dia": 4700,
      "d2631": 4701,
      "b22": 4702,
      "hed": 4703,
      "d20040": 4704,
      "zipra": 4705,
      "d5799": 4706,
      "ziprasidone": 4707,
      "di5021": 4708,
      "d78902": 4709,
      "dt83511a": 4710,
      "862": 4711,
      "db258": 4712,
      "dm25512": 4713,
      "ephed": 4714,
      "dm16": 4715,
      "dz45018": 4716,
      "dz91128": 4717,
      "95a": 4718,
      "ephedrine": 4719,
      "mira": 4720,
      "dc8333": 4721,
      "d1123": 4722,
      "3300": 4723,
      "dj984": 4724,
      "dt856": 4725,
      "d99679": 4726,
      "d7868": 4727,
      "dk863": 4728,
      "ylcholine": 4729,
      "dm25562": 4730,
      "udo": 4731,
      "succinylcholine": 4732,
      "448": 4733,
      "aba": 4734,
      "pseudo": 4735,
      "pseudoephedrine": 4736,
      "covy": 4737,
      "pilo": 4738,
      "descovy": 4739,
      "d5178": 4740,
      "d70720": 4741,
      "virine": 4742,
      "dg44": 4743,
      "d84": 4744,
      "784": 4745,
      "indo": 4746,
      "methacin": 4747,
      "abacavir": 4748,
      "indomethacin": 4749,
      "397": 4750,
      "d4552": 4751,
      "d99989": 4752,
      "carpine": 4753,
      "d41072": 4754,
      "pilocarpine": 4755,
      "dk9423": 4756,
      "glyce": 4757,
      "atinib": 4758,
      "d7197": 4759,
      "549": 4760,
      "709": 4761,
      "d34550": 4762,
      "dl02211": 4763,
      "8xa": 4764,
      "k4": 4765,
      "dd75": 4766,
      "d1121": 4767,
      "430": 4768,
      "dd25": 4769,
      "hydrochloride": 4770,
      "hromycin": 4771,
      "clarithromycin": 4772,
      "432": 4773,
      "dg309": 4774,
      "d2811": 4775,
      "dc8331": 4776,
      "d78729": 4777,
      "baz": 4778,
      "clobaz": 4779,
      "clobazam": 4780,
      "4181": 4781,
      "dk635": 4782,
      "ketamine": 4783,
      "di160": 4784,
      "dv552": 4785,
      "d7873": 4786,
      "dz9641": 4787,
      "d71": 4788,
      "2252": 4789,
      "39xa": 4790,
      "dh0": 4791,
      "dg935": 4792,
      "dt447": 4793,
      "d6959": 4794,
      "d5571": 4795,
      "dv620": 4796,
      "d99669": 4797,
      "carboplatin": 4798,
      "d378": 4799,
      "d40391": 4800,
      "x5d": 4801,
      "423": 4802,
      "d27739": 4803,
      "398": 4804,
      "d7863": 4805,
      "394": 4806,
      "d44022": 4807,
      "d28804": 4808,
      "dv150": 4809,
      "dv88": 4810,
      "863": 4811,
      "d34889": 4812,
      "d24290": 4813,
      "dk224": 4814,
      "dv1253": 4815,
      "d70723": 4816,
      "dg971": 4817,
      "dg5": 4818,
      "d73028": 4819,
      "dk50": 4820,
      "dm25511": 4821,
      "2900": 4822,
      "d1974": 4823,
      "db3789": 4824,
      "d20281": 4825,
      "de1040": 4826,
      "dl97419": 4827,
      "prost": 4828,
      "dc784": 4829,
      "dk2980": 4830,
      "cardia": 4831,
      "906": 4832,
      "dk9413": 4833,
      "dj810": 4834,
      "dz8719": 4835,
      "dt458x5a": 4836,
      "d5651": 4837,
      "dr0781": 4838,
      "nac": 4839,
      "dy828": 4840,
      "pump": 4841,
      "d4412": 4842,
      "dc773": 4843,
      "dz936": 4844,
      "95xa": 4845,
      "d70725": 4846,
      "dv148": 4847,
      "dm791": 4848,
      "dg9389": 4849,
      "di351": 4850,
      "dt3695xa": 4851,
      "d568": 4852,
      "d4846": 4853,
      "d04189": 4854,
      "symbi": 4855,
      "symbicort": 4856,
      "dd688": 4857,
      "de8779": 4858,
      "dk7681": 4859,
      "d43330": 4860,
      "504": 4861,
      "d99883": 4862,
      "d41402": 4863,
      "847": 4864,
      "d99666": 4865,
      "cisplatin": 4866,
      "df1910": 4867,
      "439": 4868,
      "ido": 4869,
      "rib": 4870,
      "d11289": 4871,
      "di63": 4872,
      "d7851": 4873,
      "dk500": 4874,
      "d3003": 4875,
      "d2769": 4876,
      "dv1004": 4877,
      "395": 4878,
      "469": 4879,
      "dd46": 4880,
      "benzocaine": 4881,
      "413": 4882,
      "de9363": 4883,
      "d79319": 4884,
      "oxazole": 4885,
      "d079": 4886,
      "sulfamethoxazole": 4887,
      "de9310": 4888,
      "de92": 4889,
      "namen": 4890,
      "d73007": 4891,
      "namenda": 4892,
      "d27401": 4893,
      "dt8649": 4894,
      "d73027": 4895,
      "dm9": 4896,
      "tazone": 4897,
      "2239": 4898,
      "d20270": 4899,
      "d1713": 4900,
      "438": 4901,
      "haz": 4902,
      "dk317": 4903,
      "witch": 4904,
      "hazel": 4905,
      "d2825": 4906,
      "d45620": 4907,
      "dm25552": 4908,
      "dz98890": 4909,
      "di498": 4910,
      "de662": 4911,
      "nacl": 4912,
      "3500": 4913,
      "dn12": 4914,
      "d1125": 4915,
      "dk644": 4916,
      "the": 4917,
      "d25052": 4918,
      "de9300": 4919,
      "d51882": 4920,
      "dz856": 4921,
      "de8790": 4922,
      "d03811": 4923,
      "alafen": 4924,
      "d27503": 4925,
      "d1975": 4926,
      "de9379": 4927,
      "dt82898a": 4928,
      "dj9611": 4929,
      "d7101": 4930,
      "gth": 4931,
      "ength": 4932,
      "dz7289": 4933,
      "strength": 4934,
      "d64893": 4935,
      "d6202": 4936,
      "d59651": 4937,
      "583": 4938,
      "d5750": 4939,
      "dv8543": 4940,
      "d99702": 4941,
      "d73319": 4942,
      "dn99": 4943,
      "di634": 4944,
      "d29650": 4945,
      "dz888": 4946,
      "df17290": 4947,
      "di828": 4948,
      "d820": 4949,
      "dk859": 4950,
      "dr94": 4951,
      "cinonide": 4952,
      "fluocinonide": 4953,
      "3100": 4954,
      "d531": 4955,
      "dh269": 4956,
      "hc": 4957,
      "perox": 4958,
      "de2749": 4959,
      "peroxide": 4960,
      "443": 4961,
      "tial": 4962,
      "initial": 4963,
      "rescu": 4964,
      "rescue": 4965,
      "dl40": 4966,
      "de9293": 4967,
      "492": 4968,
      "grel": 4969,
      "sugrel": 4970,
      "prasugrel": 4971,
      "d1911": 4972,
      "d45385": 4973,
      "d56489": 4974,
      "de042": 4975,
      "d2839": 4976,
      "d34540": 4977,
      "dy844": 4978,
      "d36900": 4979,
      "iron": 4980,
      "dz982": 4981,
      "d51851": 4982,
      "d648": 4983,
      "de0500": 4984,
      "dt5099": 4985,
      "d4321": 4986,
      "d56949": 4987,
      "di278": 4988,
      "d2949": 4989,
      "418": 4990,
      "200mg": 4991,
      "dk860": 4992,
      "d3962": 4993,
      "d78703": 4994,
      "dw1839xa": 4995,
      "otamine": 4996,
      "d20412": 4997,
      "9002": 4998,
      "da4181": 4999,
      "dl4050": 5000,
      "25mg": 5001,
      "di2582": 5002,
      "desi": 5003,
      "ds8": 5004,
      "db349": 5005,
      "d56983": 5006,
      "d05319": 5007,
      "dz2239": 5008,
      "d317": 5009,
      "d1541": 5010,
      "dt501x5a": 5011,
      "dt447x5a": 5012,
      "de000": 5013,
      "dz4502": 5014,
      "de8844": 5015,
      "dc782": 5016,
      "dc8519": 5017,
      "dr11": 5018,
      "612": 5019,
      "dm479": 5020,
      "dl89150": 5021,
      "dm868": 5022,
      "dk31819": 5023,
      "di2782": 5024,
      "405": 5025,
      "d45340": 5026,
      "df429": 5027,
      "testos": 5028,
      "di808": 5029,
      "ambut": 5030,
      "d2564": 5031,
      "d78551": 5032,
      "ethambut": 5033,
      "ethambutol": 5034,
      "rophosphate": 5035,
      "d72885": 5036,
      "glycerophosphate": 5037,
      "471": 5038,
      "d374": 5039,
      "dr413": 5040,
      "dz85048": 5041,
      "fluda": 5042,
      "fludarabine": 5043,
      "perphenazine": 5044,
      "d40310": 5045,
      "tetan": 5046,
      "dl271": 5047,
      "tetanus": 5048,
      "002": 5049,
      "dk8681": 5050,
      "de781": 5051,
      "dc8379": 5052,
      "ple": 5053,
      "2600": 5054,
      "d28983": 5055,
      "dt8089xa": 5056,
      "dc9002": 5057,
      "tt": 5058,
      "dv4576": 5059,
      "407": 5060,
      "testoster": 5061,
      "474": 5062,
      "testosterone": 5063,
      "ene": 5064,
      "dr39": 5065,
      "dr06": 5066,
      "d5921": 5067,
      "de282": 5068,
      "d5168": 5069,
      "d57400": 5070,
      "463": 5071,
      "ds2": 5072,
      "di824z": 5073,
      "dv1085": 5074,
      "mib": 5075,
      "dt424x5a": 5076,
      "de9301": 5077,
      "diph": 5078,
      "caffeine": 5079,
      "d27906": 5080,
      "dz8501": 5081,
      "dk625": 5082,
      "d5724": 5083,
      "d2555": 5084,
      "protamine": 5085,
      "dc801": 5086,
      "dd259": 5087,
      "d7229": 5088,
      "dc160": 5089,
      "416": 5090,
      "dj329": 5091,
      "osine": 5092,
      "3600": 5093,
      "d1510": 5094,
      "zomib": 5095,
      "d36960": 5096,
      "d2441": 5097,
      "d4233": 5098,
      "dt426": 5099,
      "de9348": 5100,
      "d45989": 5101,
      "d68110": 5102,
      "cele": 5103,
      "d4558": 5104,
      "de9317": 5105,
      "d5551": 5106,
      "di639": 5107,
      "24hr": 5108,
      "d99813": 5109,
      "dz1624": 5110,
      "d13": 5111,
      "dc50911": 5112,
      "d7200": 5113,
      "dv1089": 5114,
      "414": 5115,
      "d3963": 5116,
      "dv8538": 5117,
      "d04102": 5118,
      "dd693": 5119,
      "dv8535": 5120,
      "tus": 5121,
      "d054": 5122,
      "di9789": 5123,
      "d72888": 5124,
      "d85221": 5125,
      "460": 5126,
      "lum": 5127,
      "dk5289": 5128,
      "d99672": 5129,
      "d53642": 5130,
      "ramip": 5131,
      "dk743": 5132,
      "ramipril": 5133,
      "d29630": 5134,
      "426": 5135,
      "d420": 5136,
      "xi": 5137,
      "dm48061": 5138,
      "d25041": 5139,
      "d5109": 5140,
      "df0150": 5141,
      "d920": 5142,
      "dn281": 5143,
      "d25083": 5144,
      "di82621": 5145,
      "d4275": 5146,
      "x9a": 5147,
      "dm868x": 5148,
      "dz9079": 5149,
      "de8881": 5150,
      "de8785": 5151,
      "d60784": 5152,
      "ogli": 5153,
      "dk210": 5154,
      "piogli": 5155,
      "pioglitazone": 5156,
      "d42820": 5157,
      "d78722": 5158,
      "415": 5159,
      "953": 5160,
      "d35800": 5161,
      "d1578": 5162,
      "d1508": 5163,
      "hepa": 5164,
      "d4847": 5165,
      "mipramine": 5166,
      "d375": 5167,
      "d6988": 5168,
      "968": 5169,
      "d30593": 5170,
      "434": 5171,
      "d34680": 5172,
      "dv1021": 5173,
      "dr400": 5174,
      "dt5090": 5175,
      "dk550": 5176,
      "dz95828": 5177,
      "di083": 5178,
      "27xxa": 5179,
      "dt827xxa": 5180,
      "dk279": 5181,
      "d53510": 5182,
      "dr1110": 5183,
      "d4270": 5184,
      "dau": 5185,
      "d3594": 5186,
      "d72252": 5187,
      "dm329": 5188,
      "d95901": 5189,
      "424": 5190,
      "d7110": 5191,
      "d7517": 5192,
      "dm4856": 5193,
      "olazine": 5194,
      "792": 5195,
      "ranolazine": 5196,
      "d45386": 5197,
      "417": 5198,
      "di513": 5199,
      "dauno": 5200,
      "dc569": 5201,
      "d48242": 5202,
      "d53140": 5203,
      "dm8458xa": 5204,
      "dm419": 5205,
      "d7244": 5206,
      "inavir": 5207,
      "d89": 5208,
      "df4320": 5209,
      "xxs": 5210,
      "dv4585": 5211,
      "dm628": 5212,
      "d72992": 5213,
      "dd320": 5214,
      "821": 5215,
      "deral": 5216,
      "dk769": 5217,
      "ds72": 5218,
      "d5932": 5219,
      "penem": 5220,
      "d3000": 5221,
      "d7211": 5222,
      "dm869": 5223,
      "dz954": 5224,
      "dv1641": 5225,
      "dk6289": 5226,
      "488": 5227,
      "de96": 5228,
      "letrozole": 5229,
      "466": 5230,
      "dz9483": 5231,
      "da4101": 5232,
      "d47819": 5233,
      "ang": 5234,
      "d72889": 5235,
      "dk509": 5236,
      "dn28": 5237,
      "dd703": 5238,
      "d72610": 5239,
      "425": 5240,
      "dk311": 5241,
      "d52100": 5242,
      "ds320": 5243,
      "pinavir": 5244,
      "lopinavir": 5245,
      "adderal": 5246,
      "dz902": 5247,
      "da4159": 5248,
      "dj95811": 5249,
      "gtt": 5250,
      "d29633": 5251,
      "d7190": 5252,
      "adderall": 5253,
      "d2111": 5254,
      "d65": 5255,
      "dh04": 5256,
      "di825": 5257,
      "dc770": 5258,
      "daunorubicin": 5259,
      "db259": 5260,
      "ds220": 5261,
      "529": 5262,
      "tach": 5263,
      "dz6844": 5264,
      "d36281": 5265,
      "d37515": 5266,
      "d25070": 5267,
      "estra": 5268,
      "ip": 5269,
      "dv1584": 5270,
      "d92": 5271,
      "ede": 5272,
      "aseptic": 5273,
      "phenaseptic": 5274,
      "etra": 5275,
      "etravirine": 5276,
      "orte": 5277,
      "cycline": 5278,
      "dv1541": 5279,
      "d33182": 5280,
      "ioede": 5281,
      "angioede": 5282,
      "angioedema": 5283,
      "d2411": 5284,
      "diol": 5285,
      "d753": 5286,
      "dr195": 5287,
      "dr5082": 5288,
      "dv8812": 5289,
      "lular": 5290,
      "d7230": 5291,
      "pertus": 5292,
      "acellular": 5293,
      "d37430": 5294,
      "diphtox": 5295,
      "pertuss": 5296,
      "dz873": 5297,
      "d4553": 5298,
      "borte": 5299,
      "bortezomib": 5300,
      "inamide": 5301,
      "ds00": 5302,
      "estradiol": 5303,
      "ycardia": 5304,
      "dv090": 5305,
      "dk5732": 5306,
      "tachycardia": 5307,
      "trav": 5308,
      "ring": 5309,
      "d2280": 5310,
      "de854": 5311,
      "viaflex": 5312,
      "dk2210": 5313,
      "dj302": 5314,
      "dz8041": 5315,
      "dt50995a": 5316,
      "d372": 5317,
      "admin": 5318,
      "dk029": 5319,
      "istering": 5320,
      "administering": 5321,
      "d56989": 5322,
      "tapenem": 5323,
      "ertapenem": 5324,
      "di5043": 5325,
      "882": 5326,
      "d4259": 5327,
      "dv8532": 5328,
      "dk52": 5329,
      "d4260": 5330,
      "d5579": 5331,
      "dv642": 5332,
      "d2830": 5333,
      "de10649": 5334,
      "de109": 5335,
      "dl98": 5336,
      "de0590": 5337,
      "d1748": 5338,
      "d57511": 5339,
      "d31400": 5340,
      "848": 5341,
      "d36846": 5342,
      "dm5416": 5343,
      "dm4854": 5344,
      "dn2889": 5345,
      "d5739": 5346,
      "dk56609": 5347,
      "dk40": 5348,
      "dr502": 5349,
      "dc7982": 5350,
      "dr1031": 5351,
      "d4401": 5352,
      "d38611": 5353,
      "dg909": 5354,
      "d380": 5355,
      "hexol": 5356,
      "iohexol": 5357,
      "d53649": 5358,
      "d14": 5359,
      "mia": 5360,
      "658": 5361,
      "dc9101": 5362,
      "dk7689": 5363,
      "dl030": 5364,
      "d7842": 5365,
      "d34580": 5366,
      "d71595": 5367,
      "dd573": 5368,
      "dv4283": 5369,
      "dakin": 5370,
      "1809": 5371,
      "dakins": 5372,
      "428": 5373,
      "dl739": 5374,
      "dv860": 5375,
      "de8700": 5376,
      "427": 5377,
      "3800": 5378,
      "dv5883": 5379,
      "d25081": 5380,
      "dc785": 5381,
      "d6824": 5382,
      "di2": 5383,
      "dk208": 5384,
      "oo": 5385,
      "de9426": 5386,
      "dm4856xa": 5387,
      "otic": 5388,
      "vox": 5389,
      "dd702": 5390,
      "dt375": 5391,
      "dm3500": 5392,
      "lumi": 5393,
      "carboxy": 5394,
      "d78839": 5395,
      "d70583": 5396,
      "dg4089": 5397,
      "db372": 5398,
      "topical": 5399,
      "dg7000": 5400,
      "dc778": 5401,
      "d56782": 5402,
      "dv169": 5403,
      "dr09": 5404,
      "di493": 5405,
      "d59010": 5406,
      "dz53": 5407,
      "carboxyhemoglobin": 5408,
      "dt360": 5409,
      "dm79604": 5410,
      "dk5281": 5411,
      "apri": 5412,
      "dr251": 5413,
      "d4400": 5414,
      "d2535": 5415,
      "dv643": 5416,
      "dl89154": 5417,
      "dl7632": 5418,
      "d4373": 5419,
      "dk912": 5420,
      "tige": 5421,
      "tigecycline": 5422,
      "d24200": 5423,
      "d541": 5424,
      "3289": 5425,
      "12xa": 5426,
      "dz9111": 5427,
      "d99769": 5428,
      "444": 5429,
      "d03843": 5430,
      "d82": 5431,
      "dr011": 5432,
      "kale": 5433,
      "d727": 5434,
      "df339": 5435,
      "dn3289": 5436,
      "8881": 5437,
      "de9394": 5438,
      "hyperkale": 5439,
      "hyperkalemia": 5440,
      "dj029": 5441,
      "dc92z0": 5442,
      "casp": 5443,
      "d389": 5444,
      "ofungin": 5445,
      "caspofungin": 5446,
      "d3019": 5447,
      "d20208": 5448,
      "db0": 5449,
      "d25053": 5450,
      "dc799": 5451,
      "de9309": 5452,
      "dt8579": 5453,
      "447": 5454,
      "vec": 5455,
      "lovastatin": 5456,
      "adacel": 5457,
      "captop": 5458,
      "d30002": 5459,
      "d299": 5460,
      "445": 5461,
      "dk602": 5462,
      "dy924": 5463,
      "de9358": 5464,
      "mercaptop": 5465,
      "dt50905a": 5466,
      "d37230": 5467,
      "mercaptopurine": 5468,
      "carbamide": 5469,
      "d9992": 5470,
      "dz903": 5471,
      "461": 5472,
      "dl972": 5473,
      "glo": 5474,
      "dc541": 5475,
      "glob": 5476,
      "dv8537": 5477,
      "d8070": 5478,
      "dn939": 5479,
      "dj111": 5480,
      "d33183": 5481,
      "de1": 5482,
      "dt360x5a": 5483,
      "di743": 5484,
      "d136": 5485,
      "d99681": 5486,
      "de9290": 5487,
      "di82611": 5488,
      "2xa": 5489,
      "ophyl": 5490,
      "dd869": 5491,
      "dt8132": 5492,
      "tit": 5493,
      "dv1072": 5494,
      "hepatit": 5495,
      "hepatitis": 5496,
      "482": 5497,
      "dr252": 5498,
      "dg250": 5499,
      "pent": 5500,
      "d73": 5501,
      "d53783": 5502,
      "di82412": 5503,
      "ophylline": 5504,
      "6000": 5505,
      "dv580": 5506,
      "ds80": 5507,
      "d44031": 5508,
      "methemoglobin": 5509,
      "dd61811": 5510,
      "dc3": 5511,
      "d4465": 5512,
      "d534": 5513,
      "d3540": 5514,
      "d30928": 5515,
      "d1820": 5516,
      "d430": 5517,
      "d79579": 5518,
      "d388": 5519,
      "d2774": 5520,
      "d6238": 5521,
      "dv071": 5522,
      "dv8534": 5523,
      "dv4575": 5524,
      "dy925": 5525,
      "dv8523": 5526,
      "d48241": 5527,
      "212a": 5528,
      "theophylline": 5529,
      "dt8579xa": 5530,
      "dh534": 5531,
      "8511": 5532,
      "dd6861": 5533,
      "dt502": 5534,
      "d7808": 5535,
      "dv1047": 5536,
      "dd6859": 5537,
      "ds065x0a": 5538,
      "630": 5539,
      "436": 5540,
      "imip": 5541,
      "di8511": 5542,
      "d27549": 5543,
      "d30521": 5544,
      "irbe": 5545,
      "ane": 5546,
      "d20402": 5547,
      "ulfate": 5548,
      "d5190": 5549,
      "liq": 5550,
      "lastatin": 5551,
      "cilastatin": 5552,
      "bisulfate": 5553,
      "d30563": 5554,
      "d9072": 5555,
      "imipenem": 5556,
      "dz77": 5557,
      "dz96649": 5558,
      "d99667": 5559,
      "taxel": 5560,
      "d23877": 5561,
      "isti": 5562,
      "polisti": 5563,
      "polistirex": 5564,
      "fluvox": 5565,
      "dz51": 5566,
      "dy834": 5567,
      "dd519": 5568,
      "d44381": 5569,
      "fluvoxamine": 5570,
      "fenac": 5571,
      "multiple": 5572,
      "dz9011": 5573,
      "d8054": 5574,
      "d3490": 5575,
      "enalapri": 5576,
      "enalaprilat": 5577,
      "irbesartan": 5578,
      "dc159": 5579,
      "d43883": 5580,
      "d4379": 5581,
      "d7854": 5582,
      "dh532": 5583,
      "dz432": 5584,
      "dm5430": 5585,
      "d78630": 5586,
      "shamp": 5587,
      "dr68": 5588,
      "dr490": 5589,
      "d42769": 5590,
      "dk315": 5591,
      "renone": 5592,
      "shampoo": 5593,
      "518": 5594,
      "dm79605": 5595,
      "dk432": 5596,
      "d55090": 5597,
      "dy92018": 5598,
      "dl719": 5599,
      "468": 5600,
      "d9972": 5601,
      "dd56": 5602,
      "dd563": 5603,
      "dg40109": 5604,
      "dl97429": 5605,
      "d3241": 5606,
      "dr61": 5607,
      "afine": 5608,
      "capro": 5609,
      "d25201": 5610,
      "d7080": 5611,
      "dk598": 5612,
      "di868": 5613,
      "viaflo": 5614,
      "d99739": 5615,
      "di82b": 5616,
      "dr2689": 5617,
      "dz880": 5618,
      "de915": 5619,
      "combi": 5620,
      "binafine": 5621,
      "d1984": 5622,
      "dd839": 5623,
      "terbinafine": 5624,
      "90a": 5625,
      "dk8050": 5626,
      "d36570": 5627,
      "dm4854xa": 5628,
      "d73309": 5629,
      "dv8536": 5630,
      "df5": 5631,
      "803": 5632,
      "di440": 5633,
      "de1022": 5634,
      "d3549": 5635,
      "aminocapro": 5636,
      "d3229": 5637,
      "dv8533": 5638,
      "d2864": 5639,
      "720": 5640,
      "ifloxacin": 5641,
      "dz8611": 5642,
      "dr269": 5643,
      "de88": 5644,
      "d20070": 5645,
      "pheniramine": 5646,
      "d44489": 5647,
      "blu": 5648,
      "de912": 5649,
      "dn3090": 5650,
      "blue": 5651,
      "antin": 5652,
      "dn83": 5653,
      "d99642": 5654,
      "tane": 5655,
      "dr34": 5656,
      "dj380": 5657,
      "dr296": 5658,
      "aminocaproic": 5659,
      "dt450": 5660,
      "dg9349": 5661,
      "d4359": 5662,
      "di6523": 5663,
      "d3099": 5664,
      "dv8539": 5665,
      "d42989": 5666,
      "lerenone": 5667,
      "opht": 5668,
      "eplerenone": 5669,
      "de1042": 5670,
      "d27953": 5671,
      "de9393": 5672,
      "vecuronium": 5673,
      "dx": 5674,
      "d2810": 5675,
      "dv854": 5676,
      "di771": 5677,
      "d0090": 5678,
      "di82432": 5679,
      "435": 5680,
      "d41511": 5681,
      "d87342": 5682,
      "dt426x5a": 5683,
      "dn289": 5684,
      "d43813": 5685,
      "dm21372": 5686,
      "lip": 5687,
      "dk580": 5688,
      "dc50912": 5689,
      "db441": 5690,
      "dk767": 5691,
      "d30553": 5692,
      "dl03113": 5693,
      "etocla": 5694,
      "venetocla": 5695,
      "df4323": 5696,
      "d5934": 5697,
      "venetoclax": 5698,
      "fyl": 5699,
      "d34511": 5700,
      "oxifyl": 5701,
      "pentoxifyl": 5702,
      "pentoxifylline": 5703,
      "521": 5704,
      "moxifloxacin": 5705,
      "d368": 5706,
      "d30551": 5707,
      "d71106": 5708,
      "di25118": 5709,
      "di699": 5710,
      "d05410": 5711,
      "tas": 5712,
      "dj152": 5713,
      "dz8614": 5714,
      "intr": 5715,
      "892": 5716,
      "dk5669": 5717,
      "dc775": 5718,
      "dt502x5a": 5719,
      "437": 5720,
      "d7910": 5721,
      "dk869": 5722,
      "dr4781": 5723,
      "pami": 5724,
      "pamidronate": 5725,
      "tat": 5726,
      "d2409": 5727,
      "dm254": 5728,
      "dm8448": 5729,
      "d99831": 5730,
      "dt8132xa": 5731,
      "d712": 5732,
      "dg809": 5733,
      "946": 5734,
      "de1010": 5735,
      "dn186": 5736,
      "d34400": 5737,
      "dm6282": 5738,
      "dj3801": 5739,
      "dh8110": 5740,
      "dq8": 5741,
      "tz": 5742,
      "d7876": 5743,
      "dz87898": 5744,
      "d490": 5745,
      "df500": 5746,
      "dr591": 5747,
      "d99762": 5748,
      "azep": 5749,
      "d7962": 5750,
      "ds12": 5751,
      "dd72828": 5752,
      "dq231": 5753,
      "mic": 5754,
      "dk200": 5755,
      "dg83": 5756,
      "db9681": 5757,
      "d8052": 5758,
      "d1104": 5759,
      "d616": 5760,
      "dv8531": 5761,
      "dr002": 5762,
      "de10621": 5763,
      "rod": 5764,
      "d4010": 5765,
      "macrod": 5766,
      "macrodantin": 5767,
      "bo": 5768,
      "troban": 5769,
      "exe": 5770,
      "dz89422": 5771,
      "de9359": 5772,
      "de83119": 5773,
      "d5959": 5774,
      "d5272": 5775,
      "dk68": 5776,
      "dr601": 5777,
      "456": 5778,
      "dv4611": 5779,
      "restas": 5780,
      "dc50919": 5781,
      "d71906": 5782,
      "restasis": 5783,
      "d524": 5784,
      "d5130": 5785,
      "triene": 5786,
      "dt370": 5787,
      "dt85590": 5788,
      "calcipo": 5789,
      "dt85590a": 5790,
      "calcipotriene": 5791,
      "dn7": 5792,
      "dc169": 5793,
      "di82a": 5794,
      "dn1339": 5795,
      "dk91840": 5796,
      "d82021": 5797,
      "hctz": 5798,
      "dt370x5a": 5799,
      "oetin": 5800,
      "epoetin": 5801,
      "d78559": 5802,
      "dd46z": 5803,
      "d1509": 5804,
      "df1121": 5805,
      "dt8641": 5806,
      "d9070": 5807,
      "446": 5808,
      "vap": 5809,
      "d2734": 5810,
      "dm8": 5811,
      "d3510": 5812,
      "dr579": 5813,
      "ia": 5814,
      "dv6406": 5815,
      "dt450x5a": 5816,
      "dc7b": 5817,
      "lumigan": 5818,
      "dr202": 5819,
      "7281": 5820,
      "dr9431": 5821,
      "d78459": 5822,
      "de9288": 5823,
      "de9319": 5824,
      "di69392": 5825,
      "d8730": 5826,
      "d25012": 5827,
      "457": 5828,
      "dc92z2": 5829,
      "dv65": 5830,
      "d45384": 5831,
      "drone": 5832,
      "dy835": 5833,
      "df1123": 5834,
      "d71696": 5835,
      "d5566": 5836,
      "d53782": 5837,
      "gatroban": 5838,
      "almic": 5839,
      "argatroban": 5840,
      "ophthalmic": 5841,
      "dc679": 5842,
      "de213": 5843,
      "diclo": 5844,
      "carnit": 5845,
      "d7827": 5846,
      "d78606": 5847,
      "796": 5848,
      "d29689": 5849,
      "globulin": 5850,
      "diclofenac": 5851,
      "24a": 5852,
      "di441": 5853,
      "d03812": 5854,
      "dc19": 5855,
      "db37": 5856,
      "dr4023": 5857,
      "iabp": 5858,
      "mucine": 5859,
      "1750": 5860,
      "ds066": 5861,
      "mucinex": 5862,
      "d4464": 5863,
      "d718": 5864,
      "d30750": 5865,
      "d1912": 5866,
      "pentam": 5867,
      "dc8589": 5868,
      "pentamidine": 5869,
      "df5000": 5870,
      "carnitine": 5871,
      "507": 5872,
      "d56941": 5873,
      "dc3431": 5874,
      "d8670": 5875,
      "479": 5876,
      "xx0": 5877,
      "de11622": 5878,
      "paste": 5879,
      "dv171": 5880,
      "607": 5881,
      "df15": 5882,
      "d4476": 5883,
      "dc50": 5884,
      "dv4561": 5885,
      "nex": 5886,
      "dy731": 5887,
      "toprol": 5888,
      "dk31811": 5889,
      "dn39498": 5890,
      "var": 5891,
      "lubi": 5892,
      "db9": 5893,
      "d6820": 5894,
      "prostone": 5895,
      "lubiprostone": 5896,
      "dr1032": 5897,
      "dk264": 5898,
      "ds9": 5899,
      "etomid": 5900,
      "d28989": 5901,
      "etomidate": 5902,
      "dz8679": 5903,
      "dh905": 5904,
      "di680": 5905,
      "d5300": 5906,
      "pacli": 5907,
      "dz89512": 5908,
      "paclitaxel": 5909,
      "608": 5910,
      "de804": 5911,
      "540": 5912,
      "de9323": 5913,
      "dz8507": 5914,
      "orab": 5915,
      "d78651": 5916,
      "orabase": 5917,
      "25a": 5918,
      "dm112": 5919,
      "di69320": 5920,
      "levocarnitine": 5921,
      "dn138": 5922,
      "dg40209": 5923,
      "atrial": 5924,
      "dm47892": 5925,
      "dn131": 5926,
      "d03819": 5927,
      "dk810": 5928,
      "dd631": 5929,
      "df1490": 5930,
      "1289": 5931,
      "dk761": 5932,
      "dz5329": 5933,
      "d49120": 5934,
      "de8799": 5935,
      "da0471": 5936,
      "dj869": 5937,
      "38a": 5938,
      "db009": 5939,
      "dv011": 5940,
      "d344": 5941,
      "d2532": 5942,
      "db951": 5943,
      "db373": 5944,
      "d25043": 5945,
      "dobu": 5946,
      "d28246": 5947,
      "d70704": 5948,
      "dobutamine": 5949,
      "moex": 5950,
      "d7852": 5951,
      "d1539": 5952,
      "dw06": 5953,
      "ipril": 5954,
      "moexipril": 5955,
      "air": 5956,
      "d88": 5957,
      "iplatin": 5958,
      "racepinephrine": 5959,
      "d99661": 5960,
      "dk631": 5961,
      "oxaliplatin": 5962,
      "d71947": 5963,
      "dg061": 5964,
      "loride": 5965,
      "dv270": 5966,
      "last": 5967,
      "amiloride": 5968,
      "dl982": 5969,
      "462": 5970,
      "886": 5971,
      "neo": 5972,
      "d4299": 5973,
      "dt383": 5974,
      "dz9481": 5975,
      "dm0600": 5976,
      "dz9689": 5977,
      "3700": 5978,
      "d6953": 5979,
      "med": 5980,
      "d7963": 5981,
      "umab": 5982,
      "dextran": 5983,
      "dn9": 5984,
      "dn132": 5985,
      "dr945": 5986,
      "475": 5987,
      "d56212": 5988,
      "d72293": 5989,
      "dt375x5a": 5990,
      "apleu": 5991,
      "dm459": 5992,
      "d00869": 5993,
      "di6529": 5994,
      "intrapleu": 5995,
      "intrapleural": 5996,
      "bit": 5997,
      "d4242": 5998,
      "d6262": 5999,
      "d79099": 6000,
      "d4423": 6001,
      "dm1711": 6002,
      "db3749": 6003,
      "gil": 6004,
      "d4555": 6005,
      "d4619": 6006,
      "dt82524a": 6007,
      "d49300": 6008,
      "por": 6009,
      "998": 6010,
      "d28984": 6011,
      "a8": 6012,
      "methamine": 6013,
      "dz5112": 6014,
      "dm8448xa": 6015,
      "9010": 6016,
      "lactic": 6017,
      "dm80": 6018,
      "d30781": 6019,
      "thy": 6020,
      "dm47": 6021,
      "d28809": 6022,
      "dv151": 6023,
      "888": 6024,
      "dc8518": 6025,
      "mocy": 6026,
      "df200": 6027,
      "rabbit": 6028,
      "thymocy": 6029,
      "thymocyte": 6030,
      "d6179": 6031,
      "ds224": 6032,
      "dr1084": 6033,
      "tl": 6034,
      "d193": 6035,
      "d4238": 6036,
      "dz823": 6037,
      "d5997": 6038,
      "467": 6039,
      "dw06xxxa": 6040,
      "dm1a": 6041,
      "dt80212a": 6042,
      "thyro": 6043,
      "thyroid": 6044,
      "d337": 6045,
      "db02": 6046,
      "d53530": 6047,
      "anol": 6048,
      "dv8530": 6049,
      "zido": 6050,
      "de9429": 6051,
      "ethanol": 6052,
      "zidovudine": 6053,
      "avi": 6054,
      "all": 6055,
      "dr1012": 6056,
      "llat": 6057,
      "brillat": 6058,
      "fibrillat": 6059,
      "dm1a9": 6060,
      "fibrillation": 6061,
      "ds42": 6062,
      "d2910": 6063,
      "tamox": 6064,
      "di5042": 6065,
      "tamoxifen": 6066,
      "retin": 6067,
      "dr3": 6068,
      "d56942": 6069,
      "dv1649": 6070,
      "3xa": 6071,
      "don": 6072,
      "dw19xxxd": 6073,
      "atra": 6074,
      "imipramine": 6075,
      "oic": 6076,
      "rom": 6077,
      "alan": 6078,
      "phalan": 6079,
      "melphalan": 6080,
      "dz8049": 6081,
      "transretin": 6082,
      "transretinoic": 6083,
      "d377": 6084,
      "dj101": 6085,
      "da09": 6086,
      "dd122": 6087,
      "472": 6088,
      "di83": 6089,
      "d1966": 6090,
      "d3481": 6091,
      "mirapex": 6092,
      "505": 6093,
      "938": 6094,
      "d99649": 6095,
      "dj383": 6096,
      "dc8318": 6097,
      "4500": 6098,
      "530": 6099,
      "dt84": 6100,
      "dm5136": 6101,
      "di7101": 6102,
      "d28262": 6103,
      "da411": 6104,
      "dh0240": 6105,
      "dz7722": 6106,
      "100000": 6107,
      "d56962": 6108,
      "d43882": 6109,
      "dl539": 6110,
      "de0008": 6111,
      "d5710": 6112,
      "3900": 6113,
      "d6821": 6114,
      "d80701": 6115,
      "d1505": 6116,
      "4x5a": 6117,
      "d756": 6118,
      "dd65": 6119,
      "tricor": 6120,
      "dv8525": 6121,
      "d60886": 6122,
      "dx58xxxd": 6123,
      "d78863": 6124,
      "d99593": 6125,
      "dk862": 6126,
      "senic": 6127,
      "d523": 6128,
      "arsenic": 6129,
      "trioxide": 6130,
      "d45376": 6131,
      "dl97929": 6132,
      "dm62838": 6133,
      "mepi": 6134,
      "dc9150": 6135,
      "d1622": 6136,
      "glimepi": 6137,
      "glimepiride": 6138,
      "dz8052": 6139,
      "dg9529": 6140,
      "d1889": 6141,
      "di976": 6142,
      "3281": 6143,
      "dd6862": 6144,
      "d45351": 6145,
      "d56731": 6146,
      "dl97819": 6147,
      "de9378": 6148,
      "d29980": 6149,
      "d99889": 6150,
      "dk5792": 6151,
      "de9330": 6152,
      "dd732": 6153,
      "de887": 6154,
      "dn3281": 6155,
      "da408": 6156,
      "d42611": 6157,
      "d64303": 6158,
      "dv4511": 6159,
      "d25092": 6160,
      "da4152": 6161,
      "taxol": 6162,
      "d42090": 6163,
      "7x5a": 6164,
      "dz538": 6165,
      "aden": 6166,
      "trace": 6167,
      "dg911": 6168,
      "df13": 6169,
      "dm898": 6170,
      "db0229": 6171,
      "adenosine": 6172,
      "d501": 6173,
      "ron": 6174,
      "d5259": 6175,
      "d4387": 6176,
      "di161": 6177,
      "d25042": 6178,
      "dr414": 6179,
      "d20972": 6180,
      "d73008": 6181,
      "d7908": 6182,
      "di2721": 6183,
      "d48283": 6184,
      "d73710": 6185,
      "d7464": 6186,
      "d78550": 6187,
      "ie": 6188,
      "dj151": 6189,
      "6281": 6190,
      "minoc": 6191,
      "minocycline": 6192,
      "d1969": 6193,
      "dk581": 6194,
      "d20380": 6195,
      "d20310": 6196,
      "dr571": 6197,
      "d323": 6198,
      "dz811": 6199,
      "d4251": 6200,
      "d0542": 6201,
      "di82612": 6202,
      "qvar": 6203,
      "d72": 6204,
      "d7336": 6205,
      "d4408": 6206,
      "dk63": 6207,
      "dj4520": 6208,
      "dm868x7": 6209,
      "cam": 6210,
      "dz9012": 6211,
      "560": 6212,
      "df5001": 6213,
      "d425": 6214,
      "d61610": 6215,
      "dm1a9xx0": 6216,
      "d4160": 6217,
      "493": 6218,
      "dn10": 6219,
      "d29411": 6220,
      "d56729": 6221,
      "dj8489": 6222,
      "dl298": 6223,
      "dy92002": 6224,
      "nib": 6225,
      "di724": 6226,
      "dg939": 6227,
      "di319": 6228,
      "d2894": 6229,
      "tlcl": 6230,
      "mis": 6231,
      "de063": 6232,
      "d3577": 6233,
      "dz8051": 6234,
      "dq6": 6235,
      "desitin": 6236,
      "ds828": 6237,
      "ostat": 6238,
      "dc84": 6239,
      "d1971": 6240,
      "de099": 6241,
      "elb": 6242,
      "d53240": 6243,
      "483": 6244,
      "d2381": 6245,
      "dr402": 6246,
      "dd591": 6247,
      "dr5381": 6248,
      "dz91138": 6249,
      "5181": 6250,
      "d73349": 6251,
      "dc642": 6252,
      "d58881": 6253,
      "7090": 6254,
      "d28412": 6255,
      "d1968": 6256,
      "dv0261": 6257,
      "dg40409": 6258,
      "lan": 6259,
      "dc9230": 6260,
      "dg90": 6261,
      "di82442": 6262,
      "d71105": 6263,
      "dz83": 6264,
      "dz85818": 6265,
      "dc779": 6266,
      "di82622": 6267,
      "dw109": 6268,
      "d20051": 6269,
      "dq0": 6270,
      "dl89151": 6271,
      "d73017": 6272,
      "di6340": 6273,
      "df1411": 6274,
      "dm4626": 6275,
      "d56881": 6276,
      "d7835": 6277,
      "dv550": 6278,
      "di422": 6279,
      "840": 6280,
      "dk661": 6281,
      "dr6510": 6282,
      "28a": 6283,
      "d04184": 6284,
      "dk566": 6285,
      "d23879": 6286,
      "dv0981": 6287,
      "biotic": 6288,
      "dm940": 6289,
      "dk6389": 6290,
      "dl03114": 6291,
      "d07989": 6292,
      "oprostol": 6293,
      "misoprostol": 6294,
      "465": 6295,
      "di5181": 6296,
      "dz77090": 6297,
      "dj84116": 6298,
      "dt8183xa": 6299,
      "dl988": 6300,
      "dv141": 6301,
      "d307": 6302,
      "nase": 6303,
      "de8794": 6304,
      "dc187": 6305,
      "dd352": 6306,
      "port": 6307,
      "dv8545": 6308,
      "dm1712": 6309,
      "di82c11": 6310,
      "d1363": 6311,
      "dm25": 6312,
      "dm8088": 6313,
      "dl259": 6314,
      "zumab": 6315,
      "antr": 6316,
      "dz910": 6317,
      "663": 6318,
      "dk551": 6319,
      "dv8524": 6320,
      "dd5700": 6321,
      "dv6549": 6322,
      "dv8381": 6323,
      "nexium": 6324,
      "22a": 6325,
      "d7099": 6326,
      "dk254": 6327,
      "dk8510": 6328,
      "d30403": 6329,
      "polysaccharides": 6330,
      "d45350": 6331,
      "dz89612": 6332,
      "dl7634": 6333,
      "com": 6334,
      "dk659": 6335,
      "4901": 6336,
      "478": 6337,
      "lla": 6338,
      "d71949": 6339,
      "de9420": 6340,
      "df1111": 6341,
      "d37854": 6342,
      "ele": 6343,
      "imatinib": 6344,
      "dm50": 6345,
      "dr441": 6346,
      "dm1611": 6347,
      "d1519": 6348,
      "d1103": 6349,
      "d07951": 6350,
      "itabine": 6351,
      "d2750": 6352,
      "gemc": 6353,
      "991": 6354,
      "dy95": 6355,
      "gemcitabine": 6356,
      "d4232": 6357,
      "d72939": 6358,
      "d9331": 6359,
      "dz434": 6360,
      "dk56600": 6361,
      "d611": 6362,
      "dv5332": 6363,
      "d8082": 6364,
      "dg44209": 6365,
      "d56889": 6366,
      "dr3129": 6367,
      "df22": 6368,
      "dm866": 6369,
      "dt451x5d": 6370,
      "dk611": 6371,
      "itinib": 6372,
      "xib": 6373,
      "atan": 6374,
      "coxib": 6375,
      "di120": 6376,
      "dc189": 6377,
      "celecoxib": 6378,
      "dk4090": 6379,
      "dv5331": 6380,
      "d011": 6381,
      "metholone": 6382,
      "dornase": 6383,
      "d59689": 6384,
      "foam": 6385,
      "fluorometholone": 6386,
      "dl97829": 6387,
      "d53490": 6388,
      "816": 6389,
      "d49122": 6390,
      "d550": 6391,
      "pul": 6392,
      "1334": 6393,
      "dc7949": 6394,
      "dv1002": 6395,
      "fluocinolone": 6396,
      "d5798": 6397,
      "dk50012": 6398,
      "4400": 6399,
      "pca": 6400,
      "d70710": 6401,
      "di6521": 6402,
      "dv142": 6403,
      "dc251": 6404,
      "d282": 6405,
      "d2822": 6406,
      "d73382": 6407,
      "dt462": 6408,
      "dk565": 6409,
      "dd508": 6410,
      "d34541": 6411,
      "d60490": 6412,
      "dm6281": 6413,
      "d3530": 6414,
      "dh40": 6415,
      "dz792": 6416,
      "dv4361": 6417,
      "d4941": 6418,
      "d4471": 6419,
      "dz87311": 6420,
      "dn136": 6421,
      "d34591": 6422,
      "dt840": 6423,
      "dk5000": 6424,
      "ments": 6425,
      "dn529": 6426,
      "dd8": 6427,
      "elements": 6428,
      "486": 6429,
      "dm968": 6430,
      "dv4984": 6431,
      "d56985": 6432,
      "dk9412": 6433,
      "crom": 6434,
      "olyn": 6435,
      "dz8521": 6436,
      "d1101": 6437,
      "cromolyn": 6438,
      "mexi": 6439,
      "ropivacaine": 6440,
      "letine": 6441,
      "d7234": 6442,
      "dg40802": 6443,
      "d9100": 6444,
      "mexiletine": 6445,
      "610": 6446,
      "de95": 6447,
      "d3332": 6448,
      "dy92039": 6449,
      "485": 6450,
      "dk226": 6451,
      "df845": 6452,
      "ribavi": 6453,
      "ribavirin": 6454,
      "dc946": 6455,
      "dr330": 6456,
      "dv4971": 6457,
      "rone": 6458,
      "de291": 6459,
      "d20600": 6460,
      "adv": 6461,
      "x2a": 6462,
      "pla": 6463,
      "dk913": 6464,
      "razinamide": 6465,
      "pyrazinamide": 6466,
      "dq796": 6467,
      "ds0990": 6468,
      "dt501x6a": 6469,
      "d99689": 6470,
      "dm25569": 6471,
      "dt461": 6472,
      "de1021": 6473,
      "dc641": 6474,
      "capone": 6475,
      "dz90722": 6476,
      "d2884": 6477,
      "dg8250": 6478,
      "dg919": 6479,
      "dc240": 6480,
      "de11610": 6481,
      "rup": 6482,
      "df29": 6483,
      "51xa": 6484,
      "sterone": 6485,
      "d19882": 6486,
      "syrup": 6487,
      "506": 6488,
      "d42613": 6489,
      "ry": 6490,
      "d34600": 6491,
      "dm1612": 6492,
      "travatan": 6493,
      "late": 6494,
      "sulfan": 6495,
      "dm75": 6496,
      "busulfan": 6497,
      "dv0179": 6498,
      "d73015": 6499,
      "de8888": 6500,
      "d5730": 6501,
      "db449": 6502,
      "di69391": 6503,
      "xxxs": 6504,
      "db9789": 6505,
      "lastine": 6506,
      "di748": 6507,
      "hyron": 6508,
      "liot": 6509,
      "d3501": 6510,
      "df4322": 6511,
      "hyronine": 6512,
      "liothyronine": 6513,
      "d5282": 6514,
      "3489": 6515,
      "d30924": 6516,
      "lock": 6517,
      "dr809": 6518,
      "dc3432": 6519,
      "dt8351xa": 6520,
      "ds0990xa": 6521,
      "dv8522": 6522,
      "119xa": 6523,
      "dt8119xa": 6524,
      "dibu": 6525,
      "495": 6526,
      "dq27": 6527,
      "dm5412": 6528,
      "dibucaine": 6529,
      "esterone": 6530,
      "felb": 6531,
      "d2751": 6532,
      "dt830": 6533,
      "di82411": 6534,
      "progesterone": 6535,
      "003": 6536,
      "dz5331": 6537,
      "di700": 6538,
      "d25072": 6539,
      "din": 6540,
      "dt8453": 6541,
      "dk627": 6542,
      "dv7281": 6543,
      "dz370": 6544,
      "497": 6545,
      "df79": 6546,
      "dd708": 6547,
      "dl89153": 6548,
      "dc561": 6549,
      "7z": 6550,
      "das": 6551,
      "di6203": 6552,
      "dd47z": 6553,
      "d83": 6554,
      "58a": 6555,
      "dt435": 6556,
      "522": 6557,
      "dv26": 6558,
      "dj156": 6559,
      "dj939": 6560,
      "d20511": 6561,
      "d5679": 6562,
      "d3568": 6563,
      "xxd": 6564,
      "d37272": 6565,
      "820": 6566,
      "dd619": 6567,
      "d3575": 6568,
      "d53551": 6569,
      "inf": 6570,
      "dz90411": 6571,
      "dj860": 6572,
      "dw109xxa": 6573,
      "d81": 6574,
      "xostat": 6575,
      "dr12": 6576,
      "lyrica": 6577,
      "buxostat": 6578,
      "d5699": 6579,
      "di728": 6580,
      "febuxostat": 6581,
      "dk7210": 6582,
      "d4730": 6583,
      "dm86172": 6584,
      "dm79662": 6585,
      "miralax": 6586,
      "dr3915": 6587,
      "524": 6588,
      "enta": 6589,
      "d2559": 6590,
      "d3315": 6591,
      "di618": 6592,
      "865": 6593,
      "dh8": 6594,
      "dv066": 6595,
      "dt380x5s": 6596,
      "4100": 6597,
      "enol": 6598,
      "d075": 6599,
      "oprostenol": 6600,
      "epoprostenol": 6601,
      "dr1319": 6602,
      "dc539": 6603,
      "sta": 6604,
      "d325": 6605,
      "496": 6606,
      "dt393": 6607,
      "df1210": 6608,
      "dl97919": 6609,
      "dt367x5a": 6610,
      "d4786": 6611,
      "ze": 6612,
      "d78096": 6613,
      "dz85830": 6614,
      "d29212": 6615,
      "rig": 6616,
      "d646": 6617,
      "de9447": 6618,
      "d2448": 6619,
      "dv18": 6620,
      "d6256": 6621,
      "dm179": 6622,
      "d1981": 6623,
      "dj9690": 6624,
      "d924": 6625,
      "dm351": 6626,
      "d91": 6627,
      "zy": 6628,
      "de210": 6629,
      "dr270": 6630,
      "4700": 6631,
      "dj9692": 6632,
      "dm5489": 6633,
      "de13": 6634,
      "di421": 6635,
      "d5568": 6636,
      "entacapone": 6637,
      "d1980": 6638,
      "d0388": 6639,
      "latex": 6640,
      "dasatinib": 6641,
      "484": 6642,
      "599": 6643,
      "propa": 6644,
      "df609": 6645,
      "d20071": 6646,
      "d823": 6647,
      "de739": 6648,
      "dc92z1": 6649,
      "idomide": 6650,
      "ds32": 6651,
      "730": 6652,
      "brex": 6653,
      "dc23": 6654,
      "dt473": 6655,
      "dz8547": 6656,
      "de9390": 6657,
      "de8495": 6658,
      "513": 6659,
      "580": 6660,
      "dt82858a": 6661,
      "antibiotic": 6662,
      "dd45": 6663,
      "548": 6664,
      "d1571": 6665,
      "irrig": 6666,
      "de279": 6667,
      "830": 6668,
      "dd86": 6669,
      "dz6845": 6670,
      "d56982": 6671,
      "dj15211": 6672,
      "d2452": 6673,
      "d5206": 6674,
      "dg600": 6675,
      "order": 6676,
      "477": 6677,
      "ds82": 6678,
      "dv1091": 6679,
      "d1105": 6680,
      "dh53461": 6681,
      "d759": 6682,
      "di820": 6683,
      "df4321": 6684,
      "dd7589": 6685,
      "525": 6686,
      "dg56": 6687,
      "d5950": 6688,
      "d1965": 6689,
      "ds36": 6690,
      "di778": 6691,
      "d78607": 6692,
      "cri": 6693,
      "md": 6694,
      "dv553": 6695,
      "d78821": 6696,
      "d9349": 6697,
      "11xa": 6698,
      "514": 6699,
      "bunolol": 6700,
      "dz8661": 6701,
      "di638": 6702,
      "levobunolol": 6703,
      "d38910": 6704,
      "660": 6705,
      "anate": 6706,
      "2211": 6707,
      "di314": 6708,
      "clavulanate": 6709,
      "d4785": 6710,
      "dv5419": 6711,
      "d9951": 6712,
      "di611": 6713,
      "dw228": 6714,
      "dg4440": 6715,
      "dk6812": 6716,
      "487": 6717,
      "hfa": 6718,
      "d398": 6719,
      "d7103": 6720,
      "dr140": 6721,
      "dv1044": 6722,
      "dc7a8": 6723,
      "d39890": 6724,
      "fenone": 6725,
      "propafenone": 6726,
      "d28249": 6727,
      "d53089": 6728,
      "d7801": 6729,
      "d45184": 6730,
      "di6522": 6731,
      "d33828": 6732,
      "dk868": 6733,
      "exemes": 6734,
      "df250": 6735,
      "dn50": 6736,
      "dj40": 6737,
      "dz89611": 6738,
      "dm47816": 6739,
      "exemestane": 6740,
      "d2273": 6741,
      "d30502": 6742,
      "dz96659": 6743,
      "dj9610": 6744,
      "d25003": 6745,
      "advair": 6746,
      "de1051": 6747,
      "dt462x5a": 6748,
      "640": 6749,
      "dv0991": 6750,
      "d5379": 6751,
      "dk9419": 6752,
      "dm8088xa": 6753,
      "de271": 6754,
      "704": 6755,
      "d6918": 6756,
      "d3017": 6757,
      "de9413": 6758,
      "dl7622": 6759,
      "ds2241": 6760,
      "d94": 6761,
      "di361": 6762,
      "vidipine": 6763,
      "dy92199": 6764,
      "clevidipine": 6765,
      "tamide": 6766,
      "de230": 6767,
      "d7384": 6768,
      "494": 6769,
      "852": 6770,
      "8389": 6771,
      "dz95811": 6772,
      "dl570": 6773,
      "dv7": 6774,
      "dc37": 6775,
      "692": 6776,
      "d53020": 6777,
      "d99709": 6778,
      "d56039": 6779,
      "desipramine": 6780,
      "a0": 6781,
      "dz141": 6782,
      "d3009": 6783,
      "d55221": 6784,
      "d1562": 6785,
      "d4820": 6786,
      "d52460": 6787,
      "tarol": 6788,
      "dz818": 6789,
      "ceftarol": 6790,
      "butin": 6791,
      "rifabutin": 6792,
      "ceftaroline": 6793,
      "515": 6794,
      "pf": 6795,
      "liximab": 6796,
      "d7020": 6797,
      "cyt": 6798,
      "di708": 6799,
      "d9999": 6800,
      "fluphenazine": 6801,
      "d2270": 6802,
      "d7533": 6803,
      "dl304": 6804,
      "d7104": 6805,
      "d35989": 6806,
      "d5128": 6807,
      "d7818": 6808,
      "d20028": 6809,
      "dy840": 6810,
      "d29572": 6811,
      "523": 6812,
      "tb": 6813,
      "thane": 6814,
      "dn8": 6815,
      "bethane": 6816,
      "dv8521": 6817,
      "d4919": 6818,
      "dz96612": 6819,
      "dk740": 6820,
      "dk2960": 6821,
      "d37941": 6822,
      "ds0083xa": 6823,
      "bethanechol": 6824,
      "d5285": 6825,
      "dr260": 6826,
      "d1560": 6827,
      "d2971": 6828,
      "dj9819": 6829,
      "dz89511": 6830,
      "dk8051": 6831,
      "bella": 6832,
      "d56738": 6833,
      "d12": 6834,
      "dv170": 6835,
      "dt17": 6836,
      "d20312": 6837,
      "d72982": 6838,
      "dm5126": 6839,
      "d36816": 6840,
      "dt8189xa": 6841,
      "dl02415": 6842,
      "dg253": 6843,
      "141xa": 6844,
      "phene": 6845,
      "dj320": 6846,
      "db029": 6847,
      "dz09": 6848,
      "de9361": 6849,
      "d60889": 6850,
      "dh04123": 6851,
      "de221": 6852,
      "d9962": 6853,
      "dc562": 6854,
      "dm47896": 6855,
      "de782": 6856,
      "d20030": 6857,
      "812a": 6858,
      "dn3941": 6859,
      "d99851": 6860,
      "irrigation": 6861,
      "d5225": 6862,
      "dn0": 6863,
      "df10231": 6864,
      "di69322": 6865,
      "infliximab": 6866,
      "dz809": 6867,
      "594": 6868,
      "thio": 6869,
      "dc8590": 6870,
      "acalc": 6871,
      "ali": 6872,
      "dr262": 6873,
      "cinacalc": 6874,
      "dk0889": 6875,
      "dm21371": 6876,
      "cinacalcet": 6877,
      "di77": 6878,
      "diazep": 6879,
      "mitox": 6880,
      "d40291": 6881,
      "dt783": 6882,
      "chlordiazep": 6883,
      "d20218": 6884,
      "dj310": 6885,
      "dm79661": 6886,
      "di824z2": 6887,
      "combivir": 6888,
      "antrone": 6889,
      "mitoxantrone": 6890,
      "chlordiazepoxide": 6891,
      "kacin": 6892,
      "1108": 6893,
      "amikacin": 6894,
      "dy839": 6895,
      "dt85520": 6896,
      "dt85628a": 6897,
      "dl98499": 6898,
      "d80703": 6899,
      "dt85520a": 6900,
      "d7030": 6901,
      "d38600": 6902,
      "ptine": 6903,
      "tril": 6904,
      "d41041": 6905,
      "xol": 6906,
      "ruxol": 6907,
      "858": 6908,
      "d29562": 6909,
      "di82890": 6910,
      "dt8453xa": 6911,
      "lavin": 6912,
      "21a": 6913,
      "oflavin": 6914,
      "d29530": 6915,
      "d5758": 6916,
      "dl03313": 6917,
      "d20929": 6918,
      "riboflavin": 6919,
      "dr0689": 6920,
      "539": 6921,
      "lostim": 6922,
      "romip": 6923,
      "mocri": 6924,
      "18a": 6925,
      "bromocri": 6926,
      "d30561": 6927,
      "romiplostim": 6928,
      "bromocriptine": 6929,
      "dc7972": 6930,
      "d8120": 6931,
      "dq2733": 6932,
      "d85201": 6933,
      "celebrex": 6934,
      "d78003": 6935,
      "dd17": 6936,
      "d3410": 6937,
      "dz961": 6938,
      "dk8080": 6939,
      "om": 6940,
      "ras": 6941,
      "d516": 6942,
      "d7503": 6943,
      "dc8510": 6944,
      "d20284": 6945,
      "db488": 6946,
      "roxy": 6947,
      "d813": 6948,
      "medroxy": 6949,
      "brin": 6950,
      "d5374": 6951,
      "d649": 6952,
      "91a": 6953,
      "dc182": 6954,
      "dz8781": 6955,
      "medroxyprogesterone": 6956,
      "lon": 6957,
      "dd751": 6958,
      "d36514": 6959,
      "d6191": 6960,
      "d78799": 6961,
      "di7092": 6962,
      "dz1611": 6963,
      "dl732": 6964,
      "ruxolitinib": 6965,
      "1410": 6966,
      "d2778": 6967,
      "d8208": 6968,
      "d01190": 6969,
      "dt783xxa": 6970,
      "dj188": 6971,
      "dk8000": 6972,
      "d56721": 6973,
      "d78639": 6974,
      "ds065x9a": 6975,
      "fluno": 6976,
      "d4255": 6977,
      "dk228": 6978,
      "dg43109": 6979,
      "dh53": 6980,
      "dc7961": 6981,
      "d42983": 6982,
      "ds7200": 6983,
      "519": 6984,
      "papain": 6985,
      "db00": 6986,
      "dk610": 6987,
      "dg6289": 6988,
      "dz431": 6989,
      "d1533": 6990,
      "flunomide": 6991,
      "ubi": 6992,
      "de232": 6993,
      "df509": 6994,
      "sacubi": 6995,
      "d1888": 6996,
      "dm19011": 6997,
      "de0009": 6998,
      "sacubitril": 6999,
      "517": 7000,
      "55a": 7001,
      "de8708": 7002,
      "di70235": 7003,
      "dh547": 7004,
      "dv0950": 7005,
      "gla": 7006,
      "mec": 7007,
      "dn25": 7008,
      "dr0982": 7009,
      "donna": 7010,
      "ds2241xa": 7011,
      "vigil": 7012,
      "d643": 7013,
      "dj942": 7014,
      "d45372": 7015,
      "d6084": 7016,
      "dk8591": 7017,
      "len": 7018,
      "d7831": 7019,
      "893": 7020,
      "ds81": 7021,
      "de038": 7022,
      "di672": 7023,
      "d4870": 7024,
      "dm70": 7025,
      "dg932": 7026,
      "d22804": 7027,
      "30mg": 7028,
      "d714": 7029,
      "amate": 7030,
      "d59381": 7031,
      "dr0682": 7032,
      "dw228xxa": 7033,
      "belladonna": 7034,
      "d2733": 7035,
      "dm40": 7036,
      "dv1202": 7037,
      "dk319": 7038,
      "dm25519": 7039,
      "flex": 7040,
      "zolo": 7041,
      "dl97229": 7042,
      "d4532": 7043,
      "dt823": 7044,
      "dk047": 7045,
      "dg7001": 7046,
      "d38010": 7047,
      "2250": 7048,
      "dv1241": 7049,
      "fenib": 7050,
      "d6039": 7051,
      "tolvap": 7052,
      "dv2651": 7053,
      "tolvaptan": 7054,
      "xolol": 7055,
      "letri": 7056,
      "d7419": 7057,
      "dr419": 7058,
      "dn321": 7059,
      "betaxolol": 7060,
      "veletri": 7061,
      "dm792": 7062,
      "can": 7063,
      "dic": 7064,
      "dz223": 7065,
      "965": 7066,
      "iver": 7067,
      "ds325": 7068,
      "de9307": 7069,
      "felbamate": 7070,
      "mectin": 7071,
      "ivermectin": 7072,
      "579": 7073,
      "d7845": 7074,
      "d78831": 7075,
      "d6110": 7076,
      "chlorpheniramine": 7077,
      "654": 7078,
      "d3489": 7079,
      "dc9210": 7080,
      "dt43595a": 7081,
      "dt473x6a": 7082,
      "538": 7083,
      "ellip": 7084,
      "dz9889": 7085,
      "d64891": 7086,
      "ellipta": 7087,
      "evis": 7088,
      "ria": 7089,
      "leflunomide": 7090,
      "provigil": 7091,
      "d30392": 7092,
      "evista": 7093,
      "526": 7094,
      "di76": 7095,
      "clomethasone": 7096,
      "d20780": 7097,
      "beclomethasone": 7098,
      "dl989": 7099,
      "d5854": 7100,
      "d33385": 7101,
      "dj841": 7102,
      "dg3183": 7103,
      "dd8689": 7104,
      "obid": 7105,
      "di43": 7106,
      "d6259": 7107,
      "dj93": 7108,
      "lithobid": 7109,
      "d9341": 7110,
      "d69010": 7111,
      "dm609": 7112,
      "apa": 7113,
      "516": 7114,
      "de90": 7115,
      "d4293": 7116,
      "naph": 7117,
      "687": 7118,
      "db97": 7119,
      "dv1081": 7120,
      "de561": 7121,
      "dy92038": 7122,
      "d9694": 7123,
      "dk50913": 7124,
      "dc82": 7125,
      "dy92003": 7126,
      "dd510": 7127,
      "dz89411": 7128,
      "dt85848": 7129,
      "dt85848a": 7130,
      "d118": 7131,
      "d5691": 7132,
      "azoline": 7133,
      "naphazoline": 7134,
      "dipropionate": 7135,
      "dv8389": 7136,
      "d66": 7137,
      "dg409": 7138,
      "d30421": 7139,
      "ok": 7140,
      "aru": 7141,
      "idaru": 7142,
      "d747": 7143,
      "d27501": 7144,
      "d4536": 7145,
      "dd47z1": 7146,
      "lg": 7147,
      "vol": 7148,
      "dg901": 7149,
      "dm43": 7150,
      "dt8619": 7151,
      "dm349": 7152,
      "dt461x5a": 7153,
      "idarubicin": 7154,
      "d20203": 7155,
      "d73314": 7156,
      "dt82855a": 7157,
      "di82891": 7158,
      "dl88": 7159,
      "temo": 7160,
      "d51289": 7161,
      "d339": 7162,
      "dj158": 7163,
      "dy92410": 7164,
      "d51909": 7165,
      "temozolo": 7166,
      "inal": 7167,
      "dr0609": 7168,
      "dz992": 7169,
      "d20010": 7170,
      "d5602": 7171,
      "dk2950": 7172,
      "vaginal": 7173,
      "2220": 7174,
      "d4578": 7175,
      "d5581": 7176,
      "d5964": 7177,
      "dd89810": 7178,
      "dm19012": 7179,
      "537": 7180,
      "ote": 7181,
      "q10": 7182,
      "dr238": 7183,
      "dg510": 7184,
      "d9950": 7185,
      "dh9193": 7186,
      "d3829": 7187,
      "d6869": 7188,
      "d73399": 7189,
      "d68111": 7190,
      "d3804": 7191,
      "dy92538": 7192,
      "temozolomide": 7193,
      "949": 7194,
      "dz171": 7195,
      "d464": 7196,
      "744": 7197,
      "dm2550": 7198,
      "net": 7199,
      "carnet": 7200,
      "thin": 7201,
      "dz881": 7202,
      "foscarnet": 7203,
      "di452": 7204,
      "di701": 7205,
      "dm13": 7206,
      "dz9911": 7207,
      "d9650": 7208,
      "di82c12": 7209,
      "omni": 7210,
      "593": 7211,
      "853": 7212,
      "dm000": 7213,
      "travoprost": 7214,
      "dt383x6a": 7215,
      "dt175": 7216,
      "d00863": 7217,
      "dt4275": 7218,
      "d74190": 7219,
      "dt17590a": 7220,
      "dt4275xa": 7221,
      "531": 7222,
      "tidine": 7223,
      "que": 7224,
      "d654": 7225,
      "dh109": 7226,
      "d7248": 7227,
      "dc774": 7228,
      "df0281": 7229,
      "di82431": 7230,
      "azopt": 7231,
      "df459": 7232,
      "dn280": 7233,
      "dd682": 7234,
      "d7292": 7235,
      "dy849": 7236,
      "d51902": 7237,
      "561": 7238,
      "dm600": 7239,
      "d5690": 7240,
      "dc781": 7241,
      "dc792": 7242,
      "ds0101": 7243,
      "finamide": 7244,
      "d24901": 7245,
      "d3369": 7246,
      "rufinamide": 7247,
      "d1540": 7248,
      "d29624": 7249,
      "di70245": 7250,
      "d73016": 7251,
      "df1911": 7252,
      "pack": 7253,
      "di25810": 7254,
      "norethin": 7255,
      "680": 7256,
      "x2": 7257,
      "paque": 7258,
      "dz205": 7259,
      "dm32": 7260,
      "dd136": 7261,
      "dd123": 7262,
      "dz516": 7263,
      "dy718": 7264,
      "dn920": 7265,
      "omnipaque": 7266,
      "mesartan": 7267,
      "de663": 7268,
      "olmesartan": 7269,
      "dr278": 7270,
      "dd6869": 7271,
      "dt465": 7272,
      "d6271": 7273,
      "triazolam": 7274,
      "d1986": 7275,
      "dk559": 7276,
      "di8250": 7277,
      "dj9503": 7278,
      "dl97219": 7279,
      "d2115": 7280,
      "d2558": 7281,
      "d20285": 7282,
      "d7051": 7283,
      "d04110": 7284,
      "d30751": 7285,
      "norethindrone": 7286,
      "532": 7287,
      "viok": 7288,
      "d1536": 7289,
      "dk819": 7290,
      "dr7309": 7291,
      "d595": 7292,
      "dr93": 7293,
      "di119": 7294,
      "dv653": 7295,
      "dc181": 7296,
      "d5735": 7297,
      "d47831": 7298,
      "d45352": 7299,
      "dd180": 7300,
      "d27787": 7301,
      "db001": 7302,
      "d1982": 7303,
      "544": 7304,
      "dl032": 7305,
      "dr680": 7306,
      "dy738": 7307,
      "d38830": 7308,
      "glass": 7309,
      "d7280": 7310,
      "d1913": 7311,
      "d71598": 7312,
      "dt8141xa": 7313,
      "d28982": 7314,
      "dm5410": 7315,
      "819": 7316,
      "vel": 7317,
      "de81": 7318,
      "dk92": 7319,
      "d4549": 7320,
      "propoxy": 7321,
      "dc8190": 7322,
      "dm5116": 7323,
      "dk2971": 7324,
      "d7944": 7325,
      "dm316": 7326,
      "dk9281": 7327,
      "propoxyphene": 7328,
      "536": 7329,
      "d5401": 7330,
      "d3968": 7331,
      "dr208": 7332,
      "648": 7333,
      "d97": 7334,
      "d5194": 7335,
      "d4257": 7336,
      "tromethamine": 7337,
      "dh6": 7338,
      "dg40901": 7339,
      "d5968": 7340,
      "dm47812": 7341,
      "614": 7342,
      "d7220": 7343,
      "exa": 7344,
      "dd704": 7345,
      "dr2970": 7346,
      "d6954": 7347,
      "dd7582": 7348,
      "535": 7349,
      "d449": 7350,
      "d20278": 7351,
      "dz87310": 7352,
      "dl03032": 7353,
      "flucyt": 7354,
      "4001": 7355,
      "1509": 7356,
      "dc865": 7357,
      "dz1629": 7358,
      "dj95821": 7359,
      "df1421": 7360,
      "ethac": 7361,
      "570": 7362,
      "ctal": 7363,
      "dr97": 7364,
      "990a": 7365,
      "d43819": 7366,
      "dq453": 7367,
      "lamictal": 7368,
      "d33720": 7369,
      "dt17990a": 7370,
      "d4169": 7371,
      "de8801": 7372,
      "dj42": 7373,
      "dt500": 7374,
      "dd761": 7375,
      "d6180": 7376,
      "di2584": 7377,
      "dt45525a": 7378,
      "dk8580": 7379,
      "loxacillin": 7380,
      "d51852": 7381,
      "dv029": 7382,
      "dicloxacillin": 7383,
      "545": 7384,
      "d80702": 7385,
      "dk5731": 7386,
      "4300": 7387,
      "dr190": 7388,
      "dn938": 7389,
      "984": 7390,
      "flucytosine": 7391,
      "d7871": 7392,
      "de9347": 7393,
      "56a": 7394,
      "dq282": 7395,
      "dk828": 7396,
      "d73018": 7397,
      "dm4804": 7398,
      "avu": 7399,
      "log": 7400,
      "isavu": 7401,
      "lenal": 7402,
      "azonium": 7403,
      "gesty": 7404,
      "dm00": 7405,
      "conazonium": 7406,
      "d34292": 7407,
      "di619": 7408,
      "pangesty": 7409,
      "dh04129": 7410,
      "isavuconazonium": 7411,
      "lenalidomide": 7412,
      "stck": 7413,
      "d058": 7414,
      "dr710": 7415,
      "dg621": 7416,
      "d74781": 7417,
      "d0796": 7418,
      "df952": 7419,
      "dy0": 7420,
      "d42741": 7421,
      "d20080": 7422,
      "d29532": 7423,
      "dz1619": 7424,
      "de1135": 7425,
      "533": 7426,
      "nap": 7427,
      "nabu": 7428,
      "999": 7429,
      "metone": 7430,
      "d2599": 7431,
      "ds000": 7432,
      "dc7971": 7433,
      "dc7962": 7434,
      "dj9612": 7435,
      "d47874": 7436,
      "ds2242xa": 7437,
      "de1310": 7438,
      "apap": 7439,
      "nabumetone": 7440,
      "bl": 7441,
      "ranexa": 7442,
      "dk435": 7443,
      "dr4022": 7444,
      "di898": 7445,
      "proben": 7446,
      "d73315": 7447,
      "ecid": 7448,
      "dc719": 7449,
      "dd550": 7450,
      "probenecid": 7451,
      "a2": 7452,
      "buvir": 7453,
      "dv4962": 7454,
      "d85220": 7455,
      "dr5382": 7456,
      "d8910": 7457,
      "581": 7458,
      "d138": 7459,
      "d78442": 7460,
      "dk289": 7461,
      "d1919": 7462,
      "de030": 7463,
      "pangestyme": 7464,
      "sof": 7465,
      "d5409": 7466,
      "d7270": 7467,
      "osbuvir": 7468,
      "dn318": 7469,
      "d30011": 7470,
      "dk759": 7471,
      "sofosbuvir": 7472,
      "543": 7473,
      "d78492": 7474,
      "dg459": 7475,
      "d36210": 7476,
      "534": 7477,
      "d71531": 7478,
      "dt8454": 7479,
      "dy92008": 7480,
      "dt82856a": 7481,
      "8089": 7482,
      "d9916": 7483,
      "dr1030": 7484,
      "di63412": 7485,
      "d42518": 7486,
      "dg40919": 7487,
      "dt391": 7488,
      "ds14": 7489,
      "555": 7490,
      "combo": 7491,
      "darone": 7492,
      "d20198": 7493,
      "d78065": 7494,
      "dd120": 7495,
      "d5183": 7496,
      "d6825": 7497,
      "d9221": 7498,
      "d20921": 7499,
      "di82b12": 7500,
      "dm800": 7501,
      "dr0603": 7502,
      "d27802": 7503,
      "d34551": 7504,
      "d4610": 7505,
      "dh3561": 7506,
      "d05379": 7507,
      "d64823": 7508,
      "dr17": 7509,
      "benicar": 7510,
      "dronedarone": 7511,
      "20a": 7512,
      "2290": 7513,
      "df332": 7514,
      "759": 7515,
      "citra": 7516,
      "92a": 7517,
      "dv1259": 7518,
      "de611": 7519,
      "d53641": 7520,
      "dm25559": 7521,
      "d75169": 7522,
      "575": 7523,
      "598a": 7524,
      "fomycin": 7525,
      "dc170": 7526,
      "throm": 7527,
      "fosfomycin": 7528,
      "istex": 7529,
      "blistex": 7530,
      "d5224": 7531,
      "db2700": 7532,
      "dl97329": 7533,
      "ds066x9a": 7534,
      "d61172": 7535,
      "4600": 7536,
      "dl509": 7537,
      "81xa": 7538,
      "df31": 7539,
      "df09": 7540,
      "d6952": 7541,
      "dd803": 7542,
      "dj84112": 7543,
      "dm26": 7544,
      "d6089": 7545,
      "dk8520": 7546,
      "941": 7547,
      "d5290": 7548,
      "dg609": 7549,
      "d34500": 7550,
      "dw1809": 7551,
      "d0318": 7552,
      "dz85028": 7553,
      "di70222": 7554,
      "d1398": 7555,
      "di82a12": 7556,
      "dw1809xa": 7557,
      "527": 7558,
      "dv145": 7559,
      "di70262": 7560,
      "dd7581": 7561,
      "d38870": 7562,
      "dd680": 7563,
      "dv1062": 7564,
      "dv6142": 7565,
      "d99933": 7566,
      "dh5500": 7567,
      "dr297": 7568,
      "dc7b8": 7569,
      "dy90": 7570,
      "d1588": 7571,
      "d1715": 7572,
      "pali": 7573,
      "micort": 7574,
      "de83111": 7575,
      "d7931": 7576,
      "dz89432": 7577,
      "pulmicort": 7578,
      "546": 7579,
      "556": 7580,
      "dt464": 7581,
      "dk621": 7582,
      "dv652": 7583,
      "df0391": 7584,
      "dt85698a": 7585,
      "viokase": 7586,
      "thrombin": 7587,
      "589": 7588,
      "554": 7589,
      "dc0": 7590,
      "d0310": 7591,
      "dm941": 7592,
      "lutamide": 7593,
      "d2112": 7594,
      "d789": 7595,
      "dt79": 7596,
      "dh93": 7597,
      "dt8781": 7598,
      "d3689": 7599,
      "da0811": 7600,
      "d55329": 7601,
      "aton": 7602,
      "30a": 7603,
      "d3799": 7604,
      "melaton": 7605,
      "d8200": 7606,
      "da4102": 7607,
      "dm48062": 7608,
      "dt504x5a": 7609,
      "ds0101xa": 7610,
      "ds0003xa": 7611,
      "melatonin": 7612,
      "dm899": 7613,
      "d3480": 7614,
      "dc711": 7615,
      "dc8319": 7616,
      "dm4624": 7617,
      "dm79671": 7618,
      "d64813": 7619,
      "di82a11": 7620,
      "d481": 7621,
      "dt87": 7622,
      "d30591": 7623,
      "d1119": 7624,
      "bica": 7625,
      "vira": 7626,
      "dk112": 7627,
      "dr54": 7628,
      "dv5831": 7629,
      "dc155": 7630,
      "dk633": 7631,
      "dk56690": 7632,
      "552": 7633,
      "dt403": 7634,
      "d99830": 7635,
      "dc712": 7636,
      "d41512": 7637,
      "d3180": 7638,
      "dj209": 7639,
      "d53082": 7640,
      "d68100": 7641,
      "d81200": 7642,
      "d44481": 7643,
      "d7222": 7644,
      "dg252": 7645,
      "d53011": 7646,
      "141a": 7647,
      "d8080": 7648,
      "d825": 7649,
      "d42682": 7650,
      "dj9383": 7651,
      "40240": 7652,
      "d446": 7653,
      "df40240": 7654,
      "dc252": 7655,
      "d0419": 7656,
      "db348": 7657,
      "dz96611": 7658,
      "dr5084": 7659,
      "dk430": 7660,
      "dt8454xa": 7661,
      "d20700": 7662,
      "811a": 7663,
      "de0965": 7664,
      "d53541": 7665,
      "dq059": 7666,
      "619": 7667,
      "intub": 7668,
      "d3159": 7669,
      "di615": 7670,
      "dw07": 7671,
      "d5960": 7672,
      "dc8310": 7673,
      "dt464x5a": 7674,
      "d1108": 7675,
      "d4380": 7676,
      "dt801": 7677,
      "d30021": 7678,
      "dh47": 7679,
      "di2690": 7680,
      "dz430": 7681,
      "dc3491": 7682,
      "lote": 7683,
      "moterol": 7684,
      "dg251": 7685,
      "dv8544": 7686,
      "d34291": 7687,
      "dz85841": 7688,
      "df064": 7689,
      "d5961": 7690,
      "d8024": 7691,
      "dt85598a": 7692,
      "518a": 7693,
      "dm878": 7694,
      "d27903": 7695,
      "dv425": 7696,
      "formoterol": 7697,
      "dz628": 7698,
      "d3393": 7699,
      "d6828": 7700,
      "d80502": 7701,
      "d8248": 7702,
      "di972": 7703,
      "pag": 7704,
      "dl821": 7705,
      "dm160": 7706,
      "142a": 7707,
      "149xa": 7708,
      "dt8149xa": 7709,
      "dm62830": 7710,
      "dl52": 7711,
      "di491": 7712,
      "di352": 7713,
      "d283": 7714,
      "dj80": 7715,
      "d78905": 7716,
      "dr312": 7717,
      "dc8299": 7718,
      "d8056": 7719,
      "547": 7720,
      "d7212": 7721,
      "dr221": 7722,
      "1xa": 7723,
      "5400": 7724,
      "d466": 7725,
      "dk220": 7726,
      "d1729": 7727,
      "dy92099": 7728,
      "571": 7729,
      "midex": 7730,
      "di4901": 7731,
      "d04182": 7732,
      "arimidex": 7733,
      "d71699": 7734,
      "dt8586": 7735,
      "dz1622": 7736,
      "de1069": 7737,
      "acam": 7738,
      "mopla": 7739,
      "d363": 7740,
      "prosate": 7741,
      "clomipramine": 7742,
      "dermopla": 7743,
      "d71430": 7744,
      "d59582": 7745,
      "acamprosate": 7746,
      "dermoplast": 7747,
      "553": 7748,
      "kali": 7749,
      "prolide": 7750,
      "d57490": 7751,
      "d35781": 7752,
      "dv4973": 7753,
      "d1534": 7754,
      "d68601": 7755,
      "dt826": 7756,
      "eskali": 7757,
      "leuprolide": 7758,
      "d71101": 7759,
      "eskalith": 7760,
      "avap": 7761,
      "dt373": 7762,
      "d99639": 7763,
      "dc8529": 7764,
      "d32381": 7765,
      "dt465x5a": 7766,
      "avapro": 7767,
      "aug": 7768,
      "red": 7769,
      "d5100": 7770,
      "d7226": 7771,
      "dc381": 7772,
      "ethyl": 7773,
      "de784": 7774,
      "rivastigmine": 7775,
      "dr0981": 7776,
      "de956": 7777,
      "augment": 7778,
      "dl308": 7779,
      "dk13": 7780,
      "d5306": 7781,
      "d71589": 7782,
      "dm5440": 7783,
      "di2109": 7784,
      "dh53462": 7785,
      "d36840": 7786,
      "d293": 7787,
      "dk37": 7788,
      "valerate": 7789,
      "d9953": 7790,
      "666": 7791,
      "d29640": 7792,
      "di5189": 7793,
      "de9351": 7794,
      "dt8789": 7795,
      "benazep": 7796,
      "dh5441": 7797,
      "dh5462": 7798,
      "benazepril": 7799,
      "4800": 7800,
      "d366": 7801,
      "d7224": 7802,
      "d78094": 7803,
      "ds37": 7804,
      "d4422": 7805,
      "d41091": 7806,
      "dm6284": 7807,
      "di82b11": 7808,
      "dw07xxxa": 7809,
      "dt801xxa": 7810,
      "567": 7811,
      "ae": 7812,
      "mato": 7813,
      "bimato": 7814,
      "d7149": 7815,
      "dg470": 7816,
      "dc55": 7817,
      "ticaria": 7818,
      "urticaria": 7819,
      "d71943": 7820,
      "dr440": 7821,
      "dj386": 7822,
      "dt85898": 7823,
      "dv1509": 7824,
      "bimatoprost": 7825,
      "dg4709": 7826,
      "dt85898a": 7827,
      "yphenid": 7828,
      "di213": 7829,
      "dk95": 7830,
      "trihex": 7831,
      "d7089": 7832,
      "d30029": 7833,
      "da6000": 7834,
      "dc7911": 7835,
      "dl089": 7836,
      "d70706": 7837,
      "dl930": 7838,
      "d28260": 7839,
      "yphenidyl": 7840,
      "trihexyphenidyl": 7841,
      "dr222": 7842,
      "d33811": 7843,
      "dc8298": 7844,
      "dj471": 7845,
      "dt432": 7846,
      "d92400": 7847,
      "d27502": 7848,
      "d30471": 7849,
      "dy92231": 7850,
      "d71940": 7851,
      "df1510": 7852,
      "d46619": 7853,
      "db377": 7854,
      "dz510": 7855,
      "dg43809": 7856,
      "d1809": 7857,
      "nevira": 7858,
      "d738": 7859,
      "d2710": 7860,
      "methy": 7861,
      "ced": 7862,
      "dc81": 7863,
      "644": 7864,
      "d75310": 7865,
      "paliperidone": 7866,
      "nevirapine": 7867,
      "de8810": 7868,
      "31a": 7869,
      "dm79606": 7870,
      "dm25571": 7871,
      "de11628": 7872,
      "dg912": 7873,
      "ered": 7874,
      "tec": 7875,
      "29a": 7876,
      "rutinib": 7877,
      "dg360": 7878,
      "dg442": 7879,
      "ffered": 7880,
      "buffered": 7881,
      "linze": 7882,
      "de9299": 7883,
      "d3536": 7884,
      "de9315": 7885,
      "d2651": 7886,
      "d5989": 7887,
      "di82413": 7888,
      "d57510": 7889,
      "dj0410": 7890,
      "di824z1": 7891,
      "dt826xxa": 7892,
      "dg44229": 7893,
      "linzess": 7894,
      "880": 7895,
      "dk120": 7896,
      "d4590": 7897,
      "d3542": 7898,
      "d3543": 7899,
      "inib": 7900,
      "dh0100": 7901,
      "dn736": 7902,
      "d9160": 7903,
      "galan": 7904,
      "dz0": 7905,
      "86xxa": 7906,
      "dm87": 7907,
      "dt886xxa": 7908,
      "azelastine": 7909,
      "dz89412": 7910,
      "dk8030": 7911,
      "d20979": 7912,
      "d44629": 7913,
      "dz8612": 7914,
      "di259": 7915,
      "dk519": 7916,
      "dd135": 7917,
      "557": 7918,
      "d3699": 7919,
      "dk9171": 7920,
      "d20048": 7921,
      "pyrimethamine": 7922,
      "dh02401": 7923,
      "dt8743": 7924,
      "569": 7925,
      "hep": 7926,
      "d5848": 7927,
      "dm60": 7928,
      "linide": 7929,
      "d1572": 7930,
      "d1624": 7931,
      "d99590": 7932,
      "d37851": 7933,
      "combigan": 7934,
      "brinzolamide": 7935,
      "galantamine": 7936,
      "598": 7937,
      "629": 7938,
      "d58089": 7939,
      "df602": 7940,
      "dj208": 7941,
      "df323": 7942,
      "d73311": 7943,
      "di70202": 7944,
      "dd571": 7945,
      "623": 7946,
      "d812": 7947,
      "dk658": 7948,
      "de8502": 7949,
      "d5521": 7950,
      "d43311": 7951,
      "dz1639": 7952,
      "rynic": 7953,
      "ethacrynic": 7954,
      "dk9589": 7955,
      "dl120": 7956,
      "agil": 7957,
      "dz86000": 7958,
      "dz8669": 7959,
      "d56984": 7960,
      "d42841": 7961,
      "d71591": 7962,
      "d72403": 7963,
      "rasagil": 7964,
      "559": 7965,
      "563": 7966,
      "de00": 7967,
      "prohep": 7968,
      "944": 7969,
      "dz8544": 7970,
      "cyprohep": 7971,
      "tocin": 7972,
      "d6983": 7973,
      "d29284": 7974,
      "oxytocin": 7975,
      "dc8591": 7976,
      "di70261": 7977,
      "d5754": 7978,
      "d61801": 7979,
      "cyproheptadine": 7980,
      "585": 7981,
      "ara": 7982,
      "dz832": 7983,
      "dg04": 7984,
      "dt378": 7985,
      "4280": 7986,
      "4803": 7987,
      "dj0190": 7988,
      "dc4922": 7989,
      "dt378x5a": 7990,
      "566": 7991,
      "inter": 7992,
      "dl500": 7993,
      "dm818": 7994,
      "di427": 7995,
      "ds300": 7996,
      "dh000": 7997,
      "dk8301": 7998,
      "d5935": 7999,
      "loading": 8000,
      "d33912": 8001,
      "568": 8002,
      "fu": 8003,
      "ralox": 8004,
      "d52": 8005,
      "d3129": 8006,
      "752": 8007,
      "dm96": 8008,
      "dv1252": 8009,
      "dr4702": 8010,
      "d2862": 8011,
      "raloxifene": 8012,
      "uda": 8013,
      "d78939": 8014,
      "3989": 8015,
      "latuda": 8016,
      "d48284": 8017,
      "dt85528": 8018,
      "d9348": 8019,
      "dv1508": 8020,
      "d75982": 8021,
      "dt85528a": 8022,
      "551": 8023,
      "565": 8024,
      "d27901": 8025,
      "d40290": 8026,
      "52a": 8027,
      "de9318": 8028,
      "dh540": 8029,
      "dk5010": 8030,
      "dn760": 8031,
      "558": 8032,
      "622": 8033,
      "d4474": 8034,
      "d2690": 8035,
      "dv1652": 8036,
      "dv1389": 8037,
      "dt500x5a": 8038,
      "639": 8039,
      "dk35": 8040,
      "d6111": 8041,
      "d78050": 8042,
      "d3570": 8043,
      "de1110": 8044,
      "dz9013": 8045,
      "di2729": 8046,
      "ibrutinib": 8047,
      "d34989": 8048,
      "dm898x9": 8049,
      "jan": 8050,
      "bisoprolol": 8051,
      "dz89431": 8052,
      "d37950": 8053,
      "carbazine": 8054,
      "dc90": 8055,
      "d0383": 8056,
      "d945": 8057,
      "dj679": 8058,
      "d47830": 8059,
      "dm86171": 8060,
      "dh02402": 8061,
      "dt373x5a": 8062,
      "rasagiline": 8063,
      "562": 8064,
      "df70": 8065,
      "dn3000": 8066,
      "dg97": 8067,
      "dj392": 8068,
      "d017": 8069,
      "dh438": 8070,
      "dk316": 8071,
      "vision": 8072,
      "dc3402": 8073,
      "stri": 8074,
      "repag": 8075,
      "dk851": 8076,
      "d2511": 8077,
      "d44101": 8078,
      "d6945": 8079,
      "d56971": 8080,
      "dz86011": 8081,
      "di517": 8082,
      "d71230": 8083,
      "repaglinide": 8084,
      "841": 8085,
      "fem": 8086,
      "dv602": 8087,
      "d4258": 8088,
      "dh60": 8089,
      "d1548": 8090,
      "dw108": 8091,
      "dl89159": 8092,
      "dh5442": 8093,
      "quinidine": 8094,
      "d37300": 8095,
      "ds066x0a": 8096,
      "ethylsuccinate": 8097,
      "d2900": 8098,
      "dr4189": 8099,
      "d4378": 8100,
      "dk50014": 8101,
      "d52340": 8102,
      "710": 8103,
      "dv892": 8104,
      "51a": 8105,
      "dc228": 8106,
      "dz882": 8107,
      "ds24": 8108,
      "volu": 8109,
      "232xa": 8110,
      "dr402362": 8111,
      "d96509": 8112,
      "bitartrate": 8113,
      "bild": 8114,
      "dn838": 8115,
      "d6850": 8116,
      "d3482": 8117,
      "dt428": 8118,
      "dx58xxxs": 8119,
      "dm4646": 8120,
      "dr4021": 8121,
      "di824z3": 8122,
      "stribild": 8123,
      "dv5489": 8124,
      "dc180": 8125,
      "db44": 8126,
      "dd599": 8127,
      "dk436": 8128,
      "dj15212": 8129,
      "dt39395a": 8130,
      "dz22322": 8131,
      "ds300xxa": 8132,
      "bul": 8133,
      "d6181": 8134,
      "dv1069": 8135,
      "dc9111": 8136,
      "dh539": 8137,
      "dm879": 8138,
      "d64313": 8139,
      "588": 8140,
      "d2777": 8141,
      "d659": 8142,
      "d30420": 8143,
      "d20158": 8144,
      "d56961": 8145,
      "dz906": 8146,
      "rilpi": 8147,
      "dt82897": 8148,
      "dc8373": 8149,
      "dg720": 8150,
      "ds72142a": 8151,
      "582": 8152,
      "572": 8153,
      "626": 8154,
      "d53989": 8155,
      "d53021": 8156,
      "d53084": 8157,
      "de9298": 8158,
      "4902": 8159,
      "db351": 8160,
      "d52109": 8161,
      "564": 8162,
      "d20800": 8163,
      "db369": 8164,
      "db356": 8165,
      "di827": 8166,
      "d34570": 8167,
      "dl03221": 8168,
      "dg9589": 8169,
      "dk50914": 8170,
      "d78930": 8171,
      "aerogen": 8172,
      "rilpivirine": 8173,
      "yramide": 8174,
      "opyramide": 8175,
      "d237": 8176,
      "dk420": 8177,
      "disopyramide": 8178,
      "dz9010": 8179,
      "dj9589": 8180,
      "dg546": 8181,
      "di2119": 8182,
      "dinium": 8183,
      "596": 8184,
      "804": 8185,
      "d2890": 8186,
      "3481": 8187,
      "d33821": 8188,
      "d2682": 8189,
      "de1139": 8190,
      "dd860": 8191,
      "dk909": 8192,
      "d2798": 8193,
      "d2849": 8194,
      "69xa": 8195,
      "dt178": 8196,
      "dk5100": 8197,
      "d1520": 8198,
      "dv072": 8199,
      "d69282": 8200,
      "d20023": 8201,
      "dt412": 8202,
      "d59960": 8203,
      "go": 8204,
      "d7131": 8205,
      "dr160": 8206,
      "dn181": 8207,
      "dj181": 8208,
      "dj3489": 8209,
      "dz7951": 8210,
      "de0781": 8211,
      "d28951": 8212,
      "dw011": 8213,
      "exelon": 8214,
      "dg500": 8215,
      "d79093": 8216,
      "d99652": 8217,
      "di635": 8218,
      "dr443": 8219,
      "d59969": 8220,
      "dc8513": 8221,
      "d75312": 8222,
      "577": 8223,
      "ilus": 8224,
      "d226": 8225,
      "ophilus": 8226,
      "preservision": 8227,
      "d34489": 8228,
      "d82009": 8229,
      "1789": 8230,
      "6400": 8231,
      "d99687": 8232,
      "de9179": 8233,
      "d0479": 8234,
      "di776": 8235,
      "d44029": 8236,
      "d923": 8237,
      "dt82897a": 8238,
      "dt41295a": 8239,
      "fam": 8240,
      "kep": 8241,
      "zen": 8242,
      "1211": 8243,
      "rafenib": 8244,
      "d2808": 8245,
      "d2732": 8246,
      "d57491": 8247,
      "d99809": 8248,
      "ds800": 8249,
      "dg8928": 8250,
      "dj0100": 8251,
      "dl03031": 8252,
      "dc50111": 8253,
      "574": 8254,
      "dv136": 8255,
      "d3898": 8256,
      "82xa": 8257,
      "dc93": 8258,
      "dc253": 8259,
      "d56200": 8260,
      "dm25572": 8261,
      "d1716": 8262,
      "dl97319": 8263,
      "di97638": 8264,
      "keppra": 8265,
      "5250": 8266,
      "32a": 8267,
      "d30423": 8268,
      "dv4574": 8269,
      "di82441": 8270,
      "d47829": 8271,
      "dj95812": 8272,
      "di978": 8273,
      "dr9720": 8274,
      "methylene": 8275,
      "576": 8276,
      "573": 8277,
      "d5839": 8278,
      "d09": 8279,
      "di6782": 8280,
      "dk668": 8281,
      "dh5702": 8282,
      "dd46c": 8283,
      "uvi": 8284,
      "dz1509": 8285,
      "d34700": 8286,
      "d99631": 8287,
      "d1569": 8288,
      "d30540": 8289,
      "dt380x5d": 8290,
      "dy733": 8291,
      "d75683": 8292,
      "atment": 8293,
      "gamox": 8294,
      "vigamox": 8295,
      "dc218": 8296,
      "nsr": 8297,
      "treatment": 8298,
      "d41011": 8299,
      "dm5417": 8300,
      "d3940": 8301,
      "d73819": 8302,
      "d746": 8303,
      "dr220": 8304,
      "d2518": 8305,
      "serum": 8306,
      "d70901": 8307,
      "d1518": 8308,
      "dk700": 8309,
      "dd1803": 8310,
      "591": 8311,
      "tetrac": 8312,
      "dj13": 8313,
      "dm750": 8314,
      "dt859": 8315,
      "d99881": 8316,
      "dw1789": 8317,
      "dv6409": 8318,
      "d5851": 8319,
      "d9130": 8320,
      "dk8010": 8321,
      "d9093": 8322,
      "dz8379": 8323,
      "dk56699": 8324,
      "dm5030": 8325,
      "dh8109": 8326,
      "augmented": 8327,
      "tetracycline": 8328,
      "dt859xxa": 8329,
      "19a": 8330,
      "lipos": 8331,
      "16a": 8332,
      "866": 8333,
      "d56789": 8334,
      "d25090": 8335,
      "di6789": 8336,
      "d8404": 8337,
      "d42511": 8338,
      "d05881": 8339,
      "dt403x5a": 8340,
      "df9": 8341,
      "novol": 8342,
      "db9629": 8343,
      "dj9509": 8344,
      "dr760": 8345,
      "dc7a1": 8346,
      "d33399": 8347,
      "d55092": 8348,
      "novolin": 8349,
      "578": 8350,
      "d173": 8351,
      "inj": 8352,
      "atol": 8353,
      "dm3489": 8354,
      "dr599": 8355,
      "d1726": 8356,
      "ingococcal": 8357,
      "d39891": 8358,
      "meningococcal": 8359,
      "ds72141a": 8360,
      "de8842": 8361,
      "dr402142": 8362,
      "d81342": 8363,
      "613": 8364,
      "d78491": 8365,
      "dc40": 8366,
      "dc241": 8367,
      "d20150": 8368,
      "d20192": 8369,
      "d3574": 8370,
      "feron": 8371,
      "dv1651": 8372,
      "dr530": 8373,
      "d8020": 8374,
      "d79439": 8375,
      "dy712": 8376,
      "dm7122": 8377,
      "de8849": 8378,
      "dm25461": 8379,
      "d92410": 8380,
      "d04101": 8381,
      "d2781": 8382,
      "d99678": 8383,
      "5700": 8384,
      "d2863": 8385,
      "d64843": 8386,
      "dg834": 8387,
      "dm86672": 8388,
      "tiro": 8389,
      "d2740": 8390,
      "dv5882": 8391,
      "dj150": 8392,
      "84xa": 8393,
      "d45189": 8394,
      "da630": 8395,
      "dz86018": 8396,
      "dr3911": 8397,
      "d36813": 8398,
      "dh4010": 8399,
      "740": 8400,
      "trand": 8401,
      "10000": 8402,
      "olapril": 8403,
      "dr102": 8404,
      "dc154": 8405,
      "34a": 8406,
      "d7530": 8407,
      "dr6881": 8408,
      "dn5089": 8409,
      "volumen": 8410,
      "bulk": 8411,
      "trandolapril": 8412,
      "de60": 8413,
      "d3240": 8414,
      "d3361": 8415,
      "d4279": 8416,
      "dc8336": 8417,
      "d48282": 8418,
      "de10620": 8419,
      "d22809": 8420,
      "dc9030": 8421,
      "mt": 8422,
      "004": 8423,
      "d5198": 8424,
      "d7822": 8425,
      "d0463": 8426,
      "de0299": 8427,
      "dh57": 8428,
      "dj470": 8429,
      "de9424": 8430,
      "d72271": 8431,
      "708": 8432,
      "df458": 8433,
      "cyclopen": 8434,
      "dl0211": 8435,
      "tolate": 8436,
      "dg540": 8437,
      "bicalutamide": 8438,
      "cyclopentolate": 8439,
      "595": 8440,
      "633": 8441,
      "1810": 8442,
      "d1589": 8443,
      "db958": 8444,
      "di2722": 8445,
      "dh5347": 8446,
      "d51631": 8447,
      "d7265": 8448,
      "864": 8449,
      "pep": 8450,
      "143xa": 8451,
      "dk5650": 8452,
      "d07051": 8453,
      "dt8143xa": 8454,
      "dk623": 8455,
      "dk2920": 8456,
      "dz91041": 8457,
      "7000": 8458,
      "d5277": 8459,
      "d53013": 8460,
      "dk55021": 8461,
      "d72705": 8462,
      "d2114": 8463,
      "dk121": 8464,
      "dv5881": 8465,
      "di082": 8466,
      "d5941": 8467,
      "df1920": 8468,
      "dw108xxa": 8469,
      "lotinib": 8470,
      "do26": 8471,
      "ett": 8472,
      "dacarbazine": 8473,
      "d33119": 8474,
      "dv8401": 8475,
      "dk469": 8476,
      "d57512": 8477,
      "d37921": 8478,
      "dt82330a": 8479,
      "dy908": 8480,
      "use": 8481,
      "1011": 8482,
      "micr": 8483,
      "stin": 8484,
      "793": 8485,
      "d2550": 8486,
      "dd1809": 8487,
      "dm726": 8488,
      "587": 8489,
      "842": 8490,
      "dd27": 8491,
      "dz8509": 8492,
      "d7061": 8493,
      "d3668": 8494,
      "d53520": 8495,
      "df4312": 8496,
      "d41513": 8497,
      "d59389": 8498,
      "di519": 8499,
      "dc495": 8500,
      "flo": 8501,
      "d27949": 8502,
      "prena": 8503,
      "d53012": 8504,
      "dv1529": 8505,
      "dz91410": 8506,
      "dt8744": 8507,
      "dm79a": 8508,
      "dj9620": 8509,
      "d1769": 8510,
      "d1504": 8511,
      "d36510": 8512,
      "dt383x5a": 8513,
      "di97618": 8514,
      "d28240": 8515,
      "de0010": 8516,
      "dn809": 8517,
      "dn178": 8518,
      "d1973": 8519,
      "dv053": 8520,
      "di7103": 8521,
      "dm79601": 8522,
      "de9460": 8523,
      "ds0240": 8524,
      "dd89812": 8525,
      "dv1859": 8526,
      "df3181": 8527,
      "5500": 8528,
      "5800": 8529,
      "nu": 8530,
      "597": 8531,
      "dr062": 8532,
      "dk9130": 8533,
      "dm25532": 8534,
      "bleomycin": 8535,
      "fiban": 8536,
      "de10610": 8537,
      "benzoyl": 8538,
      "de113599": 8539,
      "tirofiban": 8540,
      "rudin": 8541,
      "dn63": 8542,
      "de9391": 8543,
      "dv0251": 8544,
      "dd471": 8545,
      "d78721": 8546,
      "dd561": 8547,
      "fosam": 8548,
      "dh5461": 8549,
      "584": 8550,
      "d7836": 8551,
      "d7010": 8552,
      "d7515": 8553,
      "brady": 8554,
      "dl02416": 8555,
      "6300": 8556,
      "d5181": 8557,
      "d757": 8558,
      "dn990": 8559,
      "propyl": 8560,
      "d73316": 8561,
      "aspa": 8562,
      "d6923": 8563,
      "dl738": 8564,
      "dm4628": 8565,
      "di69954": 8566,
      "d1500": 8567,
      "d2271": 8568,
      "dr232": 8569,
      "dt78": 8570,
      "d2538": 8571,
      "d20213": 8572,
      "di82220": 8573,
      "di6201": 8574,
      "d23874": 8575,
      "dq909": 8576,
      "dt50z": 8577,
      "di63411": 8578,
      "dh4010x0": 8579,
      "prenavir": 8580,
      "fosamprenavir": 8581,
      "649": 8582,
      "ent": 8583,
      "bicitra": 8584,
      "dg14": 8585,
      "d1918": 8586,
      "d99527": 8587,
      "ds0181": 8588,
      "dk9429": 8589,
      "df1590": 8590,
      "dz62810": 8591,
      "db4481": 8592,
      "de278": 8593,
      "rev": 8594,
      "actra": 8595,
      "d5600": 8596,
      "dv198": 8597,
      "d27700": 8598,
      "d683": 8599,
      "d30410": 8600,
      "d2097": 8601,
      "130xa": 8602,
      "mara": 8603,
      "d99686": 8604,
      "d3330": 8605,
      "dt8130xa": 8606,
      "dc8198": 8607,
      "de8532": 8608,
      "dt8182xa": 8609,
      "menactra": 8610,
      "dm4712": 8611,
      "bradycardia": 8612,
      "dm24": 8613,
      "d78842": 8614,
      "d3698": 8615,
      "dd3502": 8616,
      "umecli": 8617,
      "heart": 8618,
      "656": 8619,
      "d7093": 8620,
      "dz85810": 8621,
      "dt82838a": 8622,
      "de7401": 8623,
      "d9654": 8624,
      "dt85638a": 8625,
      "umeclidinium": 8626,
      "1440": 8627,
      "viroc": 8628,
      "dr351": 8629,
      "dc481": 8630,
      "de8493": 8631,
      "dj986": 8632,
      "dz85819": 8633,
      "d5933": 8634,
      "dy92031": 8635,
      "d22802": 8636,
      "maraviroc": 8637,
      "d9181": 8638,
      "dl709": 8639,
      "d5110": 8640,
      "dc62": 8641,
      "dt8609": 8642,
      "dv6285": 8643,
      "pancrease": 8644,
      "dn2581": 8645,
      "blastine": 8646,
      "pas": 8647,
      "sed": 8648,
      "dc163": 8649,
      "d28481": 8650,
      "d2638": 8651,
      "db1921": 8652,
      "vinblastine": 8653,
      "d43884": 8654,
      "dk5710": 8655,
      "dh9192": 8656,
      "dw050": 8657,
      "dg908": 8658,
      "5100": 8659,
      "odol": 8660,
      "50a": 8661,
      "d6260": 8662,
      "dd6941": 8663,
      "dt82": 8664,
      "d20301": 8665,
      "di426": 8666,
      "dm79602": 8667,
      "d4386": 8668,
      "d99779": 8669,
      "d60789": 8670,
      "d4612": 8671,
      "dc649": 8672,
      "dj020": 8673,
      "d72292": 8674,
      "dc3401": 8675,
      "otecan": 8676,
      "dm6008": 8677,
      "624": 8678,
      "675": 8679,
      "metidine": 8680,
      "de969": 8681,
      "ledi": 8682,
      "dk811": 8683,
      "cimetidine": 8684,
      "dc412": 8685,
      "dm65": 8686,
      "ds60": 8687,
      "de049": 8688,
      "d5538": 8689,
      "dm4807": 8690,
      "d52462": 8691,
      "pasvir": 8692,
      "ledipasvir": 8693,
      "6500": 8694,
      "haler": 8695,
      "dl209": 8696,
      "lura": 8697,
      "di609": 8698,
      "4900": 8699,
      "dm009": 8700,
      "219a": 8701,
      "di70221": 8702,
      "dk8031": 8703,
      "dx959": 8704,
      "lurasidone": 8705,
      "636": 8706,
      "dr829": 8707,
      "dm85": 8708,
      "d73341": 8709,
      "dr4024": 8710,
      "ilu": 8711,
      "d72211": 8712,
      "dg96": 8713,
      "failu": 8714,
      "dj09": 8715,
      "db91": 8716,
      "valtrex": 8717,
      "dv0262": 8718,
      "dm461": 8719,
      "d37924": 8720,
      "d1272": 8721,
      "dm40209": 8722,
      "dr402112": 8723,
      "failure": 8724,
      "586": 8725,
      "d2182": 8726,
      "d335": 8727,
      "dk603": 8728,
      "966": 8729,
      "d2537": 8730,
      "8889": 8731,
      "d3319": 8732,
      "dr402252": 8733,
      "di82c22": 8734,
      "ds0181xa": 8735,
      "690": 8736,
      "dv861": 8737,
      "de8843": 8738,
      "dn184": 8739,
      "dc802": 8740,
      "d30470": 8741,
      "di5084": 8742,
      "dd128": 8743,
      "d1552": 8744,
      "d1129": 8745,
      "dt486": 8746,
      "atripla": 8747,
      "dg3109": 8748,
      "dl03211": 8749,
      "dw1789xa": 8750,
      "d2823": 8751,
      "dv1242": 8752,
      "dz85831": 8753,
      "ds5250": 8754,
      "dk51011": 8755,
      "ds0081xa": 8756,
      "d64683": 8757,
      "dz01810": 8758,
      "zosin": 8759,
      "alfu": 8760,
      "14a": 8761,
      "dk51": 8762,
      "dc9001": 8763,
      "d20530": 8764,
      "db440": 8765,
      "d4519": 8766,
      "dc8598": 8767,
      "dt45516a": 8768,
      "d8600": 8769,
      "dc4921": 8770,
      "dg904": 8771,
      "dc9310": 8772,
      "alfuzosin": 8773,
      "645": 8774,
      "760": 8775,
      "gam": 8776,
      "40xa": 8777,
      "d2396": 8778,
      "dv9": 8779,
      "d78469": 8780,
      "d6144": 8781,
      "dt66": 8782,
      "dj4551": 8783,
      "dc8335": 8784,
      "d30522": 8785,
      "quinine": 8786,
      "dl02214": 8787,
      "ds2232xa": 8788,
      "d75612": 8789,
      "dm75102": 8790,
      "dm3214": 8791,
      "famciclovir": 8792,
      "revli": 8793,
      "960": 8794,
      "di998": 8795,
      "d370": 8796,
      "d78838": 8797,
      "d27702": 8798,
      "dn508": 8799,
      "d7015": 8800,
      "d1619": 8801,
      "d9054": 8802,
      "dm1710": 8803,
      "ds2231": 8804,
      "d65103": 8805,
      "d46410": 8806,
      "615": 8807,
      "641": 8808,
      "irin": 8809,
      "chal": 8810,
      "d220": 8811,
      "dj45998": 8812,
      "graded": 8813,
      "dk8500": 8814,
      "d1725": 8815,
      "d8130": 8816,
      "di70213": 8817,
      "dc8370": 8818,
      "d44329": 8819,
      "d72751": 8820,
      "lenge": 8821,
      "dt428x5a": 8822,
      "dv9103": 8823,
      "revlimid": 8824,
      "irinotecan": 8825,
      "challenge": 8826,
      "2c": 8827,
      "790": 8828,
      "omal": 8829,
      "26mg": 8830,
      "db950": 8831,
      "d4530": 8832,
      "dl97521": 8833,
      "dk9422": 8834,
      "d72633": 8835,
      "d36230": 8836,
      "liposomal": 8837,
      "617": 8838,
      "paced": 8839,
      "istin": 8840,
      "copa": 8841,
      "do9": 8842,
      "24mg": 8843,
      "dg959": 8844,
      "colistin": 8845,
      "d70219": 8846,
      "ds3": 8847,
      "de9354": 8848,
      "d4460": 8849,
      "d1640": 8850,
      "dj988": 8851,
      "d9089": 8852,
      "d73025": 8853,
      "dg910": 8854,
      "d44389": 8855,
      "ds724": 8856,
      "femara": 8857,
      "dw050xxa": 8858,
      "dr8299": 8859,
      "coq10": 8860,
      "dr358": 8861,
      "emophilus": 8862,
      "de9503": 8863,
      "d25071": 8864,
      "haemophilus": 8865,
      "de9443": 8866,
      "di499": 8867,
      "d1503": 8868,
      "d38612": 8869,
      "di82511": 8870,
      "di77810": 8871,
      "dt17890a": 8872,
      "isopr": 8873,
      "carisopr": 8874,
      "d7861": 8875,
      "de8120": 8876,
      "salt": 8877,
      "d7092": 8878,
      "d5523": 8879,
      "dg610": 8880,
      "conjugate": 8881,
      "d32382": 8882,
      "carisoprodol": 8883,
      "lera": 8884,
      "di158": 8885,
      "d4149": 8886,
      "dr58": 8887,
      "df54": 8888,
      "enzy": 8889,
      "dg63": 8890,
      "dm250": 8891,
      "d08881": 8892,
      "dz751": 8893,
      "balsal": 8894,
      "d4918": 8895,
      "tenofov": 8896,
      "d5081": 8897,
      "d29592": 8898,
      "d1175": 8899,
      "do9989": 8900,
      "d29041": 8901,
      "dm84454": 8902,
      "d29900": 8903,
      "aclo": 8904,
      "8281": 8905,
      "dc43": 8906,
      "694": 8907,
      "dk562": 8908,
      "dt471": 8909,
      "d81000": 8910,
      "dk8521": 8911,
      "dm4622": 8912,
      "dg060": 8913,
      "6200": 8914,
      "d2443": 8915,
      "d7227": 8916,
      "methazol": 8917,
      "df3289": 8918,
      "d23872": 8919,
      "emtricit": 8920,
      "de10622": 8921,
      "d45387": 8922,
      "df5104": 8923,
      "dm8008xa": 8924,
      "methazolamide": 8925,
      "618": 8926,
      "sele": 8927,
      "teri": 8928,
      "d4131": 8929,
      "d3239": 8930,
      "dn329": 8931,
      "d99601": 8932,
      "de079": 8933,
      "dt8142": 8934,
      "d1369": 8935,
      "dr6884": 8936,
      "ds3210": 8937,
      "dr402212": 8938,
      "635": 8939,
      "sorbi": 8940,
      "d4801": 8941,
      "ds069": 8942,
      "d2699": 8943,
      "dc710": 8944,
      "d59659": 8945,
      "402a": 8946,
      "dt82857": 8947,
      "d34931": 8948,
      "di70209": 8949,
      "di82401": 8950,
      "sorbitol": 8951,
      "irudin": 8952,
      "trim": 8953,
      "bival": 8954,
      "dn951": 8955,
      "dg312": 8956,
      "dj4550": 8957,
      "d99676": 8958,
      "d41092": 8959,
      "velban": 8960,
      "dt8586xa": 8961,
      "bivalirudin": 8962,
      "gum": 8963,
      "de891": 8964,
      "ogel": 8965,
      "ano": 8966,
      "dk71": 8967,
      "39a": 8968,
      "d9998": 8969,
      "d20191": 8970,
      "d5528": 8971,
      "dd731": 8972,
      "dr1010": 8973,
      "d9239": 8974,
      "dm79651": 8975,
      "de9600": 8976,
      "giline": 8977,
      "selegiline": 8978,
      "dt8142xa": 8979,
      "dk7110": 8980,
      "are": 8981,
      "za": 8982,
      "andr": 8983,
      "d78199": 8984,
      "df840": 8985,
      "d40599": 8986,
      "leve": 8987,
      "d30082": 8988,
      "de089": 8989,
      "de032": 8990,
      "dv1061": 8991,
      "sorafenib": 8992,
      "dc7970": 8993,
      "di774": 8994,
      "d43821": 8995,
      "dq600": 8996,
      "dy92012": 8997,
      "dt486x5a": 8998,
      "balsalazide": 8999,
      "dt82857a": 9000,
      "areds": 9001,
      "androgel": 9002,
      "5600": 9003,
      "izumab": 9004,
      "d2355": 9005,
      "df819": 9006,
      "753": 9007,
      "db353": 9008,
      "dc884": 9009,
      "bictegra": 9010,
      "d7932": 9011,
      "dm5432": 9012,
      "dk91850": 9013,
      "dk91870": 9014,
      "d36315": 9015,
      "enzyme": 9016,
      "bictegrav": 9017,
      "670": 9018,
      "parat": 9019,
      "dr2": 9020,
      "dr52": 9021,
      "d20411": 9022,
      "dz8579": 9023,
      "d0382": 9024,
      "d46400": 9025,
      "dk50013": 9026,
      "di825z": 9027,
      "ds8012xa": 9028,
      "dq871": 9029,
      "de509": 9030,
      "de161": 9031,
      "d78340": 9032,
      "d2700": 9033,
      "d30789": 9034,
      "d04100": 9035,
      "dd594": 9036,
      "d5080": 9037,
      "dm79652": 9038,
      "ds720": 9039,
      "dk50912": 9040,
      "dt391x5a": 9041,
      "lotemax": 9042,
      "dx959xxs": 9043,
      "levemir": 9044,
      "di780": 9045,
      "d525": 9046,
      "29xa": 9047,
      "657": 9048,
      "ds90": 9049,
      "d6970": 9050,
      "di745": 9051,
      "d20021": 9052,
      "dc8528": 9053,
      "d72871": 9054,
      "dz433": 9055,
      "dm96840": 9056,
      "eve": 9057,
      "d62210": 9058,
      "d64803": 9059,
      "dn492": 9060,
      "d3064": 9061,
      "dt179": 9062,
      "d78066": 9063,
      "de9270": 9064,
      "dh05": 9065,
      "d71580": 9066,
      "d53250": 9067,
      "d1706": 9068,
      "dm4316": 9069,
      "everolimus": 9070,
      "dd2": 9071,
      "1089": 9072,
      "do990": 9073,
      "d7109": 9074,
      "dr233": 9075,
      "d6851": 9076,
      "dv5399": 9077,
      "pres": 9078,
      "d28866": 9079,
      "d7011": 9080,
      "dz9862": 9081,
      "dv1203": 9082,
      "di633": 9083,
      "dz90410": 9084,
      "dk9161": 9085,
      "dj328": 9086,
      "dt8643": 9087,
      "d4732": 9088,
      "dl598": 9089,
      "dm868x8": 9090,
      "631": 9091,
      "008": 9092,
      "de211": 9093,
      "d2861": 9094,
      "d2375": 9095,
      "dk2211": 9096,
      "d4570": 9097,
      "ds301": 9098,
      "dk5520": 9099,
      "df068": 9100,
      "d7936": 9101,
      "d6019": 9102,
      "de1039": 9103,
      "dt8383xa": 9104,
      "616": 9105,
      "cole": 9106,
      "d2939": 9107,
      "do0": 9108,
      "d3373": 9109,
      "dn135": 9110,
      "dt503": 9111,
      "de9346": 9112,
      "dc713": 9113,
      "d1760": 9114,
      "dc8522": 9115,
      "de113299": 9116,
      "d7483": 9117,
      "dk50813": 9118,
      "dc8290": 9119,
      "df4001": 9120,
      "d45377": 9121,
      "bactrim": 9122,
      "48a": 9123,
      "huma": 9124,
      "dj9801": 9125,
      "d30523": 9126,
      "de9445": 9127,
      "dg3189": 9128,
      "dv892xxs": 9129,
      "sedated": 9130,
      "ds301xxa": 9131,
      "cape": 9132,
      "100ml": 9133,
      "d2330": 9134,
      "dk508": 9135,
      "dv556": 9136,
      "dd611": 9137,
      "d30491": 9138,
      "dc9232": 9139,
      "d23876": 9140,
      "dv8409": 9141,
      "dg713": 9142,
      "di9751": 9143,
      "capecitabine": 9144,
      "dk50814": 9145,
      "10a": 9146,
      "d4230": 9147,
      "d78071": 9148,
      "d79021": 9149,
      "d5562": 9150,
      "de83110": 9151,
      "d99663": 9152,
      "dk5641": 9153,
      "dt404x5a": 9154,
      "pletal": 9155,
      "dk3580": 9156,
      "d37034": 9157,
      "humalog": 9158,
      "1d": 9159,
      "665": 9160,
      "dz47": 9161,
      "d4959": 9162,
      "d78603": 9163,
      "d20311": 9164,
      "d7018": 9165,
      "dapa": 9166,
      "ds83": 9167,
      "d2967": 9168,
      "d29574": 9169,
      "dk7589": 9170,
      "d4720": 9171,
      "d7580": 9172,
      "3492": 9173,
      "dv1504": 9174,
      "dn823": 9175,
      "d81209": 9176,
      "mb": 9177,
      "de340": 9178,
      "ridex": 9179,
      "cop": 9180,
      "de8846": 9181,
      "peridex": 9182,
      "dj1289": 9183,
      "dm245": 9184,
      "d20201": 9185,
      "dk520": 9186,
      "d3518": 9187,
      "dm7910": 9188,
      "dr635": 9189,
      "ds015": 9190,
      "d43320": 9191,
      "d99799": 9192,
      "dn99820": 9193,
      "dn8320": 9194,
      "dc7b02": 9195,
      "indapa": 9196,
      "de8147": 9197,
      "dj701": 9198,
      "dc227": 9199,
      "d30759": 9200,
      "dt371": 9201,
      "df1099": 9202,
      "d33372": 9203,
      "dz4801": 9204,
      "indapamide": 9205,
      "dk90": 9206,
      "dj390": 9207,
      "dc94": 9208,
      "dc3492": 9209,
      "dm159": 9210,
      "72xa": 9211,
      "655": 9212,
      "6700": 9213,
      "d29623": 9214,
      "dk626": 9215,
      "d20043": 9216,
      "dr4789": 9217,
      "di97190": 9218,
      "d74602": 9219,
      "di69951": 9220,
      "5200": 9221,
      "634": 9222,
      "d130": 9223,
      "rtec": 9224,
      "tive": 9225,
      "dr938": 9226,
      "dn433": 9227,
      "dd125": 9228,
      "de9398": 9229,
      "dh1": 9230,
      "d72973": 9231,
      "d44284": 9232,
      "dl0231": 9233,
      "d71650": 9234,
      "dz1623": 9235,
      "dg9519": 9236,
      "dm720": 9237,
      "dv1507": 9238,
      "zyrtec": 9239,
      "dn2589": 9240,
      "intubated": 9241,
      "anoro": 9242,
      "628": 9243,
      "gen": 9244,
      "di309": 9245,
      "mometa": 9246,
      "d7833": 9247,
      "dc321": 9248,
      "buto": 9249,
      "dk5130": 9250,
      "di7102": 9251,
      "d1723": 9252,
      "d92401": 9253,
      "d72709": 9254,
      "dk51911": 9255,
      "mometasone": 9256,
      "ber": 9257,
      "dz46": 9258,
      "vilan": 9259,
      "pionate": 9260,
      "958": 9261,
      "dm659": 9262,
      "873": 9263,
      "da600": 9264,
      "d49381": 9265,
      "cypionate": 9266,
      "d2693": 9267,
      "dc7902": 9268,
      "dd3a8": 9269,
      "dm79672": 9270,
      "d42652": 9271,
      "dt8172xa": 9272,
      "povi": 9273,
      "d42099": 9274,
      "ds3689": 9275,
      "ds81812a": 9276,
      "zenpep": 9277,
      "vilanterol": 9278,
      "732": 9279,
      "d4409": 9280,
      "d4178": 9281,
      "d7891": 9282,
      "d6146": 9283,
      "dc258": 9284,
      "dc342": 9285,
      "103s": 9286,
      "tou": 9287,
      "d23873": 9288,
      "dr631": 9289,
      "dh5440": 9290,
      "dz91120": 9291,
      "thiouracil": 9292,
      "propylthiouracil": 9293,
      "ds2231xa": 9294,
      "824": 9295,
      "d959": 9296,
      "d414": 9297,
      "proair": 9298,
      "cefto": 9299,
      "dz8241": 9300,
      "lozane": 9301,
      "d80709": 9302,
      "d43490": 9303,
      "povidone": 9304,
      "ceftolozane": 9305,
      "dl890": 9306,
      "only": 9307,
      "do7": 9308,
      "dn64": 9309,
      "dc257": 9310,
      "d2860": 9311,
      "dl026": 9312,
      "dc7901": 9313,
      "januvi": 9314,
      "januvia": 9315,
      "5300": 9316,
      "632": 9317,
      "up": 9318,
      "dc966": 9319,
      "trition": 9320,
      "dz8489": 9321,
      "d33812": 9322,
      "d99665": 9323,
      "dd7389": 9324,
      "d30570": 9325,
      "d53500": 9326,
      "dm25531": 9327,
      "d7945": 9328,
      "dl97514": 9329,
      "dn3010": 9330,
      "d82020": 9331,
      "dn83202": 9332,
      "d52310": 9333,
      "dq613": 9334,
      "nutrition": 9335,
      "dn946": 9336,
      "dz9282": 9337,
      "dk5521": 9338,
      "dh30": 9339,
      "d1512": 9340,
      "dv1001": 9341,
      "d5969": 9342,
      "dz1630": 9343,
      "dk045": 9344,
      "d75317": 9345,
      "riz": 9346,
      "d5951": 9347,
      "d4809": 9348,
      "d656": 9349,
      "dn839": 9350,
      "111xa": 9351,
      "d4289": 9352,
      "dt8111xa": 9353,
      "d1744": 9354,
      "dt363": 9355,
      "dc8580": 9356,
      "de8581": 9357,
      "di9788": 9358,
      "dg9520": 9359,
      "dk50113": 9360,
      "de9689": 9361,
      "d29389": 9362,
      "661": 9363,
      "725": 9364,
      "dl249": 9365,
[...]
